{
  "version": "1.0",
  "truncation": null,
  "padding": null,
  "added_tokens": [
    {
      "id": 0,
      "content": "<pad>",
      "single_word": false,
      "lstrip": false,
      "rstrip": false,
      "normalized": false,
      "special": true
    },
    {
      "id": 1,
      "content": "<eos>",
      "single_word": false,
      "lstrip": false,
      "rstrip": false,
      "normalized": false,
      "special": true
    },
    {
      "id": 2,
      "content": "<unk>",
      "single_word": false,
      "lstrip": false,
      "rstrip": false,
      "normalized": false,
      "special": true
    }
  ],
  "normalizer": null,
  "pre_tokenizer": {
    "type": "ByteLevel",
    "add_prefix_space": false,
    "trim_offsets": true,
    "use_regex": true
  },
  "post_processor": {
    "type": "ByteLevel",
    "add_prefix_space": true,
    "trim_offsets": false,
    "use_regex": true
  },
  "decoder": {
    "type": "ByteLevel",
    "add_prefix_space": true,
    "trim_offsets": true,
    "use_regex": true
  },
  "model": {
    "type": "BPE",
    "dropout": null,
    "unk_token": "<unk>",
    "continuing_subword_prefix": null,
    "end_of_word_suffix": null,
    "fuse_unk": false,
    "byte_fallback": false,
    "ignore_merges": false,
    "vocab": {
      "<pad>": 0,
      "<eos>": 1,
      "<unk>": 2,
      "!": 3,
      "\"": 4,
      "#": 5,
      "$": 6,
      "%": 7,
      "&": 8,
      "'": 9,
      "(": 10,
      ")": 11,
      "*": 12,
      "+": 13,
      ",": 14,
      "-": 15,
      ".": 16,
      "/": 17,
      "0": 18,
      "1": 19,
      "2": 20,
      "3": 21,
      "4": 22,
      "5": 23,
      "6": 24,
      "7": 25,
      "8": 26,
      "9": 27,
      ":": 28,
      ";": 29,
      "<": 30,
      "=": 31,
      ">": 32,
      "?": 33,
      "@": 34,
      "A": 35,
      "B": 36,
      "C": 37,
      "D": 38,
      "E": 39,
      "F": 40,
      "G": 41,
      "H": 42,
      "I": 43,
      "J": 44,
      "K": 45,
      "L": 46,
      "M": 47,
      "N": 48,
      "O": 49,
      "P": 50,
      "Q": 51,
      "R": 52,
      "S": 53,
      "T": 54,
      "U": 55,
      "V": 56,
      "W": 57,
      "X": 58,
      "Y": 59,
      "Z": 60,
      "[": 61,
      "\\": 62,
      "]": 63,
      "^": 64,
      "_": 65,
      "`": 66,
      "a": 67,
      "b": 68,
      "c": 69,
      "d": 70,
      "e": 71,
      "f": 72,
      "g": 73,
      "h": 74,
      "i": 75,
      "j": 76,
      "k": 77,
      "l": 78,
      "m": 79,
      "n": 80,
      "o": 81,
      "p": 82,
      "q": 83,
      "r": 84,
      "s": 85,
      "t": 86,
      "u": 87,
      "v": 88,
      "w": 89,
      "x": 90,
      "y": 91,
      "z": 92,
      "{": 93,
      "|": 94,
      "}": 95,
      "~": 96,
      "¡": 97,
      "¢": 98,
      "£": 99,
      "¤": 100,
      "¥": 101,
      "¦": 102,
      "§": 103,
      "¨": 104,
      "©": 105,
      "ª": 106,
      "«": 107,
      "¬": 108,
      "®": 109,
      "¯": 110,
      "°": 111,
      "±": 112,
      "²": 113,
      "³": 114,
      "´": 115,
      "µ": 116,
      "¶": 117,
      "·": 118,
      "¸": 119,
      "¹": 120,
      "º": 121,
      "»": 122,
      "¼": 123,
      "½": 124,
      "¾": 125,
      "¿": 126,
      "Â": 127,
      "Ã": 128,
      "Ä": 129,
      "Å": 130,
      "Æ": 131,
      "Ç": 132,
      "Ë": 133,
      "Ì": 134,
      "Î": 135,
      "Ï": 136,
      "Ð": 137,
      "Ñ": 138,
      "â": 139,
      "ã": 140,
      "ï": 141,
      "Ċ": 142,
      "Ġ": 143,
      "Ģ": 144,
      "ģ": 145,
      "Ĥ": 146,
      "ĥ": 147,
      "Ħ": 148,
      "ħ": 149,
      "Ĩ": 150,
      "ĩ": 151,
      "Ī": 152,
      "ī": 153,
      "Ĭ": 154,
      "ĭ": 155,
      "Į": 156,
      "į": 157,
      "İ": 158,
      "ı": 159,
      "Ĳ": 160,
      "ĳ": 161,
      "Ĵ": 162,
      "ĵ": 163,
      "Ķ": 164,
      "ķ": 165,
      "ĸ": 166,
      "Ĺ": 167,
      "ĺ": 168,
      "Ļ": 169,
      "ļ": 170,
      "Ľ": 171,
      "ľ": 172,
      "Ŀ": 173,
      "ŀ": 174,
      "Ł": 175,
      "ł": 176,
      "Ń": 177,
      "Ġt": 178,
      "at": 179,
      "Ġa": 180,
      "in": 181,
      "it": 182,
      "er": 183,
      "on": 184,
      "Ġs": 185,
      "es": 186,
      "Ġc": 187,
      "Ġth": 188,
      "or": 189,
      "an": 190,
      "re": 191,
      "en": 192,
      "al": 193,
      "Ġthe": 194,
      "is": 195,
      "ion": 196,
      "le": 197,
      "qu": 198,
      "Ġo": 199,
      "as": 200,
      "Ġm": 201,
      "Ġd": 202,
      "ing": 203,
      "Ġp": 204,
      "mp": 205,
      "Ġf": 206,
      "Ġb": 207,
      "Ġw": 208,
      "ro": 209,
      "ct": 210,
      "ic": 211,
      "ation": 212,
      "Ġan": 213,
      "ĠĠ": 214,
      "Ġin": 215,
      "Ġqu": 216,
      "ut": 217,
      "Ġe": 218,
      "bit": 219,
      "ly": 220,
      "Ġco": 221,
      "Ġof": 222,
      "im": 223,
      "ent": 224,
      "ul": 225,
      "ate": 226,
      "Ġg": 227,
      "ce": 228,
      "Ġre": 229,
      "Ġand": 230,
      "Ġto": 231,
      "Ġst": 232,
      "ar": 233,
      "Ġ(": 234,
      "ed": 235,
      "Ġis": 236,
      "ow": 237,
      "Ġex": 238,
      "um": 239,
      "ĠI": 240,
      "Ġ$": 241,
      "Ġn": 242,
      "Ġh": 243,
      "ant": 244,
      "ang": 245,
      "Ġqubit": 246,
      "Ġfor": 247,
      "ith": 248,
      "ra": 249,
      "ve": 250,
      "ou": 251,
      "st": 252,
      "Ġcomp": 253,
      "ot": 254,
      "lit": 255,
      "et": 256,
      "ates": 257,
      "ig": 258,
      "Ġ\\": 259,
      "Ġ2": 260,
      "us": 261,
      "ical": 262,
      "ir": 263,
      "Ġexp": 264,
      "om": 265,
      "antum": 266,
      "Ġwith": 267,
      "Ġon": 268,
      "Ġcan": 269,
      "angle": 270,
      "Ġpro": 271,
      "Ġbe": 272,
      "Ġde": 273,
      "Ġcon": 274,
      "ure": 275,
      "de": 276,
      "Ġme": 277,
      "Ġl": 278,
      "ch": 279,
      "il": 280,
      "ase": 281,
      "Ġwh": 282,
      "imp": 283,
      "if": 284,
      "ĠĠĠĠ": 285,
      "Ġare": 286,
      "Ġqubits": 287,
      "Ġthat": 288,
      "ect": 289,
      "un": 290,
      "ain": 291,
      "ver": 292,
      "ment": 293,
      "âĢ": 294,
      "orm": 295,
      "her": 296,
      "ĠIn": 297,
      "ab": 298,
      "rangle": 299,
      "ter": 300,
      "Ġbas": 301,
      "Ġ1": 302,
      "Ġquantum": 303,
      "uit": 304,
      "Ġdo": 305,
      "Ġsp": 306,
      "litu": 307,
      "mplitu": 308,
      "per": 309,
      "Ġstate": 310,
      "he": 311,
      "Ġman": 312,
      "fer": 313,
      "you": 314,
      "ri": 315,
      "Ġit": 316,
      "Ġmeas": 317,
      "ial": 318,
      "Ġcomput": 319,
      "Ġr": 320,
      "pt": 321,
      "des": 322,
      "Ġmany": 323,
      "ol": 324,
      "ity": 325,
      "ĠS": 326,
      "Ġbasis": 327,
      "ĠH": 328,
      "Ġma": 329,
      "Ġmeasure": 330,
      "Ġas": 331,
      "ror": 332,
      "Ġsim": 333,
      "irc": 334,
      "form": 335,
      "Ġstates": 336,
      "Ġamplitu": 337,
      "Ġal": 338,
      "Ġyou": 339,
      "error": 340,
      "qubit": 341,
      "ircuit": 342,
      "Ġdoes": 343,
      "Ġsimul": 344,
      "Ġerror": 345,
      "ad": 346,
      "ms": 347,
      "Ġamplitudes": 348,
      "ive": 349,
      "Ġus": 350,
      "ence": 351,
      "igh": 352,
      "os": 353,
      "Ġ=": 354,
      "cal": 355,
      "Ġ0": 356,
      "In": 357,
      "Ġmeasurement": 358,
      "rom": 359,
      "ck": 360,
      "iv": 361,
      "iz": 362,
      "Ġhow": 363,
      "est": 364,
      "Ġthis": 365,
      "ult": 366,
      "du": 367,
      "ass": 368,
      "Ġcl": 369,
      "ĠT": 370,
      "Ġch": 371,
      "Ġph": 372,
      "Ġexpl": 373,
      "Ġsh": 374,
      "âĶ": 375,
      "ator": 376,
      "ace": 377,
      "Ġsimp": 378,
      "end": 379,
      "ations": 380,
      "Ġnot": 381,
      "ere": 382,
      "âĢĻ": 383,
      "Ġsu": 384,
      "Ġclass": 385,
      "Ġcomple": 386,
      "ition": 387,
      "Ġro": 388,
      "em": 389,
      "Ġcircuit": 390,
      "am": 391,
      "com": 392,
      "ener": 393,
      "ag": 394,
      "ract": 395,
      "Ġimp": 396,
      "Ġcomplex": 397,
      "Ġclassical": 398,
      "Ġout": 399,
      "Ġfrom": 400,
      "Ġ|": 401,
      "pp": 402,
      "ies": 403,
      "Ġv": 404,
      "ber": 405,
      "Ġprob": 406,
      "si": 407,
      "Ġoper": 408,
      "Ġter": 409,
      "ction": 410,
      "Be": 411,
      "Ġ3": 412,
      "ist": 413,
      "ally": 414,
      "are": 415,
      "int": 416,
      "Ġgener": 417,
      "Ġ$\\": 418,
      ").": 419,
      "Ġmay": 420,
      "Ġor": 421,
      "Ġspace": 422,
      "str": 423,
      "ise": 424,
      "Ġterms": 425,
      "mat": 426,
      "iffer": 427,
      "Ġphase": 428,
      "ex": 429,
      "Ġgate": 430,
      "âĶĢ": 431,
      "Ġgro": 432,
      "ight": 433,
      "use": 434,
      "Wh": 435,
      "ential": 436,
      "act": 437,
      "res": 438,
      "ph": 439,
      "ens": 440,
      "ĠC": 441,
      "Ġwe": 442,
      "_{": 443,
      "Ġtw": 444,
      "Ġrequ": 445,
      "$$": 446,
      "Ġinter": 447,
      "Ġcont": 448,
      "gin": 449,
      "Ġtwo": 450,
      "Ġsimple": 451,
      "ire": 452,
      "Ġexpon": 453,
      "ings": 454,
      "Ġexponential": 455,
      "con": 456,
      "ide": 457,
      "ractical": 458,
      "Ġscal": 459,
      "Ġad": 460,
      "Ġexplain": 461,
      "lo": 462,
      "Ġsimulation": 463,
      "Ġgates": 464,
      "Ġgrow": 465,
      "ĠP": 466,
      "ivity": 467,
      "nect": 468,
      "Ġwhat": 469,
      "Ġso": 470,
      "ĠR": 471,
      "lity": 472,
      "Ġcom": 473,
      "Ġun": 474,
      "ces": 475,
      "lease": 476,
      "Ġconnect": 477,
      "ten": 478,
      "Ġ&": 479,
      "formation": 480,
      "Ġdiffer": 481,
      "ĠĠĠ": 482,
      "âĶĢâĶĢ": 483,
      "Ġconnectivity": 484,
      "here": 485,
      "Ġredu": 486,
      "low": 487,
      "Ġj": 488,
      "ach": 489,
      "Qu": 490,
      "ran": 491,
      "Ġbut": 492,
      "pth": 493,
      "up": 494,
      "be": 495,
      "Ġinformation": 496,
      "Ġdepth": 497,
      "Ġby": 498,
      "ually": 499,
      "ke": 500,
      "ĠA": 501,
      "Ġint": 502,
      "Ġchang": 503,
      "imes": 504,
      "Ġthere": 505,
      "ca": 506,
      "ices": 507,
      "ur": 508,
      "ĠD": 509,
      "ĠĠĠĠĠĠĠĠ": 510,
      "Ġoften": 511,
      "les": 512,
      "ard": 513,
      "Ġcor": 514,
      "co": 515,
      "ime": 516,
      "Ġtra": 517,
      "Ġcomputing": 518,
      "``": 519,
      "ort": 520,
      "Ġno": 521,
      "Ġse": 522,
      "Ġset": 523,
      "Ġover": 524,
      "Ġres": 525,
      "00": 526,
      "Quantum": 527,
      "ĠN": 528,
      "uting": 529,
      "Ġext": 530,
      "abi": 531,
      "ots": 532,
      "{\\": 533,
      "rix": 534,
      "ho": 535,
      "ice": 536,
      "Ġen": 537,
      "cause": 538,
      "AP": 539,
      "Ġdes": 540,
      "ave": 541,
      "se": 542,
      "Ġadd": 543,
      "WAP": 544,
      "ĠF": 545,
      "Ġchange": 546,
      "âŁ": 547,
      "Ex": 548,
      "Ġpar": 549,
      "Ġreal": 550,
      "ference": 551,
      "out": 552,
      "Ġpractical": 553,
      "ators": 554,
      "ĠB": 555,
      "Ġmat": 556,
      "Ġdifferent": 557,
      "ext": 558,
      "li": 559,
      "and": 560,
      "Ġac": 561,
      "Ġeach": 562,
      "Ġle": 563,
      "come": 564,
      "der": 565,
      "rac": 566,
      "Ġfre": 567,
      "âŁ©": 568,
      "Ġprobabi": 569,
      "Ġpo": 570,
      "ĠSWAP": 571,
      "Ġwor": 572,
      "Ġinterference": 573,
      "Ġrouting": 574,
      "ay": 575,
      "ff": 576,
      "ĠO": 577,
      "cri": 578,
      "Ġcomputation": 579,
      "th": 580,
      "$.": 581,
      "frac": 582,
      "ine": 583,
      "}\\": 584,
      "Ġful": 585,
      "og": 586,
      "Ġdescri": 587,
      "Ġall": 588,
      "uld": 589,
      "Ġapp": 590,
      "ib": 591,
      "Ġsy": 592,
      "Ġhave": 593,
      "ance": 594,
      "ich": 595,
      "Ġif": 596,
      "math": 597,
      "ents": 598,
      "Ġwork": 599,
      "ization": 600,
      "ore": 601,
      "Ġfa": 602,
      "el": 603,
      "âĢĶ": 604,
      "ension": 605,
      "Ġshots": 606,
      "Ġextra": 607,
      "What": 608,
      "herence": 609,
      "ill": 610,
      "ration": 611,
      "eed": 612,
      "hi": 613,
      "|\\": 614,
      "alu": 615,
      "Ġcal": 616,
      "ary": 617,
      "imension": 618,
      "idelity": 619,
      "Ġmain": 620,
      "Ġdev": 621,
      "gor": 622,
      "Ġab": 623,
      "aul": 624,
      "gorith": 625,
      "ĊĠĠĠ": 626,
      "ory": 627,
      "Ġgeneral": 628,
      "estim": 629,
      "osition": 630,
      "Ġup": 631,
      "ably": 632,
      "Ġfault": 633,
      "auli": 634,
      "Ġjo": 635,
      "Ġhigh": 636,
      "Ġresult": 637,
      "vel": 638,
      "$,": 639,
      "Ġ+": 640,
      "imit": 641,
      "psi": 642,
      "'s": 643,
      "Ġdimension": 644,
      "wer": 645,
      "Ġcomputational": 646,
      "Ġestim": 647,
      "Ġfidelity": 648,
      "pl": 649,
      "ĠThe": 650,
      "Ġwhich": 651,
      "Ġscaling": 652,
      "bert": 653,
      "Ġans": 654,
      "Ġnoise": 655,
      "amp": 656,
      "time": 657,
      "cess": 658,
      "ilbert": 659,
      "Ġthey": 660,
      "itional": 661,
      "ĠHilbert": 662,
      "Ġper": 663,
      "ĠHow": 664,
      "(\\": 665,
      "^{": 666,
      "Ġpl": 667,
      "Ġread": 668,
      "ires": 669,
      "erant": 670,
      "tol": 671,
      "Ġoperations": 672,
      "Ġpure": 673,
      "Ġsyst": 674,
      "tolerant": 675,
      "id": 676,
      "Ġrequire": 677,
      "head": 678,
      "Ġalgorith": 679,
      "oub": 680,
      "Ġonly": 681,
      "rans": 682,
      "ĠW": 683,
      "Ġadditional": 684,
      "ĠOn": 685,
      "Ġdoub": 686,
      "Ġoverhead": 687,
      "Because": 688,
      "langle": 689,
      "Ġexponentially": 690,
      "Ġexper": 691,
      "Ġjoint": 692,
      "--": 693,
      "estion": 694,
      "Ġlimit": 695,
      "rho": 696,
      "Ġrot": 697,
      "fter": 698,
      "Ġrequires": 699,
      "Ġnorm": 700,
      "rol": 701,
      "Ġsuper": 702,
      "lob": 703,
      "Ġcoun": 704,
      "otimes": 705,
      "Ġsom": 706,
      "Ġdoubles": 707,
      "our": 708,
      "Please": 709,
      "comes": 710,
      "ould": 711,
      "lobal": 712,
      "There": 713,
      "Ġexperim": 714,
      "Ġcorre": 715,
      "Ġanswer": 716,
      "utor": 717,
      "Ġquestion": 718,
      "Ġusually": 719,
      "11": 720,
      "Ġcount": 721,
      "Ġmem": 722,
      "Ġsett": 723,
      "Ġbecome": 724,
      "Ġinc": 725,
      "lows": 726,
      "able": 727,
      "cing": 728,
      "Ġglobal": 729,
      "Ġmemory": 730,
      "ware": 731,
      "lities": 732,
      "Ġafter": 733,
      "eta": 734,
      "ĠZ": 735,
      "Ġq": 736,
      "with": 737,
      "Exact": 738,
      "Ġ-": 739,
      "Ġshow": 740,
      "cking": 741,
      "Ġk": 742,
      "ated": 743,
      "utorial": 744,
      "Ġimply": 745,
      "gre": 746,
      "Ġnormal": 747,
      "stru": 748,
      "Ġat": 749,
      "Ġdescribe": 750,
      "ctor": 751,
      "Ġgrows": 752,
      "Ġtutorial": 753,
      "lement": 754,
      "hibit": 755,
      "position": 756,
      "Ġtracking": 757,
      "qr": 758,
      "Ġprohibit": 759,
      "Ġsettings": 760,
      "Ġprohibitive": 761,
      "Ġact": 762,
      "ful": 763,
      "bs": 764,
      "strings": 765,
      "Ġsimulators": 766,
      "The": 767,
      "ĠM": 768,
      "Ġexperiments": 769,
      "ther": 770,
      "Ġcoherence": 771,
      "How": 772,
      "Ġsystem": 773,
      "Ġdegre": 774,
      "state": 775,
      "bitstrings": 776,
      "Ġsuperposition": 777,
      "eg": 778,
      "IS": 779,
      "Ġtutorials": 780,
      "light": 781,
      "Ġdevices": 782,
      "isk": 783,
      "ma": 784,
      "age": 785,
      "edom": 786,
      "ft": 787,
      "Ġfreedom": 788,
      "Ġcontrol": 789,
      "Ġprobabilities": 790,
      "Ġproble": 791,
      "iskit": 792,
      "Ġreducing": 793,
      "ISQ": 794,
      "Ġdegrees": 795,
      "ĠNISQ": 796,
      "Ġent": 797,
      "Ġcontext": 798,
      "Ġslight": 799,
      "Ġhard": 800,
      "Ġslightly": 801,
      "),": 802,
      "}{": 803,
      "ps": 804,
      "Ġreduce": 805,
      "Ġone": 806,
      "Ġgeneric": 807,
      "Ġnormalization": 808,
      "vector": 809,
      "}$": 810,
      "Ġuse": 811,
      "Ġtrans": 812,
      "ble": 813,
      "qrt": 814,
      "ner": 815,
      "Ġopt": 816,
      "Ġdist": 817,
      "Ġplease": 818,
      "ack": 819,
      "Ġche": 820,
      "sqrt": 821,
      "Ġrel": 822,
      "Ġrep": 823,
      "Ġeff": 824,
      "Ġthen": 825,
      "matrix": 826,
      "cise": 827,
      "```": 828,
      "ibration": 829,
      "ĠTh": 830,
      "Ġsome": 831,
      "Ġlimited": 832,
      "lif": 833,
      "Ġworkf": 834,
      "Ġcalibration": 835,
      "Ġdire": 836,
      "eter": 837,
      "Ġworkflows": 838,
      "Ġcheck": 839,
      "Ġhardware": 840,
      "vi": 841,
      "Ġexplan": 842,
      "ĠSWAPs": 843,
      "ĠQ": 844,
      "ix": 845,
      "uitive": 846,
      "Ġexplanation": 847,
      "oo": 848,
      "ics": 849,
      "ution": 850,
      "ike": 851,
      "cept": 852,
      "ame": 853,
      "ĠX": 854,
      "Ġoutcomes": 855,
      "Ġbi": 856,
      "Ġother": 857,
      "tain": 858,
      "mplitude": 859,
      "arg": 860,
      "Ġestimate": 861,
      "Ġlike": 862,
      "Why": 863,
      "Ġfull": 864,
      "Ġcompil": 865,
      "right": 866,
      "Ġcode": 867,
      "ile": 868,
      "Ġ\"": 869,
      "Ġany": 870,
      "ĠY": 871,
      "Ġperform": 872,
      "Ġdirect": 873,
      "ite": 874,
      "sum": 875,
      "Ġprodu": 876,
      "Ġ$|": 877,
      "Ġwhy": 878,
      "now": 879,
      "ust": 880,
      "Ġbit": 881,
      "Ġconf": 882,
      "Ġbias": 883,
      "Ġ`": 884,
      "struction": 885,
      "put": 886,
      "Ġresults": 887,
      "ource": 888,
      "Ġrun": 889,
      "sh": 890,
      "Ġabout": 891,
      "ĠBe": 892,
      "ose": 893,
      "Ġcho": 894,
      "ding": 895,
      "Ġpos": 896,
      "Ġvalu": 897,
      "ism": 898,
      "eer": 899,
      "Ġacc": 900,
      "Ġlog": 901,
      "sible": 902,
      "gh": 903,
      "gineer": 904,
      "Ġbet": 905,
      "Ġusing": 906,
      "itig": 907,
      "Ġengineer": 908,
      "Ġactually": 909,
      "Con": 910,
      "ginner": 911,
      "Ġeig": 912,
      "Ġproblem": 913,
      "ĠQuantum": 914,
      "itigation": 915,
      "alle": 916,
      "Ġdirectly": 917,
      "ign": 918,
      "âĶĢâĶĢâĶĢâĶĢ": 919,
      "ample": 920,
      "Ġmatrix": 921,
      "Ġnum": 922,
      "Ġdoesn": 923,
      "Ġwould": 924,
      "Ġwill": 925,
      "ize": 926,
      "left": 927,
      "Ġprot": 928,
      "Ġknow": 929,
      "we": 930,
      "Ġalgorithm": 931,
      "plain": 932,
      "Ġimplement": 933,
      "allel": 934,
      "10": 935,
      "Ġcome": 936,
      "Ġlevel": 937,
      "Ġbases": 938,
      "ĠL": 939,
      "Ġparallel": 940,
      "Ġunit": 941,
      "so": 942,
      "'t": 943,
      "amplitude": 944,
      "Ġsource": 945,
      "Ġcare": 946,
      "Ġengineering": 947,
      "Ġmix": 948,
      "Ġlat": 949,
      "Ġmo": 950,
      "ers": 951,
      "Ġrecon": 952,
      "ches": 953,
      "arse": 954,
      "Ġ\\\\": 955,
      "ec": 956,
      "Ġeigen": 957,
      "Ġscales": 958,
      "Ġmitigation": 959,
      "Ġeffect": 960,
      "Ġsimply": 961,
      "Ġaccess": 962,
      "ds": 963,
      "ĠWhat": 964,
      "atch": 965,
      "ĠIt": 966,
      "âĪ": 967,
      "pend": 968,
      "Â²": 969,
      "Ġneed": 970,
      "Ġver": 971,
      "Î¸": 972,
      "Ġpoor": 973,
      "Ġpoorly": 974,
      "Ġinto": 975,
      "erv": 976,
      "Ġcareful": 977,
      "ember": 978,
      "Ġ4": 979,
      "Ġdom": 980,
      "Ġbran": 981,
      "Ġwhen": 982,
      "Ġtend": 983,
      "ĠE": 984,
      "Ġparallelism": 985,
      "Ġsparse": 986,
      "pon": 987,
      "ingle": 988,
      "ĠDon": 989,
      "Ġbranches": 990,
      "ĠG": 991,
      "atform": 992,
      "for": 993,
      "Ġconfuse": 994,
      "begin": 995,
      "Ġnumber": 996,
      "Ġdomin": 997,
      "ality": 998,
      "ative": 999,
      "emember": 1000,
      "Ġreconstruction": 1001,
      "short": 1002,
      "ĠRemember": 1003,
      "ry": 1004,
      "..": 1005,
      "ian": 1006,
      "Ġsingle": 1007,
      "oun": 1008,
      "one": 1009,
      "At": 1010,
      "Ġplatform": 1011,
      "intuitive": 1012,
      "ween": 1013,
      "pect": 1014,
      "Ġprotect": 1015,
      "ĠâĢĶ": 1016,
      "Ġunder": 1017,
      "Ġdominate": 1018,
      "ĠWatch": 1019,
      "Ġget": 1020,
      "umul": 1021,
      "Ġbetween": 1022,
      "Ġaccumul": 1023,
      "Ġcircuits": 1024,
      "respon": 1025,
      "Ġfully": 1026,
      "ll": 1027,
      "}}": 1028,
      "Ġexample": 1029,
      "Ġused": 1030,
      "Ġ[": 1031,
      "Ġar": 1032,
      "Ġcorrespon": 1033,
      "Ġstat": 1034,
      "Ġlater": 1035,
      "phase": 1036,
      "ĠU": 1037,
      "ĠFA": 1038,
      "Ġplatforms": 1039,
      "vert": 1040,
      "Ġthan": 1041,
      "Ġlogical": 1042,
      "Ġreli": 1043,
      "ĠFAQ": 1044,
      "=\\": 1045,
      "Beginner": 1046,
      "Ġspeed": 1047,
      "Concept": 1048,
      "quen": 1049,
      "Ġoperator": 1050,
      "explain": 1051,
      "all": 1052,
      ")$": 1053,
      ".,": 1054,
      "Pauli": 1055,
      "phi": 1056,
      "concise": 1057,
      "abil": 1058,
      "comp": 1059,
      "practical": 1060,
      "ĠIf": 1061,
      "Ġstatist": 1062,
      "ĊĠĠĠĠ": 1063,
      "Ġfin": 1064,
      "Ġreliably": 1065,
      "Ġdef": 1066,
      "Ġnotice": 1067,
      "Ġforce": 1068,
      "Ġsee": 1069,
      "theta": 1070,
      "Ġunitary": 1071,
      "Ġchoices": 1072,
      "Ġcomplexity": 1073,
      "Ġcompiler": 1074,
      "Ġhas": 1075,
      "Ġcomm": 1076,
      "Ġprobability": 1077,
      "ases": 1078,
      "Ġpre": 1079,
      "Ġwhere": 1080,
      "Ġmore": 1081,
      "Ġinst": 1082,
      "Ġinteg": 1083,
      "ĠPauli": 1084,
      "Ġev": 1085,
      "Ġdepend": 1086,
      "Ġincre": 1087,
      "Ġeffects": 1088,
      "Ġsuch": 1089,
      "Ġnoticeably": 1090,
      "ĠRe": 1091,
      "Ġcorrect": 1092,
      "Ġstatistics": 1093,
      "eterm": 1094,
      "Ġequ": 1095,
      "irst": 1096,
      "Ġpossible": 1097,
      "mathcal": 1098,
      "Ġaccumulates": 1099,
      "ys": 1100,
      "âĪĴ": 1101,
      "quenc": 1102,
      "Ġ'": 1103,
      "ink": 1104,
      "Th": 1105,
      "ling": 1106,
      "Ġtimes": 1107,
      "Ġvector": 1108,
      "led": 1109,
      "ger": 1110,
      "Ġfrequenc": 1111,
      "OT": 1112,
      "Ġgiv": 1113,
      "Ġrotations": 1114,
      "circuit": 1115,
      "da": 1116,
      "Ġi": 1117,
      "Ġdeterm": 1118,
      "pi": 1119,
      "Ġsame": 1120,
      "avi": 1121,
      "Ġfol": 1122,
      "igma": 1123,
      "ions": 1124,
      "Ġenco": 1125,
      "Ġtransp": 1126,
      "Ġyour": 1127,
      "Ġbot": 1128,
      "Ġoff": 1129,
      "Ġbecause": 1130,
      "Ġway": 1131,
      "Ġapply": 1132,
      "bserv": 1133,
      "ese": 1134,
      "par": 1135,
      "ook": 1136,
      "}{\\": 1137,
      "Ġimport": 1138,
      "Ġrepres": 1139,
      "Ġpart": 1140,
      "01": 1141,
      "Ġperformance": 1142,
      "sigma": 1143,
      "level": 1144,
      "Ġfrequencies": 1145,
      "Ġtime": 1146,
      "valu": 1147,
      "Ġentangle": 1148,
      "()": 1149,
      "ically": 1150,
      "],": 1151,
      "12": 1152,
      "Ġ5": 1153,
      "Ġmeasurements": 1154,
      "Ġam": 1155,
      "ip": 1156,
      "ong": 1157,
      "Ġaction": 1158,
      "\\\\": 1159,
      "Ġoutcome": 1160,
      "Ġfun": 1161,
      "ĠFor": 1162,
      "dag": 1163,
      "loch": 1164,
      "Ġide": 1165,
      "NOT": 1166,
      "fore": 1167,
      "Ġjust": 1168,
      "ĠĠĠĠĠĠĠĠĠĠĠĠĠĠĠĠ": 1169,
      "Ġoptical": 1170,
      "Ġerrors": 1171,
      "Ġfirst": 1172,
      "Ġsol": 1173,
      "iring": 1174,
      "ep": 1175,
      "Ġnon": 1176,
      "Ġmean": 1177,
      "pmatrix": 1178,
      "aging": 1179,
      "Ġoperators": 1180,
      "ari": 1181,
      "Ġqiskit": 1182,
      "^\\": 1183,
      "pha": 1184,
      "ject": 1185,
      "ĠThis": 1186,
      "dagger": 1187,
      "taining": 1188,
      "Ġtrade": 1189,
      "Ġstabil": 1190,
      "bin": 1191,
      "ac": 1192,
      "rib": 1193,
      "Ġobserv": 1194,
      "Ġquality": 1195,
      "Ġalso": 1196,
      "Ġpa": 1197,
      "ĠBloch": 1198,
      "alpha": 1199,
      "Ġvi": 1200,
      "----": 1201,
      "Ġintegration": 1202,
      "vant": 1203,
      "rm": 1204,
      "ating": 1205,
      "Ġcase": 1206,
      "Ġfact": 1207,
      "ue": 1208,
      "ifferent": 1209,
      "ient": 1210,
      "Ġstr": 1211,
      "Ġcorrection": 1212,
      "ever": 1213,
      "text": 1214,
      "ĠScal": 1215,
      "Ġmaintaining": 1216,
      "Ġalgorithms": 1217,
      "Ġmanaging": 1218,
      "wiring": 1219,
      "ĠScaling": 1220,
      "ĠDifferent": 1221,
      "ĠReal": 1222,
      "ess": 1223,
      "Ġappro": 1224,
      "mathb": 1225,
      ")\\": 1226,
      "ilar": 1227,
      "__": 1228,
      "amb": 1229,
      "izer": 1230,
      "ilt": 1231,
      "Ġwr": 1232,
      "to": 1233,
      "Ġsimulator": 1234,
      "ugh": 1235,
      "Ġthink": 1236,
      "me": 1237,
      "andom": 1238,
      "âķ": 1239,
      "raph": 1240,
      "ambda": 1241,
      "ï¬": 1242,
      "Ġ$|\\": 1243,
      "Ġwhile": 1244,
      "Ġvs": 1245,
      "ĠYou": 1246,
      "te": 1247,
      "Ġthese": 1248,
      "ford": 1249,
      "ap": 1250,
      "adam": 1251,
      "Ġrepresent": 1252,
      "adamard": 1253,
      "ister": 1254,
      "orre": 1255,
      "Ġx": 1256,
      "Ġvalues": 1257,
      "Ġmatter": 1258,
      "arge": 1259,
      "Ġwant": 1260,
      "del": 1261,
      "Ġdepends": 1262,
      "Ġsphere": 1263,
      "Ġmis": 1264,
      "Ġfunction": 1265,
      "Ġne": 1266,
      "lifford": 1267,
      "Ġcombin": 1268,
      "Ġ6": 1269,
      "+\\": 1270,
      "vers": 1271,
      "ific": 1272,
      "Ġproduce": 1273,
      "Ġfollow": 1274,
      "Ġincrease": 1275,
      "from": 1276,
      "Ġform": 1277,
      "Ġadvant": 1278,
      "ded": 1279,
      "Ġits": 1280,
      "bas": 1281,
      "ann": 1282,
      "Ġrotation": 1283,
      "Ġmy": 1284,
      "Ġ{": 1285,
      "Ġtheir": 1286,
      "amilt": 1287,
      "ata": 1288,
      "amilton": 1289,
      "Ġoutput": 1290,
      "amiltonian": 1291,
      "Ġoptim": 1292,
      "ast": 1293,
      "ĠWhy": 1294,
      "ized": 1295,
      "ous": 1296,
      "ĠCh": 1297,
      "ackend": 1298,
      "Ġhe": 1299,
      "ï¬ģ": 1300,
      "Ġeigenvalu": 1301,
      "rough": 1302,
      "Ġdefin": 1303,
      "qc": 1304,
      "Ġvalue": 1305,
      "Ġvia": 1306,
      "ĊĠĠĠĠĠĠĠ": 1307,
      "Ġrelies": 1308,
      "Ġrandom": 1309,
      "lu": 1310,
      "Ġproduct": 1311,
      "ob": 1312,
      "^{\\": 1313,
      "}(": 1314,
      "stand": 1315,
      "pping": 1316,
      "Ġ7": 1317,
      "xim": 1318,
      "ĠV": 1319,
      "Ġy": 1320,
      "Ġ9": 1321,
      "Ġamp": 1322,
      "ĠEx": 1323,
      "Ġadvantage": 1324,
      "):": 1325,
      "Ġ10": 1326,
      "Ġdistrib": 1327,
      "not": 1328,
      "Ġlow": 1329,
      "Ġthrough": 1330,
      "ilation": 1331,
      "orrect": 1332,
      "Ġ8": 1333,
      "Ġ18": 1334,
      "ough": 1335,
      "lambda": 1336,
      "arch": 1337,
      "Ġamplif": 1338,
      "Ġcomputer": 1339,
      "Circuit": 1340,
      "und": 1341,
      "basis": 1342,
      "pro": 1343,
      "ak": 1344,
      "Ġke": 1345,
      "ost": 1346,
      "Ġreg": 1347,
      "cond": 1348,
      "coherence": 1349,
      "Ġmult": 1350,
      "Ġgiven": 1351,
      "}_": 1352,
      "nd": 1353,
      "ĠHamiltonian": 1354,
      "])": 1355,
      "Ġbeh": 1356,
      "ied": 1357,
      "Ġline": 1358,
      "Ġspec": 1359,
      "bmatrix": 1360,
      "Ġdistribution": 1361,
      "-\\": 1362,
      "Ġdifference": 1363,
      "Ġmet": 1364,
      "uring": 1365,
      "ather": 1366,
      "ĠAl": 1367,
      "Ġbefore": 1368,
      "ĊĠ": 1369,
      "yp": 1370,
      "Ġwas": 1371,
      "âĢł": 1372,
      "equ": 1373,
      "',": 1374,
      "mathbb": 1375,
      "Ġcre": 1376,
      "20": 1377,
      "Ġfollowing": 1378,
      "Ġshould": 1379,
      "Ġexpect": 1380,
      "Ġfind": 1381,
      "line": 1382,
      "ning": 1383,
      "ince": 1384,
      "Ġhere": 1385,
      ",\\": 1386,
      "Ġunderstand": 1387,
      "Ġcomes": 1388,
      "Ġphys": 1389,
      "Ġlook": 1390,
      "Ġcommon": 1391,
      "pol": 1392,
      "Ġcould": 1393,
      "Ġpaper": 1394,
      "ulations": 1395,
      "gy": 1396,
      "icient": 1397,
      "mathrm": 1398,
      "hor": 1399,
      "âķĲ": 1400,
      "))": 1401,
      "ication": 1402,
      "ress": 1403,
      "ĠâĶ": 1404,
      "Ġreadout": 1405,
      "Ġte": 1406,
      "Ġdevice": 1407,
      "Ġmag": 1408,
      "13": 1409,
      "app": 1410,
      "Ġsay": 1411,
      "23": 1412,
      "Ġrather": 1413,
      "art": 1414,
      "Ġinteract": 1415,
      "16": 1416,
      "Ġcle": 1417,
      "Ġcomputed": 1418,
      "Ġoperation": 1419,
      "py": 1420,
      "Ġimpact": 1421,
      "beta": 1422,
      "ge": 1423,
      "ÏĪ": 1424,
      "ameter": 1425,
      "Ġz": 1426,
      "ene": 1427,
      "of": 1428,
      "Ġcorrespond": 1429,
      "25": 1430,
      "ax": 1431,
      "If": 1432,
      "Ġencoded": 1433,
      "Ġrepe": 1434,
      "15": 1435,
      "ible": 1436,
      "Ġthates": 1437,
      "string": 1438,
      "lf": 1439,
      "Ġmetho": 1440,
      "Ġpop": 1441,
      "sider": 1442,
      "itial": 1443,
      "su": 1444,
      "annel": 1445,
      "'m": 1446,
      "}|": 1447,
      "Ġob": 1448,
      "Ġinput": 1449,
      "Ġexist": 1450,
      "ne": 1451,
      "ances": 1452,
      "14": 1453,
      "the": 1454,
      "Ġgive": 1455,
      "Ġrates": 1456,
      "mit": 1457,
      "âķĲâķĲ": 1458,
      "Ġdetermin": 1459,
      "ables": 1460,
      "This": 1461,
      "ensity": 1462,
      "Ġsub": 1463,
      "acle": 1464,
      "pr": 1465,
      "99": 1466,
      "Ġnative": 1467,
      "ound": 1468,
      "arget": 1469,
      "Ġthem": 1470,
      "urn": 1471,
      "Ġphases": 1472,
      "Ġcompare": 1473,
      "Ġsecond": 1474,
      "verage": 1475,
      "omp": 1476,
      "Ġbehavi": 1477,
      "Ġextract": 1478,
      "iag": 1479,
      "Ġmiss": 1480,
      "Ġ#": 1481,
      "rover": 1482,
      "24": 1483,
      "cc": 1484,
      "Ġpopulations": 1485,
      "Ġbitstring": 1486,
      "_{\\": 1487,
      "Ġcounts": 1488,
      "quantum": 1489,
      "ood": 1490,
      "cd": 1491,
      "Ġmapping": 1492,
      "Ġdis": 1493,
      "Ġ.": 1494,
      "Ġmeans": 1495,
      "Ġfactor": 1496,
      "Ġbott": 1497,
      "asure": 1498,
      "ÏĢ": 1499,
      "align": 1500,
      "Ġ16": 1501,
      "ĠCNOT": 1502,
      "Ġfli": 1503,
      "ular": 1504,
      "ark": 1505,
      "Ġamplitude": 1506,
      "ĠQiskit": 1507,
      "Ġdescrib": 1508,
      "veal": 1509,
      "Ġchannel": 1510,
      "Ġreveal": 1511,
      "Ġbehavior": 1512,
      "17": 1513,
      "Ġdata": 1514,
      "big": 1515,
      "ĠPer": 1516,
      "Ġoracle": 1517,
      "Ġinstances": 1518,
      "Ġ13": 1519,
      "Ġvers": 1520,
      "18": 1521,
      "Ġdon": 1522,
      "ute": 1523,
      "Ġrepeated": 1524,
      "Ġknown": 1525,
      "Phi": 1526,
      "ĊĠĠĠĠĠĠĠĠ": 1527,
      "Ġ14": 1528,
      "âĶĢâĶĢâĶĢâĶĢâĶĢâĶĢâĶĢâĶĢ": 1529,
      "Ġrefer": 1530,
      "mall": 1531,
      "Ġstabilizer": 1532,
      "ove": 1533,
      "cel": 1534,
      "Ġcompilation": 1535,
      "ero": 1536,
      "An": 1537,
      "uil": 1538,
      "tr": 1539,
      "Ġinv": 1540,
      "hing": 1541,
      "oc": 1542,
      "19": 1543,
      "ify": 1544,
      "Ġ15": 1545,
      "Ġidea": 1546,
      "ount": 1547,
      "Ġbecomes": 1548,
      "Ġcancel": 1549,
      "Ġactions": 1550,
      "ems": 1551,
      "pectation": 1552,
      "Ġentangled": 1553,
      "Ġdensity": 1554,
      "cul": 1555,
      "angling": 1556,
      "onal": 1557,
      "Ġplus": 1558,
      "Ġsimilar": 1559,
      "Ġtr": 1560,
      "Ġdecomp": 1561,
      "ether": 1562,
      "ving": 1563,
      "Ġsign": 1564,
      "Ġtry": 1565,
      "26": 1566,
      "iel": 1567,
      "wr": 1568,
      "Ġincorrect": 1569,
      "ĠPerform": 1570,
      "ta": 1571,
      "Ġalone": 1572,
      "Ġdetermine": 1573,
      "Ġ24": 1574,
      "28": 1575,
      "Ġentangling": 1576,
      "avily": 1577,
      "Ġheavily": 1578,
      "Ġcombinations": 1579,
      "Ġextracted": 1580,
      "row": 1581,
      "lene": 1582,
      "where": 1583,
      "ray": 1584,
      "Ġbottlene": 1585,
      "Ġbottleneck": 1586,
      "Ġvis": 1587,
      "Ġtarget": 1588,
      "ake": 1589,
      "ĠPerformance": 1590,
      "Ġregister": 1591,
      "anging": 1592,
      "27": 1593,
      "Ġuni": 1594,
      "âĢĵ": 1595,
      "Ġeven": 1596,
      "ĠLarge": 1597,
      "Ġobservable": 1598,
      "ograph": 1599,
      "Ġproject": 1600,
      "Ġtranspilation": 1601,
      "Ġinfer": 1602,
      "Ġappl": 1603,
      "ĠIts": 1604,
      "Ġinclu": 1605,
      "Ġsmall": 1606,
      "Ġlinear": 1607,
      "}^": 1608,
      "Ġ20": 1609,
      "Ġtyp": 1610,
      "ures": 1611,
      "},": 1612,
      "Ġsamp": 1613,
      "Ġboth": 1614,
      "Ġvari": 1615,
      "Ġvery": 1616,
      "Ġgo": 1617,
      "Ġelement": 1618,
      "':": 1619,
      "(|": 1620,
      "Ġprocess": 1621,
      "Ġphysical": 1622,
      "Ġhel": 1623,
      "Ġorder": 1624,
      "ĠSim": 1625,
      "}$.": 1626,
      "ensor": 1627,
      "Ġamplified": 1628,
      "ĠĊ": 1629,
      "Ġparameter": 1630,
      "ĠChanging": 1631,
      "alk": 1632,
      "olution": 1633,
      "29": 1634,
      "Ġdistance": 1635,
      "ĠGrover": 1636,
      "ead": 1637,
      "ram": 1638,
      "struct": 1639,
      "Ġ17": 1640,
      "ĠSo": 1641,
      "$$\\": 1642,
      "op": 1643,
      "Ġ19": 1644,
      "Ġ25": 1645,
      "Ġcodes": 1646,
      "Ġrewr": 1647,
      "33": 1648,
      "Ġentanglement": 1649,
      "Ġpract": 1650,
      ")âĪĴ": 1651,
      "}(\\": 1652,
      "}^{": 1653,
      "ĠExpectation": 1654,
      "spect": 1655,
      "BM": 1656,
      "ĠWe": 1657,
      "pace": 1658,
      "Ġpoint": 1659,
      "rices": 1660,
      "Ġsomet": 1661,
      "Ġpractice": 1662,
      "Ġpr": 1663,
      "Ġ|\\": 1664,
      "round": 1665,
      "Ġwithout": 1666,
      "Ġcomputers": 1667,
      "tt": 1668,
      "Ġconst": 1669,
      "ket": 1670,
      "ote": 1671,
      "pre": 1672,
      "eng": 1673,
      "cill": 1674,
      "Ġcontrolled": 1675,
      "izing": 1676,
      "Ġ35": 1677,
      "ĠTo": 1678,
      "ography": 1679,
      "lect": 1680,
      "Ġsolution": 1681,
      "ange": 1682,
      "ĠPro": 1683,
      "For": 1684,
      "Ġ27": 1685,
      "Ġmethod": 1686,
      "Ġmake": 1687,
      "ertain": 1688,
      "Ġsubs": 1689,
      "ays": 1690,
      "Ġrewrite": 1691,
      "Ġcases": 1692,
      "ci": 1693,
      "Ġfe": 1694,
      "Ġbeing": 1695,
      "Ġabove": 1696,
      "})": 1697,
      "Ġinitial": 1698,
      "qubits": 1699,
      "od": 1700,
      "very": 1701,
      "ĠComp": 1702,
      "Ġproblems": 1703,
      "Ġapproach": 1704,
      "Ġconsider": 1705,
      "Ġmodel": 1706,
      "ĠClifford": 1707,
      "ren": 1708,
      "result": 1709,
      "Ġcalcul": 1710,
      "no": 1711,
      "Ġ28": 1712,
      "Ġintuitive": 1713,
      "sin": 1714,
      "Ġang": 1715,
      "Ġ36": 1716,
      "Ġmatrices": 1717,
      "Ġ26": 1718,
      "rary": 1719,
      "ĠShor": 1720,
      ")?": 1721,
      "measure": 1722,
      "versal": 1723,
      "Ġ37": 1724,
      "ĠK": 1725,
      "Ġ34": 1726,
      "ident": 1727,
      "//": 1728,
      "ual": 1729,
      "ler": 1730,
      "Ġsur": 1731,
      "Tr": 1732,
      "Ġsum": 1733,
      "35": 1734,
      "mitian": 1735,
      "ption": 1736,
      "^{-": 1737,
      "Ġpost": 1738,
      "ival": 1739,
      "Ġ$$": 1740,
      "Ġ38": 1741,
      "ĠBut": 1742,
      "Ġrealize": 1743,
      "FT": 1744,
      "oper": 1745,
      "ermitian": 1746,
      "Ġret": 1747,
      "Ġrec": 1748,
      "Ġvisible": 1749,
      "hat": 1750,
      "Ġmixed": 1751,
      "Ġpartic": 1752,
      "Ġâ": 1753,
      "')": 1754,
      "face": 1755,
      "ĠHadamard": 1756,
      "Ġhelp": 1757,
      "ĠBob": 1758,
      "Ġtranspile": 1759,
      "Ġmeasuring": 1760,
      "gate": 1761,
      "Ġgroup": 1762,
      "âŁ©,": 1763,
      "Ġdiag": 1764,
      "ule": 1765,
      "Ġexpectation": 1766,
      "self": 1767,
      "Ġinvol": 1768,
      "34": 1769,
      "cos": 1770,
      "Ġmin": 1771,
      "eps": 1772,
      "Ġanal": 1773,
      "ĠâĢ": 1774,
      "alid": 1775,
      "Ġpres": 1776,
      "Ġtheor": 1777,
      "Ġeigenvalues": 1778,
      "Ġefficient": 1779,
      "cre": 1780,
      "Ġclean": 1781,
      "Ġinde": 1782,
      "imul": 1783,
      "Ġour": 1784,
      "36": 1785,
      "}}\\": 1786,
      "Ġlo": 1787,
      "Ġ39": 1788,
      "mpt": 1789,
      "Ġstart": 1790,
      "energy": 1791,
      "uition": 1792,
      "Ġmultip": 1793,
      "axis": 1794,
      "Ġeas": 1795,
      "ree": 1796,
      "ask": 1797,
      "ĠIBM": 1798,
      "uch": 1799,
      "backend": 1800,
      "Ġrelate": 1801,
      "Ġ29": 1802,
      "Ġprov": 1803,
      "Ġdetermines": 1804,
      "Ġintuition": 1805,
      "Ġzero": 1806,
      "Ġsince": 1807,
      "38": 1808,
      "qiskit": 1809,
      "--------": 1810,
      "cl": 1811,
      "irq": 1812,
      "Ġmost": 1813,
      "ĠAlice": 1814,
      "$-": 1815,
      "Ġarbit": 1816,
      "Ġmatters": 1817,
      "39": 1818,
      "Â°": 1819,
      "Ġnow": 1820,
      "Ġevolution": 1821,
      "isy": 1822,
      "000": 1823,
      "37": 1824,
      "Ġcond": 1825,
      "ĠDe": 1826,
      "Ġsupp": 1827,
      "...": 1828,
      "Ġcleanly": 1829,
      "chm": 1830,
      "Ġproper": 1831,
      "Ġequival": 1832,
      "Ġsqu": 1833,
      "asing": 1834,
      "Ġequal": 1835,
      "Ġtensor": 1836,
      "To": 1837,
      "Ġmight": 1838,
      "oton": 1839,
      "aps": 1840,
      "ĠHowever": 1841,
      "Ġvalid": 1842,
      "ĠHermitian": 1843,
      "get": 1844,
      "dots": 1845,
      "Ġ30": 1846,
      "âĶĢâĶ": 1847,
      "Ġbits": 1848,
      "Ġsystems": 1849,
      "Hadamard": 1850,
      "cdot": 1851,
      "itive": 1852,
      "Ġexact": 1853,
      "22": 1854,
      "wor": 1855,
      "Ġcorresponding": 1856,
      "+|": 1857,
      "Ġrefers": 1858,
      "thon": 1859,
      "Is": 1860,
      "print": 1861,
      "Ġident": 1862,
      "QE": 1863,
      "Ġevery": 1864,
      "Ġexpress": 1865,
      "Ġenergy": 1866,
      "ub": 1867,
      "ĠQuantumCircuit": 1868,
      "Ġwhether": 1869,
      "Ġeigenvalue": 1870,
      "wh": 1871,
      "Ġkeep": 1872,
      "==": 1873,
      "30": 1874,
      "Ġdecomposition": 1875,
      "Ġgood": 1876,
      "Ġiter": 1877,
      "ell": 1878,
      "ages": 1879,
      "Ġbeen": 1880,
      "ĠThey": 1881,
      "Clifford": 1882,
      "Ġreturn": 1883,
      "ared": 1884,
      "Ġeigenvector": 1885,
      "CNOT": 1886,
      "Ġsignific": 1887,
      "ved": 1888,
      "Ġsearch": 1889,
      "rror": 1890,
      "ilon": 1891,
      "name": 1892,
      "Ġind": 1893,
      "AB": 1894,
      "Ġgives": 1895,
      "://": 1896,
      "Ġancill": 1897,
      "Ġ:": 1898,
      "ting": 1899,
      "Ġuseful": 1900,
      "Ġnoisy": 1901,
      "}$,": 1902,
      "ĠIs": 1903,
      "You": 1904,
      "ĠRy": 1905,
      "ature": 1906,
      "So": 1907,
      "Ġtake": 1908,
      "etect": 1909,
      "ffect": 1910,
      "Ġrem": 1911,
      "EC": 1912,
      "ick": 1913,
      "arrow": 1914,
      "Ġaround": 1915,
      "Ġnp": 1916,
      "Ġapproxim": 1917,
      "Ġmust": 1918,
      "Ġsampling": 1919,
      "ĠMost": 1920,
      "Ġmagic": 1921,
      "Ġsomething": 1922,
      "ttps": 1923,
      "Ġsignificant": 1924,
      "Ġbuil": 1925,
      "It": 1926,
      "log": 1927,
      "Now": 1928,
      "Ġequivalent": 1929,
      "_\\": 1930,
      "Ġdescription": 1931,
      "imulator": 1932,
      "Ġcertain": 1933,
      "Ġlet": 1934,
      "ĠSt": 1935,
      "Ġstand": 1936,
      "stim": 1937,
      "\",": 1938,
      "'re": 1939,
      "Ġbackend": 1940,
      "We": 1941,
      "ways": 1942,
      "Ġcreate": 1943,
      "Ġ$(": 1944,
      "tag": 1945,
      "Ġdefined": 1946,
      "mon": 1947,
      "OR": 1948,
      "Ġruns": 1949,
      "old": 1950,
      "array": 1951,
      "action": 1952,
      "Ġdefine": 1953,
      "over": 1954,
      "Ġlong": 1955,
      "di": 1956,
      "Ġmeasured": 1957,
      "Ġcannot": 1958,
      "ĠAn": 1959,
      "ish": 1960,
      "lvert": 1961,
      "Ġsurface": 1962,
      "Ġwrit": 1963,
      "Ġobservables": 1964,
      "Ġrever": 1965,
      "circ": 1966,
      "istic": 1967,
      "Ġtransform": 1968,
      "Ġmaxim": 1969,
      "Psi": 1970,
      "lic": 1971,
      "Ġtrying": 1972,
      "rier": 1973,
      "Ġexec": 1974,
      "Ġpropert": 1975,
      "other": 1976,
      "As": 1977,
      "Ġ*": 1978,
      "Ġrequired": 1979,
      "oli": 1980,
      "nit": 1981,
      "Ġaffect": 1982,
      "ĠSimilar": 1983,
      "Ġrelative": 1984,
      "tern": 1985,
      "ega": 1986,
      "chan": 1987,
      "cture": 1988,
      ".).": 1989,
      "Ġtri": 1990,
      "Ġinstead": 1991,
      "Ġassum": 1992,
      "ense": 1993,
      "Ġbase": 1994,
      "Ġspin": 1995,
      "times": 1996,
      "Ġchanges": 1997,
      "Ġstill": 1998,
      "amma": 1999,
      "rypt": 2000,
      "Ġmak": 2001,
      "ĠRz": 2002,
      "resh": 2003,
      "Ġright": 2004,
      "ie": 2005,
      "Ġtak": 2006,
      "like": 2007,
      "herent": 2008,
      "Ġwell": 2009,
      "Ġï¬ģ": 2010,
      "rodu": 2011,
      "part": 2012,
      "Ġmuch": 2013,
      "Ġenough": 2014,
      "Ġparticular": 2015,
      "Ġend": 2016,
      "ind": 2017,
      "Ġcondition": 2018,
      "('": 2019,
      "Ġtheorem": 2020,
      "Ġmap": 2021,
      "Ġalways": 2022,
      "cy": 2023,
      "Ġdoeses": 2024,
      "ffoli": 2025,
      "Ġrepresentation": 2026,
      "21": 2027,
      "|^": 2028,
      "noise": 2029,
      "ither": 2030,
      "ndrom": 2031,
      "Ġangle": 2032,
      "ank": 2033,
      "Ġoptimization": 2034,
      "Ġversions": 2035,
      "Ġrunning": 2036,
      "Ġobtain": 2037,
      "Ġwrite": 2038,
      "Ġleverage": 2039,
      "au": 2040,
      "allow": 2041,
      "ason": 2042,
      "ron": 2043,
      "Ġrule": 2044,
      "Ġpositive": 2045,
      "riend": 2046,
      "count": 2047,
      "Ġcorresponds": 2048,
      "which": 2049,
      "ĠĠĠĠĠĠĠ": 2050,
      "Ġinterest": 2051,
      "Ġtask": 2052,
      "ĠJ": 2053,
      "Ġinvolve": 2054,
      "Ġlarge": 2055,
      "Ġtrace": 2056,
      "Ġinteraction": 2057,
      "Ġtranspiled": 2058,
      "}_{": 2059,
      "Ġmod": 2060,
      "Ġkey": 2061,
      "Ġspecific": 2062,
      "chmark": 2063,
      "enchmark": 2064,
      "0000": 2065,
      "Ġestimates": 2066,
      "Ġarbitrary": 2067,
      "Ġseems": 2068,
      "operator": 2069,
      "Ġsepar": 2070,
      "âŁ©=": 2071,
      "De": 2072,
      "reat": 2073,
      "Ġshallow": 2074,
      "Ġterm": 2075,
      "____": 2076,
      "Ġreason": 2077,
      "Ġstandard": 2078,
      ")$.": 2079,
      "Ġcol": 2080,
      "riendly": 2081,
      "ention": 2082,
      "ational": 2083,
      "Ġsize": 2084,
      "met": 2085,
      "Ġ11": 2086,
      "friendly": 2087,
      "Ġbenchmark": 2088,
      "Ġanother": 2089,
      "Reg": 2090,
      "ĠRx": 2091,
      "trol": 2092,
      "Ġthree": 2093,
      "Ġmulti": 2094,
      "Ġdistur": 2095,
      "Ġelements": 2096,
      "Ġefficiently": 2097,
      "When": 2098,
      "Ġlimiting": 2099,
      "Ġbelow": 2100,
      "Ġestimation": 2101,
      "gamma": 2102,
      "Ġsuc": 2103,
      "ĠThen": 2104,
      "rot": 2105,
      "def": 2106,
      "ves": 2107,
      "Ġapplying": 2108,
      "Ġinspect": 2109,
      "Ġsyndrom": 2110,
      "Ġtest": 2111,
      "Ġ180": 2112,
      "read": 2113,
      "ĠThere": 2114,
      "Ġuniversal": 2115,
      "VM": 2116,
      "Ġphoton": 2117,
      "til": 2118,
      "ications": 2119,
      "duct": 2120,
      "Ġflips": 2121,
      "bra": 2122,
      "work": 2123,
      "num": 2124,
      "aces": 2125,
      "Ġcoherent": 2126,
      "Ġneeded": 2127,
      "ĊĠĠĠĠĠĠĠĠĠĠĠ": 2128,
      "Ġback": 2129,
      "pped": 2130,
      "..).": 2131,
      "Ġvalidate": 2132,
      "gest": 2133,
      "Ġbaseline": 2134,
      "Ïģ": 2135,
      "ug": 2136,
      "sch": 2137,
      "Ġca": 2138,
      "raw": 2139,
      "Let": 2140,
      "Ġgraph": 2141,
      "Ġthresh": 2142,
      "Ġmechan": 2143,
      "ately": 2144,
      "Ġaverage": 2145,
      "pec": 2146,
      "lied": 2147,
      "osed": 2148,
      "Ġdetect": 2149,
      "Ġable": 2150,
      "(\"": 2151,
      "atz": 2152,
      "Ġnew": 2153,
      "ral": 2154,
      "Ġreversible": 2155,
      "ources": 2156,
      "Ġsat": 2157,
      "Ġimportant": 2158,
      "Ġlocal": 2159,
      "Ġancilla": 2160,
      "âķĲâķĲâķĲâķĲ": 2161,
      ")=": 2162,
      "igure": 2163,
      "urren": 2164,
      "Ġdisturbs": 2165,
      "ially": 2166,
      "'ve": 2167,
      "Ġsw": 2168,
      "aware": 2169,
      "Ġbest": 2170,
      "Ġthose": 2171,
      "inal": 2172,
      "ĠAs": 2173,
      "Ġpair": 2174,
      "ane": 2175,
      "Ġqc": 2176,
      "Ġrepl": 2177,
      "Ġfound": 2178,
      "ĠBell": 2179,
      "ĠVQE": 2180,
      "Ġminim": 2181,
      "ward": 2182,
      "Ġconstra": 2183,
      "Ġdefinition": 2184,
      "gram": 2185,
      "ibm": 2186,
      "Ġsolve": 2187,
      "ily": 2188,
      "Ġbetter": 2189,
      "Ġscale": 2190,
      "cx": 2191,
      "reg": 2192,
      "lib": 2193,
      "Ġ,": 2194,
      "ercise": 2195,
      "Ġcompute": 2196,
      "port": 2197,
      "epsilon": 2198,
      "yst": 2199,
      "[-": 2200,
      "Ġverify": 2201,
      "Register": 2202,
      "008": 2203,
      "ences": 2204,
      "Ġquant": 2205,
      "Ġsequ": 2206,
      "Ġsatis": 2207,
      "Ġvectors": 2208,
      "upp": 2209,
      "Ġeither": 2210,
      "Ġtheory": 2211,
      "Ġsuccess": 2212,
      "Ġexactly": 2213,
      "Ġdone": 2214,
      "ear": 2215,
      "Ġocc": 2216,
      "Ġdeca": 2217,
      "Ġconstruct": 2218,
      "rightarrow": 2219,
      "##": 2220,
      "bar": 2221,
      "assical": 2222,
      "Ġsyndrome": 2223,
      "$\\": 2224,
      "Ġlear": 2225,
      "urther": 2226,
      "Ġbeginner": 2227,
      "Âł": 2228,
      "Ġnumbers": 2229,
      "ument": 2230,
      "OVM": 2231,
      "ength": 2232,
      "Error": 2233,
      "ints": 2234,
      "polog": 2235,
      "Ġbound": 2236,
      "fficient": 2237,
      "ĠâĪĴ": 2238,
      "Ġlist": 2239,
      "Ġapplies": 2240,
      "ĊĠĠ": 2241,
      "Ġhapp": 2242,
      "Ġbig": 2243,
      "Ġspeedup": 2244,
      "}$$": 2245,
      "red": 2246,
      "vec": 2247,
      "St": 2248,
      "Ġim": 2249,
      "sumpt": 2250,
      "utsch": 2251,
      "Ġwritten": 2252,
      "Ġgu": 2253,
      "urrent": 2254,
      "Ġrange": 2255,
      "Ġleast": 2256,
      "Ġcompon": 2257,
      "OA": 2258,
      "fect": 2259,
      "ĊĠĠĠĠĠĠĠĠĠĠĠĠĠĠĠĠ": 2260,
      "Ġfollows": 2261,
      "izers": 2262,
      "Ġthough": 2263,
      "uppose": 2264,
      "Ġsatisf": 2265,
      "vious": 2266,
      "earch": 2267,
      "ors": 2268,
      "Ġask": 2269,
      "ourier": 2270,
      "ĠPOVM": 2271,
      "comm": 2272,
      "chn": 2273,
      "ower": 2274,
      "Ġstrate": 2275,
      "AOA": 2276,
      "inary": 2277,
      "âĢĿ": 2278,
      "equation": 2279,
      "ud": 2280,
      "ced": 2281,
      "([": 2282,
      "Ġcomplete": 2283,
      "Ġwrong": 2284,
      "Ġsure": 2285,
      "Ġinclude": 2286,
      "QP": 2287,
      "Ġmach": 2288,
      "ĠâĶľ": 2289,
      "omial": 2290,
      "Ġcontain": 2291,
      "mb": 2292,
      "Ġextrapol": 2293,
      "Ġhttps": 2294,
      "Ġassumpt": 2295,
      "lyn": 2296,
      "Ġreally": 2297,
      "lies": 2298,
      "abel": 2299,
      "Ġlay": 2300,
      "gain": 2301,
      "hemat": 2302,
      "&=": 2303,
      "Ġapplied": 2304,
      "Gate": 2305,
      "ĠPh": 2306,
      "inc": 2307,
      "Ġsimplif": 2308,
      "ciated": 2309,
      "verse": 2310,
      "ection": 2311,
      "Ġproof": 2312,
      "Ġflip": 2313,
      "circuits": 2314,
      "ĠâĢľ": 2315,
      "Ġparity": 2316,
      "quad": 2317,
      "Ġexperiment": 2318,
      "Ġencode": 2319,
      "ĨĴ": 2320,
      "Ġwalk": 2321,
      "Ġresources": 2322,
      "iff": 2323,
      "Ġtrue": 2324,
      "Pro": 2325,
      "Ġet": 2326,
      "phasing": 2327,
      "omega": 2328,
      "Ġidentity": 2329,
      "`.": 2330,
      "Î»": 2331,
      "(-": 2332,
      "Ġdisc": 2333,
      "ven": 2334,
      "ift": 2335,
      "\")": 2336,
      "SWAP": 2337,
      "ox": 2338,
      "nitu": 2339,
      "ij": 2340,
      "orn": 2341,
      ".:": 2342,
      "Ġ/": 2343,
      ")|": 2344,
      "Ġstrategy": 2345,
      "Ġstep": 2346,
      "ric": 2347,
      "Ġinf": 2348,
      "Ġwere": 2349,
      "ropy": 2350,
      "delta": 2351,
      "mu": 2352,
      "Qubit": 2353,
      "Ġoccur": 2354,
      "Ġdescribed": 2355,
      "ĠÎ¸": 2356,
      "Ġrotates": 2357,
      "Ġmagnitu": 2358,
      "ole": 2359,
      "run": 2360,
      "ransp": 2361,
      "vider": 2362,
      "Ġ(|": 2363,
      "import": 2364,
      "Ġrespect": 2365,
      "own": 2366,
      "ew": 2367,
      "ments": 2368,
      "np": 2369,
      "Ġdoing": 2370,
      "Ġcoll": 2371,
      "dimension": 2372,
      "Ġwon": 2373,
      "Ġtoler": 2374,
      "Ġlast": 2375,
      "Ġcall": 2376,
      "Ġworks": 2377,
      "ryptography": 2378,
      ")/": 2379,
      "ee": 2380,
      "edi": 2381,
      "Ġ$\\{": 2382,
      "Can": 2383,
      "mathbf": 2384,
      "Ġelect": 2385,
      "However": 2386,
      "pm": 2387,
      "Ġclear": 2388,
      "Ġsolutions": 2389,
      "ros": 2390,
      "ĊĊĠĠĠ": 2391,
      "Ġprojective": 2392,
      "];": 2393,
      "Ġbased": 2394,
      "Ġ)": 2395,
      "operatorname": 2396,
      "lynomial": 2397,
      "olds": 2398,
      "pendent": 2399,
      "ability": 2400,
      "sp": 2401,
      "arizing": 2402,
      "Ġanalog": 2403,
      "HL": 2404,
      "Ġchall": 2405,
      "aving": 2406,
      "org": 2407,
      "leq": 2408,
      "Ġmeasures": 2409,
      "control": 2410,
      "Ġprecise": 2411,
      ".$$": 2412,
      "ility": 2413,
      "Ġconj": 2414,
      "arily": 2415,
      ")}": 2416,
      "Ġmultiple": 2417,
      "Ġsquared": 2418,
      "Ġtolerance": 2419,
      "how": 2420,
      "simulator": 2421,
      "lying": 2422,
      "hog": 2423,
      "Ġtom": 2424,
      "ĠFourier": 2425,
      "âŁ©â": 2426,
      "Ġjob": 2427,
      "Ġcost": 2428,
      "less": 2429,
      "Ġversion": 2430,
      "atic": 2431,
      "Ġprovide": 2432,
      "ĠMore": 2433,
      "ready": 2434,
      "man": 2435,
      "leport": 2436,
      "thing": 2437,
      "Ġcorrel": 2438,
      "Ġansatz": 2439,
      "Ġorig": 2440,
      "Ġtemp": 2441,
      "**": 2442,
      "Ġcalculate": 2443,
      "Ġcirq": 2444,
      "Ġparameters": 2445,
      "opt": 2446,
      "Ġlarg": 2447,
      "Ġnecess": 2448,
      "Ġpower": 2449,
      "Ġthreshold": 2450,
      "Ġnote": 2451,
      "ĠCon": 2452,
      "concept": 2453,
      "ĠThat": 2454,
      "Ġdemon": 2455,
      "ĠToffoli": 2456,
      ")$,": 2457,
      "Ġtomography": 2458,
      "Ġsend": 2459,
      "ducting": 2460,
      "Ġhand": 2461,
      "lock": 2462,
      "Ġtechn": 2463,
      "sa": 2464,
      "Ġprogram": 2465,
      "Ġcommun": 2466,
      "yn": 2467,
      "SA": 2468,
      "\\!": 2469,
      "$?": 2470,
      "Ġchoose": 2471,
      "Ġcurrent": 2472,
      "Ġstim": 2473,
      "Ġalready": 2474,
      "ising": 2475,
      "Ġatom": 2476,
      "Ġequation": 2477,
      "Ġrepresents": 2478,
      "Ġ{|": 2479,
      "dimensional": 2480,
      "Ġmaps": 2481,
      "Ġdiagonal": 2482,
      "Ġconstraints": 2483,
      "Ġprep": 2484,
      "Ġintrodu": 2485,
      ")^": 2486,
      "correct": 2487,
      "Ġsa": 2488,
      "Ġthus": 2489,
      "Ġagain": 2490,
      "ĠBorn": 2491,
      "Ġarg": 2492,
      "Al": 2493,
      "aries": 2494,
      "izes": 2495,
      "Ġmisconcept": 2496,
      "Ġdecoherence": 2497,
      "dit": 2498,
      "Ġuses": 2499,
      "conducting": 2500,
      "Ġdistill": 2501,
      "ĠEstim": 2502,
      "rotter": 2503,
      "Ġdemonstr": 2504,
      "Ġdeco": 2505,
      "ries": 2506,
      "ÂłÂł": 2507,
      "âŁ©}": 2508,
      "Ġincrement": 2509,
      "Note": 2510,
      "ml": 2511,
      "ĠCan": 2512,
      "Ġax": 2513,
      "Ġallow": 2514,
      "hogonal": 2515,
      "idd": 2516,
      "Ġproperties": 2517,
      "map": 2518,
      "âĢ¦": 2519,
      "Ġprepar": 2520,
      "acks": 2521,
      "Ġideal": 2522,
      "ils": 2523,
      "Ġpreserv": 2524,
      "var": 2525,
      "Ġcomponents": 2526,
      "Ġcalled": 2527,
      "statevector": 2528,
      "ĠLet": 2529,
      "Here": 2530,
      "ively": 2531,
      "100": 2532,
      "fine": 2533,
      "Ġpy": 2534,
      "Ġdeta": 2535,
      "Ġonce": 2536,
      "But": 2537,
      "col": 2538,
      "Ġsent": 2539,
      "plus": 2540,
      "Ġfix": 2541,
      "Ġgenerate": 2542,
      "Ġcour": 2543,
      "\".": 2544,
      "utation": 2545,
      "ended": 2546,
      "tilde": 2547,
      "Ġatt": 2548,
      "ading": 2549,
      "equiv": 2550,
      "Ġsense": 2551,
      "Ġasso": 2552,
      "Ġstru": 2553,
      "Ġassume": 2554,
      "oes": 2555,
      "Ġchalleng": 2556,
      "oz": 2557,
      "Ġlooking": 2558,
      "Ġtype": 2559,
      "Ġsubspace": 2560,
      "Ġself": 2561,
      "Ġtypically": 2562,
      "Ġdid": 2563,
      ")),": 2564,
      "Ġpolynomial": 2565,
      "unit": 2566,
      "32": 2567,
      "My": 2568,
      "Ġdiff": 2569,
      "Ġdesign": 2570,
      "Ġu": 2571,
      "Ġden": 2572,
      "Ġtemper": 2573,
      "Amplitude": 2574,
      "Ġlength": 2575,
      "Ġgreat": 2576,
      "Ġimplementation": 2577,
      "counts": 2578,
      "rid": 2579,
      "ert": 2580,
      "ume": 2581,
      "Ġ12": 2582,
      "Ġdistillation": 2583,
      "oplus": 2584,
      "Ġteleport": 2585,
      "Ġencoding": 2586,
      "ozsa": 2587,
      "ump": 2588,
      "Ġaut": 2589,
      "Ġsequence": 2590,
      "ault": 2591,
      "Ġmachine": 2592,
      "Ġ}": 2593,
      "Ġrepresented": 2594,
      "Ġconstant": 2595,
      "overline": 2596,
      "uss": 2597,
      "Ġvol": 2598,
      "Â±": 2599,
      "amping": 2600,
      "ĨĴ|": 2601,
      "Ġsimulate": 2602,
      "Ġentropy": 2603,
      "'ll": 2604,
      "Ġstabilizers": 2605,
      "âĶĢâĶĢâĶĢâĶ": 2606,
      "pecially": 2607,
      "ities": 2608,
      "exp": 2609,
      "Ġneeds": 2610,
      "Ġincluding": 2611,
      "Ġincrementally": 2612,
      "vide": 2613,
      "ĠAer": 2614,
      "Ġnotation": 2615,
      "mo": 2616,
      "ĠâĶĤ": 2617,
      "Ġitself": 2618,
      "Ġaltern": 2619,
      "Ġfurther": 2620,
      "Ġâī": 2621,
      "Ġprotoc": 2622,
      "append": 2623,
      "inf": 2624,
      "âŁ©;": 2625,
      "Ġprotocol": 2626,
      "Ġpub": 2627,
      "111": 2628,
      "Ġpartial": 2629,
      "âŁ©âĨĴ|": 2630,
      "Ġdecay": 2631,
      "Ġnear": 2632,
      "Ġyiel": 2633,
      "Big": 2634,
      "Ġav": 2635,
      "Ġleft": 2636,
      "ev": 2637,
      "Ġfam": 2638,
      "Ġtopolog": 2639,
      "macy": 2640,
      "Ġperformed": 2641,
      "ormal": 2642,
      "Ġort": 2643,
      "Ġstructure": 2644,
      "Ġmaximally": 2645,
      "Ġquer": 2646,
      "Ġindic": 2647,
      "especially": 2648,
      "Ġinstance": 2649,
      "QFT": 2650,
      "crete": 2651,
      "Ġcourse": 2652,
      "Ġdamping": 2653,
      "âŁ©.": 2654,
      "Ġanswers": 2655,
      "Ġmention": 2656,
      "Explain": 2657,
      "uild": 2658,
      "].": 2659,
      "ired": 2660,
      "ĠProvide": 2661,
      ")=\\": 2662,
      "Ġlit": 2663,
      "Ġ&=": 2664,
      "Ġperspect": 2665,
      "pack": 2666,
      "Ġbl": 2667,
      "ĠQAOA": 2668,
      "Ġremain": 2669,
      "Ġbinary": 2670,
      "Ġ(\\": 2671,
      "apter": 2672,
      "rame": 2673,
      "Ġdescribing": 2674,
      "Ġassumptions": 2675,
      "`,": 2676,
      "Ġinequ": 2677,
      "book": 2678,
      "lie": 2679,
      "ld": 2680,
      "Ġsupre": 2681,
      "Ġ('": 2682,
      "Ġclose": 2683,
      "Ġsays": 2684,
      "Ġoriginal": 2685,
      "Ġfour": 2686,
      "Ġspecial": 2687,
      "Ġcap": 2688,
      "Ġcoe": 2689,
      "measurement": 2690,
      "pply": 2691,
      "Ġindependent": 2692,
      "Ġextrapolation": 2693,
      "Ġperspective": 2694,
      "Ġlarger": 2695,
      "aster": 2696,
      "Ġfar": 2697,
      "Ġeasy": 2698,
      "âĪļ": 2699,
      "Ġonto": 2700,
      "Ġmechanics": 2701,
      "pen": 2702,
      "omet": 2703,
      "Ġamplification": 2704,
      "Ġassociated": 2705,
      "Ġvary": 2706,
      "Ġgenerally": 2707,
      "Ġunderstanding": 2708,
      "ĠDeutsch": 2709,
      "}=": 2710,
      "Ġsupremacy": 2711,
      "Ġideas": 2712,
      "Ġvariational": 2713,
      "Ġreplace": 2714,
      "Ġbook": 2715,
      "Ġoffer": 2716,
      "Ġless": 2717,
      "Ġvolume": 2718,
      "Ġwhose": 2719,
      "net": 2720,
      "cle": 2721,
      "\\|": 2722,
      "ying": 2723,
      "Ġelectron": 2724,
      "Ġtoo": 2725,
      "ĠĠĠĠĠĠĠĠĠĠĠĠĠĠĠĠĠĠĠĠĠĠĠĠĠĠĠĠĠĠĠĠ": 2726,
      "Ġones": 2727,
      "Ġdiscuss": 2728,
      "Ġstrong": 2729,
      "\\}$": 2730,
      "Ġprove": 2731,
      "Ġmaking": 2732,
      "ĠThus": 2733,
      "Ġformul": 2734,
      "Ġorthogonal": 2735,
      "Exercise": 2736,
      "ines": 2737,
      "Ġprom": 2738,
      "Ġshown": 2739,
      "]]": 2740,
      "Ġiterate": 2741,
      "Ġbuild": 2742,
      "wise": 2743,
      "}=\\": 2744,
      "Ġweight": 2745,
      "Ġfactoring": 2746,
      "001": 2747,
      "='": 2748,
      "als": 2749,
      "Jozsa": 2750,
      "sen": 2751,
      "ier": 2752,
      "Ġel": 2753,
      "asm": 2754,
      "ĠCl": 2755,
      "Ġfinal": 2756,
      "data": 2757,
      "Ġsc": 2758,
      "otential": 2759,
      "Pi": 2760,
      "nt": 2761,
      "Ġmethods": 2762,
      "que": 2763,
      "Ġsch": 2764,
      "chie": 2765,
      "Ġbar": 2766,
      "Ġthings": 2767,
      "umn": 2768,
      "Ġlogic": 2769,
      "ĠAnd": 2770,
      "âŁ¨": 2771,
      "Ġmainly": 2772,
      "Ġstabilize": 2773,
      "Ġgoing": 2774,
      "Ġchoice": 2775,
      "Ġhowever": 2776,
      "date": 2777,
      "local": 2778,
      "ĠQFT": 2779,
      "cdots": 2780,
      "Ġturn": 2781,
      "Ġchanging": 2782,
      "Ġtell": 2783,
      "Ġachie": 2784,
      "Ġmathemat": 2785,
      "Ġobject": 2786,
      "ĠRSA": 2787,
      "-|": 2788,
      "iven": 2789,
      "ĠBuild": 2790,
      "Ġrest": 2791,
      "ĠĠĠĠĠĠĠĠĠĠĠĠ": 2792,
      "ening": 2793,
      "info": 2794,
      "sist": 2795,
      "ath": 2796,
      "Ġstud": 2797,
      "Ġoptimizing": 2798,
      "Ġthing": 2799,
      "ZZ": 2800,
      "Ġtransformation": 2801,
      "ty": 2802,
      "ĠÏĢ": 2803,
      "sib": 2804,
      "Ġaccumulate": 2805,
      "Ġsimplifications": 2806,
      "Ġdown": 2807,
      "ĠHHL": 2808,
      "\"\"": 2809,
      ".)": 2810,
      "ik": 2811,
      "igher": 2812,
      "Ġpage": 2813,
      "amples": 2814,
      "Ġsubcircuits": 2815,
      "----------------": 2816,
      "[\\": 2817,
      "atures": 2818,
      "uang": 2819,
      "Ġcontin": 2820,
      "Ġbiggest": 2821,
      "Ġmark": 2822,
      "Ġhaving": 2823,
      "Ġsufficient": 2824,
      "alf": 2825,
      "Ġlikely": 2826,
      "().": 2827,
      "clu": 2828,
      "Ġtop": 2829,
      "Ġlink": 2830,
      "Ġbenchmarking": 2831,
      "Ġclassically": 2832,
      "case": 2833,
      "dfrac": 2834,
      "ĠâĢĺ": 2835,
      "wn": 2836,
      "Co": 2837,
      "Ġstring": 2838,
      "Ġexecute": 2839,
      "ĠEstimation": 2840,
      "Ġrelated": 2841,
      "tal": 2842,
      "Ġimplemented": 2843,
      "Ġgetting": 2844,
      "ielsen": 2845,
      "min": 2846,
      "Ġname": 2847,
      "ici": 2848,
      "tle": 2849,
      "{|": 2850,
      "Ġintended": 2851,
      "ird": 2852,
      "ern": 2853,
      "Ġmakes": 2854,
      "Ġown": 2855,
      "Ġparameterized": 2856,
      "Ġpur": 2857,
      "mbol": 2858,
      "Ġhigher": 2859,
      "Ġcompar": 2860,
      "idth": 2861,
      "Ġcolumn": 2862,
      "rotterization": 2863,
      "dd": 2864,
      "Ġresearch": 2865,
      "CZ": 2866,
      "Ġinequality": 2867,
      "Ġpotential": 2868,
      "&\\": 2869,
      "98": 2870,
      "Ġwithin": 2871,
      "Ġconditions": 2872,
      "^*": 2873,
      "Ġeigenstate": 2874,
      "mod": 2875,
      "Ġtakes": 2876,
      "Ġshort": 2877,
      "ysis": 2878,
      "ï¬ģc": 2879,
      "====": 2880,
      "tic": 2881,
      "Ġsubsyst": 2882,
      "unitary": 2883,
      "dament": 2884,
      "$)": 2885,
      "icon": 2886,
      "ï¬ģn": 2887,
      "ail": 2888,
      "Ġdec": 2889,
      "Ġsumm": 2890,
      "Ġworking": 2891,
      "II": 2892,
      "Ġestimated": 2893,
      "*}": 2894,
      "110": 2895,
      "Ġfewer": 2896,
      "icult": 2897,
      "oss": 2898,
      "Ġchecks": 2899,
      "Suppose": 2900,
      "job": 2901,
      "rand": 2902,
      "Ġ\\{": 2903,
      "incip": 2904,
      "Ġtried": 2905,
      "Ġframe": 2906,
      "Ġexpected": 2907,
      ")^{": 2908,
      "diag": 2909,
      "ness": 2910,
      "lex": 2911,
      "Ġmade": 2912,
      "Ġsug": 2913,
      "ross": 2914,
      "tice": 2915,
      "raus": 2916,
      "50": 2917,
      "Ġpass": 2918,
      "varphi": 2919,
      "Ġmultipl": 2920,
      "Ġwonder": 2921,
      "Ġdifficult": 2922,
      "Ġteleportation": 2923,
      "Ġconvert": 2924,
      "ĠNote": 2925,
      "Ġcommunication": 2926,
      "umpy": 2927,
      "Ġcryptography": 2928,
      "Ġquite": 2929,
      "velo": 2930,
      "Ġapplication": 2931,
      "back": 2932,
      "âŁ©,|": 2933,
      "ĠChuang": 2934,
      "Ġass": 2935,
      "Ġoptimizer": 2936,
      "'d": 2937,
      "64": 2938,
      "XX": 2939,
      "cedure": 2940,
      "}.": 2941,
      "ĠÏ": 2942,
      "Ġimplies": 2943,
      "vir": 2944,
      "Ġformal": 2945,
      "radi": 2946,
      "Ġreading": 2947,
      "Ġsupport": 2948,
      "Ġcore": 2949,
      "Ġapproaches": 2950,
      "ord": 2951,
      "maths": 2952,
      "ransform": 2953,
      "Ġconcise": 2954,
      "Ġimplementations": 2955,
      "Ġcollaps": 2956,
      "Ġwidth": 2957,
      "}|\\": 2958,
      "Ġdue": 2959,
      "Ġhad": 2960,
      "atically": 2961,
      "provider": 2962,
      "âĶĢâĶĢâĶĢâĶĢâĶĢâĶĢâĶĢâĶĢâĶĢâĶĢâĶĢâĶĢâĶĢâĶĢâĶĢâĶĢ": 2963,
      ");": 2964,
      "pe": 2965,
      "draw": 2966,
      "set": 2967,
      "Ġblock": 2968,
      "Ġways": 2969,
      "ĠNielsen": 2970,
      "Ġinteractions": 2971,
      "Ġarray": 2972,
      "Ġsem": 2973,
      "Ġcorrected": 2974,
      "axation": 2975,
      "fidelity": 2976,
      "ording": 2977,
      "ided": 2978,
      "know": 2979,
      "mmet": 2980,
      "olog": 2981,
      "âĶ¤": 2982,
      "Ġquestions": 2983,
      "Ġlearning": 2984,
      "Ġ>": 2985,
      "Ġput": 2986,
      "Ġdepol": 2987,
      "Then": 2988,
      "Ġprint": 2989,
      "Ġeasily": 2990,
      "plot": 2991,
      "Comp": 2992,
      "oth": 2993,
      "Ġcla": 2994,
      "Ġfundament": 2995,
      "term": 2996,
      "Ġfew": 2997,
      "âĶĢâĶĢâĶĢ": 2998,
      "70": 2999,
      "ĠNow": 3000,
      "pauli": 3001,
      "Ġpi": 3002,
      "Ġseem": 3003,
      "Ġ->": 3004,
      "Ġconfus": 3005,
      ")$$": 3006,
      "&=\\": 3007,
      "Ġprocedure": 3008,
      "Ġ100": 3009,
      "viron": 3010,
      "most": 3011,
      "Ġlight": 3012,
      "sue": 3013,
      "unction": 3014,
      "ibmq": 3015,
      "Ġrate": 3016,
      "Ġplate": 3017,
      "vial": 3018,
      "Ġground": 3019,
      "gorithms": 3020,
      "ĠQuantumRegister": 3021,
      "Ġexists": 3022,
      "Ġguess": 3023,
      "inite": 3024,
      "Ġmom": 3025,
      "Ġder": 3026,
      "Ġlattice": 3027,
      "IT": 3028,
      "ĠÎ": 3029,
      "Ġtext": 3030,
      "Ġspaces": 3031,
      "Ġ00": 3032,
      "Ġ-\\": 3033,
      "Ġapproximate": 3034,
      "clude": 3035,
      "Ġbasic": 3036,
      "Ġinputs": 3037,
      "Ġsentences": 3038,
      "sing": 3039,
      "controlled": 3040,
      ",|": 3041,
      "Ġtherefore": 3042,
      "day": 3043,
      "good": 3044,
      "that": 3045,
      "icit": 3046,
      "Ġisn": 3047,
      "pret": 3048,
      "31": 3049,
      "Ġcoup": 3050,
      "iform": 3051,
      "ĠHere": 3052,
      "max": 3053,
      "Ġevalu": 3054,
      "Ġseen": 3055,
      "And": 3056,
      "ĠWhen": 3057,
      "ductor": 3058,
      "Ġfiel": 3059,
      "ldots": 3060,
      "Ġetc": 3061,
      "ĠCircuit": 3062,
      "gebra": 3063,
      "Ġcompletely": 3064,
      "Ġlas": 3065,
      "Ġanalysis": 3066,
      "Ġpreparation": 3067,
      "Ġpublic": 3068,
      "Ġprepare": 3069,
      "idden": 3070,
      "Ġ?": 3071,
      "âĢ²": 3072,
      "Ġmagnitudes": 3073,
      "tz": 3074,
      "Ġmodels": 3075,
      "Ġ50": 3076,
      "Simulator": 3077,
      "ently": 3078,
      "Ġscaled": 3079,
      "Ġsuperconducting": 3080,
      "Ġsaid": 3081,
      "though": 3082,
      "compilation": 3083,
      "Ġspeedups": 3084,
      "gorithm": 3085,
      "Ġprevious": 3086,
      "abilities": 3087,
      "ĠRead": 3088,
      "Ġinterested": 3089,
      "Ġissue": 3090,
      "Ġhy": 3091,
      "Ġlimitations": 3092,
      "ĠKraus": 3093,
      "Ġproperty": 3094,
      "Ġtotal": 3095,
      "Ġchallenges": 3096,
      "vironment": 3097,
      "55": 3098,
      "known": 3099,
      "Ġplateau": 3100,
      "Ġprobably": 3101,
      "Ġwords": 3102,
      "Ġacting": 3103,
      "Ġblack": 3104,
      "Ġcr": 3105,
      "Ġconv": 3106,
      "Ġresource": 3107,
      "ans": 3108,
      "ĠSince": 3109,
      "Ġsquare": 3110,
      "po": 3111,
      "Ġhalf": 3112,
      "}^{\\": 3113,
      "Ġoverall": 3114,
      "67": 3115,
      "ision": 3116,
      "nectivity": 3117,
      "Ġsetting": 3118,
      "Ġfunctions": 3119,
      "Ġlabel": 3120,
      "Ġfinding": 3121,
      "Ġincreasing": 3122,
      "Ġ_": 3123,
      "Ġbelie": 3124,
      "ECT": 3125,
      "Re": 3126,
      "ingu": 3127,
      "Ġcontrib": 3128,
      "Ġprincip": 3129,
      "Ġcoeff": 3130,
      "Ġallows": 3131,
      "Ġsolving": 3132,
      "Ġbarren": 3133,
      "Ġrow": 3134,
      "jor": 3135,
      "Ġshows": 3136,
      "anks": 3137,
      "Ġquery": 3138,
      "Del": 3139,
      "Ph": 3140,
      "Ġ45": 3141,
      "ams": 3142,
      "adr": 3143,
      "ype": 3144,
      "DE": 3145,
      "Ġtable": 3146,
      "utral": 3147,
      "erfect": 3148,
      "Ġprop": 3149,
      "ivi": 3150,
      "Ġexplicit": 3151,
      "ised": 3152,
      "Ġmatch": 3153,
      "Ġrepresenting": 3154,
      "Ġdiscrete": 3155,
      "Ġpresent": 3156,
      "ears": 3157,
      "ĠNOT": 3158,
      "Ġconstruction": 3159,
      "Ġess": 3160,
      "Ġthird": 3161,
      "abilizer": 3162,
      "Ġmoment": 3163,
      "\\{": 3164,
      "Ġreference": 3165,
      "Ġsteps": 3166,
      "Ġconsist": 3167,
      "84": 3168,
      "cirq": 3169,
      "abilistic": 3170,
      "Ġmeaning": 3171,
      "Ġfaster": 3172,
      "Ġdepolarizing": 3173,
      "ECC": 3174,
      "|$": 3175,
      "Ġcirc": 3176,
      "Ġimperfect": 3177,
      "QPE": 3178,
      "Ġdirection": 3179,
      "Ġ90": 3180,
      "Ġdr": 3181,
      "Ġangles": 3182,
      "Ġfactors": 3183,
      "Ġmentioned": 3184,
      "Ġtog": 3185,
      "ĠHamiltonians": 3186,
      "inst": 3187,
      "iled": 3188,
      "Ġcombination": 3189,
      "ĠReadout": 3190,
      "Lambda": 3191,
      "Ġ201": 3192,
      "/\\": 3193,
      "97": 3194,
      "Ġexamples": 3195,
      "Ġinterpret": 3196,
      "atively": 3197,
      "Ġchannels": 3198,
      "Ġgenerators": 3199,
      "ural": 3200,
      "ĠUn": 3201,
      "Ġsuggest": 3202,
      "=|": 3203,
      "Ġtalk": 3204,
      "Ġsection": 3205,
      "Ġfigure": 3206,
      "Ġfundamental": 3207,
      "Delta": 3208,
      "transp": 3209,
      "Ġboun": 3210,
      "roup": 3211,
      "vides": 3212,
      "fit": 3213,
      "Ġindex": 3214,
      "ailable": 3215,
      "Ġminimize": 3216,
      "ugate": 3217,
      "Ġexpression": 3218,
      "Ġelse": 3219,
      "96": 3220,
      "gates": 3221,
      "son": 3222,
      "iconductor": 3223,
      "ĠState": 3224,
      "Ġinteresting": 3225,
      "Ġmisconceptions": 3226,
      "mathsf": 3227,
      "Ġorthon": 3228,
      "Ġsomeone": 3229,
      "âķĲâķĲâķĲâķĲâķĲâķĲâķĲâķĲ": 3230,
      "Ġinner": 3231,
      "Ġsometimes": 3232,
      "Ġpol": 3233,
      "Ġnumpy": 3234,
      "states": 3235,
      "ĠCho": 3236,
      "Ġdesired": 3237,
      "xiv": 3238,
      "Ġmess": 3239,
      "Ġtogether": 3240,
      "ER": 3241,
      "Ġcreating": 3242,
      "sol": 3243,
      "Ġlot": 3244,
      "Ġ==": 3245,
      "Ġunitaries": 3246,
      "ĠDefine": 3247,
      "Ġhappens": 3248,
      "Ġneg": 3249,
      "ĠPy": 3250,
      "}}{": 3251,
      "Ġprovides": 3252,
      "chi": 3253,
      "velop": 3254,
      "Ġuniform": 3255,
      "\\!\\": 3256,
      ".+": 3257,
      "Ġdeep": 3258,
      "Ġaim": 3259,
      "Ġgot": 3260,
      "sto": 3261,
      "ulse": 3262,
      "meas": 3263,
      "ome": 3264,
      "101": 3265,
      "Ġbuilding": 3266,
      "AN": 3267,
      "Ġhidden": 3268,
      "Ġoutputs": 3269,
      "by": 3270,
      "more": 3271,
      "Ġinverse": 3272,
      "stract": 3273,
      "}\\\\": 3274,
      "Ġanything": 3275,
      "color": 3276,
      "Ġorthonormal": 3277,
      "Ġkind": 3278,
      "Ġlittle": 3279,
      "Ġenvironment": 3280,
      "cur": 3281,
      "Ġdoc": 3282,
      "blem": 3283,
      "ĠSimon": 3284,
      "Ġcomputations": 3285,
      "Ġamount": 3286,
      "Ġauthor": 3287,
      "eas": 3288,
      "Ġthought": 3289,
      "Ġargument": 3290,
      "see": 3291,
      "ified": 3292,
      "ĠThese": 3293,
      "Ġprobabilistic": 3294,
      "rel": 3295,
      "geq": 3296,
      "aer": 3297,
      "Ġpe": 3298,
      "Ġscalar": 3299,
      "ĠOne": 3300,
      "Ġnecessary": 3301,
      "CC": 3302,
      "UB": 3303,
      "ĠCX": 3304,
      "iconductors": 3305,
      "---": 3306,
      "bigg": 3307,
      "icients": 3308,
      "ming": 3309,
      "Ġadded": 3310,
      "ynam": 3311,
      "Ġformalism": 3312,
      "Ġnext": 3313,
      "etwork": 3314,
      "jective": 3315,
      "quences": 3316,
      "packages": 3317,
      "ĠClassical": 3318,
      "ond": 3319,
      "Ġtoday": 3320,
      "Ġconcept": 3321,
      "Ġhist": 3322,
      "Ġnothing": 3323,
      "Ġgeneralized": 3324,
      "babilities": 3325,
      "âĸ": 3326,
      "Ġformula": 3327,
      "ĠCZ": 3328,
      "Ġlooks": 3329,
      "Ġcontinu": 3330,
      "zero": 3331,
      "ĠComputing": 3332,
      "Ġcontains": 3333,
      "alse": 3334,
      "entially": 3335,
      "code": 3336,
      "Ġclaim": 3337,
      "=[": 3338,
      "CH": 3339,
      "One": 3340,
      "Ġhoc": 3341,
      "Ġside": 3342,
      "Ġsample": 3343,
      "arxiv": 3344,
      "Ġeigens": 3345,
      "Ġcalculation": 3346,
      "\\,": 3347,
      "Ġens": 3348,
      "ets": 3349,
      "Ġdescribes": 3350,
      "On": 3351,
      "easure": 3352,
      "}}$": 3353,
      "Ġperm": 3354,
      "neq": 3355,
      "ope": 3356,
      "Ġavailable": 3357,
      "wo": 3358,
      "Ġ...": 3359,
      "side": 3360,
      "Ġfixed": 3361,
      "Ġschem": 3362,
      "Ġintegers": 3363,
      "ĠIBMQ": 3364,
      "swer": 3365,
      "ĬĹ": 3366,
      "sim": 3367,
      "Ġ$[": 3368,
      "inguish": 3369,
      "adratic": 3370,
      "https": 3371,
      "iod": 3372,
      "perator": 3373,
      "Ġcoefficients": 3374,
      "$:": 3375,
      "gener": 3376,
      "pri": 3377,
      "umentation": 3378,
      "Ġdetails": 3379,
      "Ġespecially": 3380,
      "Ġacts": 3381,
      "Ġanyone": 3382,
      "True": 3383,
      "initial": 3384,
      "Ġfinite": 3385,
      "random": 3386,
      "ience": 3387,
      "chang": 3388,
      "Ġability": 3389,
      "Ġentire": 3390,
      "Ġtransversal": 3391,
      "Ġlearn": 3392,
      "ĠQubit": 3393,
      "inally": 3394,
      "reak": 3395,
      "optim": 3396,
      "ople": 3397,
      "Ġconjugate": 3398,
      "ĠTr": 3399,
      "ape": 3400,
      "ividu": 3401,
      "Ġsimulations": 3402,
      "State": 3403,
      "Ġframework": 3404,
      "rad": 3405,
      "Ġtemperatures": 3406,
      "Ġsever": 3407,
      ",)),": 3408,
      "way": 3409,
      "Ġperfect": 3410,
      "Ġsamples": 3411,
      "####": 3412,
      "certain": 3413,
      "ĠPhase": 3414,
      "lection": 3415,
      "view": 3416,
      "ĠError": 3417,
      "Ġpossib": 3418,
      "Ġtranspose": 3419,
      "Ġed": 3420,
      "Ġstatement": 3421,
      "ols": 3422,
      "Ġcause": 3423,
      "Ġtechni": 3424,
      "Qiskit": 3425,
      "Ġtoward": 3426,
      "ously": 3427,
      "Ġsatisfies": 3428,
      "ensive": 3429,
      "Ġmajor": 3430,
      "$).": 3431,
      "Ġser": 3432,
      "Ġloss": 3433,
      "Ġfield": 3434,
      "ĠQu": 3435,
      "Ġdistributions": 3436,
      "pres": 3437,
      "Ġ($": 3438,
      "Ġabstract": 3439,
      "Ġactual": 3440,
      "tau": 3441,
      "}}|": 3442,
      "40": 3443,
      "Apply": 3444,
      "ĠTransform": 3445,
      "._": 3446,
      "ĊĊĠ": 3447,
      "Ġregard": 3448,
      "site": 3449,
      "uper": 3450,
      "classical": 3451,
      "qasm": 3452,
      "Ġartic": 3453,
      "Ġrandomly": 3454,
      "Ġpolar": 3455,
      ")]": 3456,
      "Ġfast": 3457,
      "Ġinteger": 3458,
      "Ġseveral": 3459,
      ")(": 3460,
      "nost": 3461,
      "Ġslow": 3462,
      "angu": 3463,
      "mapsto": 3464,
      "ĠĠĠĠĠĠ": 3465,
      "Ġmultiplication": 3466,
      "itivity": 3467,
      "Ġreco": 3468,
      "ifically": 3469,
      "partial": 3470,
      "yle": 3471,
      "aract": 3472,
      "Ġperforming": 3473,
      "Ġadv": 3474,
      "Ġplot": 3475,
      "Ġsuppose": 3476,
      "Ġindividu": 3477,
      "Ry": 3478,
      "Ġbene": 3479,
      "Ġinstruction": 3480,
      "fty": 3481,
      "ustom": 3482,
      "Ġexecution": 3483,
      "lish": 3484,
      "Ġsymmet": 3485,
      "Rx": 3486,
      "ĠMitigation": 3487,
      "Ġeigenvectors": 3488,
      "Ġalgebra": 3489,
      "infty": 3490,
      "Ġimag": 3491,
      "Ġopen": 3492,
      "Ġindeed": 3493,
      "Ġdrift": 3494,
      "More": 3495,
      "rst": 3496,
      "Ġcollapses": 3497,
      "brid": 3498,
      "Ġ{\\": 3499,
      "Ġphysics": 3500,
      "SS": 3501,
      "Ġdeterministic": 3502,
      "Ġcorrelations": 3503,
      "model": 3504,
      "Ġwhole": 3505,
      "diagonal": 3506,
      "Mat": 3507,
      "ili": 3508,
      "rict": 3509,
      "ives": 3510,
      "Ġfamily": 3511,
      "Ġalong": 3512,
      "Ġrotate": 3513,
      "off": 3514,
      "Ġdraw": 3515,
      "abs": 3516,
      "ĊĠĠĠĠĠĠĠĠĠĠĠĠĠĠĠ": 3517,
      "Does": 3518,
      "shots": 3519,
      "Ġpowerful": 3520,
      "dict": 3521,
      "^^": 3522,
      "group": 3523,
      "haps": 3524,
      "uted": 3525,
      "Ġtaking": 3526,
      "Ġsequences": 3527,
      "Ġenc": 3528,
      "Ġreads": 3529,
      "Ġsystematically": 3530,
      "Ġseparable": 3531,
      "Ġpeople": 3532,
      "box": 3533,
      "its": 3534,
      "bits": 3535,
      "Ġresulting": 3536,
      "ture": 3537,
      "Consider": 3538,
      "nostic": 3539,
      "observ": 3540,
      "Ġdevelop": 3541,
      "osen": 3542,
      "Ġideally": 3543,
      "Ġconjug": 3544,
      "Ġhis": 3545,
      "}(|": 3546,
      "Ġpairs": 3547,
      "Ġregisters": 3548,
      "Ġunivers": 3549,
      "qreg": 3550,
      "ĠNP": 3551,
      "Ġaddition": 3552,
      "ampler": 3553,
      "ĠXOR": 3554,
      "Ġ\\,": 3555,
      "ĠSuppose": 3556,
      "45": 3557,
      "ĠÏģ": 3558,
      "igen": 3559,
      "Ġweak": 3560,
      "ĠOr": 3561,
      "Ġappre": 3562,
      "Ġsuperpositions": 3563,
      "Ġpapers": 3564,
      "ogle": 3565,
      "often": 3566,
      "Ġsens": 3567,
      "Ġreality": 3568,
      "orrection": 3569,
      "Ġunique": 3570,
      "First": 3571,
      "Ġplace": 3572,
      "Ġmultiplying": 3573,
      "75": 3574,
      "})$": 3575,
      "Ġwave": 3576,
      "range": 3577,
      "ĠĠĠĠĠ": 3578,
      "ĠAmplitude": 3579,
      "Ġcommuting": 3580,
      "certainty": 3581,
      "Ġappropri": 3582,
      "Ġdiagnostic": 3583,
      "ification": 3584,
      "aracter": 3585,
      "CX": 3586,
      "utes": 3587,
      "Ġtopological": 3588,
      "rarily": 3589,
      "che": 3590,
      "^{(": 3591,
      "python": 3592,
      "ody": 3593,
      "Op": 3594,
      "clear": 3595,
      "Sim": 3596,
      "Ġshe": 3597,
      "Ġquadratic": 3598,
      "utine": 3599,
      "value": 3600,
      "Ġbenefit": 3601,
      "ymbol": 3602,
      "Ġdesigned": 3603,
      "levant": 3604,
      "Ġ199": 3605,
      "________": 3606,
      "label": 3607,
      "ined": 3608,
      "erm": 3609,
      "iler": 3610,
      "Ġcontrols": 3611,
      "psilon": 3612,
      "ĠâĶľâĶ¤": 3613,
      "ĠMat": 3614,
      "list": 3615,
      "ov": 3616,
      "}[": 3617,
      "usion": 3618,
      "Ġdephasing": 3619,
      "under": 3620,
      "LA": 3621,
      "]$": 3622,
      "mega": 3623,
      "Ġlacks": 3624,
      "ĠBy": 3625,
      "ĠQEC": 3626,
      "aling": 3627,
      "osing": 3628,
      "Ġarbitrarily": 3629,
      "ĠAnswer": 3630,
      "ÂłÂłÂłÂł": 3631,
      "()`": 3632,
      "ECTOR": 3633,
      "TECTOR": 3634,
      "ĠUse": 3635,
      "Ġlower": 3636,
      "function": 3637,
      "Ġbegin": 3638,
      "Ġdeï¬ģn": 3639,
      "Ġconc": 3640,
      "Ġbelieve": 3641,
      "Ġstatevector": 3642,
      "anced": 3643,
      "}}(|": 3644,
      "erve": 3645,
      "Ġhence": 3646,
      "Ġchapter": 3647,
      "Ġtrapped": 3648,
      "48": 3649,
      "95": 3650,
      "Omega": 3651,
      "qquad": 3652,
      "ĠQP": 3653,
      "Ġvariables": 3654,
      "Ġswap": 3655,
      "Ġhybrid": 3656,
      "Xiv": 3657,
      "Ġï¬ģrst": 3658,
      "qua": 3659,
      "SWAPs": 3660,
      "Ġwide": 3661,
      "Ġmath": 3662,
      "Ġmixture": 3663,
      "Ġ$-": 3664,
      "osite": 3665,
      "utors": 3666,
      "Ġproducing": 3667,
      "Ġyet": 3668,
      "Ġmaximum": 3669,
      "Ġcent": 3670,
      "Ġlangu": 3671,
      "imitive": 3672,
      "Ġ42": 3673,
      "Ġcontributors": 3674,
      "esis": 3675,
      "Ġproducts": 3676,
      "Ġcreates": 3677,
      "new": 3678,
      "Ġequals": 3679,
      "Ġobtained": 3680,
      "edia": 3681,
      "Ġatoms": 3682,
      "Ġsummar": 3683,
      "66": 3684,
      "metic": 3685,
      "Since": 3686,
      "Ġapplications": 3687,
      "AS": 3688,
      "Ġ{'": 3689,
      "No": 3690,
      "Ġmagnitude": 3691,
      "Cl": 3692,
      "correcting": 3693,
      "stabilizer": 3694,
      "aves": 3695,
      "Ġsort": 3696,
      "ithmetic": 3697,
      "chmid": 3698,
      "Given": 3699,
      "Ġposition": 3700,
      "Ġreconstruct": 3701,
      "Ġ$$\\": 3702,
      "tra": 3703,
      "Ġperiod": 3704,
      "Thus": 3705,
      "Ġwondering": 3706,
      "From": 3707,
      "Ġra": 3708,
      "Ġstrings": 3709,
      "ology": 3710,
      "lete": 3711,
      "Ġnetwork": 3712,
      "Ġadj": 3713,
      "ĠNo": 3714,
      "âŁ©)": 3715,
      "Ġfrequency": 3716,
      "Ġdenot": 3717,
      "chmidt": 3718,
      "qe": 3719,
      "ĠâĢĵ": 3720,
      "algorithms": 3721,
      "Ġuncertainty": 3722,
      "Ġworld": 3723,
      "ĠProbabilities": 3724,
      "Ġtasks": 3725,
      "tri": 3726,
      "Ġpromise": 3727,
      "Ġeigenspace": 3728,
      "ured": 3729,
      "Ġvert": 3730,
      "ĠâĶĶ": 3731,
      "Ġphotons": 3732,
      "ĠExplain": 3733,
      "Ġcurrently": 3734,
      "nu": 3735,
      "Ġleading": 3736,
      "Ġproduced": 3737,
      "Ġsubro": 3738,
      "Ġprinciple": 3739,
      "Ġ--": 3740,
      "Ġdistinguish": 3741,
      "Ġimplementing": 3742,
      "Ġ@": 3743,
      "Ġstor": 3744,
      "Ġaccount": 3745,
      "'\\": 3746,
      "using": 3747,
      "Ġcharacter": 3748,
      "Ġconvention": 3749,
      "but": 3750,
      "ĠGive": 3751,
      "check": 3752,
      "medi": 3753,
      "ilers": 3754,
      "ĠMy": 3755,
      "ted": 3756,
      "Ġreduced": 3757,
      "oogle": 3758,
      "Ġdat": 3759,
      "Ġeffective": 3760,
      "Ġoptimal": 3761,
      "Ġdefines": 3762,
      "Ġtun": 3763,
      "Ġbreak": 3764,
      "output": 3765,
      "Ġreport": 3766,
      "Ġvariable": 3767,
      "Ġlayout": 3768,
      "85": 3769,
      "bf": 3770,
      "Ġlayers": 3771,
      "Ġions": 3772,
      "Ġbu": 3773,
      "ĠTherefore": 3774,
      "Ġpreserving": 3775,
      "cr": 3776,
      "ĠË": 3777,
      "cale": 3778,
      "Ġrandomized": 3779,
      "Ġprovided": 3780,
      "Ġoccurred": 3781,
      "Ġdi": 3782,
      "Ġexpensive": 3783,
      "ands": 3784,
      "ledge": 3785,
      "60": 3786,
      "}-": 3787,
      "Ġexcept": 3788,
      "Ġfinds": 3789,
      "ĠCompilers": 3790,
      "Ġmathematical": 3791,
      "Ġreduces": 3792,
      "Ġnat": 3793,
      "Ġenable": 3794,
      ")|\\": 3795,
      "77": 3796,
      "HZ": 3797,
      "aus": 3798,
      "ock": 3799,
      "ĠÂ": 3800,
      "While": 3801,
      "ĠĠĠĠĠĠĠĠĠ": 3802,
      "Ġsubsystems": 3803,
      "Str": 3804,
      "ceed": 3805,
      "ants": 3806,
      "Ġspins": 3807,
      "Ġattacks": 3808,
      "df": 3809,
      "Ġins": 3810,
      "Ġlead": 3811,
      "Ġaccording": 3812,
      "Ġappropriate": 3813,
      "vare": 3814,
      "input": 3815,
      "pite": 3816,
      "rable": 3817,
      "style": 3818,
      "dev": 3819,
      "Ġunknown": 3820,
      "corrected": 3821,
      "Ġrelation": 3822,
      "Ġarithmetic": 3823,
      "Ġnecessarily": 3824,
      "varepsilon": 3825,
      "only": 3826,
      "call": 3827,
      "ring": 3828,
      "Ġimpro": 3829,
      "Ġcodespace": 3830,
      "Ġpreserves": 3831,
      "Ġ22": 3832,
      "this": 3833,
      "based": 3834,
      "subs": 3835,
      "pin": 3836,
      "}^\\": 3837,
      "iter": 3838,
      "Ġmic": 3839,
      "Ġcommute": 3840,
      "Ġobvious": 3841,
      "Ġpath": 3842,
      "Ġphotonic": 3843,
      "Ġderiv": 3844,
      "Ġher": 3845,
      "Ġ21": 3846,
      "ĠSch": 3847,
      "ĠAlso": 3848,
      "Ġpoints": 3849,
      "ĠPhys": 3850,
      "Ġachieve": 3851,
      "Ġarticle": 3852,
      "IZ": 3853,
      "key": 3854,
      "av": 3855,
      "Ġspect": 3856,
      "ĠDE": 3857,
      "âŁ©âŁ¨": 3858,
      "())": 3859,
      "Ġstarting": 3860,
      "Ġdecoder": 3861,
      "Ġcapt": 3862,
      "Ġsufficiently": 3863,
      "ining": 3864,
      "ĊĠĠĠĠĠ": 3865,
      "Ġrank": 3866,
      "berg": 3867,
      "ifies": 3868,
      "ĠInclude": 3869,
      "+âŁ©": 3870,
      "Ġcy": 3871,
      "Ġnever": 3872,
      "perp": 3873,
      "lay": 3874,
      "Ġgenerated": 3875,
      "Ġqml": 3876,
      "ï¬Ĥ": 3877,
      "Ġessentially": 3878,
      "Ġconjugation": 3879,
      "\":": 3880,
      "play": 3881,
      "ĠAlgorithm": 3882,
      "Ġsensitivity": 3883,
      "44": 3884,
      "Ġsets": 3885,
      "Ġrelations": 3886,
      "Ġear": 3887,
      "itu": 3888,
      "Ġ(-": 3889,
      "ĠTuring": 3890,
      "cience": 3891,
      "90": 3892,
      "Ġadvantages": 3893,
      "cret": 3894,
      "Toffoli": 3895,
      "Ġsubroutine": 3896,
      ",$$": 3897,
      "Ġshift": 3898,
      "ervice": 3899,
      "Ġcommonly": 3900,
      "Un": 3901,
      "Ġ$|+\\": 3902,
      "Ġengineered": 3903,
      "Ġdynam": 3904,
      "args": 3905,
      "Ġmisconception": 3906,
      "Transp": 3907,
      "aw": 3908,
      "Ġcomputes": 3909,
      "âĶĮ": 3910,
      "Ġresist": 3911,
      "Ġmodul": 3912,
      "Ġaxes": 3913,
      "ikip": 3914,
      "\\}^": 3915,
      "Ġhappen": 3916,
      "Ġsummarize": 3917,
      "$^": 3918,
      "65": 3919,
      "Ġcar": 3920,
      "orem": 3921,
      "decomp": 3922,
      "appro": 3923,
      "Ġuniversality": 3924,
      "ikipedia": 3925,
      "ĊĠĠĠĠĊĠĠĠ": 3926,
      "Ġcorrectly": 3927,
      "tempt": 3928,
      "Ġminimum": 3929,
      "=(": 3930,
      "HS": 3931,
      "Ġlib": 3932,
      "Ġacross": 3933,
      "80": 3934,
      "|)": 3935,
      "ters": 3936,
      "add": 3937,
      "Ġchosen": 3938,
      "Ġrotating": 3939,
      "ĠQC": 3940,
      "Ġloading": 3941,
      "Ġrespectively": 3942,
      "Ġdenote": 3943,
      "'$": 3944,
      "Grover": 3945,
      "etition": 3946,
      "ĠNe": 3947,
      "Ġplay": 3948,
      "Ġcoin": 3949,
      "ĠCo": 3950,
      "Ġmissing": 3951,
      "sequ": 3952,
      "Ġknowledge": 3953,
      "fig": 3954,
      "ĠÎ»": 3955,
      "ĠSearch": 3956,
      "prime": 3957,
      "Ġdecompose": 3958,
      "VQE": 3959,
      "ossible": 3960,
      "Ġtemperature": 3961,
      "Ġindividual": 3962,
      "=\"": 3963,
      "tries": 3964,
      "Ġcombining": 3965,
      "Ġprimitive": 3966,
      "Ġprecisely": 3967,
      "Code": 3968,
      ":\\": 3969,
      "dist": 3970,
      "Are": 3971,
      "Ġdistin": 3972,
      "Ġquantities": 3973,
      "Ġmessage": 3974,
      "Rz": 3975,
      "fli": 3976,
      "Ġdate": 3977,
      "Ġ$.": 3978,
      "ĠLimit": 3979,
      "Ġtextbook": 3980,
      "['": 3981,
      "target": 3982,
      "ÂŃ": 3983,
      "Ġentries": 3984,
      "âĶĢâĶĢâĶĢâĶĺ": 3985,
      "Ġpicture": 3986,
      "Ġpick": 3987,
      "Ġbox": 3988,
      "Ġanalogue": 3989,
      "Ġwidely": 3990,
      "Shor": 3991,
      "Ġir": 3992,
      "atom": 3993,
      "Ġhope": 3994,
      "âŁ©)/": 3995,
      "Ġdemonstrated": 3996,
      "oint": 3997,
      "Ġview": 3998,
      "Ch": 3999,
      "Ġ200": 4000,
      "olate": 4001,
      "ĠApp": 4002,
      "Random": 4003,
      "ises": 4004,
      "Ġupon": 4005,
      "tty": 4006,
      "Ġsuppress": 4007,
      "Ġapproximation": 4008,
      "ased": 4009,
      "mpl": 4010,
      "oning": 4011,
      "Ġeverything": 4012,
      "ny": 4013,
      "Ġenables": 4014,
      "Ġaxis": 4015,
      "Ġdocumentation": 4016,
      "With": 4017,
      "load": 4018,
      "Ġref": 4019,
      "sues": 4020,
      "Ġconsidered": 4021,
      "correction": 4022,
      "parameter": 4023,
      "Ġtargets": 4024,
      "Ġtheoret": 4025,
      "ĠâĶĮ": 4026,
      "any": 4027,
      "Ġscalable": 4028,
      "Ġaffects": 4029,
      "eper": 4030,
      "sor": 4031,
      "Ġpack": 4032,
      "Ġothers": 4033,
      "Ġinstall": 4034,
      "eq": 4035,
      "}+\\": 4036,
      "oser": 4037,
      "Ġdespite": 4038,
      "Ġâī¤": 4039,
      "ti": 4040,
      "Ġrece": 4041,
      "anglement": 4042,
      "Ġpurp": 4043,
      ")`": 4044,
      "bolds": 4045,
      "ges": 4046,
      "onger": 4047,
      "Ġanne": 4048,
      "ogram": 4049,
      "Ġrelaxation": 4050,
      "That": 4051,
      "boldsymbol": 4052,
      "02": 4053,
      "Rel": 4054,
      "ĠTrotterization": 4055,
      "Ġdiagram": 4056,
      "Ġswaps": 4057,
      "observables": 4058,
      "cell": 4059,
      "Ġuntil": 4060,
      "Ġcounter": 4061,
      "soft": 4062,
      "Ġgets": 4063,
      "Ġdetector": 4064,
      "ĠLimitations": 4065,
      "|+\\": 4066,
      "âŁ©+": 4067,
      "Ġspecify": 4068,
      "Ġcomparable": 4069,
      "Ġtopology": 4070,
      "Read": 4071,
      "Ġcopy": 4072,
      "Ġdeeper": 4073,
      "valued": 4074,
      "ĠAny": 4075,
      "68": 4076,
      "ĠâĪļ": 4077,
      "ĠChoi": 4078,
      "Ġauthors": 4079,
      "iH": 4080,
      "Ġqudit": 4081,
      "linear": 4082,
      "ĠMon": 4083,
      "Ġequations": 4084,
      "49": 4085,
      "Ġoperate": 4086,
      "isation": 4087,
      "uth": 4088,
      "Ġ111": 4089,
      ")}\\": 4090,
      "Dep": 4091,
      "dis": 4092,
      "fully": 4093,
      "forward": 4094,
      "Ġexplicitly": 4095,
      ")\\\\": 4096,
      "-$": 4097,
      "Îµ": 4098,
      "Ġpretty": 4099,
      "nother": 4100,
      "partite": 4101,
      "subset": 4102,
      "57": 4103,
      "Ġwires": 4104,
      "Ġnice": 4105,
      "$$|\\": 4106,
      "Ġarea": 4107,
      "ĠSee": 4108,
      "Super": 4109,
      "]:": 4110,
      "ĠPl": 4111,
      "ĠWalk": 4112,
      "Ġattempt": 4113,
      "commuting": 4114,
      "sem": 4115,
      "ency": 4116,
      "olarizing": 4117,
      "Ġwalks": 4118,
      "''": 4119,
      "011": 4120,
      "PP": 4121,
      "Ġadding": 4122,
      "Ġfail": 4123,
      "Ġtrick": 4124,
      "Ġbuilt": 4125,
      "Ġer": 4126,
      "init": 4127,
      "Ġopp": 4128,
      "Ġgeneralizes": 4129,
      "tolerantly": 4130,
      "Any": 4131,
      "Ġwriting": 4132,
      "urable": 4133,
      "QuantumCircuit": 4134,
      "version": 4135,
      "Ġeasier": 4136,
      "010": 4137,
      "CO": 4138,
      "ĠClassicalRegister": 4139,
      "QC": 4140,
      "ons": 4141,
      "Ġdeli": 4142,
      "Ġclassic": 4143,
      "ĠWith": 4144,
      "âķĳ": 4145,
      "register": 4146,
      "Ġindicating": 4147,
      "Ġrelevant": 4148,
      "ĠCar": 4149,
      "Ġmole": 4150,
      "ĠStim": 4151,
      ")+": 4152,
      "cule": 4153,
      "Ġarising": 4154,
      "projective": 4155,
      "Ġrecent": 4156,
      "Ġtrivial": 4157,
      "pies": 4158,
      "type": 4159,
      "ĠCP": 4160,
      "netic": 4161,
      "datetime": 4162,
      "Ġlaser": 4163,
      "Ġlanguage": 4164,
      "mid": 4165,
      "Ġpulse": 4166,
      "ulner": 4167,
      "arameter": 4168,
      "Ġmax": 4169,
      "Wave": 4170,
      "Ġbra": 4171,
      "ĠSection": 4172,
      "Ġroom": 4173,
      "Ġvulner": 4174,
      "Ġiteratively": 4175,
      "Ġseparation": 4176,
      "Ġnegative": 4177,
      "Ġcapture": 4178,
      "rie": 4179,
      "emble": 4180,
      "Thanks": 4181,
      "Ġbounds": 4182,
      "NE": 4183,
      "oring": 4184,
      "enari": 4185,
      "icro": 4186,
      "Ġstra": 4187,
      "deed": 4188,
      "ching": 4189,
      "Ġ32": 4190,
      "Ġfree": 4191,
      "late": 4192,
      "rvert": 4193,
      "Ġconfused": 4194,
      "Ġslower": 4195,
      "Ġasking": 4196,
      "88": 4197,
      "|_": 4198,
      "Ġpri": 4199,
      "Ġwho": 4200,
      "Ġapproximates": 4201,
      "Ġassuming": 4202,
      "ASM": 4203,
      "Ġvulnerable": 4204,
      "conda": 4205,
      "ĠFrom": 4206,
      "Ġotherwise": 4207,
      "Ġ60": 4208,
      "results": 4209,
      "Ġcapability": 4210,
      "By": 4211,
      "tfrac": 4212,
      "wap": 4213,
      "Ġ]": 4214,
      "erial": 4215,
      "Ġyes": 4216,
      "Ġalternating": 4217,
      "ĠPython": 4218,
      "Fault": 4219,
      "inter": 4220,
      "Ġneutral": 4221,
      "body": 4222,
      "pdf": 4223,
      "ues": 4224,
      "Ġduring": 4225,
      "Ġquick": 4226,
      "ager": 4227,
      "Ġfil": 4228,
      "Ġloc": 4229,
      "const": 4230,
      "ĠFigure": 4231,
      "âŁ©,|âĪĴ": 4232,
      "icrosoft": 4233,
      "Ġturns": 4234,
      "size": 4235,
      "}+": 4236,
      "Ġstays": 4237,
      "========": 4238,
      "radients": 4239,
      "aking": 4240,
      "Ġthresholds": 4241,
      "Ġstraight": 4242,
      "test": 4243,
      "Ġsplit": 4244,
      "rive": 4245,
      "Ġreturns": 4246,
      "Ġimage": 4247,
      "Ġfile": 4248,
      "Ġrough": 4249,
      "comput": 4250,
      "Also": 4251,
      "Ġmarks": 4252,
      "aqua": 4253,
      "ques": 4254,
      "ĠHence": 4255,
      "oses": 4256,
      "Ġtaken": 4257,
      "Ġoffering": 4258,
      "Ġmomentum": 4259,
      "+âŁ©,|âĪĴ": 4260,
      "ken": 4261,
      "lear": 4262,
      "Ġmixing": 4263,
      "Ġprotection": 4264,
      "Ġscenari": 4265,
      "Not": 4266,
      "ht": 4267,
      "Ġcustom": 4268,
      "Ġcoding": 4269,
      "inking": 4270,
      "âĶĢâĶĲ": 4271,
      "Ġcosts": 4272,
      "Tra": 4273,
      "Yes": 4274,
      "urac": 4275,
      "Ġthreat": 4276,
      "ĠNone": 4277,
      "Ġgoal": 4278,
      "Ġevolutions": 4279,
      "Ġ{|+âŁ©,|âĪĴ": 4280,
      ".\"": 4281,
      "IC": 4282,
      "tane": 4283,
      "Ġreach": 4284,
      "Ġmaybe": 4285,
      "Ġcalc": 4286,
      "94": 4287,
      "ĠQM": 4288,
      "Ġprojector": 4289,
      "Ġconditional": 4290,
      "Î±": 4291,
      "âĶĶ": 4292,
      "Ġupper": 4293,
      "prob": 4294,
      "Ġhistor": 4295,
      "dim": 4296,
      "eomet": 4297,
      "Ġign": 4298,
      "lean": 4299,
      "change": 4300,
      "Which": 4301,
      "idence": 4302,
      "rowave": 4303,
      "Ġsequential": 4304,
      "ï¬ģcient": 4305,
      "Ġdatetime": 4306,
      "IBM": 4307,
      "fï¬ģcient": 4308,
      "Ġroot": 4309,
      "Ġrepetition": 4310,
      "Ġfollowed": 4311,
      "Ġvarious": 4312,
      "Ġdemonstrating": 4313,
      "Ġdecoding": 4314,
      "uracy": 4315,
      "orph": 4316,
      "Ġissues": 4317,
      "ists": 4318,
      "Ġnorms": 4319,
      "Ġbehind": 4320,
      "Ġyielding": 4321,
      "Ġ{|+âŁ©,|âĪĴâŁ©}": 4322,
      "})\\": 4323,
      "Ġpat": 4324,
      "ĠInformation": 4325,
      "Ġperforms": 4326,
      "values": 4327,
      "Ġface": 4328,
      "Int": 4329,
      "âŁ©).": 4330,
      "Ġdecays": 4331,
      "Ġprepared": 4332,
      "go": 4333,
      "Ġpermutation": 4334,
      "Ġgradients": 4335,
      "Ġsubgroup": 4336,
      "ystem": 4337,
      "fe": 4338,
      "Ġ~": 4339,
      "ĠExact": 4340,
      "isual": 4341,
      "ĠĠĊĠĠĠ": 4342,
      "urface": 4343,
      "Ġreplaces": 4344,
      "47": 4345,
      "ĠApply": 4346,
      "structured": 4347,
      "Ġstudy": 4348,
      "Ġsimulated": 4349,
      "Ġ|Â±": 4350,
      "complete": 4351,
      "Ġdeliber": 4352,
      "CCNOT": 4353,
      "Ġsitu": 4354,
      "stead": 4355,
      "ĠDFT": 4356,
      "âŁ©Â±": 4357,
      "QAOA": 4358,
      "Ġshr": 4359,
      "lier": 4360,
      "Ġvisual": 4361,
      "Dephasing": 4362,
      "Define": 4363,
      "Ġdeliberately": 4364,
      "Ġped": 4365,
      "Ġexcell": 4366,
      "omorph": 4367,
      "ĠHa": 4368,
      "Ġassign": 4369,
      "String": 4370,
      "Randomized": 4371,
      "AU": 4372,
      "ein": 4373,
      "ithub": 4374,
      "unds": 4375,
      "Ġ01": 4376,
      "computing": 4377,
      "otonic": 4378,
      "Ġtells": 4379,
      "âŁ©)/âĪļ": 4380,
      "Depolarizing": 4381,
      "Ġ|Â±âŁ©=": 4382,
      "nal": 4383,
      "ustr": 4384,
      "Ġbottom": 4385,
      "Ġsatisfy": 4386,
      "ordin": 4387,
      "Ġmicrowave": 4388,
      "âŁ©Â±|": 4389,
      "Ġ|Â±âŁ©=(|": 4390,
      "Ġdest": 4391,
      "Ġinvert": 4392,
      "Ġexchang": 4393,
      "olve": 4394,
      "Ġdepending": 4395,
      "Ġrandomizes": 4396,
      "Ġlayouts": 4397,
      "Readout": 4398,
      "Ïķ": 4399,
      "ĠSchmidt": 4400,
      "ames": 4401,
      "agog": 4402,
      "ĠEve": 4403,
      "\\|_": 4404,
      "Ġsymmetric": 4405,
      "Ġreports": 4406,
      "ĠMonte": 4407,
      "Ġexcellent": 4408,
      "pass": 4409,
      "Ġholds": 4410,
      "Ġgiving": 4411,
      "Ġatomic": 4412,
      "ernel": 4413,
      "Ġcontinuous": 4414,
      "Ġdiv": 4415,
      "Ġ101": 4416,
      "Ġ40": 4417,
      "iddle": 4418,
      "Global": 4419,
      "ulate": 4420,
      "stood": 4421,
      "rived": 4422,
      "Ġsimulable": 4423,
      "ĠCSS": 4424,
      "Ġcomment": 4425,
      "ĠDoes": 4426,
      "Ġweakening": 4427,
      "Ġdense": 4428,
      "Connectivity": 4429,
      "Ġspecifically": 4430,
      "ĠComput": 4431,
      "ĠCompare": 4432,
      "ĠStatevector": 4433,
      "Ġround": 4434,
      "Ġappears": 4435,
      "ĠGoogle": 4436,
      "ĠCarlo": 4437,
      "Ġpedagog": 4438,
      "Aer": 4439,
      "âŁ©|": 4440,
      "ableau": 4441,
      "params": 4442,
      "easible": 4443,
      "âĸł": 4444,
      "Ġtz": 4445,
      "rams": 4446,
      "Ġcreated": 4447,
      "Ġrepeatedly": 4448,
      "Ġgoes": 4449,
      "licated": 4450,
      "Ġreconstructs": 4451,
      "LI": 4452,
      "cision": 4453,
      "}_{\\": 4454,
      "Ġbasically": 4455,
      "$$|": 4456,
      "Ġunstructured": 4457,
      "ĠFirst": 4458,
      "((": 4459,
      "89": 4460,
      "DS": 4461,
      "reset": 4462,
      "phases": 4463,
      "ortun": 4464,
      "ĠBQP": 4465,
      "Ġoptics": 4466,
      "number": 4467,
      "tzlocal": 4468,
      "Ġnatural": 4469,
      "Ġtzinfo": 4470,
      "PO": 4471,
      "Vert": 4472,
      "iting": 4473,
      "Ġcrypt": 4474,
      "estimation": 4475,
      "Ġeigenstates": 4476,
      "Ġcombines": 4477,
      "Ġbuilds": 4478,
      "Ġassumption": 4479,
      "eez": 4480,
      "Ġshrinking": 4481,
      "Trotterization": 4482,
      "bl": 4483,
      "bust": 4484,
      "Ġobs": 4485,
      "Ġextrapolated": 4486,
      "Ġloo": 4487,
      "library": 4488,
      "Ġyields": 4489,
      "semiconductors": 4490,
      "Py": 4491,
      "oid": 4492,
      "Ĭķ": 4493,
      "Ġactive": 4494,
      "âŁ©,âĢ¦": 4495,
      "Ġinfinite": 4496,
      "instance": 4497,
      "Transpilation": 4498,
      "Relative": 4499,
      "âŁ©,âĢ¦,|": 4500,
      "Figure": 4501,
      "PR": 4502,
      "space": 4503,
      "Ġid": 4504,
      "uture": 4505,
      "Ġhold": 4506,
      "Ġunderlies": 4507,
      "Ġswit": 4508,
      "App": 4509,
      "tes": 4510,
      "Ġstore": 4511,
      "oolean": 4512,
      "(|\\": 4513,
      "201": 4514,
      "high": 4515,
      "ux": 4516,
      "isms": 4517,
      "Ġodd": 4518,
      "Ġexc": 4519,
      "Ġshare": 4520,
      "1111": 4521,
      "âĪĴâŁ©,": 4522,
      "Ġrevealing": 4523,
      "Ġchallenging": 4524,
      "measurable": 4525,
      "relaxation": 4526,
      "Ġtechniques": 4527,
      "html": 4528,
      "mag": 4529,
      "ector": 4530,
      "Ġthinking": 4531,
      "Ġdescribable": 4532,
      "ĠâĬĹ": 4533,
      "Ġexpressed": 4534,
      "Deutsch": 4535,
      "trivial": 4536,
      "ides": 4537,
      "ops": 4538,
      "itect": 4539,
      "Ġmanage": 4540,
      "ĠAt": 4541,
      "barrier": 4542,
      "Ġsubsystem": 4543,
      "\"),": 4544,
      "arant": 4545,
      "Ġnan": 4546,
      "Ġusual": 4547,
      "ĠMeasure": 4548,
      "Ġstarted": 4549,
      "91": 4550,
      "ia": 4551,
      "Ġill": 4552,
      "inde": 4553,
      "raction": 4554,
      "Ġimagine": 4555,
      "Ġcalculations": 4556,
      "perim": 4557,
      "Ġperhaps": 4558,
      "ED": 4559,
      "rang": 4560,
      "what": 4561,
      "Ġequality": 4562,
      "ĠâĶ¤": 4563,
      "pological": 4564,
      "ĠQPE": 4565,
      ")}$": 4566,
      "Ã¤": 4567,
      "enny": 4568,
      "Ġimpossible": 4569,
      "Ġ+\\": 4570,
      "aligned": 4571,
      "Ġprocessing": 4572,
      "Ġinfeasible": 4573,
      "Matrix": 4574,
      "mult": 4575,
      "Ġanaly": 4576,
      "Ġexchanges": 4577,
      "},\\": 4578,
      "Ġfoc": 4579,
      "dephasing": 4580,
      "ĠEq": 4581,
      "Ġalternates": 4582,
      "Ġ^": 4583,
      "Ġ23": 4584,
      "Ġprovider": 4585,
      "Ġstated": 4586,
      "Ġmove": 4587,
      "...,": 4588,
      "apse": 4589,
      "Ġclearly": 4590,
      "Ġappreciated": 4591,
      "Ġmask": 4592,
      "Ġcontrived": 4593,
      "Using": 4594,
      "ground": 4595,
      "Ġrobust": 4596,
      "Ġdidn": 4597,
      "43": 4598,
      "Ġclasses": 4599,
      "Ġguarant": 4600,
      "Coherence": 4601,
      "LAR": 4602,
      "Ġirre": 4603,
      "After": 4604,
      "Ne": 4605,
      "Ġcomplicated": 4606,
      "Ġlines": 4607,
      "Ġaccuracy": 4608,
      "IZE": 4609,
      "87": 4610,
      "]])": 4611,
      "Ġgeomet": 4612,
      "ptim": 4613,
      "Ġconsidering": 4614,
      "Ġquantifies": 4615,
      "Ġboundary": 4616,
      "05": 4617,
      "ses": 4618,
      "then": 4619,
      "ĠansÃ¤": 4620,
      "obj": 4621,
      "tze": 4622,
      "ĠansÃ¤tze": 4623,
      "42": 4624,
      "Ġemp": 4625,
      "uration": 4626,
      "Ġanalogues": 4627,
      "ĠConsider": 4628,
      "Ġlasers": 4629,
      "can": 4630,
      "olver": 4631,
      "Ġsmaller": 4632,
      "Ġcapac": 4633,
      "POLAR": 4634,
      "POLARIZE": 4635,
      "aulis": 4636,
      "Ġscheme": 4637,
      "86": 4638,
      "Cryptography": 4639,
      "az": 4640,
      "let": 4641,
      "Ġsimulating": 4642,
      "ĊĠĠĠĠĠĠ": 4643,
      "Ġdistinct": 4644,
      "AM": 4645,
      "quant": 4646,
      "orth": 4647,
      "âĶĢâĶĢâĶĢâĶĲ": 4648,
      "Ġadvance": 4649,
      "flip": 4650,
      "Ġdem": 4651,
      "Ġaccept": 4652,
      "ĠUnit": 4653,
      "Ġstatistical": 4654,
      "Ġimprove": 4655,
      "']": 4656,
      "93": 4657,
      "Ġâķĳ": 4658,
      "Ġconve": 4659,
      "Ġ110": 4660,
      "Ġsimultane": 4661,
      "cursor": 4662,
      "Ġhistorically": 4663,
      "Res": 4664,
      "ryption": 4665,
      "Ġroughly": 4666,
      "ĠHaar": 4667,
      "Ġwish": 4668,
      "Ġcopies": 4669,
      "Ġlonger": 4670,
      "connectivity": 4671,
      "trolled": 4672,
      "Ġdetail": 4673,
      "Ġevaluate": 4674,
      ">$": 4675,
      "Kit": 4676,
      "ww": 4677,
      "ĠInt": 4678,
      "Ġrepeat": 4679,
      "âĶĢâĶĢâĶĢâĶĢâĶĢâĶĢâĶĢâĶĢâĶĢâĶĢâĶĢâĶĢ": 4680,
      "Ġoccurs": 4681,
      "ntanglement": 4682,
      "Ġstraightforward": 4683,
      "Run": 4684,
      "ited": 4685,
      "Ġexercise": 4686,
      "Ġeigenphases": 4687,
      "Ġwanted": 4688,
      "solute": 4689,
      "Ġpedagogically": 4690,
      "IN": 4691,
      "Operator": 4692,
      "Where": 4693,
      "core": 4694,
      "Ġdig": 4695,
      "chitect": 4696,
      "ĠNot": 4697,
      "Ġprecursor": 4698,
      "Ġphysically": 4699,
      "Ġsaying": 4700,
      "Ġpython": 4701,
      "\\}$.": 4702,
      "Ġconven": 4703,
      "PauliString": 4704,
      "Ġsolved": 4705,
      "&&": 4706,
      "Mo": 4707,
      "xi": 4708,
      "Ġnumer": 4709,
      "Ġliter": 4710,
      "ranged": 4711,
      "SP": 4712,
      "detect": 4713,
      "ancill": 4714,
      "alanced": 4715,
      "sian": 4716,
      "Ġappear": 4717,
      "Ġdimensions": 4718,
      "Ġtypes": 4719,
      "Ġhelpful": 4720,
      "sv": 4721,
      "Ġmil": 4722,
      "Ġfeel": 4723,
      "Ġinitialize": 4724,
      "Finally": 4725,
      "Ġsecret": 4726,
      "Ġdetectors": 4727,
      "Ġasked": 4728,
      "ĠMoreover": 4729,
      "doc": 4730,
      "Ġmot": 4731,
      "Ġunderstood": 4732,
      "Ġ[[": 4733,
      "Ġsubset": 4734,
      "urthermore": 4735,
      "Ġallowed": 4736,
      "do": 4737,
      "Ġagre": 4738,
      "Question": 4739,
      "ĠAfter": 4740,
      "Ġparam": 4741,
      "ĠGHZ": 4742,
      "Ġmind": 4743,
      "eigen": 4744,
      "has": 4745,
      "my": 4746,
      "Ġï¬Ĥ": 4747,
      "Ġreset": 4748,
      "ibly": 4749,
      "Ġprojection": 4750,
      "Ġprocessor": 4751,
      "Ġcollapse": 4752,
      "&-": 4753,
      "vin": 4754,
      "{'": 4755,
      "Ġextre": 4756,
      "Ġsends": 4757,
      "âŁ©âĨĴ|+âŁ©": 4758,
      "âŁ©âĨĴ|âĪĴâŁ©,": 4759,
      "UBIT": 4760,
      "46": 4761,
      "53": 4762,
      ">>": 4763,
      "AC": 4764,
      "vari": 4765,
      "heck": 4766,
      "Ġ31": 4767,
      "Ġparticles": 4768,
      "ĠĠĠĠĠĠĠĠĠĠĠĠĠ": 4769,
      "lished": 4770,
      "Ġtunable": 4771,
      "parameters": 4772,
      "NEL": 4773,
      "AULI": 4774,
      "Ġflex": 4775,
      "Ġindu": 4776,
      "Ġsymbol": 4777,
      "Ġfeature": 4778,
      "ANNEL": 4779,
      "CHANNEL": 4780,
      "56": 4781,
      "ĠSte": 4782,
      "Ġexplained": 4783,
      "achine": 4784,
      "Ġmode": 4785,
      "Ġparts": 4786,
      ".\\": 4787,
      "}.$$": 4788,
      "ĠâĪ": 4789,
      "Ġcoordin": 4790,
      "ĠBas": 4791,
      "hip": 4792,
      "ĠUsing": 4793,
      "Ġiteration": 4794,
      "Ġindicate": 4795,
      "$|": 4796,
      "Ġfuture": 4797,
      "Ġ$+": 4798,
      "Ġoperated": 4799,
      "istry": 4800,
      "config": 4801,
      "Ġqr": 4802,
      "Ġseparate": 4803,
      "ĠTrue": 4804,
      "92": 4805,
      "Ġcu": 4806,
      "Ġthreatening": 4807,
      "aev": 4808,
      "flo": 4809,
      "env": 4810,
      "Ġrecomm": 4811,
      "Ġ$(\\": 4812,
      "ĠSh": 4813,
      "ICK": 4814,
      "real": 4815,
      "Ġ\"\"\"": 4816,
      "([[": 4817,
      "used": 4818,
      "Ġnotes": 4819,
      "inear": 4820,
      "Ġcertainly": 4821,
      "Ġcoupling": 4822,
      "Ġseries": 4823,
      "ortunately": 4824,
      "$),": 4825,
      "(),": 4826,
      "Î²": 4827,
      "Ġtrapping": 4828,
      "Ġabsolute": 4829,
      "textrm": 4830,
      "ession": 4831,
      "providers": 4832,
      "iliar": 4833,
      "COOR": 4834,
      ",-": 4835,
      "HHL": 4836,
      "long": 4837,
      "Ġmist": 4838,
      "Ġrounds": 4839,
      "Ġexponent": 4840,
      "Ġselect": 4841,
      "Ġ59": 4842,
      "problem": 4843,
      "2023": 4844,
      "Ġreferences": 4845,
      "Ġavoid": 4846,
      "Simon": 4847,
      "COORDS": 4848,
      "Ġmeant": 4849,
      "abatic": 4850,
      "pected": 4851,
      "Ġ64": 4852,
      "aussian": 4853,
      "xy": 4854,
      "Ġdegree": 4855,
      "Ġdefault": 4856,
      "Ġdiscussion": 4857,
      "707": 4858,
      "approx": 4859,
      "Ġlibrary": 4860,
      "uck": 4861,
      "Ġdeb": 4862,
      "Ġmechanisms": 4863,
      "DETECTOR": 4864,
      "cent": 4865,
      "fact": 4866,
      "yond": 4867,
      "dule": 4868,
      "Ġ33": 4869,
      "Ġgenerator": 4870,
      "Ġcomments": 4871,
      "These": 4872,
      "Ġprojectors": 4873,
      "Ġdiscussed": 4874,
      "length": 4875,
      "omm": 4876,
      "ĠHe": 4877,
      "Ġarranged": 4878,
      "mbed": 4879,
      "Edit": 4880,
      "Ġalmost": 4881,
      "ĠCirq": 4882,
      "Ġimplements": 4883,
      "ĠGate": 4884,
      "9999": 4885,
      "nuclear": 4886,
      "Ġtheoretical": 4887,
      "Ġannealing": 4888,
      "ĠAr": 4889,
      "Ġ47": 4890,
      "Ġarchitect": 4891,
      "Ġparticle": 4892,
      "Ġlinked": 4893,
      "Ġalthough": 4894,
      "ĠParameter": 4895,
      "ĠOperator": 4896,
      "Ġcalculated": 4897,
      "Ġmostly": 4898,
      "58": 4899,
      "ND": 4900,
      "gn": 4901,
      "Ġ70": 4902,
      "Ġmanagement": 4903,
      "Pr": 4904,
      "neg": 4905,
      "Ġprog": 4906,
      "process": 4907,
      "Ġprogramming": 4908,
      "dberg": 4909,
      "hand": 4910,
      "{-": 4911,
      "lian": 4912,
      "Ġinterpretation": 4913,
      "Superconducting": 4914,
      "Estim": 4915,
      "ana": 4916,
      "beginner": 4917,
      "Ġcompared": 4918,
      "ĠComputation": 4919,
      "Ġmultiply": 4920,
      "Ġdetection": 4921,
      "cial": 4922,
      "Ġaux": 4923,
      "Ġscience": 4924,
      "Ġmanip": 4925,
      "Ġoption": 4926,
      "Ġ41": 4927,
      "Ġprecision": 4928,
      "Ġcorrecting": 4929,
      "Ġtests": 4930,
      "command": 4931,
      "Alice": 4932,
      "Ġillustr": 4933,
      "Another": 4934,
      "HT": 4935,
      "ging": 4936,
      "ins": 4937,
      "Ġexpand": 4938,
      "angled": 4939,
      "Ġ48": 4940,
      "Ġ53": 4941,
      "Ġgroups": 4942,
      "brace": 4943,
      "Ġha": 4944,
      "abase": 4945,
      "Ġmaterial": 4946,
      "Ġsemiconductors": 4947,
      "200": 4948,
      "{(": 4949,
      "ĠOf": 4950,
      "cript": 4951,
      "ï¬ģne": 4952,
      "ĠVari": 4953,
      "Ġexperimental": 4954,
      "Ġcolumns": 4955,
      "radient": 4956,
      "Ġnanos": 4957,
      "val": 4958,
      "search": 4959,
      "....": 4960,
      "ĠRydberg": 4961,
      "Ġquantity": 4962,
      "ki": 4963,
      "Ġmon": 4964,
      "imum": 4965,
      "âķ«": 4966,
      "Ġyears": 4967,
      "Ġearlier": 4968,
      "BC": 4969,
      "github": 4970,
      "hist": 4971,
      "Ġwiring": 4972,
      "âĶĺ": 4973,
      "Ġ43": 4974,
      "Ġhelps": 4975,
      "Ġï¬ģel": 4976,
      "Ġlayer": 4977,
      "Ġagainst": 4978,
      "AT": 4979,
      "Spin": 4980,
      "lane": 4981,
      "ĠInstead": 4982,
      "Ġshowing": 4983,
      "Ġamplifying": 4984,
      "Ġâī¡": 4985,
      "lvin": 4986,
      "ĠĠĠĠĠĠĠĠĠĠĠ": 4987,
      "}\\,": 4988,
      "sub": 4989,
      "ON": 4990,
      "]),": 4991,
      "trans": 4992,
      "Ġion": 4993,
      "Ġ$\\{\\": 4994,
      "Ġtransfer": 4995,
      "Ġ49": 4996,
      "Ġ351": 4997,
      "likelvin": 4998,
      "Ġintroduce": 4999,
      "Ġrestrict": 5000,
      "plotlib": 5001,
      "Ġscenario": 5002,
      "Ġmillikelvin": 5003,
      "Ġnanoscale": 5004,
      "Measure": 5005,
      "Ġconstructed": 5006,
      "Ġcomponent": 5007,
      "Ġ$\\{|": 5008,
      "packaging": 5009,
      "Ġmarked": 5010,
      "len": 5011,
      "edu": 5012,
      "matching": 5013,
      "class": 5014,
      "Ġpromising": 5015,
      "finite": 5016,
      "sy": 5017,
      "wires": 5018,
      "Ġcros": 5019,
      "Ġfine": 5020,
      "Ġred": 5021,
      "ĠPAULI": 5022,
      "Ġprime": 5023,
      "Ġfamiliar": 5024,
      "newcommand": 5025,
      "62": 5026,
      "rec": 5027,
      "Ġprotected": 5028,
      "73": 5029,
      "io": 5030,
      "visual": 5031,
      "Ġpauli": 5032,
      "imin": 5033,
      "Bell": 5034,
      "iding": 5035,
      "Ġlogs": 5036,
      "Ġcentral": 5037,
      "qml": 5038,
      "Ġ=\\": 5039,
      "Ġnormalized": 5040,
      "ression": 5041,
      "such": 5042,
      "Ġtransformations": 5043,
      ")-": 5044,
      "76": 5045,
      "}]": 5046,
      "umer": 5047,
      "Ġclar": 5048,
      "Ġinvari": 5049,
      "ni": 5050,
      "ool": 5051,
      "Ġinside": 5052,
      "âĢ¢": 5053,
      "Ġcontaining": 5054,
      "Compare": 5055,
      "initialize": 5056,
      "78": 5057,
      "ules": 5058,
      "ĠWikipedia": 5059,
      "partic": 5060,
      "UBO": 5061,
      "Ġmodulo": 5062,
      "Ġrecommend": 5063,
      "79": 5064,
      "False": 5065,
      "TP": 5066,
      "ao": 5067,
      "stit": 5068,
      ")..).": 5069,
      "ĠGiven": 5070,
      "Ġidentify": 5071,
      "Ġsituation": 5072,
      "Us": 5073,
      "ĠĊĠĠĠ": 5074,
      ").$$": 5075,
      "Ġchanged": 5076,
      "Ġ75": 5077,
      "prod": 5078,
      "ĠCNOTs": 5079,
      "Ġmodular": 5080,
      "--------------------------------": 5081,
      "Ġpattern": 5082,
      "eezers": 5083,
      "ey": 5084,
      "Ïĥ": 5085,
      "arith": 5086,
      "Ġ${\\": 5087,
      "Ġtweezers": 5088,
      "Ġket": 5089,
      "ftware": 5090,
      "account": 5091,
      "Ġ91": 5092,
      "Ġspectral": 5093,
      "two": 5094,
      "Ġreview": 5095,
      "errors": 5096,
      "Ġindices": 5097,
      "Ġmachines": 5098,
      "Ġdenotes": 5099,
      "Ġcarry": 5100,
      "Ġconvex": 5101,
      "82": 5102,
      "ks": 5103,
      "ĠÂ±": 5104,
      "ret": 5105,
      "arXiv": 5106,
      "stalk": 5107,
      "Ġ128": 5108,
      "Ġshared": 5109,
      "ĠDo": 5110,
      "ĠEqu": 5111,
      "Ġ**": 5112,
      "Ġregarding": 5113,
      "Ġbr": 5114,
      "Ġcrosstalk": 5115,
      "Ġbalanced": 5116,
      "umb": 5117,
      "âĶĢâĶ¤": 5118,
      ")/\\": 5119,
      "Ġedge": 5120,
      "Ġencryption": 5121,
      "Ġpackage": 5122,
      ")^{\\": 5123,
      "_+": 5124,
      "Ġ//": 5125,
      "Ġ62": 5126,
      "Ġincludes": 5127,
      "Ġsupposed": 5128,
      "Ġremove": 5129,
      "Ġimmedi": 5130,
      "Ġremaining": 5131,
      "^^^^": 5132,
      "Trapped": 5133,
      "Ġflexibly": 5134,
      "QUBIT": 5135,
      "ĠSp": 5136,
      "place": 5137,
      "Ġbipartite": 5138,
      "Ġproduces": 5139,
      "Ġdominant": 5140,
      "Ġ99": 5141,
      "ĠIsing": 5142,
      "ĠAerSimulator": 5143,
      "Ġaware": 5144,
      "Ġ123": 5145,
      "river": 5146,
      "Ġtrack": 5147,
      "Ġ44": 5148,
      "Ġbackends": 5149,
      "63": 5150,
      "SU": 5151,
      "determ": 5152,
      "down": 5153,
      "Ġaway": 5154,
      "reate": 5155,
      "loy": 5156,
      "Ġpredict": 5157,
      "standing": 5158,
      "Ġ72": 5159,
      "Ġancillary": 5160,
      "Ġnotebook": 5161,
      "Ġperfectly": 5162,
      "Ġpurpose": 5163,
      "Ġtools": 5164,
      "Ġ300": 5165,
      "second": 5166,
      "Ġlatter": 5167,
      "Ġ54": 5168,
      "Ġ80": 5169,
      "Ġ350": 5170,
      "ĠSimilarly": 5171,
      "Ġyield": 5172,
      "Ġinsight": 5173,
      "Ġdebug": 5174,
      "54": 5175,
      "Both": 5176,
      "ze": 5177,
      "eros": 5178,
      "Ġanti": 5179,
      "umber": 5180,
      "Ġ120": 5181,
      "ĠStr": 5182,
      "ĠAd": 5183,
      "Ġestimating": 5184,
      "Ġtruth": 5185,
      "Ġimperfections": 5186,
      "ĠErrors": 5187,
      "PI": 5188,
      "ash": 5189,
      "Ġbro": 5190,
      "Ġgame": 5191,
      "ĠTra": 5192,
      "ĠAll": 5193,
      "weight": 5194,
      "erving": 5195,
      "Ġ46": 5196,
      "operators": 5197,
      "Ġintroduces": 5198,
      "Ġpropag": 5199,
      "Ġdeï¬ģnition": 5200,
      "Ġdynamics": 5201,
      ")*": 5202,
      "Ġmut": 5203,
      "irk": 5204,
      "Ġ127": 5205,
      "Ġ256": 5206,
      "Ġidentical": 5207,
      "ĠPlatform": 5208,
      "69": 5209,
      "Or": 5210,
      "ru": 5211,
      "Ġnature": 5212,
      "Ġlever": 5213,
      "Ġdimensional": 5214,
      "Ġ52": 5215,
      "Ġ168": 5216,
      "ciate": 5217,
      "Ġremo": 5218,
      "Photonic": 5219,
      "Ġstored": 5220,
      "ancilla": 5221,
      "[[": 5222,
      "iation": 5223,
      "atus": 5224,
      "order": 5225,
      "igens": 5226,
      "hod": 5227,
      "Ġobserved": 5228,
      "Ġviolate": 5229,
      "Ġdecomposed": 5230,
      "Ġelementary": 5231,
      "point": 5232,
      "Ġedges": 5233,
      "Ġcapacity": 5234,
      "imal": 5235,
      "Ġ119": 5236,
      "Ġnotion": 5237,
      "ĠAND": 5238,
      "ribute": 5239,
      "Ġmagnetic": 5240,
      "logical": 5241,
      "Ġqueries": 5242,
      "Ġachieved": 5243,
      "Ġextreme": 5244,
      "[:": 5245,
      "qft": 5246,
      "ulation": 5247,
      "omen": 5248,
      "Ġchain": 5249,
      "Ġchance": 5250,
      "Ġaddress": 5251,
      "Ġ58": 5252,
      "Ġsubject": 5253,
      "ermion": 5254,
      "\\|\\": 5255,
      "cure": 5256,
      "Ġcomposed": 5257,
      "Ġcomposite": 5258,
      "Ġ214": 5259,
      "ĠFile": 5260,
      "ĠThanks": 5261,
      "Ġ[]": 5262,
      "mitted": 5263,
      "Ġinitially": 5264,
      "Ġintroduced": 5265,
      "Ġdatabase": 5266,
      "Ġagree": 5267,
      "199": 5268,
      ":=": 5269,
      "CP": 5270,
      "mer": 5271,
      "ties": 5272,
      "Ġcame": 5273,
      "Ġbeyond": 5274,
      "Ġlecture": 5275,
      "-->": 5276,
      "ĠarXiv": 5277,
      "Ġ65": 5278,
      "âķĲâķĲâķĲâķĲâķĲâķĲâķĲâķĲâķĲâķĲâķĲâķĲâķĲâķĲâķĲâķĲ": 5279,
      "Ġquickly": 5280,
      "Neutral": 5281,
      "Imp": 5282,
      "kin": 5283,
      "norm": 5284,
      "sion": 5285,
      "swap": 5286,
      "aring": 5287,
      "Ġ398": 5288,
      "Ġiterations": 5289,
      "curity": 5290,
      "Ġrecover": 5291,
      "Ġhaven": 5292,
      "visualization": 5293,
      "59": 5294,
      "ĠâĢł": 5295,
      "ĥĹ": 5296,
      "Ġgreater": 5297,
      "Ġtalking": 5298,
      "Ġtechnique": 5299,
      "nill": 5300,
      "ocal": 5301,
      "rz": 5302,
      "}[\\": 5303,
      "upy": 5304,
      "ĠDi": 5305,
      "ĠTheorem": 5306,
      "They": 5307,
      "Ġ57": 5308,
      "Ġhead": 5309,
      "########": 5310,
      "Ġobserve": 5311,
      "Ġpul": 5312,
      "ĠPaulis": 5313,
      "Ġunderlying": 5314,
      "Ġ98": 5315,
      "All": 5316,
      "fortunately": 5317,
      "Ġsomehow": 5318,
      "Ġreliable": 5319,
      "Ġ76": 5320,
      "histogram": 5321,
      "Your": 5322,
      "|+": 5323,
      "Ġ%": 5324,
      "perience": 5325,
      "Ġ102": 5326,
      "Ġ167": 5327,
      "Ġ:=": 5328,
      "roduction": 5329,
      "ĠSteane": 5330,
      "ĠPlatforms": 5331,
      "Of": 5332,
      "|$.": 5333,
      "Ġwa": 5334,
      "Ġisomet": 5335,
      "ĠAre": 5336,
      "ĠEach": 5337,
      "Thank": 5338,
      "Ġ78": 5339,
      "lications": 5340,
      "****": 5341,
      "Ġautom": 5342,
      "tensor": 5343,
      "Ġembed": 5344,
      "expected": 5345,
      "Ġkernel": 5346,
      "ounter": 5347,
      "Ġ56": 5348,
      "Ġ67": 5349,
      "Ġ85": 5350,
      "Ġ240": 5351,
      "rop": 5352,
      "ĠCheck": 5353,
      "}}{\\": 5354,
      "Ġ51": 5355,
      "Ġ63": 5356,
      "Ġ77": 5357,
      "Ġ87": 5358,
      "Ġdisco": 5359,
      "Ġ246": 5360,
      "Ġsmallest": 5361,
      "Ġcalculating": 5362,
      "cloning": 5363,
      "Topological": 5364,
      "Ġcolor": 5365,
      "Ġbounded": 5366,
      "Gener": 5367,
      "uments": 5368,
      "Ġfair": 5369,
      "ĠQUBO": 5370,
      "Ġ103": 5371,
      "ansatz": 5372,
      "Ġconsists": 5373,
      "Ġentirely": 5374,
      "device": 5375,
      "decompose": 5376,
      "74": 5377,
      "Ġ118": 5378,
      "Ġstabilis": 5379,
      "Ġ95": 5380,
      "Ġ82": 5381,
      "\"\"\"": 5382,
      "=|\\": 5383,
      "ii": 5384,
      "nature": 5385,
      "vdots": 5386,
      "}&": 5387,
      "ĊĊĠĠĠĠĠĠĠ": 5388,
      "Ġconclude": 5389,
      "ĠIndeed": 5390,
      "Ġadder": 5391,
      "Ġ71": 5392,
      "Ġ93": 5393,
      "Ġ105": 5394,
      "Ġ143": 5395,
      "runtime": 5396,
      "Ġderive": 5397,
      "Ġschemes": 5398,
      "ÂłÂłÂłÂłÂłÂłÂłÂł": 5399,
      "^+": 5400,
      "vity": 5401,
      "atever": 5402,
      "Ġ215": 5403,
      "Ġ115": 5404,
      "exec": 5405,
      "Ġsoftware": 5406,
      "Ġentry": 5407,
      "Ġ92": 5408,
      "Ġï¬ģeld": 5409,
      "Sh": 5410,
      "^+\\": 5411,
      "sl": 5412,
      "ts": 5413,
      "Ġsus": 5414,
      "Ġextend": 5415,
      "Ġeffectively": 5416,
      "125": 5417,
      "Ġ69": 5418,
      "Ġ109": 5419,
      "Ġbeginning": 5420,
      "Ġrelationship": 5421,
      "normal": 5422,
      "Ġ\\|": 5423,
      "forall": 5424,
      "Ġ89": 5425,
      "Ġlinearly": 5426,
      "Ġproposed": 5427,
      "generate": 5428,
      "Ġpolarization": 5429,
      "flow": 5430,
      "sx": 5431,
      "Ġ<": 5432,
      "Ġcos": 5433,
      "Ġplt": 5434,
      "ĠEPR": 5435,
      "Ġ94": 5436,
      "Ġ84": 5437,
      "Ġ141": 5438,
      "Ġsearching": 5439,
      "Ġconstraint": 5440,
      "Ġinstructions": 5441,
      "Ġloop": 5442,
      "SE": 5443,
      "Ġsuit": 5444,
      "Ġever": 5445,
      "Ġ216": 5446,
      "Ġrole": 5447,
      ").).": 5448,
      "ĠRes": 5449,
      "Ġ68": 5450,
      "Ġ97": 5451,
      "Ġ187": 5452,
      ",\\,\\": 5453,
      "Ġ198": 5454,
      "Ġ278": 5455,
      "Ġfocus": 5456,
      "Ġsimultaneously": 5457,
      "cu": 5458,
      "fin": 5459,
      "ĠĠĊ": 5460,
      "Ġ112": 5461,
      "Ġ126": 5462,
      "Ġ129": 5463,
      "Ġ121": 5464,
      "Ġ&\\": 5465,
      "Ġ55": 5466,
      "Ġrepresentations": 5467,
      "ĠChapter": 5468,
      "Ġflipped": 5469,
      "Ġ130": 5470,
      "Ġreasonable": 5471,
      "ĊĠĠĠĠĠĠĠĠĠĠĠĠĠĠĠĠĠĠĠĠĠĠĠĠĠĠĠĠĠĠĠĠ": 5472,
      "Ġsending": 5473,
      "index": 5474,
      "Vector": 5475,
      "\\}$,": 5476,
      "]`": 5477,
      "paces": 5478,
      "Ġfeed": 5479,
      "Ġ217": 5480,
      "Ġdeal": 5481,
      "Ġspe": 5482,
      "Ġspann": 5483,
      "ĠEn": 5484,
      "Ġ96": 5485,
      "180": 5486,
      "Ġ241": 5487,
      "Ġ360": 5488,
      "Ġrows": 5489,
      "preserving": 5490,
      "1000": 5491,
      "rate": 5492,
      "ĠBecause": 5493,
      "Ġ122": 5494,
      "Ġconnected": 5495,
      "Ġoverl": 5496,
      "plt": 5497,
      "Ġ61": 5498,
      "Ġdetermined": 5499,
      "Ġ133": 5500,
      "Ġ144": 5501,
      "Ġ150": 5502,
      "Ġ191": 5503,
      "ĠÏĥ": 5504,
      "Bas": 5505,
      "cz": 5506,
      "ĠWhile": 5507,
      "Ġmiddle": 5508,
      "Ġlen": 5509,
      "emory": 5510,
      "aybe": 5511,
      "],[": 5512,
      "Ġ86": 5513,
      "ccording": 5514,
      "Ġ243": 5515,
      "Ġ349": 5516,
      "Ġinvolved": 5517,
      "Ġinvolves": 5518,
      "transpiler": 5519,
      "latex": 5520,
      "52": 5521,
      "enomen": 5522,
      "Ġ\\;": 5523,
      "Ġ225": 5524,
      "Ġlaw": 5525,
      "ĠSU": 5526,
      "ĠGaussian": 5527,
      "Ġ79": 5528,
      "Ġ88": 5529,
      "Ġobtaining": 5530,
      "Ġ140": 5531,
      "Ġ170": 5532,
      "Ġ176": 5533,
      "Ġ275": 5534,
      "Ġ276": 5535,
      "Ġ389": 5536,
      "Ġcycle": 5537,
      "Ġmotiv": 5538,
      "|+|": 5539,
      "Ġstrict": 5540,
      "Ġ235": 5541,
      "unc": 5542,
      "Ġ117": 5543,
      "heless": 5544,
      "Ġclock": 5545,
      "Ġ321": 5546,
      "Ġenumer": 5547,
      "Ġtransition": 5548,
      "Ġ74": 5549,
      "Ġ135": 5550,
      "Ġ136": 5551,
      "Ġ204": 5552,
      "Ġ250": 5553,
      "Do": 5554,
      "QASM": 5555,
      "Show": 5556,
      "save": 5557,
      "Ġ212": 5558,
      "Ġlab": 5559,
      "Ġsimpler": 5560,
      "Ġ336": 5561,
      "teness": 5562,
      "Ġexperience": 5563,
      "Ġcounting": 5564,
      "ĠMicrosoft": 5565,
      "Ġevent": 5566,
      "Ġ66": 5567,
      "annon": 5568,
      "256": 5569,
      "Ġreasoning": 5570,
      "ystems": 5571,
      "Ġpossibility": 5572,
      "Ġparamet": 5573,
      "oh": 5574,
      "ital": 5575,
      "Ġseed": 5576,
      "Ġpractically": 5577,
      "Ġlevels": 5578,
      "Ġ400": 5579,
      "120": 5580,
      "Ġ107": 5581,
      "Ġ81": 5582,
      "product": 5583,
      "}_\\": 5584,
      "ĠAlgorithms": 5585,
      "Ġsimilarly": 5586,
      "Ġ172": 5587,
      "Ġ258": 5588,
      "Ġ346": 5589,
      "00000000": 5590,
      "Ġtechnology": 5591,
      "Ġdeï¬ģned": 5592,
      "ĠDETECTOR": 5593,
      "probability": 5594,
      "Ġconvenient": 5595,
      "Ġliterature": 5596,
      "upyter": 5597,
      "41": 5598,
      "sampler": 5599,
      "Ġ223": 5600,
      "Ġ238": 5601,
      "Ġ232": 5602,
      "Ġshot": 5603,
      "Ġ315": 5604,
      "example": 5605,
      "Ġconfidence": 5606,
      "Ġ104": 5607,
      "Ġ182": 5608,
      "Ġ186": 5609,
      "Ġ145": 5610,
      "Ġ148": 5611,
      "Ġ286": 5612,
      "Ġ293": 5613,
      "ABC": 5614,
      "uality": 5615,
      "Ġbad": 5616,
      "Ġ124": 5617,
      "Ġ312": 5618,
      "phys": 5619,
      "because": 5620,
      "belian": 5621,
      "Ġ163": 5622,
      "Ġ165": 5623,
      "Ġ169": 5624,
      "Ġ131": 5625,
      "Ġ132": 5626,
      "Ġ138": 5627,
      "Ġ146": 5628,
      "Ġ174": 5629,
      "Ġ267": 5630,
      "Ġ370": 5631,
      "operation": 5632,
      "Ġ395": 5633,
      "Ġconcern": 5634,
      "71": 5635,
      "ST": 5636,
      "eep": 5637,
      "there": 5638,
      "instruction": 5639,
      "Ġos": 5640,
      "entangled": 5641,
      "Ġ226": 5642,
      "Ġ113": 5643,
      "Ġ328": 5644,
      "Ġprefer": 5645,
      "Ġ106": 5646,
      "Ġ151": 5647,
      "Ġ242": 5648,
      "Ġ245": 5649,
      "Ġ254": 5650,
      "Ġ361": 5651,
      "Ġ263": 5652,
      "Ġ382": 5653,
      "ĠâĬķ": 5654,
      "Ġ391": 5655,
      "Ġ396": 5656,
      "Ġexecuted": 5657,
      "AND": 5658,
      "Ġswitch": 5659,
      "CU": 5660,
      "ilities": 5661,
      "iabatic": 5662,
      "ional": 5663,
      "oud": 5664,
      "Ġ114": 5665,
      "ĠShow": 5666,
      "ctions": 5667,
      "Ġ320": 5668,
      "ĠFalse": 5669,
      "Ġconfig": 5670,
      "}}(\\": 5671,
      "124": 5672,
      "Ġ83": 5673,
      "Ġ164": 5674,
      "Ġ153": 5675,
      "Ġ272": 5676,
      "Ġ273": 5677,
      "Ġ279": 5678,
      "Ġ287": 5679,
      "Ġ366": 5680,
      "Ġ268": 5681,
      "Ġ377": 5682,
      "Ġ394": 5683,
      "Ġ303": 5684,
      "Ġ306": 5685,
      "manager": 5686,
      "ĠCode": 5687,
      "omorphism": 5688,
      "ennylane": 5689,
      "OB": 5690,
      "]\\": 5691,
      "vqe": 5692,
      "ison": 5693,
      "Ġ125": 5694,
      "Ġ317": 5695,
      "Ġsecurity": 5696,
      "Ġ73": 5697,
      "Ġ184": 5698,
      "Ġ206": 5699,
      "Ġ192": 5700,
      "Ġ270": 5701,
      "Ġ282": 5702,
      "Ġ284": 5703,
      "periment": 5704,
      "Ġcoordinates": 5705,
      "Ġleverages": 5706,
      "BB": 5707,
      "apt": 5708,
      "kl": 5709,
      "main": 5710,
      "non": 5711,
      "vent": 5712,
      "zz": 5713,
      "Ġop": 5714,
      "ĠImp": 5715,
      "Ġ224": 5716,
      "design": 5717,
      "Ġ339": 5718,
      "ĠOpen": 5719,
      "Ġtransl": 5720,
      "uster": 5721,
      "ĠGates": 5722,
      "Ġ155": 5723,
      "Ġ177": 5724,
      "Ġ196": 5725,
      "Ġ364": 5726,
      "Ġ369": 5727,
      "Ġ265": 5728,
      "Ġ383": 5729,
      "Ġ294": 5730,
      "72": 5731,
      "apping": 5732,
      "umann": 5733,
      "Ġ218": 5734,
      "Ġ228": 5735,
      "Ġchem": 5736,
      "Ġ162": 5737,
      "Ġ142": 5738,
      "Ġ288": 5739,
      "Ġ367": 5740,
      "Ġ379": 5741,
      "Ġ344": 5742,
      "Ġ347": 5743,
      "Ġ386": 5744,
      "Ġrecently": 5745,
      "Ġ397": 5746,
      "Ġ297": 5747,
      "Ġreverse": 5748,
      "Ġcoefficient": 5749,
      "ĠĠĠĠĠĠĠĠĠĠĠĠĠĠĠĠĠĠĠĠĠĠĠĠĠĠĠĠĠĠĠĠĠĠĠĠĠĠĠĠĠĠĠĠĠĠĠĠĠĠĠĠĠĠĠĠĠĠĠĠĠĠĠĠ": 5750,
      "ierarch": 5751,
      "ĠÂ·": 5752,
      "Ġleads": 5753,
      "Ġopposite": 5754,
      "Ġimmediately": 5755,
      "Ġpie": 5756,
      "Ġ210": 5757,
      "Ġ229": 5758,
      "Ġ222": 5759,
      "Ġ230": 5760,
      "Ġ310": 5761,
      "Ġoptions": 5762,
      "Ġdefinite": 5763,
      "Ġ149": 5764,
      "âĶĢâĶĢâĶĢâĶĢâĶĢâĶĢâĶĢâĶĢâĶĢâĶĢ": 5765,
      "Ġ247": 5766,
      "Ġ249": 5767,
      "Ġ203": 5768,
      "Ġ253": 5769,
      "Ġ353": 5770,
      "Ġ359": 5771,
      "Ġ274": 5772,
      "Ġ277": 5773,
      "Ġ264": 5774,
      "Ġ376": 5775,
      "Ġreasons": 5776,
      "NP": 5777,
      "gies": 5778,
      "rone": 5779,
      "Ġqutr": 5780,
      "Ġ213": 5781,
      "Ġ227": 5782,
      "Ġ221": 5783,
      "Ġ323": 5784,
      "Ġ330": 5785,
      "Ġdouble": 5786,
      "Ġcommand": 5787,
      "():": 5788,
      "ĠExercise": 5789,
      "Ġ108": 5790,
      "Ġ160": 5791,
      "Ġ137": 5792,
      "Ġ207": 5793,
      "Ġ255": 5794,
      "Ġ259": 5795,
      "Ġ285": 5796,
      "Ġ341": 5797,
      "Ġâĸ": 5798,
      "Ġ302": 5799,
      "Ġtransforms": 5800,
      "Ġremains": 5801,
      "Ġcriter": 5802,
      "Ġadjac": 5803,
      "IBMQ": 5804,
      "igensolver": 5805,
      "Ġcross": 5806,
      "Ġtool": 5807,
      "Ġ236": 5808,
      "Ġ1000": 5809,
      "cker": 5810,
      "Ġ301": 5811,
      "Ġ313": 5812,
      "Ġ338": 5813,
      "Ġconnection": 5814,
      "Ġnode": 5815,
      "Ġ189": 5816,
      "cccc": 5817,
      "Ġ152": 5818,
      "Ġ248": 5819,
      "Ġ352": 5820,
      "Ġ354": 5821,
      "Ġ365": 5822,
      "Ġ308": 5823,
      "Ġtopic": 5824,
      "Model": 5825,
      "Ġinvariant": 5826,
      "06": 5827,
      "MR": 5828,
      "ROR": 5829,
      "Â·": 5830,
      "bitals": 5831,
      "Ġhamiltonian": 5832,
      "oupl": 5833,
      "Ġ237": 5834,
      "Ġsimpl": 5835,
      "Ġ318": 5836,
      "Ġ322": 5837,
      "racle": 5838,
      "Ġaccur": 5839,
      "Ġ166": 5840,
      "Ġ139": 5841,
      "192": 5842,
      "Ġ202": 5843,
      "Ġ173": 5844,
      "Ġ257": 5845,
      "Ġ261": 5846,
      "Ġ345": 5847,
      "Ġ380": 5848,
      "Ġ305": 5849,
      "Start": 5850,
      "Ġensemble": 5851,
      "changed": 5852,
      "KD": 5853,
      "~~": 5854,
      "Ġ233": 5855,
      "Ġ239": 5856,
      "Ġ116": 5857,
      "Ġphenomen": 5858,
      "Ġ314": 5859,
      "Ġ327": 5860,
      "Ġ329": 5861,
      "Ġ335": 5862,
      "idefinite": 5863,
      "ĠPr": 5864,
      "ĠAPI": 5865,
      "Ġyourself": 5866,
      "Ġdefining": 5867,
      "Ġ183": 5868,
      "Ġ161": 5869,
      "Ġ244": 5870,
      "Ġ356": 5871,
      "Ġ368": 5872,
      "Ġ269": 5873,
      "Ġ372": 5874,
      "Ġ373": 5875,
      "Ġ378": 5876,
      "Ġ296": 5877,
      "Ġ298": 5878,
      "Ġparticularly": 5879,
      "pecifically": 5880,
      "Ġmathematically": 5881,
      "ierarchy": 5882,
      "||": 5883,
      "Ġ211": 5884,
      "ĠTwo": 5885,
      "Ġ|+\\": 5886,
      "Ġ311": 5887,
      "Ġ325": 5888,
      "Ġjobs": 5889,
      "Ġhighly": 5890,
      "Ġqreg": 5891,
      "Ġ175": 5892,
      "Ġ195": 5893,
      "Ġ262": 5894,
      "Ġ340": 5895,
      "355": 5896,
      "Ġ388": 5897,
      "Ġï¬ģnd": 5898,
      "Ġmodify": 5899,
      "Ġcouple": 5900,
      "Ġwavefunction": 5901,
      "326": 5902,
      "}-\\": 5903,
      "ingular": 5904,
      "Ġ231": 5905,
      "Ġ326": 5906,
      "Ġ334": 5907,
      "Ġ332": 5908,
      "Ġwouldn": 5909,
      "Ġmodule": 5910,
      "Ġ181": 5911,
      "Ġ188": 5912,
      "Ġ158": 5913,
      "Ġ205": 5914,
      "Ġ209": 5915,
      "Ġ194": 5916,
      "Ġ358": 5917,
      "Ġ289": 5918,
      "Ġ362": 5919,
      "Ġ260": 5920,
      "Ġstarts": 5921,
      "Ġtableau": 5922,
      "ĠMathemat": 5923,
      "Runtime": 5924,
      ")(\\": 5925,
      "SD": 5926,
      "econd": 5927,
      "Ġnu": 5928,
      "Ġaren": 5929,
      "Ġ316": 5930,
      "Ġ333": 5931,
      "Ġcombined": 5932,
      "Ġ185": 5933,
      "Ġ193": 5934,
      "Ġ251": 5935,
      "Ġ280": 5936,
      "Ġ281": 5937,
      "Ġ371": 5938,
      "Ġ348": 5939,
      "Ġ387": 5940,
      "Ġ309": 5941,
      "Ġelectrons": 5942,
      "ĠâĶĶâĶĢâĶĢâĶĢâĶĺ": 5943,
      "83": 5944,
      "surface": 5945,
      "ery": 5946,
      "Ġ219": 5947,
      "Ġclosed": 5948,
      "Ġ337": 5949,
      "Ġevol": 5950,
      "Ġ190": 5951,
      "Ġ357": 5952,
      "Ġ393": 5953,
      "Ġequivalence": 5954,
      "Proof": 5955,
      "Ġcorrelated": 5956,
      "ha": 5957,
      "Ġthumb": 5958,
      "icate": 5959,
      "Ġexpans": 5960,
      "Ġ331": 5961,
      ").:": 5962,
      "Ġsecure": 5963,
      "thesis": 5964,
      "pip": 5965,
      "Ġ178": 5966,
      "Ġ197": 5967,
      "Ġ363": 5968,
      "Ġ266": 5969,
      "Ġ375": 5970,
      "Ġ384": 5971,
      "Ġ390": 5972,
      "Ġ307": 5973,
      "ĠUni": 5974,
      "Tableau": 5975,
      "Ġ!": 5976,
      "Ġcodewor": 5977,
      "Ġobservation": 5978,
      ")))": 5979,
      "Ġ134": 5980,
      "Ġ171": 5981,
      "Ġ295": 5982,
      "Ġinfidelity": 5983,
      "Ġscient": 5984,
      "'.": 5985,
      "Ġefï¬ģcient": 5986,
      "Ġleave": 5987,
      "alue": 5988,
      "ourne": 5989,
      "Ġlogarith": 5990,
      "Ġspecified": 5991,
      "Ġ179": 5992,
      "Ġ252": 5993,
      "Ġ271": 5994,
      "Ġ343": 5995,
      "Ġ304": 5996,
      "Ġstudying": 5997,
      "ĠChoice": 5998,
      "Ġprior": 5999,
      "DR": 6000,
      "aut": 6001,
      "bine": 6002,
      "Ġfl": 6003,
      "Ġformat": 6004,
      "Ġ234": 6005,
      "Ġ156": 6006,
      "Ġ159": 6007,
      "Ġ208": 6008,
      "Ġ283": 6009,
      "Ġ374": 6010,
      "Ġ290": 6011,
      "Ġ291": 6012,
      "Ġproved": 6013,
      "Ġcorrelation": 6014,
      "Ġuniformly": 6015,
      "ĠNeumann": 6016,
      "(-\\": 6017,
      "fil": 6018,
      "ored": 6019,
      "utput": 6020,
      "ighb": 6021,
      "Ġ399": 6022,
      "arent": 6023,
      "Ġknowing": 6024,
      "Ġdomain": 6025,
      "Ġ157": 6026,
      "Ġpreparing": 6027,
      "$'": 6028,
      "++": 6029,
      "bed": 6030,
      "mis": 6031,
      "Ġmer": 6032,
      "Ġ220": 6033,
      "delity": 6034,
      "Ġasy": 6035,
      "Ġouter": 6036,
      "Ġ154": 6037,
      "Ġtypical": 6038,
      "lectron": 6039,
      "Ġ292": 6040,
      "display": 6041,
      ")}{": 6042,
      "sample": 6043,
      "oracle": 6044,
      "ani": 6045,
      "algorithm": 6046,
      "Ġbelong": 6047,
      "Ġ319": 6048,
      "Ġadiabatic": 6049,
      "ĠRun": 6050,
      "Ġrespon": 6051,
      "Ġsatisfying": 6052,
      "oupling": 6053,
      "final": 6054,
      "Ġtro": 6055,
      "atest": 6056,
      "Ġ324": 6057,
      "Ġiff": 6058,
      "sume": 6059,
      "suming": 6060,
      "Ġruntime": 6061,
      "compute": 6062,
      "Ġinstant": 6063,
      "123": 6064,
      "Ġ381": 6065,
      "Statevector": 6066,
      "!!": 6067,
      "03": 6068,
      "BQP": 6069,
      "ION": 6070,
      "hl": 6071,
      "ĠâŁ¨": 6072,
      "rote": 6073,
      "Ġ$,": 6074,
      "Ġconver": 6075,
      "Ġmanner": 6076,
      "Ġcontradi": 6077,
      "conds": 6078,
      "Ġword": 6079,
      "Ġ$|-\\": 6080,
      "gery": 6081,
      "Ġremember": 6082,
      "Ġassumed": 6083,
      "Classical": 6084,
      "Result": 6085,
      "Kitaev": 6086,
      "negative": 6087,
      "Ġoscill": 6088,
      "Ar": 6089,
      "Type": 6090,
      "rl": 6091,
      "|-\\": 6092,
      "Ġcover": 6093,
      "amond": 6094,
      "atching": 6095,
      "Ġï¬ģn": 6096,
      "Ġlocation": 6097,
      "'}": 6098,
      "))$": 6099,
      ",...,": 6100,
      "hard": 6101,
      "ln": 6102,
      "pos": 6103,
      "Ġwrote": 6104,
      "ottes": 6105,
      "versible": 6106,
      "ollow": 6107,
      "Ġsetup": 6108,
      "Ġappend": 6109,
      "Ġ355": 6110,
      "inclu": 6111,
      "olecule": 6112,
      "sequently": 6113,
      "Ġsimplest": 6114,
      ")^\\": 6115,
      "LE": 6116,
      "hbar": 6117,
      "kron": 6118,
      "Ġmill": 6119,
      "Ġwhatever": 6120,
      "aged": 6121,
      "Ġdistort": 6122,
      "Ġ385": 6123,
      "Ġ392": 6124,
      "Ġproperly": 6125,
      "Ġdefinitions": 6126,
      "Ġlargest": 6127,
      "ĠEstimator": 6128,
      "Real": 6129,
      "]=": 6130,
      "squ": 6131,
      "Ġsk": 6132,
      "Ġ299": 6133,
      "Ġproport": 6134,
      "Ġrig": 6135,
      "Therefore": 6136,
      "Ġsurpr": 6137,
      "EDIT": 6138,
      "Ġmistake": 6139,
      ">\\": 6140,
      "acing": 6141,
      "|.": 6142,
      "Ġtor": 6143,
      "erl": 6144,
      "ceil": 6145,
      "ĠTe": 6146,
      "ppings": 6147,
      "extra": 6148,
      "Ġmodes": 6149,
      "computation": 6150,
      "complex": 6151,
      "ĠExperience": 6152,
      "Ġretrie": 6153,
      "Ġload": 6154,
      "Ġrelatively": 6155,
      "Ġprotocols": 6156,
      "ĠÎ±": 6157,
      "Ġâĸĳ": 6158,
      "XY": 6159,
      "Ġunexpected": 6160,
      "rank": 6161,
      "Ġ147": 6162,
      "Ġ342": 6163,
      "Ġdestro": 6164,
      "ottesman": 6165,
      "hamiltonian": 6166,
      "volution": 6167,
      "Ġdot": 6168,
      "Ġball": 6169,
      "perties": 6170,
      "Ġmappings": 6171,
      "Ġrealized": 6172,
      "Ġsampler": 6173,
      "ĠÏµ": 6174,
      "Ġpresented": 6175,
      "ERROR": 6176,
      "Inst": 6177,
      "Ġ+=": 6178,
      "Ġweights": 6179,
      "ĠQubits": 6180,
      "61": 6181,
      "Sch": 6182,
      "stein": 6183,
      "Ġproceed": 6184,
      "APT": 6185,
      "ĠZZ": 6186,
      "128": 6187,
      "Ġprocesses": 6188,
      "split": 6189,
      "Ġsched": 6190,
      "Ġensure": 6191,
      "Similar": 6192,
      "Ġarchitecture": 6193,
      "?)": 6194,
      "\\;": 6195,
      "|$,": 6196,
      "Ġport": 6197,
      "Ġstage": 6198,
      "Ġoutside": 6199,
      "Ġworst": 6200,
      "Ġestimator": 6201,
      "]);": 6202,
      "ĊĠĠĠĠĠĠĠĠĠ": 6203,
      "Ġmolecule": 6204,
      "->": 6205,
      "api": 6206,
      "hot": 6207,
      "rx": 6208,
      "Ġ|-\\": 6209,
      "Ġtwice": 6210,
      "ĠĠĠĠĠĠĠĠĠĠ": 6211,
      "ĠBB": 6212,
      "Ġqasm": 6213,
      "ccx": 6214,
      "},$$": 6215,
      "Ġinitialized": 6216,
      "Ġbackground": 6217,
      "Ġindependently": 6218,
      "magine": 6219,
      "ĠMeasurement": 6220,
      "anaconda": 6221,
      "dot": 6222,
      "Ġhierarchy": 6223,
      "cho": 6224,
      "expectation": 6225,
      "hould": 6226,
      "113": 6227,
      "ĠZX": 6228,
      "Ġkick": 6229,
      "Ġcommut": 6230,
      "acles": 6231,
      "bigl": 6232,
      "Problem": 6233,
      "iliary": 6234,
      ")}|": 6235,
      "Ġfraction": 6236,
      "Ġworth": 6237,
      "Ġsymp": 6238,
      "Ġreprodu": 6239,
      "Ġchoosing": 6240,
      "bigr": 6241,
      "open": 6242,
      "prec": 6243,
      "transpile": 6244,
      "Ġappreciate": 6245,
      "trace": 6246,
      "constants": 6247,
      "51": 6248,
      "Ġsingular": 6249,
      "Ġthesis": 6250,
      "Ġdual": 6251,
      "Ġgap": 6252,
      "Ġgradient": 6253,
      "Ġhar": 6254,
      "Ġrx": 6255,
      "ĠTensor": 6256,
      "Ġintermedi": 6257,
      "Ġfails": 6258,
      "dinger": 6259,
      "Ġwhereas": 6260,
      "ographic": 6261,
      "âĶĢâĶ´": 6262,
      "method": 6263,
      "ĊĠĠĠĠĠĠĠĠĠĠĠĠĠĠĠĠĠĠĠ": 6264,
      "spin": 6265,
      "limit": 6266,
      "sign": 6267,
      "tin": 6268,
      "arp": 6269,
      "Ġrequirement": 6270,
      "ĠEven": 6271,
      "Ġcommutes": 6272,
      "})$.": 6273,
      "clusion": 6274,
      "Ġsupported": 6275,
      "81": 6276,
      "PU": 6277,
      "Unit": 6278,
      "][": 6279,
      "joint": 6280,
      "itor": 6281,
      "Ġsin": 6282,
      "depth": 6283,
      "ĠSol": 6284,
      "0001": 6285,
      "ĠFurthermore": 6286,
      "Ġï¬ģdelity": 6287,
      "Ġarguments": 6288,
      "Ġconcepts": 6289,
      "CHAPT": 6290,
      "Ġimaginary": 6291,
      "Ġdenoted": 6292,
      "HSH": 6293,
      "float": 6294,
      "CHAPTER": 6295,
      "None": 6296,
      "ok": 6297,
      "Ïµ": 6298,
      "Ġsite": 6299,
      "Ġnames": 6300,
      "Ġhermitian": 6301,
      "irani": 6302,
      "Ġrules": 6303,
      "ĠFe": 6304,
      "ĠOther": 6305,
      "Ġupd": 6306,
      "ĠGener": 6307,
      "Ġinitialization": 6308,
      "Ġsemidefinite": 6309,
      "Ġpossibly": 6310,
      "Ġtowards": 6311,
      "ĠQuirk": 6312,
      "azirani": 6313,
      "Next": 6314,
      "uble": 6315,
      "Ġcluster": 6316,
      "Ġunchanged": 6317,
      "ĠBra": 6318,
      "ĠOptim": 6319,
      "Ġchecking": 6320,
      "Ġsomewhat": 6321,
      "Ġwants": 6322,
      "super": 6323,
      "Ġordering": 6324,
      "Ġpreserve": 6325,
      "ugg": 6326,
      "Ġcontinue": 6327,
      "Ġcomparison": 6328,
      "Phys": 6329,
      "easuring": 6330,
      "210": 6331,
      "fre": 6332,
      "since": 6333,
      "wargs": 6334,
      "Ġsave": 6335,
      "Ġconcrete": 6336,
      "izon": 6337,
      "ĠAdd": 6338,
      "Ġevents": 6339,
      "Ġparties": 6340,
      "options": 6341,
      ")(|": 6342,
      "AR": 6343,
      "Pre": 6344,
      "dense": 6345,
      "ips": 6346,
      "inverse": 6347,
      "Ġantic": 6348,
      "izations": 6349,
      "375": 6350,
      "ĠShannon": 6351,
      "ĠStrong": 6352,
      "mn": 6353,
      "{+": 6354,
      "Ġ+|": 6355,
      "abilizers": 6356,
      "127": 6357,
      "Ġamong": 6358,
      "2021": 6359,
      "397": 6360,
      "Phase": 6361,
      "Ġsuggests": 6362,
      "ĠËĨ": 6363,
      "Ġï¬Ĥip": 6364,
      "04": 6365,
      "TL": 6366,
      "cases": 6367,
      "hadamard": 6368,
      "ns": 6369,
      "âĬĹ": 6370,
      "aron": 6371,
      "Ġhor": 6372,
      "igner": 6373,
      "Ġ000": 6374,
      "ĠCreate": 6375,
      "ĠEntanglement": 6376,
      "Ġexisting": 6377,
      "creg": 6378,
      "ronecker": 6379,
      "Per": 6380,
      "Service": 6381,
      "memory": 6382,
      "rum": 6383,
      "uff": 6384,
      "Ġtol": 6385,
      "ĠCHSH": 6386,
      "coding": 6387,
      "pring": 6388,
      "ĠâĨĴ": 6389,
      "Ġanalogous": 6390,
      "Ġrigor": 6391,
      "simul": 6392,
      "Ïī": 6393,
      "anc": 6394,
      "Ġgain": 6395,
      "Ġbell": 6396,
      "Ġrz": 6397,
      "called": 6398,
      "âĶľ": 6399,
      "amming": 6400,
      "Ġexistence": 6401,
      "Ġfeatures": 6402,
      "Ġâī¥": 6403,
      "transpiled": 6404,
      "Ġvertices": 6405,
      "particles": 6406,
      "09": 6407,
      "::": 6408,
      "Com": 6409,
      "Hz": 6410,
      "RE": 6411,
      "See": 6412,
      "]],": 6413,
      "cut": 6414,
      "graph": 6415,
      "iï¬ģc": 6416,
      "qs": 6417,
      "Ġdifferences": 6418,
      "Ġnodes": 6419,
      "Ġkin": 6420,
      "}$?": 6421,
      "Ġancillas": 6422,
      "wards": 6423,
      "Ġraise": 6424,
      "Ġqudits": 6425,
      "Ġextremely": 6426,
      "RuntimeService": 6427,
      "Ġcell": 6428,
      "Ġonline": 6429,
      "Ġlost": 6430,
      "Ġunless": 6431,
      "Ġdisplay": 6432,
      "Ġcollect": 6433,
      "Ġconfusion": 6434,
      "Ġdatas": 6435,
      "ĠDEPOLARIZE": 6436,
      "Ġcuri": 6437,
      "ĠVariants": 6438,
      "Ġspeaking": 6439,
      "Ġspanned": 6440,
      "Ġcut": 6441,
      "ishing": 6442,
      "Ġlies": 6443,
      "Ġvqe": 6444,
      "Ġunlike": 6445,
      "Ġmetric": 6446,
      "node": 6447,
      "Ġobjects": 6448,
      "Ġrecogn": 6449,
      "iHt": 6450,
      "whi": 6451,
      "itness": 6452,
      "alcul": 6453,
      "Ġisolate": 6454,
      "Ġdeï¬ģne": 6455,
      "Ġmapped": 6456,
      "Ġvide": 6457,
      "ĠFinally": 6458,
      "Ġrotated": 6459,
      "107": 6460,
      "Ġhappening": 6461,
      "Ġdevelopment": 6462,
      "Ġpulses": 6463,
      "Ġoverlap": 6464,
      "Instance": 6465,
      "while": 6466,
      "Hence": 6467,
      "dent": 6468,
      "Ġut": 6469,
      "ilde": 6470,
      "Ġsyn": 6471,
      "mptot": 6472,
      "ĠComputer": 6473,
      "âĶĢâĶ´âĶĢâĶĲ": 6474,
      "Ad": 6475,
      "bi": 6476,
      "lication": 6477,
      "mic": 6478,
      "ctrl": 6479,
      "ares": 6480,
      "âĶĤ": 6481,
      "Ġexplains": 6482,
      "Ġviol": 6483,
      "Ġconsisting": 6484,
      "Ġignore": 6485,
      "Ġgeometric": 6486,
      "Ġaccurate": 6487,
      "Ġintermediate": 6488,
      "$;": 6489,
      "]{\\": 6490,
      "msel": 6491,
      "PauliOp": 6492,
      "Ġencodes": 6493,
      "Ġlets": 6494,
      "Ġsimplify": 6495,
      "Ġsaw": 6496,
      "ovay": 6497,
      "Ġexpansion": 6498,
      "Ġtrouble": 6499,
      "Ġ],": 6500,
      "âĢĥ": 6501,
      "Ġfinally": 6502,
      "Ġmatching": 6503,
      "Ġ$[[": 6504,
      "Ġpossibilities": 6505,
      "Ġdeveloped": 6506,
      "Chapter": 6507,
      "learly": 6508,
      "âĶĶâĶĢâĶĢâĶĢâĶĺ": 6509,
      "Ġauxiliary": 6510,
      "aoa": 6511,
      "density": 6512,
      "Ġ__": 6513,
      "Ġflo": 6514,
      "Ġforms": 6515,
      "channel": 6516,
      "Ġ$\\|": 6517,
      "ĠPlease": 6518,
      "cessible": 6519,
      "Ġmatplotlib": 6520,
      "ĠTheory": 6521,
      "compose": 6522,
      "Ġmyself": 6523,
      "130": 6524,
      "Ġsurgery": 6525,
      "Ġinvolving": 6526,
      "Ġdecide": 6527,
      "Ġassert": 6528,
      "Ġnetworks": 6529,
      "mselves": 6530,
      "'),": 6531,
      "Ġradi": 6532,
      "Ġdecre": 6533,
      "oson": 6534,
      "Ġnotic": 6535,
      "Ġtraining": 6536,
      "Ġtransmit": 6537,
      "ixed": 6538,
      "Ġknows": 6539,
      "apply": 6540,
      "licity": 6541,
      "Ġblocks": 6542,
      "ĠMatrix": 6543,
      "subseteq": 6544,
      "Ġtolerant": 6545,
      "Map": 6546,
      "Ġwire": 6547,
      "terra": 6548,
      "format": 6549,
      "arding": 6550,
      "115": 6551,
      "ĠMa": 6552,
      "show": 6553,
      "Ġ1024": 6554,
      "339": 6555,
      "ĊĠĠĊĠ": 6556,
      "âĶĢâĶĢâĶĢâĶ¤": 6557,
      "present": 6558,
      "Ġderived": 6559,
      "Local": 6560,
      "Up": 6561,
      "XZ": 6562,
      "base": 6563,
      "eb": 6564,
      "tion": 6565,
      "Ġtreat": 6566,
      "aten": 6567,
      "Ġstuck": 6568,
      "omography": 6569,
      "ĠTICK": 6570,
      "Ġgenerating": 6571,
      "urning": 6572,
      "seed": 6573,
      "105": 6574,
      "108": 6575,
      "ĠLog": 6576,
      "jection": 6577,
      "Ġcouldn": 6578,
      "Ġminimal": 6579,
      "ĠUnitary": 6580,
      "execute": 6581,
      "=-": 6582,
      "even": 6583,
      "free": 6584,
      "say": 6585,
      "ÃĹ": 6586,
      "Ġthous": 6587,
      "Ġoracles": 6588,
      "Ġworked": 6589,
      "Ġupdate": 6590,
      "117": 6591,
      "102": 6592,
      "Ġrestri": 6593,
      "layout": 6594,
      "220": 6595,
      "According": 6596,
      "QM": 6597,
      "ai": 6598,
      "Ġthemselves": 6599,
      "leg": 6600,
      "Ġdim": 6601,
      "ifier": 6602,
      "ĠRY": 6603,
      "orthogonal": 6604,
      "Ġextension": 6605,
      "118": 6606,
      "ĠQKD": 6607,
      "oney": 6608,
      "}}$.": 6609,
      ")\\,": 6610,
      "astic": 6611,
      "150": 6612,
      "140": 6613,
      "when": 6614,
      "Ġdecision": 6615,
      "poly": 6616,
      "Backend": 6617,
      "gra": 6618,
      "Ġtheta": 6619,
      "step": 6620,
      "Ġuser": 6621,
      "âĶ¼": 6622,
      "Ġsimplicity": 6623,
      "ĠĠĠĠĠĠĠĠĠĠĠĠĠĠĠ": 6624,
      "Ġreson": 6625,
      "ĠNature": 6626,
      "Ġnoiseless": 6627,
      "Ġanyons": 6628,
      "104": 6629,
      "ĠGottesman": 6630,
      "144": 6631,
      "âĶĢâĶĢâĶĢâĶĢâĶĢâĶĢâĶĢâĶĢâĶĢâĶĢâĶĢâĶĢâĶĢâĶĢâĶĢâĶĢâĶĢâĶĢâĶĢâĶĢâĶĢâĶĢâĶĢâĶĢâĶĢâĶĢâĶĢâĶĢâĶĢâĶĢâĶĢâĶĢ": 6632,
      "Ġobviously": 6633,
      "Ġautomatically": 6634,
      "$|\\": 6635,
      "300": 6636,
      ":=\\": 6637,
      "det": 6638,
      "ng": 6639,
      "naps": 6640,
      "post": 6641,
      "Ġest": 6642,
      "icAer": 6643,
      "utations": 6644,
      "uses": 6645,
      "ĠSuper": 6646,
      "Ġexplo": 6647,
      "Ġgenerates": 6648,
      "Ġplan": 6649,
      "ĠLie": 6650,
      "Ġ[-": 6651,
      "ĠControlled": 6652,
      "Ġindicates": 6653,
      "Ġvertical": 6654,
      "Ġisometry": 6655,
      "SC": 6656,
      "`:": 6657,
      "dt": 6658,
      "pa": 6659,
      "system": 6660,
      "Ġsources": 6661,
      "Ġ($\\": 6662,
      "Ġaspect": 6663,
      "ived": 6664,
      "itionally": 6665,
      "selection": 6666,
      "ĠOR": 6667,
      "119": 6668,
      "ĠMe": 6669,
      "ĠLinear": 6670,
      "arsePauliOp": 6671,
      "Ġexpressions": 6672,
      "Ġaffected": 6673,
      "ternatively": 6674,
      "Ġsemi": 6675,
      "ermionic": 6676,
      "325": 6677,
      "Bob": 6678,
      "EN": 6679,
      "bb": 6680,
      "och": 6681,
      "unch": 6682,
      "ĠSmall": 6683,
      "ĠSampler": 6684,
      "109": 6685,
      "Ġintegral": 6686,
      "Ġstrugg": 6687,
      "}|^": 6688,
      "176": 6689,
      "bigotimes": 6690,
      "Ġinvest": 6691,
      "ĠJust": 6692,
      "Ġcalls": 6693,
      "Ġdecode": 6694,
      "determin": 6695,
      "Ġsuitable": 6696,
      "ollowing": 6697,
      "'],": 6698,
      "oret": 6699,
      "ords": 6700,
      "ety": 6701,
      "114": 6702,
      "alled": 6703,
      "()))": 6704,
      "175": 6705,
      "Ġreferred": 6706,
      "Ġseparately": 6707,
      "iciency": 6708,
      "Ġhyper": 6709,
      "PS": 6710,
      "fl": 6711,
      "mark": 6712,
      "rast": 6713,
      "|,": 6714,
      "Ġwitness": 6715,
      "Ġdeprec": 6716,
      "âĶĲ": 6717,
      "Ġcoming": 6718,
      "),$$": 6719,
      "Ġsomewhere": 6720,
      "ĠQASM": 6721,
      "ï¬ģed": 6722,
      "note": 6723,
      "ĠQiskitRuntimeService": 6724,
      "Ġincluded": 6725,
      "Ġprocessors": 6726,
      "365": 6727,
      "ront": 6728,
      "redkin": 6729,
      "ynman": 6730,
      "optimization": 6731,
      "Ġfailure": 6732,
      "return": 6733,
      "Similarly": 6734,
      "224": 6735,
      "Sigma": 6736,
      "spec": 6737,
      "vable": 6738,
      "ites": 6739,
      "Ġcat": 6740,
      "ctive": 6741,
      "Ġgl": 6742,
      "ĠInitial": 6743,
      "pers": 6744,
      "url": 6745,
      "Ġleaves": 6746,
      "Ġplane": 6747,
      "shape": 6748,
      "Ġregular": 6749,
      "297": 6750,
      "rotated": 6751,
      "Ġrespective": 6752,
      "Ġcorrelators": 6753,
      "Ġintroduction": 6754,
      "]]$": 6755,
      "RZ": 6756,
      "hline": 6757,
      "kwargs": 6758,
      "tract": 6759,
      "rous": 6760,
      "seud": 6761,
      "ĠBoolean": 6762,
      "acy": 6763,
      "135": 6764,
      "146": 6765,
      "}^{(": 6766,
      "backends": 6767,
      "Ġreturned": 6768,
      "iki": 6769,
      "Ġnamely": 6770,
      "optimizer": 6771,
      "rief": 6772,
      "documentation": 6773,
      "Ġbroad": 6774,
      "Ġhorizon": 6775,
      "'_": 6776,
      ")âĶĢâĶĢâĶĢ": 6777,
      "YY": 6778,
      "]):": 6779,
      "gu": 6780,
      "vially": 6781,
      "Ġdrive": 6782,
      "uni": 6783,
      "Ġry": 6784,
      "ultip": 6785,
      "Ġchip": 6786,
      "Ġinterfer": 6787,
      "ĠMo": 6788,
      "126": 6789,
      "tools": 6790,
      "','": 6791,
      "Ġhistogram": 6792,
      "Ġencounter": 6793,
      "================": 6794,
      "Ġcurious": 6795,
      "07": 6796,
      "226": 6797,
      "Add": 6798,
      "Sp": 6799,
      "jk": 6800,
      "ativity": 6801,
      "ĠOper": 6802,
      "ĠWhere": 6803,
      "112": 6804,
      ")$?": 6805,
      "Ġneural": 6806,
      "136": 6807,
      "defined": 6808,
      "Ġfourth": 6809,
      "\"?": 6810,
      "Equ": 6811,
      "HH": 6812,
      "LS": 6813,
      "Man": 6814,
      "hd": 6815,
      "vo": 6816,
      "ÏĨ": 6817,
      "entropy": 6818,
      "Ġgave": 6819,
      "otal": 6820,
      "urally": 6821,
      "Ġaccomp": 6822,
      "through": 6823,
      "103": 6824,
      "Theta": 6825,
      "133": 6826,
      "184": 6827,
      "ĊĠĠĠĠĠĠĠĠĠĠĠĠĠ": 6828,
      "}^{-": 6829,
      "Ġpointed": 6830,
      "Ġobjective": 6831,
      "Ġsuggested": 6832,
      "ĠPhysics": 6833,
      "www": 6834,
      "Ġdiscover": 6835,
      "after": 6836,
      "Ġcur": 6837,
      "enge": 6838,
      "Ġboolean": 6839,
      "ĠSuch": 6840,
      "amed": 6841,
      "irect": 6842,
      "238": 6843,
      "165": 6844,
      "177": 6845,
      "Ġconstructing": 6846,
      "Ġsatisfied": 6847,
      "Ġsuspect": 6848,
      ")_{": 6849,
      "+|\\": 6850,
      "Data": 6851,
      "SECT": 6852,
      "_-": 6853,
      "cnot": 6854,
      "some": 6855,
      "ton": 6856,
      "xx": 6857,
      "ancy": 6858,
      "Ġfit": 6859,
      "Ġcompleteness": 6860,
      "Ġvon": 6861,
      "Example": 6862,
      "205": 6863,
      "168": 6864,
      "254": 6865,
      "ĊĠĠĠĠĠĠĠĠĠĠĠĠĠĠĠĠĠĠĠĠĠĠ": 6866,
      "Ġderivation": 6867,
      "Ġinvertible": 6868,
      "envs": 6869,
      "SECTION": 6870,
      "229": 6871,
      "En": 6872,
      "Keep": 6873,
      "Sampler": 6874,
      "lim": 6875,
      "single": 6876,
      "Ġtre": 6877,
      "requ": 6878,
      "implies": 6879,
      "ĠSome": 6880,
      "Theorem": 6881,
      "129": 6882,
      "Ġdistributed": 6883,
      "138": 6884,
      "159": 6885,
      "Ġsyndromes": 6886,
      "Implement": 6887,
      "Ġfairly": 6888,
      "Ġasymptot": 6889,
      "Could": 6890,
      "ES": 6891,
      "NN": 6892,
      "\\}": 6893,
      "obs": 6894,
      "atial": 6895,
      "inimum": 6896,
      "Ġsides": 6897,
      "Ġdedu": 6898,
      "Ġexchange": 6899,
      "Ġcomplement": 6900,
      "Ġwebs": 6901,
      "force": 6902,
      "Ġ['": 6903,
      "vertheless": 6904,
      "Ġrandomness": 6905,
      "153": 6906,
      "Step": 6907,
      "Ġalternative": 6908,
      "Ġcomparing": 6909,
      "Ġcru": 6910,
      "Ġfilter": 6911,
      "*(": 6912,
      "318": 6913,
      "File": 6914,
      "bo": 6915,
      "ater": 6916,
      "Ġthrow": 6917,
      "ica": 6918,
      "ifï¬ģc": 6919,
      "Ġcharge": 6920,
      "_{-": 6921,
      "cape": 6922,
      "^{-\\": 6923,
      "}}(": 6924,
      "Ġseeing": 6925,
      "234": 6926,
      "167": 6927,
      "ĠProblem": 6928,
      "Ġsuccessfully": 6929,
      "earning": 6930,
      "Ġpermutations": 6931,
      "detector": 6932,
      "Ġretrieve": 6933,
      "ifï¬ģcult": 6934,
      ")+\\": 6935,
      "228": 6936,
      "bourne": 6937,
      "Ì¸": 6938,
      "Ġ_{": 6939,
      "atrous": 6940,
      "perform": 6941,
      "emma": 6942,
      "ĠBoth": 6943,
      "idx": 6944,
      "estions": 6945,
      "binom": 6946,
      "Ġoptimize": 6947,
      "207": 6948,
      "160": 6949,
      "250": 6950,
      "170": 6951,
      "Ġhandle": 6952,
      "Ġreplaced": 6953,
      "sequence": 6954,
      "ĠâĪĪ": 6955,
      "Ġstrictly": 6956,
      "Ġestab": 6957,
      "Eigen": 6958,
      "cular": 6959,
      "ones": 6960,
      "Ġna": 6961,
      "chain": 6962,
      "convert": 6963,
      "ĠFake": 6964,
      "Controlled": 6965,
      "106": 6966,
      "Ġequally": 6967,
      "255": 6968,
      "identity": 6969,
      "licit": 6970,
      "train": 6971,
      "Ġpurposes": 6972,
      "ĠEquation": 6973,
      "Ġproportional": 6974,
      "Ġanticomm": 6975,
      "312": 6976,
      "Simul": 6977,
      "efficient": 6978,
      "Ġ(\"": 6979,
      "ĠII": 6980,
      "Ġconclusion": 6981,
      "ĠHamming": 6982,
      "âŁ©$": 6983,
      "Ġchecked": 6984,
      "Ġconfir": 6985,
      "143": 6986,
      "366": 6987,
      "Ġcollection": 6988,
      "olevo": 6989,
      "ernstein": 6990,
      "ĠNoise": 6991,
      "Ġremoved": 6992,
      "Ġstabiliser": 6993,
      "Ġnoticed": 6994,
      ",\"": 6995,
      "file": 6996,
      "information": 6997,
      "Ġold": 6998,
      "Ġcloning": 6999,
      "Ġvice": 7000,
      "construct": 7001,
      "ĠAB": 7002,
      "elbourne": 7003,
      "116": 7004,
      "ounds": 7005,
      "230": 7006,
      "Ġsubmit": 7007,
      "Ġsubspaces": 7008,
      "384": 7009,
      "388": 7010,
      "default": 7011,
      "Ġdemonstrate": 7012,
      "Ġdetailed": 7013,
      "Ġpreviously": 7014,
      "Ġlabels": 7015,
      "DEPOLARIZE": 7016,
      "ĠCPTP": 7017,
      "Ġdemos": 7018,
      "center": 7019,
      "Ġmutual": 7020,
      "ĠSolovay": 7021,
      ")).": 7022,
      "Just": 7023,
      "first": 7024,
      "raries": 7025,
      "ream": 7026,
      "stack": 7027,
      "riz": 7028,
      "ours": 7029,
      "Ġfinish": 7030,
      "121": 7031,
      "Ġbehave": 7032,
      "206": 7033,
      "132": 7034,
      "137": 7035,
      "235": 7036,
      "186": 7037,
      "345": 7038,
      "sphere": 7039,
      "Ġpublished": 7040,
      "Ġmathematics": 7041,
      "--->": 7042,
      "ĠAppro": 7043,
      "mission": 7044,
      "213": 7045,
      "216": 7046,
      "RX": 7047,
      "Some": 7048,
      "Te": 7049,
      "redu": 7050,
      "Input": 7051,
      "Ġcombine": 7052,
      "ĠMark": 7053,
      "Ġincreases": 7054,
      "Ġneighb": 7055,
      "204": 7056,
      "240": 7057,
      "296": 7058,
      "359": 7059,
      "Ġtermin": 7060,
      "Ġattribute": 7061,
      "Ġformulation": 7062,
      "Ġconfusing": 7063,
      "Ġregardless": 7064,
      "Ġadjoint": 7065,
      "Python": 7066,
      "!)": 7067,
      "225": 7068,
      "301": 7069,
      "400": 7070,
      "kill": 7071,
      "alities": 7072,
      "ctures": 7073,
      "ibility": 7074,
      "Ġharder": 7075,
      "156": 7076,
      "147": 7077,
      "âĶĢâĶĺ": 7078,
      "Ġdecompositions": 7079,
      "rotation": 7080,
      "Ġdiffusion": 7081,
      "Ġnumerical": 7082,
      "Ġchemistry": 7083,
      "299": 7084,
      "ats": 7085,
      "ceback": 7086,
      "Ġcons": 7087,
      "ĠSy": 7088,
      "Ġshor": 7089,
      "Ġvan": 7090,
      "ĠCould": 7091,
      "select": 7092,
      "Ġ[(": 7093,
      "Ġevolve": 7094,
      "properties": 7095,
      "173": 7096,
      "178": 7097,
      "191": 7098,
      "284": 7099,
      "Ġdiagrams": 7100,
      "Ġremark": 7101,
      "ternal": 7102,
      "âĸĳ": 7103,
      "Ġspectrum": 7104,
      "Ġpriv": 7105,
      "Measurement": 7106,
      "ĠDirac": 7107,
      "ohn": 7108,
      "square": 7109,
      "223": 7110,
      "LU": 7111,
      "Sum": 7112,
      "pulse": 7113,
      "tally": 7114,
      "zeta": 7115,
      "ĠWhich": 7116,
      "Ġhu": 7117,
      "endian": 7118,
      "expon": 7119,
      "loc": 7120,
      "imitives": 7121,
      "Ġkets": 7122,
      "Ġdependent": 7123,
      "139": 7124,
      "152": 7125,
      "Ġdeterminant": 7126,
      "187": 7127,
      "198": 7128,
      "265": 7129,
      "336": 7130,
      "377": 7131,
      "Ġstands": 7132,
      "Mathemat": 7133,
      "ĠâĶĮâĶĢâĶĢâĶĢâĶĲ": 7134,
      "Ġrepetitions": 7135,
      "Users": 7136,
      "Optim": 7137,
      "have": 7138,
      "transform": 7139,
      "ref": 7140,
      "isen": 7141,
      "Ġmar": 7142,
      "ull": 7143,
      "uler": 7144,
      "Ġ(`": 7145,
      "ows": 7146,
      "start": 7147,
      "riers": 7148,
      "Ġitem": 7149,
      "ĠRZ": 7150,
      "Ġreduction": 7151,
      "weep": 7152,
      "\\\\\\": 7153,
      "141": 7154,
      "148": 7155,
      "245": 7156,
      "247": 7157,
      "275": 7158,
      "ĠâĥĹ": 7159,
      "Ġfields": 7160,
      "Ġconventional": 7161,
      "ĠQMA": 7162,
      "Ġfeedback": 7163,
      "limits": 7164,
      ")])": 7165,
      "323": 7166,
      "Element": 7167,
      "eff": 7168,
      "molecule": 7169,
      "simp": 7170,
      "Ã¶": 7171,
      "Ġtape": 7172,
      "Ġgre": 7173,
      "arning": 7174,
      "arlie": 7175,
      "Initial": 7176,
      "Ġcontrast": 7177,
      "Ġadapt": 7178,
      "Ġparams": 7179,
      "Ġaccessible": 7180,
      "Ġrequirements": 7181,
      "ĠWD": 7182,
      "122": 7183,
      "131": 7184,
      "236": 7185,
      "145": 7186,
      "Ġsubstit": 7187,
      "288": 7188,
      "294": 7189,
      "333": 7190,
      "346": 7191,
      "394": 7192,
      "Ġguide": 7193,
      "Ġpyhd": 7194,
      "Ġqutrit": 7195,
      "dentity": 7196,
      "Each": 7197,
      "each": 7198,
      "itle": 7199,
      "Ġservice": 7200,
      "Ġdifï¬ģcult": 7201,
      "Ġfront": 7202,
      "Ġrecall": 7203,
      "ĠPres": 7204,
      "Ġuns": 7205,
      "âĶĢâĶĢâĸł": 7206,
      "parallel": 7207,
      "244": 7208,
      "190": 7209,
      "267": 7210,
      "330": 7211,
      "Ġproven": 7212,
      "Ġequivalently": 7213,
      "Ġsucceed": 7214,
      "Ġpotentially": 7215,
      "Ġconsistent": 7216,
      "Ġdiction": 7217,
      "ĠFeynman": 7218,
      "Ġdeprecated": 7219,
      "\\,\\": 7220,
      "]$.": 7221,
      "zeros": 7222,
      "Ġmere": 7223,
      "abor": 7224,
      "Ġleaving": 7225,
      "dern": 7226,
      "Ġpurely": 7227,
      "ecr": 7228,
      "Ġlooked": 7229,
      "166": 7230,
      "253": 7231,
      "158": 7232,
      "174": 7233,
      "cules": 7234,
      "268": 7235,
      "269": 7236,
      "reng": 7237,
      "Ġminus": 7238,
      "Ġtransformed": 7239,
      "Ġallowing": 7240,
      "Ġattach": 7241,
      "Ġmultiplic": 7242,
      "ĠCircuits": 7243,
      "Ġcontinued": 7244,
      "avesd": 7245,
      "Ġdefinitely": 7246,
      "deterministic": 7247,
      ")):": 7248,
      "/.": 7249,
      "iZ": 7250,
      "king": 7251,
      "page": 7252,
      "also": 7253,
      "arn": 7254,
      "aratus": 7255,
      "Ġcomposition": 7256,
      "Ġmanually": 7257,
      "Ġran": 7258,
      "pto": 7259,
      "Ġnoted": 7260,
      "Ġimplicit": 7261,
      "âĶĢâĶĢâķ«": 7262,
      "uparrow": 7263,
      "Ġtrap": 7264,
      "Ġgeneralization": 7265,
      "Ġshowed": 7266,
      "Ġmoving": 7267,
      "163": 7268,
      "155": 7269,
      "182": 7270,
      "196": 7271,
      "197": 7272,
      "278": 7273,
      "337": 7274,
      "347": 7275,
      "Ġgraphs": 7276,
      "Ġpymatching": 7277,
      "Ġgreatly": 7278,
      "Ġcapable": 7279,
      "Ġbelieved": 7280,
      "underbrace": 7281,
      "Ġguarantee": 7282,
      "Ġenumerate": 7283,
      ")âĶĢâĶĢâĶĢ(": 7284,
      "328": 7285,
      "327": 7286,
      "Hamiltonian": 7287,
      "RY": 7288,
      "Ġapart": 7289,
      "chem": 7290,
      "Indeed": 7291,
      "Ġrequest": 7292,
      "239": 7293,
      "149": 7294,
      "189": 7295,
      "286": 7296,
      "measurements": 7297,
      "380": 7298,
      "387": 7299,
      "309": 7300,
      "Ġmechanical": 7301,
      "mode": 7302,
      "sibility": 7303,
      "Ġcircle": 7304,
      "computer": 7305,
      "Introduction": 7306,
      "downarrow": 7307,
      "Entanglement": 7308,
      "Turing": 7309,
      "^-\\": 7310,
      "âĹ": 7311,
      "Ġpseud": 7312,
      "ĠAI": 7313,
      "urch": 7314,
      "Ġperson": 7315,
      "shot": 7316,
      "Ġeigenbasis": 7317,
      "versity": 7318,
      "Ġkeys": 7319,
      "Ġshouldn": 7320,
      "polar": 7321,
      "151": 7322,
      "172": 7323,
      "ĊĠĠĠĠĠĠĠĠĠĠ": 7324,
      "287": 7325,
      "273": 7326,
      "385": 7327,
      "Ġboundaries": 7328,
      "Ġsupports": 7329,
      "Once": 7330,
      "Ġcenter": 7331,
      "Ġcryptographic": 7332,
      "Ġdigital": 7333,
      "Ġexponentiation": 7334,
      "factor": 7335,
      "ĠParameterVector": 7336,
      "aronson": 7337,
      "217": 7338,
      "315": 7339,
      "block": 7340,
      "Ġsil": 7341,
      "iling": 7342,
      "Ġ|+": 7343,
      "cap": 7344,
      "ĠDist": 7345,
      "QuantumRegister": 7346,
      "ĠMachine": 7347,
      "ĠGet": 7348,
      "Ġpredi": 7349,
      "Ġtranspiler": 7350,
      "Ġnonzero": 7351,
      "standard": 7352,
      "ximate": 7353,
      "258": 7354,
      "338": 7355,
      "ĠKronecker": 7356,
      "222": 7357,
      "000000": 7358,
      "Prob": 7359,
      "ĠÏķ": 7360,
      "Ġinsert": 7361,
      "ĠBasicAer": 7362,
      "Ġefï¬ģciently": 7363,
      "Ġcontradiction": 7364,
      "Ġkickback": 7365,
      "+(": 7366,
      "214": 7367,
      "218": 7368,
      "320": 7369,
      "Schmidt": 7370,
      "gen": 7371,
      "just": 7372,
      "ky": 7373,
      "onical": 7374,
      "Ġrevers": 7375,
      "agraph": 7376,
      "ĠFredkin": 7377,
      "sharp": 7378,
      "ĠĠĠĠĠĠĠĠĠĠĠĠĠĠĠĠĠĠĠ": 7379,
      "169": 7380,
      "257": 7381,
      "Ġreferring": 7382,
      "280": 7383,
      "277": 7384,
      "290": 7385,
      "293": 7386,
      "295": 7387,
      "Ġprim": 7388,
      "354": 7389,
      "348": 7390,
      "367": 7391,
      "390": 7392,
      "398": 7393,
      "305": 7394,
      "Ġevaluation": 7395,
      "Ġamounts": 7396,
      "Ġsymmetry": 7397,
      "Ġhappened": 7398,
      "decomposition": 7399,
      "Ġprogress": 7400,
      "'])": 7401,
      "211": 7402,
      "212": 7403,
      "215": 7404,
      "219": 7405,
      "310": 7406,
      "ah": 7407,
      "bloch": 7408,
      "iest": 7409,
      "kapp": 7410,
      "ss": 7411,
      "tur": 7412,
      "Ġult": 7413,
      "ĠÌ¸": 7414,
      "erc": 7415,
      "rep": 7416,
      "edge": 7417,
      "Ġnor": 7418,
      "user": 7419,
      "Ġinternal": 7420,
      "1067": 7421,
      "Ġhash": 7422,
      "Ġprevent": 7423,
      "Ġinstalled": 7424,
      "quency": 7425,
      "134": 7426,
      "164": 7427,
      "241": 7428,
      "335": 7429,
      "364": 7430,
      "396": 7431,
      "376": 7432,
      "303": 7433,
      "Ġends": 7434,
      "Ġlocally": 7435,
      "Ġlinks": 7436,
      "Ġconverted": 7437,
      "ologies": 7438,
      "ĠÎ²": 7439,
      "multip": 7440,
      ">>>": 7441,
      "Unitary": 7442,
      "rength": 7443,
      "kappa": 7444,
      "Two": 7445,
      "TICK": 7446,
      "Ġ;": 7447,
      "ĠĊĠĠĠĠ": 7448,
      "entions": 7449,
      "dependent": 7450,
      "Ġlatest": 7451,
      "Ġgrover": 7452,
      "Ġsoon": 7453,
      "0011": 7454,
      "ĠFig": 7455,
      "Ġworse": 7456,
      "elling": 7457,
      "Ġdistances": 7458,
      "ĠQS": 7459,
      "Ġ\"/": 7460,
      "Ġart": 7461,
      "mechan": 7462,
      "161": 7463,
      "259": 7464,
      "142": 7465,
      "246": 7466,
      "179": 7467,
      "264": 7468,
      "274": 7469,
      "306": 7470,
      "Ġapproximately": 7471,
      "Ġpaths": 7472,
      "Ġexcit": 7473,
      "ING": 7474,
      "Estimate": 7475,
      "-@": 7476,
      "227": 7477,
      "317": 7478,
      "AD": 7479,
      "Say": 7480,
      "^-": 7481,
      "func": 7482,
      "tutorial": 7483,
      "}/": 7484,
      "Ġbug": 7485,
      "Ġbrief": 7486,
      "Ġei": 7487,
      "Ġefficiency": 7488,
      "ipher": 7489,
      "___": 7490,
      "162": 7491,
      "188": 7492,
      "266": 7493,
      "285": 7494,
      "350": 7495,
      "358": 7496,
      "360": 7497,
      "395": 7498,
      "blue": 7499,
      "Ġclarify": 7500,
      "isenberg": 7501,
      "sc": 7502,
      "ÎĶ": 7503,
      "Ġgra": 7504,
      "ĠHolevo": 7505,
      "Ġshape": 7506,
      "ĠOnce": 7507,
      "Ġbitstrings": 7508,
      "versary": 7509,
      "Ġformer": 7510,
      "232": 7511,
      "154": 7512,
      "242": 7513,
      "181": 7514,
      "194": 7515,
      "260": 7516,
      "270": 7517,
      "374": 7518,
      "221": 7519,
      "302": 7520,
      "(\"+": 7521,
      "Ġattack": 7522,
      "Ġsugg": 7523,
      "Notice": 7524,
      "processing": 7525,
      "313": 7526,
      "ZX": 7527,
      "ccess": 7528,
      "clifford": 7529,
      "dg": 7530,
      "ditional": 7531,
      "small": 7532,
      "Ġabelian": 7533,
      "Ġsl": 7534,
      "orbitals": 7535,
      "Ġhyp": 7536,
      "Ġforward": 7537,
      "Ġexplore": 7538,
      "Ġ$\\|\\": 7539,
      "Ġapparatus": 7540,
      "Ġpartition": 7541,
      "209": 7542,
      "Ġdetermining": 7543,
      "183": 7544,
      "195": 7545,
      "263": 7546,
      "349": 7547,
      "361": 7548,
      "389": 7549,
      "clus": 7550,
      "370": 7551,
      "378": 7552,
      "304": 7553,
      "307": 7554,
      "monic": 7555,
      "Prove": 7556,
      "7071067": 7557,
      "Ġwebsite": 7558,
      "319": 7559,
      "321": 7560,
      "qobj": 7561,
      "same": 7562,
      "ï£": 7563,
      "Ġdag": 7564,
      "Ġflow": 7565,
      "stabilizers": 7566,
      "Ġconversion": 7567,
      "ĠSpecifically": 7568,
      "istics": 7569,
      "cope": 7570,
      "Ġparagraph": 7571,
      "Ġrealization": 7572,
      "Ġapparent": 7573,
      "Ġgeneralize": 7574,
      "Ġplaces": 7575,
      "ĠRev": 7576,
      "Ġobserving": 7577,
      "token": 7578,
      "237": 7579,
      "243": 7580,
      "276": 7581,
      "279": 7582,
      "344": 7583,
      "383": 7584,
      "386": 7585,
      "379": 7586,
      "world": 7587,
      "308": 7588,
      "Ġconditioned": 7589,
      "ndrome": 7590,
      "viously": 7591,
      "spired": 7592,
      "Ġpassing": 7593,
      "Ġessential": 7594,
      "Ġdrawn": 7595,
      "Ġreflect": 7596,
      "Ġprograms": 7597,
      "Ġreproduce": 7598,
      "329": 7599,
      "Gamma": 7600,
      "IM": 7601,
      "bet": 7602,
      "land": 7603,
      "inding": 7604,
      "ingly": 7605,
      "ush": 7606,
      "Ġspan": 7607,
      "Ġadmit": 7608,
      "ĠWatrous": 7609,
      "}}$$": 7610,
      "202": 7611,
      "157": 7612,
      "248": 7613,
      "249": 7614,
      "Ġlinearity": 7615,
      "334": 7616,
      "351": 7617,
      "357": 7618,
      "382": 7619,
      "Ġelectronic": 7620,
      "Ġassemble": 7621,
      "Ġconcaten": 7622,
      "distance": 7623,
      "Ġsurprising": 7624,
      "Ġkinds": 7625,
      "Ġvideo": 7626,
      "Second": 7627,
      "\\}_": 7628,
      "ged": 7629,
      "ious": 7630,
      "mma": 7631,
      "uous": 7632,
      "Ġfig": 7633,
      "Ġedit": 7634,
      "Ġeavesd": 7635,
      "anted": 7636,
      "amme": 7637,
      "agnetic": 7638,
      "cade": 7639,
      "ĠBen": 7640,
      "param": 7641,
      "208": 7642,
      "251": 7643,
      "252": 7644,
      "272": 7645,
      "331": 7646,
      "368": 7647,
      "372": 7648,
      "Ġtook": 7649,
      "Ġclaimed": 7650,
      "Ġvisualize": 7651,
      "Ġrigorous": 7652,
      "'}\\": 7653,
      "'))": 7654,
      "AE": 7655,
      "Output": 7656,
      "RAM": 7657,
      "[(": 7658,
      "\\|^": 7659,
      "aim": 7660,
      "rc": 7661,
      "sime": 7662,
      "Ġsix": 7663,
      "Ġisomorphism": 7664,
      "Ġhal": 7665,
      "angles": 7666,
      "Ġbeam": 7667,
      "ĠRandom": 7668,
      "ĠBernstein": 7669,
      "Ġtransmon": 7670,
      "233": 7671,
      "ĊĠĠĠĠĠĠĠĠĠĠĠĠ": 7672,
      "193": 7673,
      "Ġsignal": 7674,
      "281": 7675,
      "289": 7676,
      "298": 7677,
      "332": 7678,
      "356": 7679,
      "369": 7680,
      "Ġmaximal": 7681,
      "Ġcontained": 7682,
      "Ġreflection": 7683,
      "slant": 7684,
      "lectronic": 7685,
      "Ġdataset": 7686,
      "simeq": 7687,
      "Matching": 7688,
      "grover": 7689,
      "mann": 7690,
      "qp": 7691,
      "enc": 7692,
      "Ġpennylane": 7693,
      "Ġquot": 7694,
      "imately": 7695,
      "Ġgr": 7696,
      "Ġclos": 7697,
      "Ġcloser": 7698,
      "Ġcloud": 7699,
      "ĠDis": 7700,
      "ĠNumber": 7701,
      "Ġcalling": 7702,
      "ĠXX": 7703,
      "ĠYour": 7704,
      "ĠQuantumInstance": 7705,
      "())),": 7706,
      "ĠAlthough": 7707,
      "185": 7708,
      "282": 7709,
      "292": 7710,
      "Ġoffers": 7711,
      "Ġpurity": 7712,
      "Ġdirections": 7713,
      "Ġsampled": 7714,
      "âĶĮâĶĢâĶĢâĶĢâĶĲ": 7715,
      "Ġanneal": 7716,
      "Ġemphas": 7717,
      "Ġrestricted": 7718,
      "nipp": 7719,
      "Ġadjacent": 7720,
      "Ġupdated": 7721,
      "ĠOptimization": 7722,
      "Update": 7723,
      "316": 7724,
      "DK": 7725,
      "cp": 7726,
      "ei": 7727,
      "}\")": 7728,
      "ategor": 7729,
      "ĠSet": 7730,
      "adder": 7731,
      "except": 7732,
      "entials": 7733,
      "Ġoverview": 7734,
      "ĠLearning": 7735,
      "231": 7736,
      "171": 7737,
      "271": 7738,
      "prep": 7739,
      "340": 7740,
      "341": 7741,
      "Ġ:)": 7742,
      "Ġbigger": 7743,
      "^*\\": 7744,
      "Ġnaturally": 7745,
      "âĶĮâĶĢâĶ´âĶĢâĶĲ": 7746,
      "Ġguaranteed": 7747,
      "Ġembedding": 7748,
      ".$": 7749,
      "311": 7750,
      "322": 7751,
      "{|\\": 7752,
      "âĬķ": 7753,
      "esian": 7754,
      "Ġcomposer": 7755,
      "ott": 7756,
      "izable": 7757,
      "assum": 7758,
      "ĠAnother": 7759,
      "than": 7760,
      "Ġwhenever": 7761,
      "}},": 7762,
      "}}$,": 7763,
      "Ġoffset": 7764,
      "ribution": 7765,
      "textbook": 7766,
      "Ġlowest": 7767,
      "ensityMatrix": 7768,
      "Ġfeas": 7769,
      "ĠKit": 7770,
      "ĠKnill": 7771,
      "ĠJohn": 7772,
      "Ġlisted": 7773,
      "Ġchallenge": 7774,
      "Ġargue": 7775,
      "Ġstrongly": 7776,
      "ĠĠĠĠĠĠĠĠĠĠĠĠĠĠ": 7777,
      "Ġdecimal": 7778,
      "ordan": 7779,
      "mmetric": 7780,
      "Ġexception": 7781,
      "Ġearly": 7782,
      "Ġdictionary": 7783,
      "324": 7784,
      "Eigensolver": 7785,
      "qpe": 7786,
      "wave": 7787,
      "Ġfourier": 7788,
      "Ġwin": 7789,
      "Ġnone": 7790,
      "Ġcompat": 7791,
      "irt": 7792,
      "Ġdegenerate": 7793,
      "Ġstatements": 7794,
      "energies": 7795,
      "Ġrequiring": 7796,
      "conj": 7797,
      "uitively": 7798,
      "Ġmisunder": 7799,
      "203": 7800,
      "they": 7801,
      "261": 7802,
      "262": 7803,
      "283": 7804,
      "Ġordered": 7805,
      "Ġpointing": 7806,
      "Ġtesting": 7807,
      "Ġswapping": 7808,
      "Ġproofs": 7809,
      "minimum": 7810,
      "âĸĪ": 7811,
      "Ġcriteria": 7812,
      ".]": 7813,
      "Furthermore": 7814,
      "Knill": 7815,
      "did": 7816,
      "rical": 7817,
      "asi": 7818,
      "arity": 7819,
      "Ġ\\}$": 7820,
      "Ġproving": 7821,
      "Ġconject": 7822,
      "emb": 7823,
      "Ġvast": 7824,
      "Ġunable": 7825,
      "Ġ&&": 7826,
      "ĠAaronson": 7827,
      "Ġfailed": 7828,
      "blems": 7829,
      "ĠThank": 7830,
      "ĠEvery": 7831,
      "ĠUCC": 7832,
      "acc": 7833,
      "top": 7834,
      "orrel": 7835,
      "Ġneither": 7836,
      "}(-": 7837,
      "pyplot": 7838,
      "supp": 7839,
      "Ġsigns": 7840,
      "Ġuniverse": 7841,
      "Ġpresence": 7842,
      "roduct": 7843,
      "Ġblue": 7844,
      "Ġstudied": 7845,
      "Ġprinciples": 7846,
      "Ġclaims": 7847,
      "Ġrecovery": 7848,
      "ĠËľ": 7849,
      "Under": 7850,
      "Ġthousands": 7851,
      "âĸĪâĸĪ": 7852,
      "GHZ": 7853,
      "IX": 7854,
      "SER": 7855,
      "\\%": 7856,
      "itten": 7857,
      "conver": 7858,
      "Ġabs": 7859,
      "program": 7860,
      "352": 7861,
      "391": 7862,
      "371": 7863,
      "373": 7864,
      "Ġsquares": 7865,
      "Ġcertainty": 7866,
      "ĠStates": 7867,
      "Ġtechnical": 7868,
      "\\![": 7869,
      "sibly": 7870,
      "ĠComputers": 7871,
      "multi": 7872,
      "Ġwait": 7873,
      "(âĪĴ": 7874,
      ",'": 7875,
      ",):": 7876,
      "399": 7877,
      "DP": 7878,
      "`)": 7879,
      "oot": 7880,
      "rd": 7881,
      "service": 7882,
      "Ġpu": 7883,
      "Ġstrength": 7884,
      "Ġlands": 7885,
      "Ġrealistic": 7886,
      "]))": 7887,
      "Ġcreg": 7888,
      "ney": 7889,
      "343": 7890,
      "Ġeasiest": 7891,
      "Ġprepares": 7892,
      "preset": 7893,
      "ĠOtherwise": 7894,
      ".âĢĿ": 7895,
      "Vari": 7896,
      "Ġpsi": 7897,
      "stant": 7898,
      "Ġrise": 7899,
      "Ġsuperdense": 7900,
      "ĠLa": 7901,
      "Ġflipping": 7902,
      "291": 7903,
      "353": 7904,
      "mpty": 7905,
      "393": 7906,
      "Ġlibraries": 7907,
      "ACE": 7908,
      "configuration": 7909,
      "Ġparametriz": 7910,
      "Ġcodewords": 7911,
      "alueError": 7912,
      "Ġconfirm": 7913,
      "ercises": 7914,
      "'\"": 7915,
      "314": 7916,
      "\\{\\": 7917,
      "half": 7918,
      "numpy": 7919,
      "tum": 7920,
      "itH": 7921,
      "Ġbunch": 7922,
      "Ġstuff": 7923,
      "umPy": 7924,
      "Ġ${": 7925,
      "Ġdealing": 7926,
      "ĠOracle": 7927,
      "Ġlimits": 7928,
      "Ġfactorization": 7929,
      "sinter": 7930,
      "362": 7931,
      "Ġassumes": 7932,
      "Ġlearned": 7933,
      "ĠHeisenberg": 7934,
      "Ġmaterials": 7935,
      "loyd": 7936,
      "Ġpiece": 7937,
      "Ġscientists": 7938,
      "Ġutil": 7939,
      "()))},": 7940,
      "({\\": 7941,
      "Use": 7942,
      "power": 7943,
      "session": 7944,
      "eturn": 7945,
      "photon": 7946,
      "Ġlemma": 7947,
      "ampling": 7948,
      "Ġtranslate": 7949,
      "1024": 7950,
      "ĠĠĠĠĠĠĠĠĠĠĠĠĠĠĠĠĠ": 7951,
      "Ġnonlinear": 7952,
      "binary": 7953,
      "Ġversa": 7954,
      "Ġrecur": 7955,
      "Ġrecord": 7956,
      "363": 7957,
      "ABLE": 7958,
      "inalg": 7959,
      "mathscr": 7960,
      "Ġputting": 7961,
      "ĠSchr": 7962,
      "layer": 7963,
      "omorphic": 7964,
      "Ġï¬ģnite": 7965,
      "Im": 7966,
      "Job": 7967,
      "Line": 7968,
      "fault": 7969,
      "middle": 7970,
      "machine": 7971,
      "scale": 7972,
      "xrightarrow": 7973,
      "Ġibmq": 7974,
      "Ġcoset": 7975,
      "Ġtoken": 7976,
      "Ġnamed": 7977,
      "ĠTrans": 7978,
      "Ġroots": 7979,
      "ĠNMR": 7980,
      "Ġmember": 7981,
      "Ġqbits": 7982,
      "Ġenter": 7983,
      "ipy": 7984,
      "342": 7985,
      "381": 7986,
      "Ġmechanism": 7987,
      "Ġclosely": 7988,
      "Ġexcited": 7989,
      "eigenvalue": 7990,
      "ĠSparsePauliOp": 7991,
      "Ġresponse": 7992,
      "(*": 7993,
      "AG": 7994,
      "CLU": 7995,
      "Non": 7996,
      "]).": 7997,
      "tip": 7998,
      "uly": 7999,
      "|=": 8000,
      "Ġdtype": 8001,
      "Ġbul": 8002,
      "Ġbloch": 8003,
      "Ġhol": 8004,
      "Ġlif": 8005,
      "Ġspher": 8006,
      "ĠSay": 8007,
      "Ġusage": 8008,
      "ending": 8009,
      "Ġtracing": 8010,
      "âŁ©+|": 8011,
      "1100": 8012,
      "Ġanymore": 8013,
      "Ġpopular": 8014,
      "ield": 8015,
      "})$,": 8016,
      "Ġseparated": 8017,
      "ridge": 8018,
      "Ġadjust": 8019,
      "periments": 8020,
      "^^^^^^^^": 8021,
      "Ġhuge": 8022,
      "Hope": 8023,
      "br": 8024,
      "den": 8025,
      "hspace": 8026,
      "ube": 8027,
      "wid": 8028,
      "Ġago": 8029,
      "Ġmass": 8030,
      "adata": 8031,
      "calcul": 8032,
      "iving": 8033,
      "cost": 8034,
      "Ġmatches": 8035,
      "ĠEnt": 8036,
      "fords": 8037,
      "compon": 8038,
      "ĠCharlie": 8039,
      "equival": 8040,
      "ĠSimul": 8041,
      "ĠHadamards": 8042,
      "392": 8043,
      "ditivity": 8044,
      "ĠâĶĤâĶĤ": 8045,
      "Ġlanguages": 8046,
      "Applying": 8047,
      "INCLU": 8048,
      "Ġstruggling": 8049,
      "Ġpseudo": 8050,
      "assuming": 8051,
      "INCLUDE": 8052,
      "Sy": 8053,
      "VABLE": 8054,
      "loss": 8055,
      "âĦ": 8056,
      "ĊĊ": 8057,
      "err": 8058,
      "isher": 8059,
      "Ġfi": 8060,
      "Ġgcd": 8061,
      "Ġ\\[": 8062,
      "Ġcandid": 8063,
      "Ġshall": 8064,
      "Ġcorner": 8065,
      "thur": 8066,
      "Ġ-|": 8067,
      "Ġthanks": 8068,
      "Ġzeros": 8069,
      "ifying": 8070,
      "ĠProduct": 8071,
      "clic": 8072,
      "monitor": 8073,
      "Ġï¬ģnal": 8074,
      "lynom": 8075,
      "Ġdiscard": 8076,
      "-|-|": 8077,
      "Ġresearchers": 8078,
      "lexity": 8079,
      "ĠPhysical": 8080,
      "learning": 8081,
      "Ġirrelevant": 8082,
      "Ġimprovement": 8083,
      "SPACE": 8084,
      "ĠResult": 8085,
      "Ġdeduce": 8086,
      "Ġcrucial": 8087,
      "nippet": 8088,
      "SERVABLE": 8089,
      "grad": 8090,
      "linalg": 8091,
      "satz": 8092,
      "ubs": 8093,
      "Ġtold": 8094,
      "owers": 8095,
      "Ġdepi": 8096,
      "dec": 8097,
      "istically": 8098,
      "coded": 8099,
      "Ġextended": 8100,
      "Exp": 8101,
      "Expectation": 8102,
      "Ġ\",": 8103,
      "Ġanywhere": 8104,
      "Ġparty": 8105,
      "Ġphysic": 8106,
      "artic": 8107,
      "Ġsignificantly": 8108,
      "Ġexecuting": 8109,
      "inespring": 8110,
      "Ġcryptos": 8111,
      "Lin": 8112,
      "tableau": 8113,
      "|$$": 8114,
      "Ġaff": 8115,
      "Ġcard": 8116,
      "Ġfalse": 8117,
      "Ġbring": 8118,
      "Ġrely": 8119,
      "rap": 8120,
      "Ġ001": 8121,
      "Ġphi": 8122,
      "atorial": 8123,
      "into": 8124,
      "Ġadds": 8125,
      "()),": 8126,
      "Ġfunctionality": 8127,
      "ifications": 8128,
      "Ġ{}": 8129,
      "Ġdetected": 8130,
      "Ġoccurring": 8131,
      "ometimes": 8132,
      "Ġelimin": 8133,
      "Ġindividually": 8134,
      "Ġreceived": 8135,
      "Ġopposed": 8136,
      "normalized": 8137,
      "Ġmillion": 8138,
      "napshot": 8139,
      "Ġmerely": 8140,
      "Ġhypoth": 8141,
      "70710678": 8142,
      "Lane": 8143,
      "Rec": 8144,
      "Vazirani": 8145,
      "|)\\": 8146,
      "represent": 8147,
      "Ġexam": 8148,
      "Ġlack": 8149,
      "additivity": 8150,
      "ĠReg": 8151,
      "coords": 8152,
      "Ġtravel": 8153,
      "ĠWould": 8154,
      "Ġcommutation": 8155,
      "textbf": 8156,
      "âķ©": 8157,
      "probabilities": 8158,
      "ĠProgram": 8159,
      "...]": 8160,
      "Ġanalogy": 8161,
      "Ġcommunicate": 8162,
      "Ġdifficulty": 8163,
      "Ġadvanced": 8164,
      "Ġtheoretically": 8165,
      "Ġpackages": 8166,
      "computers": 8167,
      "Ġdivide": 8168,
      "ennyLane": 8169,
      "Ġemploy": 8170,
      "docs": 8171,
      "Ġinsights": 8172,
      "physical": 8173,
      "ĠParameterVectorElement": 8174,
      "Imagine": 8175,
      "Oper": 8176,
      "YLA": 8177,
      "fra": 8178,
      "global": 8179,
      "iq": 8180,
      "por": 8181,
      "zing": 8182,
      "Ġ}{": 8183,
      "Ġgen": 8184,
      "usy": 8185,
      "oms": 8186,
      "duc": 8187,
      "}$)": 8188,
      "close": 8189,
      "Ġcallback": 8190,
      "Ġnearly": 8191,
      "Ġmessages": 8192,
      "Ġuniquely": 8193,
      "Ġbreaking": 8194,
      "Ġmolecules": 8195,
      "chemistry": 8196,
      "ĠÌ¸=": 8197,
      ")}{\\": 8198,
      "MPP": 8199,
      "]\\!": 8200,
      "eled": 8201,
      "gs": 8202,
      "task": 8203,
      "{(\\": 8204,
      "Ġsinter": 8205,
      "Ġcry": 8206,
      "Ġfive": 8207,
      "Ġinversion": 8208,
      "ĠTransp": 8209,
      "integ": 8210,
      "ĠCorrection": 8211,
      "bell": 8212,
      "ĠAm": 8213,
      "copy": 8214,
      "ĠMaybe": 8215,
      "liffords": 8216,
      "ĠQIS": 8217,
      "rying": 8218,
      "Ġstatus": 8219,
      "Ġsolid": 8220,
      "}^*": 8221,
      "ĠâĶľâĶĢ": 8222,
      "Ġexperimentally": 8223,
      "ological": 8224,
      "Ġinterpreted": 8225,
      "Ġserver": 8226,
      "observable": 8227,
      "Ġvertex": 8228,
      "Ġreached": 8229,
      "Ġanalyze": 8230,
      "Ġlaws": 8231,
      "Ġconfiguration": 8232,
      "ĠUniversity": 8233,
      "Ġunlikely": 8234,
      "Ġrestriction": 8235,
      ")_{\\": 8236,
      "?\"": 8237,
      "Fe": 8238,
      "Product": 8239,
      "does": 8240,
      "ffer": 8241,
      "|-": 8242,
      "âİ": 8243,
      "Ġ---": 8244,
      "erning": 8245,
      "although": 8246,
      "etti": 8247,
      "Ġdecl": 8248,
      "Ġmanif": 8249,
      "ptions": 8250,
      "Ġvirt": 8251,
      "ĠNext": 8252,
      "ĠNumPy": 8253,
      "ĠLemma": 8254,
      "ĠChurch": 8255,
      "}(|\\": 8256,
      "Ġcreation": 8257,
      "Ġsubscript": 8258,
      "operations": 8259,
      "Ġmodified": 8260,
      "Ġsummary": 8261,
      "Ġcollapsed": 8262,
      "Ġconvince": 8263,
      "feature": 8264,
      "Ġmanipulate": 8265,
      "eye": 8266,
      "Ġbrute": 8267,
      "Common": 8268,
      "lynomially": 8269,
      "={": 8270,
      "Di": 8271,
      "\\}_{": 8272,
      "cles": 8273,
      "rimin": 8274,
      "|=\\": 8275,
      "}:": 8276,
      "atives": 8277,
      "Ġsizes": 8278,
      "Ġflu": 8279,
      "Ġhadamard": 8280,
      "Ġ010": 8281,
      "Ġseconds": 8282,
      "0010": 8283,
      "Ġhighest": 8284,
      "urrently": 8285,
      "ĊĠĠĠĠĠĠĠĠĠĠĠĠĠĠĠĠĠĠĠĠĠĠĠĠĠĠĠĠĠ": 8286,
      "Ġdiscrimin": 8287,
      "Estimator": 8288,
      "Ã¶dinger": 8289,
      "$\"": 8290,
      "Parameter": 8291,
      "Tensor": 8292,
      "Zero": 8293,
      "]$,": 8294,
      "master": 8295,
      "pub": 8296,
      "syn": 8297,
      "~\\": 8298,
      "Ġ}\\": 8299,
      "Ġstack": 8300,
      "ars": 8301,
      "Ġgeneration": 8302,
      "ĠNetwork": 8303,
      "âŁ©âĪĴ": 8304,
      "estimator": 8305,
      "Ġqbit": 8306,
      "ĠLe": 8307,
      "pending": 8308,
      "Ġcarefully": 8309,
      "compile": 8310,
      "Ġevidence": 8311,
      "Ġstrange": 8312,
      "Ġregion": 8313,
      "artree": 8314,
      "Ġprojects": 8315,
      "Ġtrip": 8316,
      "Decomp": 8317,
      "sched": 8318,
      "Ġintroducing": 8319,
      "Ġnearest": 8320,
      "Ġpurification": 8321,
      "Recall": 8322,
      "instein": 8323,
      "Ġmodulus": 8324,
      "Ġreceive": 8325,
      "HTHT": 8326,
      "Even": 8327,
      "Fn": 8328,
      "}&\\": 8329,
      "¥âĶĺ": 8330,
      "âĥĹ": 8331,
      "anies": 8332,
      "Ġbo": 8333,
      "Ġbody": 8334,
      "arb": 8335,
      "Ġbeams": 8336,
      "Ġlie": 8337,
      "ĠScience": 8338,
      "dual": 8339,
      "Ġtwir": 8340,
      "ĠNAND": 8341,
      "Ġgenerality": 8342,
      "âķ¥âĶĺ": 8343,
      "project": 8344,
      "propto": 8345,
      "Ġreplacing": 8346,
      "leportation": 8347,
      "Ġsafe": 8348,
      "nett": 8349,
      "Ġcollapsing": 8350,
      "Ġcoupled": 8351,
      "Ġarticles": 8352,
      "Ġspecifying": 8353,
      "ĠMathematica": 8354,
      "Ġinvestig": 8355,
      "Manager": 8356,
      "Ġmargin": 8357,
      "tutorials": 8358,
      "LineQubit": 8359,
      "\";": 8360,
      "diff": 8361,
      "dentials": 8362,
      "element": 8363,
      "Ġfall": 8364,
      "Ġinherent": 8365,
      "Ġtotally": 8366,
      "Ġconsequence": 8367,
      "Ġrat": 8368,
      "oll": 8369,
      "romagnetic": 8370,
      "ibr": 8371,
      "Ġsolver": 8372,
      "Ġstabilized": 8373,
      "ccos": 8374,
      "ĠProb": 8375,
      "Ġmultiplied": 8376,
      "...)": 8377,
      "Ġsimplified": 8378,
      "Ġaxi": 8379,
      "Ġinequalities": 8380,
      "III": 8381,
      "optimal": 8382,
      "Moreover": 8383,
      "Ġpositions": 8384,
      "Ġpropagate": 8385,
      "Ġtoric": 8386,
      "ĠPreskill": 8387,
      "`?": 8388,
      "ipped": 8389,
      "uc": 8390,
      "Ġtherm": 8391,
      "Ġhint": 8392,
      "Ġcanonical": 8393,
      "Ġconse": 8394,
      "ĠClearly": 8395,
      "Ġtrain": 8396,
      "Ġpoly": 8397,
      "these": 8398,
      "}\\,\\": 8399,
      "ĠYes": 8400,
      "compiler": 8401,
      "Ġcorrections": 8402,
      "ĠPerhaps": 8403,
      "Assuming": 8404,
      "Ġpreserved": 8405,
      "Ġbarrier": 8406,
      "Ġcrit": 8407,
      "eqn": 8408,
      "independent": 8409,
      "ĠOpenQASM": 8410,
      "turb": 8411,
      "between": 8412,
      ",\\\\": 8413,
      "CT": 8414,
      "Rep": 8415,
      "iX": 8416,
      "melbourne": 8417,
      "Â»": 8418,
      "Ġhim": 8419,
      "Ġprof": 8420,
      "Ġspatial": 8421,
      "Ġoperating": 8422,
      "ĠComm": 8423,
      "hout": 8424,
      "idney": 8425,
      "}}}": 8426,
      "Ġarise": 8427,
      "Ġyear": 8428,
      "Ġcalculus": 8429,
      "Ġcavity": 8430,
      "ĠPOVMs": 8431,
      "pmod": 8432,
      "Ġreceives": 8433,
      "Ġscenarios": 8434,
      "Ġillustrated": 8435,
      "Ġeventually": 8436,
      "including": 8437,
      "erlin": 8438,
      "Ġdestroy": 8439,
      "Ġfeasible": 8440,
      ".'": 8441,
      "Section": 8442,
      "coupling": 8443,
      "well": 8444,
      "Î´": 8445,
      "erance": 8446,
      "Ġsmo": 8447,
      "reps": 8448,
      "Ġinit": 8449,
      "Ġstoch": 8450,
      "Ġ$(|": 8451,
      "Ġhom": 8452,
      "ried": 8453,
      "ĠTrotter": 8454,
      "Ġinterface": 8455,
      "uple": 8456,
      "Ġdifferently": 8457,
      "Ġtransvers": 8458,
      "Ġunits": 8459,
      "Ġmodern": 8460,
      "ĠRecall": 8461,
      "mean": 8462,
      "ï¬ģes": 8463,
      "ĠAlgebra": 8464,
      "Ġmagnet": 8465,
      "Ġvariety": 8466,
      "ĠStinespring": 8467,
      "partition": 8468,
      "commun": 8469,
      "Ġinflu": 8470,
      "ĠConsequently": 8471,
      "computational": 8472,
      "Ġsymbols": 8473,
      "ĠArthur": 8474,
      "ĠTraceback": 8475,
      "ĠImport": 8476,
      "Ġdepict": 8477,
      "Ġthermal": 8478,
      "Hermitian": 8479,
      "Ob": 8480,
      "cf": 8481,
      "iate": 8482,
      "uum": 8483,
      "ye": 8484,
      "Ġaver": 8485,
      "Ġday": 8486,
      "Ġpowers": 8487,
      "Ġrho": 8488,
      "ĠList": 8489,
      "ĠStart": 8490,
      "Program": 8491,
      "Provider": 8492,
      "ĠÂ¯": 8493,
      "Ġimproved": 8494,
      "Ġerasure": 8495,
      "################": 8496,
      ")}$.": 8497,
      "08": 8498,
      "Calcul": 8499,
      "Measuring": 8500,
      "bmod": 8501,
      "clock": 8502,
      "lVert": 8503,
      "zure": 8504,
      "Ġrid": 8505,
      "Ġscope": 8506,
      "roug": 8507,
      "arry": 8508,
      "Ġforget": 8509,
      "ĠCom": 8510,
      "coin": 8511,
      "Ġparad": 8512,
      "}\\|": 8513,
      "ĠTheir": 8514,
      "without": 8515,
      "Ġnormalisation": 8516,
      "ĠLloyd": 8517,
      "âĪ¥": 8518,
      "theoret": 8519,
      "trl": 8520,
      "word": 8521,
      "SAT": 8522,
      "Ġconstructions": 8523,
      "ĠUnfortunately": 8524,
      "ĠQPU": 8525,
      "Ġdiamond": 8526,
      "blad": 8527,
      "Ġhorizontal": 8528,
      "Ġencountered": 8529,
      "roughout": 8530,
      ")-\\": 8531,
      ".-": 8532,
      "CA": 8533,
      "List": 8534,
      "Linear": 8535,
      "Number": 8536,
      "OM": 8537,
      "bool": 8538,
      "cor": 8539,
      "ker": 8540,
      "atter": 8541,
      "Ġfill": 8542,
      "arccos": 8543,
      "ĠSc": 8544,
      "Ġcontent": 8545,
      "ders": 8546,
      "ĠMax": 8547,
      "annot": 8548,
      "Ġ{})": 8549,
      "Ġheard": 8550,
      "apped": 8551,
      "Ġextraction": 8552,
      "ÏĢi": 8553,
      "Ġtrivially": 8554,
      "Ġendian": 8555,
      "Ġasks": 8556,
      "Bigl": 8557,
      "Bigr": 8558,
      "Ġdistinction": 8559,
      "Ġirreversible": 8560,
      "Ġnuclear": 8561,
      "SCF": 8562,
      "/(": 8563,
      "Dist": 8564,
      "blob": 8565,
      "iA": 8566,
      "sw": 8567,
      "ser": 8568,
      "Ġtim": 8569,
      "Ġtelling": 8570,
      "Ġsnippet": 8571,
      "Ġdri": 8572,
      "Ġinform": 8573,
      "Ġquan": 8574,
      "illi": 8575,
      "endix": 8576,
      "ĠNew": 8577,
      "Ġadditive": 8578,
      "Ġpolynomially": 8579,
      "Ġcomputationally": 8580,
      "thes": 8581,
      "tolerance": 8582,
      "âĶĢâĶĢâĶĢâĶĢâĶĢâĶĢâĶĢ": 8583,
      "âĪĹ": 8584,
      "Ġarises": 8585,
      "Ġsolves": 8586,
      ",\\,": 8587,
      "indblad": 8588,
      "Ġsuccessful": 8589,
      "Ġinfo": 8590,
      "Ġfamous": 8591,
      "Ġconverting": 8592,
      "Ġpresentation": 8593,
      "********": 8594,
      "ĠTechn": 8595,
      ")_": 8596,
      "EE": 8597,
      "Ent": 8598,
      "Evolution": 8599,
      "Math": 8600,
      "Set": 8601,
      "given": 8602,
      "win": 8603,
      "|^{": 8604,
      "âĮ": 8605,
      "iness": 8606,
      "Ġcategor": 8607,
      "alysis": 8608,
      "Ġann": 8609,
      "olving": 8610,
      "ractions": 8611,
      "ĠCliffords": 8612,
      "Ġtraditional": 8613,
      "ĠOur": 8614,
      "),\\": 8615,
      "vectors": 8616,
      "ĠLike": 8617,
      "aken": 8618,
      "uilding": 8619,
      "Ġ2021": 8620,
      "ĠSimulation": 8621,
      "measured": 8622,
      "aux": 8623,
      "Ġorigin": 8624,
      "diagram": 8625,
      "XXX": 8626,
      "=['": 8627,
      "Ġdrawing": 8628,
      "weights": 8629,
      "frequency": 8630,
      "Ġstochastic": 8631,
      "Oracle": 8632,
      "UT": 8633,
      "yi": 8634,
      "zo": 8635,
      "ĠWh": 8636,
      "Ġtitle": 8637,
      "Ġmaster": 8638,
      "Ġmoney": 8639,
      "entanglement": 8640,
      "Ġgrid": 8641,
      "Ġhund": 8642,
      "star": 8643,
      "Ġconca": 8644,
      "ections": 8645,
      "Ġorient": 8646,
      "ĠCU": 8647,
      "Ġweird": 8648,
      "connect": 8649,
      "sel": 8650,
      "ĠBit": 8651,
      "ournal": 8652,
      "Ġeffort": 8653,
      "paration": 8654,
      "Ġcombinatorial": 8655,
      "Ġtrig": 8656,
      "lectic": 8657,
      "})|": 8658,
      "Assume": 8659,
      "definite": 8660,
      "readout": 8661,
      "Ġcauses": 8662,
      "Although": 8663,
      "eval": 8664,
      "____________": 8665,
      "Ġperiodic": 8666,
      "Ġcounterexample": 8667,
      "Ġmolecular": 8668,
      "Ġsituations": 8669,
      "Ġschedule": 8670,
      "Ġ{})],": 8671,
      "Driver": 8672,
      "OP": 8673,
      "dat": 8674,
      "âī": 8675,
      "Ġta": 8676,
      "Ġscre": 8677,
      "Ġsounds": 8678,
      "Ġpast": 8679,
      "Ġboson": 8680,
      "Ġcool": 8681,
      "Ġcompile": 8682,
      "Ġitems": 8683,
      "Ġalign": 8684,
      "ivation": 8685,
      "aren": 8686,
      "Ġintr": 8687,
      "ĠBr": 8688,
      "Ġtransmission": 8689,
      "Ġanyway": 8690,
      "Ġcorrespondence": 8691,
      "Ġtruly": 8692,
      "reshold": 8693,
      "auge": 8694,
      "braket": 8695,
      "Ġguessing": 8696,
      "polynomial": 8697,
      "Ġ2017": 8698,
      "Ġcounterpart": 8699,
      "Ġabsolutely": 8700,
      "Ġwaiting": 8701,
      "Ġlogarithm": 8702,
      "Ġoscillator": 8703,
      "flamme": 8704,
      "Ġasymptotic": 8705,
      "Ġnaive": 8706,
      ")],": 8707,
      "Fact": 8708,
      "Wor": 8709,
      "correl": 8710,
      "kit": 8711,
      "source": 8712,
      "uz": 8713,
      "will": 8714,
      "00000": 8715,
      "Ġcontextuality": 8716,
      "}$).": 8717,
      "shift": 8718,
      "1010": 8719,
      "Ġbehaviour": 8720,
      "write": 8721,
      "ĠTools": 8722,
      "Ġkeeping": 8723,
      "Qubits": 8724,
      "Ġcommunity": 8725,
      "Ġanalyt": 8726,
      "ÂłÂłÂłÂłÂłÂłÂłÂłÂłÂłÂłÂłÂłÂłÂłÂł": 8727,
      "TableauSimulator": 8728,
      "ĠSchrÃ¶dinger": 8729,
      "Dis": 8730,
      "Find": 8731,
      "Part": 8732,
      "Trans": 8733,
      "]$$": 8734,
      "lab": 8735,
      "oy": 8736,
      "plit": 8737,
      "valid": 8738,
      "Ġsqrt": 8739,
      "Ġbin": 8740,
      "Ġbeta": 8741,
      "ctually": 8742,
      "Ġinjection": 8743,
      "Ġelif": 8744,
      "Ġhop": 8745,
      "Ġcompanies": 8746,
      "ĠSurface": 8747,
      "adget": 8748,
      "Inter": 8749,
      "Ġsufï¬ģcient": 8750,
      "Ġunentangled": 8751,
      "Ġanswered": 8752,
      "Ġcontrolling": 8753,
      "ĠGidney": 8754,
      "Att": 8755,
      "Regarding": 8756,
      "Ġhappy": 8757,
      "Alternatively": 8758,
      "1001": 8759,
      "omething": 8760,
      "points": 8761,
      "ĠPrint": 8762,
      "Ġconverg": 8763,
      "include": 8764,
      "ĠMechan": 8765,
      "ĠInitialize": 8766,
      "ĠNoiseModel": 8767,
      "Ġprivate": 8768,
      "ĠKitaev": 8769,
      "Ġlandscape": 8770,
      "Ġparametrized": 8771,
      "Ab": 8772,
      "OCC": 8773,
      "Test": 8774,
      "\\}}": 8775,
      "lceil": 8776,
      "rceil": 8777,
      "vals": 8778,
      "Ġsound": 8779,
      "esides": 8780,
      "Ġctrl": 8781,
      "Ġdays": 8782,
      "Ġpatch": 8783,
      "Ġpip": 8784,
      "Ġrelease": 8785,
      "Ġreps": 8786,
      "Ġlots": 8787,
      "implement": 8788,
      "istinguish": 8789,
      "Ġjump": 8790,
      "ĠName": 8791,
      "ogether": 8792,
      "Ġanybody": 8793,
      "ooking": 8794,
      "tocol": 8795,
      "ÏĪi": 8796,
      "ĠĊĊĠ": 8797,
      "})^": 8798,
      "Ġtriangle": 8799,
      "Ġtechnologies": 8800,
      "Ġbooks": 8801,
      "inputs": 8802,
      "Ġdynamic": 8803,
      "Ġerr": 8804,
      "Ġdestru": 8805,
      "variance": 8806,
      "General": 8807,
      "Ġadjacency": 8808,
      "Ġaspects": 8809,
      "eqnarray": 8810,
      ".\"\"\"": 8811,
      "Pl": 8812,
      "Time": 8813,
      "Xive": 8814,
      "mul": 8815,
      "pq": 8816,
      "pure": 8817,
      "typ": 8818,
      "Î³": 8819,
      "Ġ...,": 8820,
      "Ġurl": 8821,
      "era": 8822,
      "Ġdriver": 8823,
      "Ġtoffoli": 8824,
      "Ġusers": 8825,
      "Ġchose": 8826,
      "ractable": 8827,
      "Ġ|âĪĴ": 8828,
      "matplotlib": 8829,
      "ĠAgain": 8830,
      "ĠOP": 8831,
      "Ġmaintain": 8832,
      "nergy": 8833,
      "Ġchooses": 8834,
      "Ġcorrectable": 8835,
      "ĠĠĠĠĠĠĠĠĠĠĠĠĠĠĠĠĠĠĠĠ": 8836,
      "Ġnontrivial": 8837,
      "Ġ{\"": 8838,
      "opflow": 8839,
      "Ġposted": 8840,
      "ĠStep": 8841,
      "ĠJordan": 8842,
      "Ġcausing": 8843,
      "ramework": 8844,
      "avig": 8845,
      "Ġcycles": 8846,
      "floor": 8847,
      "ributeError": 8848,
      "Ġmotivation": 8849,
      "Ġsympy": 8850,
      "Ġsynthesis": 8851,
      "|}": 8852,
      "Ġcnot": 8853,
      "Ġpages": 8854,
      "Ġwent": 8855,
      "Ġ((": 8856,
      "Ġexternal": 8857,
      "Ġ$-\\": 8858,
      "etilde": 8859,
      "ferm": 8860,
      "Ġinternet": 8861,
      "Ġexplaining": 8862,
      "Ġjunction": 8863,
      "cribed": 8864,
      "Ġexpert": 8865,
      "Ġsuperoperator": 8866,
      "mapping": 8867,
      "Ġdecomposing": 8868,
      "Ġ$(-": 8869,
      "ĠJupyter": 8870,
      "span": 8871,
      "\\|_\\": 8872,
      "Ġevaluating": 8873,
      "5555": 8874,
      "Ġstabilisers": 8875,
      "Ġcriterion": 8876,
      "Ġcodeword": 8877,
      "filter": 8878,
      "Ġbelongs": 8879,
      "Ġdiscovered": 8880,
      "Understanding": 8881,
      "itHub": 8882,
      "widetilde": 8883,
      "frak": 8884,
      "arbage": 8885,
      "ID": 8886,
      "Right": 8887,
      "SH": 8888,
      "WP": 8889,
      "path": 8890,
      "yes": 8891,
      "Ġtree": 8892,
      "Ġcra": 8893,
      "Ġdra": 8894,
      "Ġque": 8895,
      "Ġeight": 8896,
      "Ġisomorphic": 8897,
      "Ġchips": 8898,
      "agic": 8899,
      "mathfrak": 8900,
      "Ġqaoa": 8901,
      "ĠMet": 8902,
      "}$:": 8903,
      "Ġ`[": 8904,
      "Ġmoves": 8905,
      "ĠGraph": 8906,
      "essage": 8907,
      "Ġregime": 8908,
      "ketch": 8909,
      "licate": 8910,
      "Ġremainder": 8911,
      "Ġtopics": 8912,
      "ï¬ģnding": 8913,
      "Ġpasses": 8914,
      "ĠÎ´": 8915,
      "Ġstoring": 8916,
      "Ġdecoders": 8917,
      "ĠIntroduction": 8918,
      "Ġselected": 8919,
      "Ġconcerned": 8920,
      "Ġfloat": 8921,
      "legant": 8922,
      "ENQASM": 8923,
      "components": 8924,
      "Ġratio": 8925,
      "Ġsmooth": 8926,
      ")!": 8927,
      ">,": 8928,
      "CM": 8929,
      "DF": 8930,
      "Le": 8931,
      "custom": 8932,
      "home": 8933,
      "rite": 8934,
      "rVert": 8935,
      "Ġfractions": 8936,
      "Ġemer": 8937,
      "Ġcoinc": 8938,
      "imate": 8939,
      "Ġstay": 8940,
      "Ġcompact": 8941,
      "ĠSub": 8942,
      "Ġ011": 8943,
      "istory": 8944,
      "Ġunw": 8945,
      "orted": 8946,
      "ĠBox": 8947,
      "Ġreader": 8948,
      "ĠMultip": 8949,
      "Ġverified": 8950,
      "ounded": 8951,
      "Ġsolvable": 8952,
      "Ġoptimized": 8953,
      "Ġrepeating": 8954,
      "Ġsubadditivity": 8955,
      "primitives": 8956,
      "Ġprojections": 8957,
      "noisy": 8958,
      "ediate": 8959,
      "Ġprogramm": 8960,
      "evolution": 8961,
      "solver": 8962,
      "ynamics": 8963,
      "Ġ$[\\![": 8964,
      "generated": 8965,
      "Ġpolarized": 8966,
      "Ġcoins": 8967,
      "Ġlocations": 8968,
      "Ġconvenience": 8969,
      "[:,": 8970,
      "Ġphenomena": 8971,
      "Ġflag": 8972,
      "Array": 8973,
      "'$.": 8974,
      ">=": 8975,
      "Bbb": 8976,
      "IP": 8977,
      "Many": 8978,
      "Minimum": 8979,
      "SB": 8980,
      "Tomography": 8981,
      "aft": 8982,
      "busy": 8983,
      "fix": 8984,
      "fake": 8985,
      "mar": 8986,
      "ĠĊĠ": 8987,
      "Ġrad": 8988,
      "Ġscript": 8989,
      "Ġthroughout": 8990,
      "Ġempty": 8991,
      "Ġstyle": 8992,
      "etic": 8993,
      "olved": 8994,
      "cket": 8995,
      "exchange": 8996,
      "before": 8997,
      "Ġdoubt": 8998,
      "âĶĢâĶĢâĶĢâĶĢâĶĢâĶĢ": 8999,
      "ĠGPU": 9000,
      "Ġdependence": 9001,
      "âķ°": 9002,
      "Ġheur": 9003,
      "Ġlists": 9004,
      "sparse": 9005,
      "âŁ©âĬĹ": 9006,
      "ridQubit": 9007,
      "Ġmeaningful": 9008,
      "ĠPySCF": 9009,
      "underline": 9010,
      "syndrome": 9011,
      "Ġredund": 9012,
      "Ġpatterns": 9013,
      "Basically": 9014,
      "Ġpieces": 9015,
      "Ġcompatible": 9016,
      "Ġannoun": 9017,
      "-|\\": 9018,
      "CD": 9019,
      "Wigner": 9020,
      "[\"": 9021,
      "_,": 9022,
      "iP": 9023,
      "ode": 9024,
      "solution": 9025,
      "section": 9026,
      "udi": 9027,
      "xed": 9028,
      "{{": 9029,
      "erify": 9030,
      "Ġcave": 9031,
      "orry": 9032,
      "Ġdrop": 9033,
      "Ġblog": 9034,
      "utils": 9035,
      "igetti": 9036,
      "Ġlambda": 9037,
      "Ġbasics": 9038,
      "hel": 9039,
      "phant": 9040,
      "_{+": 9041,
      "Ġunity": 9042,
      "acher": 9043,
      "ĠAqua": 9044,
      "coeff": 9045,
      "hood": 9046,
      "}\\}$": 9047,
      "ĠMeasuring": 9048,
      "Ġbipartition": 9049,
      "ught": 9050,
      "qcM": 9051,
      "ĠProcess": 9052,
      "}}\\\\": 9053,
      "-----------": 9054,
      "QEC": 9055,
      "Ġindistinguish": 9056,
      "Ġ:::": 9057,
      "ĠClass": 9058,
      "Computing": 9059,
      "ĠBasically": 9060,
      "finition": 9061,
      "Ġterminology": 9062,
      "Ġattached": 9063,
      "Ġreversed": 9064,
      ",)": 9065,
      ",|\\": 9066,
      "={\\": 9067,
      "Flow": 9068,
      "Microsoft": 9069,
      "TO": 9070,
      "Take": 9071,
      "[|": 9072,
      "around": 9073,
      "both": 9074,
      "break": 9075,
      "drive": 9076,
      "ji": 9077,
      "lor": 9078,
      "may": 9079,
      "nn": 9080,
      "nots": 9081,
      "Ġcert": 9082,
      "Ġeq": 9083,
      "Ġgadget": 9084,
      "Ġrele": 9085,
      "umably": 9086,
      "Ġcompression": 9087,
      "terms": 9088,
      "ĠSV": 9089,
      "ĠShe": 9090,
      "Ġclick": 9091,
      "Ġphr": 9092,
      "Ġsuff": 9093,
      "Ġvar": 9094,
      "ĠCCNOT": 9095,
      "ĠDav": 9096,
      "Ġperturb": 9097,
      "}{|": 9098,
      "ĠLindblad": 9099,
      "Ġclever": 9100,
      "Answer": 9101,
      "ĠComposer": 9102,
      "ĠâĦ": 9103,
      "0000000": 9104,
      "Ġoriginally": 9105,
      "dden": 9106,
      "Ġcontribution": 9107,
      "labels": 9108,
      "Ġsimultaneous": 9109,
      "ĠNotice": 9110,
      "displaystyle": 9111,
      "Ġsymplectic": 9112,
      "ĠApproximate": 9113,
      "Ġsuggestions": 9114,
      "%.": 9115,
      ">$,": 9116,
      "AA": 9117,
      "Most": 9118,
      "Post": 9119,
      "cs": 9120,
      "cam": 9121,
      "eig": 9122,
      "rfloor": 9123,
      "sweep": 9124,
      "total": 9125,
      "wiki": 9126,
      "Ġcipher": 9127,
      "ulates": 9128,
      "ullie": 9129,
      "Ġproce": 9130,
      "Ġspread": 9131,
      "ĠSpin": 9132,
      "ĠSecond": 9133,
      "Instead": 9134,
      "Ġclone": 9135,
      "ĠCa": 9136,
      "loor": 9137,
      "ĠPennylane": 9138,
      "ĠFind": 9139,
      "ĠBPP": 9140,
      "maz": 9141,
      "Ġtradeoff": 9142,
      "âķŃ": 9143,
      "akes": 9144,
      "Ġ$$|": 9145,
      "Ġ$$|\\": 9146,
      "Ġidentities": 9147,
      "Ġstrategies": 9148,
      "ĠâĶľâĶĢâĶĢâĸł": 9149,
      "âĢ²âĢ²": 9150,
      "Ġessence": 9151,
      "solve": 9152,
      "ĠâĶĶâķ¥âĶĺ": 9153,
      "Ġcyclic": 9154,
      "Ġphenomenon": 9155,
      "Ġnucle": 9156,
      "ĠLogical": 9157,
      "Mathematical": 9158,
      "ĠBennett": 9159,
      "DPC": 9160,
      "aftW": 9161,
      "camore": 9162,
      "({": 9163,
      "Lib": 9164,
      "_+\\": 9165,
      "iï¬ģed": 9166,
      "tor": 9167,
      "rem": 9168,
      "Ġqutip": 9169,
      "Ġexceed": 9170,
      "raig": 9171,
      "status": 9172,
      "Ġ\\|\\": 9173,
      "irror": 9174,
      "ĠInter": 9175,
      "exact": 9176,
      "ĠCS": 9177,
      "ĠCOB": 9178,
      "Experiment": 9179,
      "ĠOb": 9180,
      "Ġnormally": 9181,
      "Ġsomebody": 9182,
      "ĠGu": 9183,
      "Ġarrive": 9184,
      "ĠRepe": 9185,
      "esearch": 9186,
      "temp": 9187,
      "Ġformally": 9188,
      "ressed": 9189,
      "lfloor": 9190,
      "Ġdetecting": 9191,
      "Stim": 9192,
      "ZZX": 9193,
      "^*$": 9194,
      "Ġpassed": 9195,
      "Ġ2018": 9196,
      "Ġdocument": 9197,
      "ĠCodes": 9198,
      "sequent": 9199,
      "Ġbraket": 9200,
      "Ġgeometry": 9201,
      "Ġcomplementary": 9202,
      "Ġmultiplicative": 9203,
      "arnings": 9204,
      "multipl": 9205,
      "fermion": 9206,
      "Based": 9207,
      "Log": 9208,
      "dition": 9209,
      "ees": 9210,
      "}))": 9211,
      "enzo": 9212,
      "Ġmentions": 9213,
      "ĠImagine": 9214,
      "ĠIdentity": 9215,
      "Ġ2000": 9216,
      "degenerate": 9217,
      "Ġlose": 9218,
      "uity": 9219,
      "Ġorbit": 9220,
      "Ġorbitals": 9221,
      "matic": 9222,
      "$$(": 9223,
      "ĠPennyLane": 9224,
      "ups": 9225,
      "ĠNon": 9226,
      "andau": 9227,
      "âĢĶâĢĶ": 9228,
      "ĠMerlin": 9229,
      "}{(": 9230,
      "items": 9231,
      "Ġdefect": 9232,
      "Ġstronger": 9233,
      "Ġsubtract": 9234,
      "Ġproviding": 9235,
      "metadata": 9236,
      "ĊĠĠĠĠĠĠĠĠĠĠĠĠĠĠĠĠĠĠĠĠĠĠĠ": 9237,
      "Ġsentence": 9238,
      "Ġweighted": 9239,
      "Ġstorage": 9240,
      "Ġhopefully": 9241,
      "ĠCPU": 9242,
      "learn": 9243,
[...]
