{
  "version": "1.0",
  "truncation": null,
  "padding": null,
  "added_tokens": [
    {
      "id": 0,
      "content": "[PAD]",
      "single_word": false,
      "lstrip": false,
      "rstrip": false,
      "normalized": false,
      "special": true
    },
    {
      "id": 1,
      "content": "[UNK]",
      "single_word": false,
      "lstrip": false,
      "rstrip": false,
      "normalized": false,
      "special": true
    },
    {
      "id": 2,
      "content": "[BOS]",
      "single_word": false,
      "lstrip": false,
      "rstrip": false,
      "normalized": false,
      "special": true
    },
    {
      "id": 3,
      "content": "[EOS]",
      "single_word": false,
      "lstrip": false,
      "rstrip": false,
      "normalized": false,
      "special": true
    }
  ],
  "normalizer": null,
  "pre_tokenizer": {
    "type": "ByteLevel",
    "add_prefix_space": false,
    "trim_offsets": true,
    "use_regex": true
  },
  "post_processor": {
    "type": "ByteLevel",
    "add_prefix_space": true,
    "trim_offsets": false,
    "use_regex": true
  },
  "decoder": {
    "type": "ByteLevel",
    "add_prefix_space": true,
    "trim_offsets": true,
    "use_regex": true
  },
  "model": {
    "type": "BPE",
    "dropout": null,
    "unk_token": "[UNK]",
    "continuing_subword_prefix": null,
    "end_of_word_suffix": null,
    "fuse_unk": false,
    "byte_fallback": false,
    "ignore_merges": false,
    "vocab": {
      "[PAD]": 0,
      "[UNK]": 1,
      "[BOS]": 2,
      "[EOS]": 3,
      "!": 4,
      "\"": 5,
      "#": 6,
      "$": 7,
      "%": 8,
      "&": 9,
      "'": 10,
      "(": 11,
      ")": 12,
      "*": 13,
      "+": 14,
      ",": 15,
      "-": 16,
      ".": 17,
      "/": 18,
      "0": 19,
      "1": 20,
      "2": 21,
      "3": 22,
      "4": 23,
      "5": 24,
      "6": 25,
      "7": 26,
      "8": 27,
      "9": 28,
      ":": 29,
      ";": 30,
      "<": 31,
      "=": 32,
      ">": 33,
      "?": 34,
      "@": 35,
      "A": 36,
      "B": 37,
      "C": 38,
      "D": 39,
      "E": 40,
      "F": 41,
      "G": 42,
      "H": 43,
      "I": 44,
      "J": 45,
      "K": 46,
      "L": 47,
      "M": 48,
      "N": 49,
      "O": 50,
      "P": 51,
      "Q": 52,
      "R": 53,
      "S": 54,
      "T": 55,
      "U": 56,
      "V": 57,
      "W": 58,
      "X": 59,
      "Y": 60,
      "Z": 61,
      "[": 62,
      "\\": 63,
      "]": 64,
      "^": 65,
      "_": 66,
      "`": 67,
      "a": 68,
      "b": 69,
      "c": 70,
      "d": 71,
      "e": 72,
      "f": 73,
      "g": 74,
      "h": 75,
      "i": 76,
      "j": 77,
      "k": 78,
      "l": 79,
      "m": 80,
      "n": 81,
      "o": 82,
      "p": 83,
      "q": 84,
      "r": 85,
      "s": 86,
      "t": 87,
      "u": 88,
      "v": 89,
      "w": 90,
      "x": 91,
      "y": 92,
      "z": 93,
      "{": 94,
      "|": 95,
      "}": 96,
      "~": 97,
      "¡": 98,
      "¢": 99,
      "£": 100,
      "¤": 101,
      "¥": 102,
      "¦": 103,
      "§": 104,
      "¨": 105,
      "©": 106,
      "ª": 107,
      "«": 108,
      "¬": 109,
      "®": 110,
      "¯": 111,
      "°": 112,
      "±": 113,
      "²": 114,
      "³": 115,
      "´": 116,
      "µ": 117,
      "¶": 118,
      "·": 119,
      "¸": 120,
      "¹": 121,
      "º": 122,
      "»": 123,
      "¼": 124,
      "½": 125,
      "¾": 126,
      "¿": 127,
      "Â": 128,
      "Ã": 129,
      "Ä": 130,
      "Å": 131,
      "Æ": 132,
      "Ç": 133,
      "Ê": 134,
      "Ë": 135,
      "Ì": 136,
      "Î": 137,
      "Ï": 138,
      "Ð": 139,
      "Ñ": 140,
      "á": 141,
      "â": 142,
      "ã": 143,
      "ï": 144,
      "Ċ": 145,
      "Ġ": 146,
      "Ģ": 147,
      "ģ": 148,
      "Ĥ": 149,
      "ĥ": 150,
      "Ħ": 151,
      "ħ": 152,
      "Ĩ": 153,
      "ĩ": 154,
      "Ī": 155,
      "ī": 156,
      "Ĭ": 157,
      "ĭ": 158,
      "Į": 159,
      "į": 160,
      "İ": 161,
      "ı": 162,
      "Ĳ": 163,
      "ĳ": 164,
      "Ĵ": 165,
      "ĵ": 166,
      "Ķ": 167,
      "ķ": 168,
      "ĸ": 169,
      "Ĺ": 170,
      "ĺ": 171,
      "Ļ": 172,
      "ļ": 173,
      "Ľ": 174,
      "ľ": 175,
      "Ŀ": 176,
      "ŀ": 177,
      "Ł": 178,
      "ł": 179,
      "Ń": 180,
      "Ġt": 181,
      "an": 182,
      "at": 183,
      "in": 184,
      "on": 185,
      "er": 186,
      "Ġth": 187,
      "es": 188,
      "en": 189,
      "it": 190,
      "Ġa": 191,
      "Ġc": 192,
      "Ġs": 193,
      "or": 194,
      "Ġthe": 195,
      "is": 196,
      "re": 197,
      "ion": 198,
      "al": 199,
      "le": 200,
      "Ġo": 201,
      "Ġp": 202,
      "ing": 203,
      "ic": 204,
      "qu": 205,
      "Ġm": 206,
      "Ġw": 207,
      "Ġf": 208,
      "ro": 209,
      "Ġan": 210,
      "Ġb": 211,
      "Ġin": 212,
      "Ġd": 213,
      "um": 214,
      "ent": 215,
      "ar": 216,
      "ed": 217,
      "Ġqu": 218,
      "ct": 219,
      "Ġof": 220,
      "ant": 221,
      "Ġto": 222,
      "as": 223,
      "ation": 224,
      "Ġis": 225,
      "om": 226,
      "Ġe": 227,
      "im": 228,
      "ut": 229,
      "Ġand": 230,
      "Ġ$": 231,
      "antum": 232,
      "et": 233,
      "ĠI": 234,
      "Ġn": 235,
      "ul": 236,
      "ly": 237,
      "ĠT": 238,
      "st": 239,
      "Ġquantum": 240,
      "ate": 241,
      "ve": 242,
      "ang": 243,
      "Ġst": 244,
      "Ġ\\": 245,
      "Ġh": 246,
      "ĠA": 247,
      "ĠQ": 248,
      "un": 249,
      "Ġg": 250,
      "ot": 251,
      "ac": 252,
      "angle": 253,
      "Ġre": 254,
      "ĠTh": 255,
      "Ġl": 256,
      "il": 257,
      "ig": 258,
      "us": 259,
      "Ġcom": 260,
      "ow": 261,
      "Ġpro": 262,
      "ith": 263,
      "am": 264,
      "ir": 265,
      "Ġfor": 266,
      "ec": 267,
      "per": 268,
      "Ġthat": 269,
      "ol": 270,
      "ur": 271,
      "ical": 272,
      "bit": 273,
      "if": 274,
      "Ġcomp": 275,
      "ce": 276,
      "Ġon": 277,
      "Ġwh": 278,
      "ment": 279,
      "ver": 280,
      "Ġex": 281,
      "el": 282,
      "ure": 283,
      "Ġcon": 284,
      "Ġ(": 285,
      "rangle": 286,
      "ab": 287,
      "Ġbe": 288,
      "res": 289,
      "id": 290,
      "ity": 291,
      "Ġal": 292,
      "od": 293,
      "ĠQu": 294,
      "pl": 295,
      "est": 296,
      "os": 297,
      "ĠW": 298,
      "ter": 299,
      "ĠC": 300,
      "em": 301,
      "Ġare": 302,
      "ĠS": 303,
      "Ġcan": 304,
      "ect": 305,
      "Ġqubit": 306,
      "ra": 307,
      "ates": 308,
      "Ġit": 309,
      "ri": 310,
      "Ġ=": 311,
      "Ġwith": 312,
      "Ġme": 313,
      "ch": 314,
      "Ġas": 315,
      "te": 316,
      "Ġ0": 317,
      "ĠThe": 318,
      "Ġcomput": 319,
      "ou": 320,
      "iz": 321,
      "th": 322,
      "ĠWh": 323,
      "ag": 324,
      "Ġus": 325,
      "Ġ1": 326,
      "ere": 327,
      "ĠH": 328,
      "ist": 329,
      "Ġy": 330,
      "ial": 331,
      "Ġstate": 332,
      "Ġsu": 333,
      "for": 334,
      "ction": 335,
      "xt": 336,
      "ers": 337,
      "irc": 338,
      "ations": 339,
      "igh": 340,
      "pp": 341,
      "âĶ": 342,
      "Ġthis": 343,
      "Ġen": 344,
      "uit": 345,
      "ĠP": 346,
      "pt": 347,
      "Ġun": 348,
      "--": 349,
      "ĠWhat": 350,
      "Ġmeas": 351,
      "ircuit": 352,
      "Ġde": 353,
      "ad": 354,
      "Ġor": 355,
      "Ġsp": 356,
      "ave": 357,
      "ple": 358,
      "ps": 359,
      "estion": 360,
      "text": 361,
      "ĠB": 362,
      "ke": 363,
      "Ġim": 364,
      "ies": 365,
      "and": 366,
      "ass": 367,
      "ĠAn": 368,
      "sw": 369,
      "Ġ$\\": 370,
      "rom": 371,
      "Ġph": 372,
      "ult": 373,
      "ess": 374,
      "ĠF": 375,
      "ĠM": 376,
      "Ġ|": 377,
      "swer": 378,
      "Ġcl": 379,
      "ble": 380,
      "Ġmeasure": 381,
      "Ġch": 382,
      "Ġv": 383,
      "ĠE": 384,
      "Ġby": 385,
      "ay": 386,
      "ror": 387,
      "og": 388,
      "ive": 389,
      "ain": 390,
      "Ġyou": 391,
      "mat": 392,
      "âĶĢ": 393,
      "Ġwe": 394,
      "form": 395,
      "art": 396,
      "iv": 397,
      "ph": 398,
      "_{": 399,
      "Ġqubits": 400,
      "Ġres": 401,
      "Ġ.": 402,
      "Ġat": 403,
      "end": 404,
      "ĠQuantum": 405,
      "Con": 406,
      "'s": 407,
      "Ġr": 408,
      "ition": 409,
      "ens": 410,
      "Ġnot": 411,
      "ĠQuestion": 412,
      "error": 413,
      "Ġcircuit": 414,
      "Ġtr": 415,
      "Ġco": 416,
      "ĠAnswer": 417,
      "Context": 418,
      "ence": 419,
      "fer": 420,
      "ight": 421,
      "Ġfrom": 422,
      "ĠD": 423,
      "Ġ&": 424,
      "ator": 425,
      "Ġne": 426,
      "ithm": 427,
      "Ġsy": 428,
      "du": 429,
      "gor": 430,
      "ĠThis": 431,
      "Ġdo": 432,
      "Ġerror": 433,
      "assical": 434,
      "Ġmat": 435,
      "gorithm": 436,
      "ach": 437,
      "ine": 438,
      "ff": 439,
      "ich": 440,
      "âĶĢâĶĢ": 441,
      "Ġoper": 442,
      "abil": 443,
      "ill": 444,
      "Ġsim": 445,
      "ans": 446,
      "ĠN": 447,
      "Ġmeasurement": 448,
      "stem": 449,
      "uld": 450,
      "Ġ$$": 451,
      "Ġhave": 452,
      "und": 453,
      "Ġwhich": 454,
      "Ġle": 455,
      "ho": 456,
      "rix": 457,
      "Ġcor": 458,
      "cal": 459,
      "{\\": 460,
      "Ġalgorithm": 461,
      "ics": 462,
      "ard": 463,
      "Ġclassical": 464,
      "ĠIn": 465,
      "Ġse": 466,
      "Ġstates": 467,
      "Ġsystem": 468,
      "her": 469,
      "rac": 470,
      "erm": 471,
      "Ġq": 472,
      "able": 473,
      "Ġent": 474,
      "ech": 475,
      "ud": 476,
      "ort": 477,
      "der": 478,
      "00": 479,
      "ĠR": 480,
      "Ġgate": 481,
      "are": 482,
      "Ġ,": 483,
      "ign": 484,
      "imes": 485,
      "ary": 486,
      "ome": 487,
      "Ġinter": 488,
      "ase": 489,
      "Ġcont": 490,
      "Ġhow": 491,
      "to": 492,
      "frac": 493,
      "Ġapp": 494,
      "}$": 495,
      "Ġimp": 496,
      "act": 497,
      "Ġall": 498,
      "ru": 499,
      "Ġpart": 500,
      "Ġ2": 501,
      "Ġad": 502,
      "}\\": 503,
      "our": 504,
      "Ġ-": 505,
      "ise": 506,
      "ated": 507,
      "ance": 508,
      "ore": 509,
      "ĠL": 510,
      "ys": 511,
      "Ġdif": 512,
      ").": 513,
      "Ġ+": 514,
      "out": 515,
      "ime": 516,
      "math": 517,
      "ack": 518,
      "ese": 519,
      "wo": 520,
      "ike": 521,
      "----": 522,
      "lo": 523,
      "Ġif": 524,
      "ust": 525,
      "Ġgates": 526,
      "all": 527,
      "Ġone": 528,
      "cc": 529,
      "etw": 530,
      "up": 531,
      "ode": 532,
      "vers": 533,
      "pos": 534,
      "ace": 535,
      "ific": 536,
      "ĠG": 537,
      "Ġbut": 538,
      "erg": 539,
      "Ġout": 540,
      "blem": 541,
      "Ġno": 542,
      "lect": 543,
      "Ġma": 544,
      "ons": 545,
      "Ġab": 546,
      "ally": 547,
      "isk": 548,
      "les": 549,
      "|\\": 550,
      "eta": 551,
      "Ġtwo": 552,
      "Ġtrans": 553,
      "ire": 554,
      "Ġsh": 555,
      "Ġinc": 556,
      "Ġk": 557,
      "psi": 558,
      "ork": 559,
      "Ġneed": 560,
      "put": 561,
      "ution": 562,
      "(\\": 563,
      "ization": 564,
      "Ġcorre": 565,
      "iskit": 566,
      "Ġdes": 567,
      "^{": 568,
      "Ġentangle": 569,
      "ĠO": 570,
      "ft": 571,
      "ue": 572,
      "Ġwhere": 573,
      "Ġproblem": 574,
      "Ġdiffer": 575,
      "Ġpre": 576,
      "Ġ\"": 577,
      "Ġper": 578,
      "âŁ": 579,
      "ĠIt": 580,
      "),": 581,
      "pres": 582,
      "rol": 583,
      "ĠU": 584,
      "rib": 585,
      "ame": 586,
      "langle": 587,
      "Ġnum": 588,
      "ability": 589,
      "formation": 590,
      "rho": 591,
      "Ġuse": 592,
      "Ġbas": 593,
      "Ġcomputing": 594,
      "gh": 595,
      "Ġeff": 596,
      "ge": 597,
      "bs": 598,
      "Ġlike": 599,
      "ous": 600,
      "Ġcomputers": 601,
      "Ġopt": 602,
      "ential": 603,
      "ber": 604,
      "ry": 605,
      "Ġprob": 606,
      "Ġsuper": 607,
      "enc": 608,
      "Ġsimul": 609,
      "otimes": 610,
      "Ġj": 611,
      "plic": 612,
      "Ġpartic": 613,
      "Ġpos": 614,
      "rt": 615,
      "int": 616,
      "ond": 617,
      "ind": 618,
      "ener": 619,
      "âŁ©": 620,
      "Ġdist": 621,
      "si": 622,
      "unction": 623,
      "Ġdef": 624,
      "Ġam": 625,
      "Ġmore": 626,
      "ĠHow": 627,
      "Ġro": 628,
      "ci": 629,
      "Ġunder": 630,
      "ther": 631,
      "led": 632,
      "so": 633,
      "Ġany": 634,
      "oll": 635,
      "Ġusing": 636,
      "Ġso": 637,
      "duct": 638,
      "Ġthen": 639,
      "ide": 640,
      "een": 641,
      "}{": 642,
      "age": 643,
      "etween": 644,
      "eg": 645,
      "sum": 646,
      "ergy": 647,
      "Ġresult": 648,
      "Ġoperator": 649,
      "Ġdec": 650,
      "Ġbetween": 651,
      ")$": 652,
      "ma": 653,
      "Ġexam": 654,
      "ite": 655,
      "Ġdet": 656,
      "Ġsome": 657,
      "Ġcomple": 658,
      "ice": 659,
      "Ġphys": 660,
      "ron": 661,
      "ions": 662,
      "Ġthere": 663,
      "Ġwhat": 664,
      "qrt": 665,
      "iel": 666,
      "Ġcode": 667,
      "ari": 668,
      "sqrt": 669,
      "Ġmod": 670,
      "ger": 671,
      "ors": 672,
      "Ġinformation": 673,
      "ating": 674,
      "echan": 675,
      "Ġev": 676,
      "matrix": 677,
      "âĢ": 678,
      "Ġlo": 679,
      "lud": 680,
      "now": 681,
      "Ġelect": 682,
      "tain": 683,
      "ell": 684,
      "Ġwill": 685,
      "Ġcontrol": 686,
      "Ġspec": 687,
      "Ġits": 688,
      "con": 689,
      "Ġman": 690,
      "aus": 691,
      "Ġtheor": 692,
      "Ġthese": 693,
      "Ġequ": 694,
      "Ġap": 695,
      "Ġgener": 696,
      "Ġother": 697,
      "Ġeach": 698,
      "Ġtime": 699,
      "av": 700,
      "present": 701,
      "Ġenergy": 702,
      "Ġar": 703,
      "ould": 704,
      "Ġdoes": 705,
      "Ġsuch": 706,
      "Ġ$|": 707,
      "Ġsol": 708,
      "position": 709,
      "Ġappro": 710,
      "cess": 711,
      "ically": 712,
      "right": 713,
      "Ġinto": 714,
      "ib": 715,
      "Ġhas": 716,
      "Ġinclud": 717,
      "ap": 718,
      "ular": 719,
      "ĠFor": 720,
      "Ġprov": 721,
      "ip": 722,
      "Ġrel": 723,
      "Ġpo": 724,
      "Ġmechan": 725,
      "Ġimport": 726,
      "ield": 727,
      "Ġwould": 728,
      "'t": 729,
      "erv": 730,
      "Ġthey": 731,
      "Ġrequ": 732,
      "stand": 733,
      "qubit": 734,
      "Ġover": 735,
      "Ġexpl": 736,
      "Ġpar": 737,
      "Ġpr": 738,
      "Ġfunction": 739,
      "irst": 740,
      "Ġmatrix": 741,
      "Ġval": 742,
      "11": 743,
      "Ġonly": 744,
      "ose": 745,
      "Ġthan": 746,
      "Ġoptim": 747,
      "de": 748,
      "se": 749,
      "ient": 750,
      "Ġrepresent": 751,
      "gr": 752,
      "Ġdifferent": 753,
      "Ġcomputation": 754,
      "Ġentanglement": 755,
      "Ġknow": 756,
      "vect": 757,
      "plement": 758,
      "Ġcal": 759,
      "ie": 760,
      "Ġhigh": 761,
      "Ġcomm": 762,
      "Ġexp": 763,
      "eth": 764,
      "Ġ[": 765,
      "king": 766,
      "Ġsystems": 767,
      "ric": 768,
      "âĶĢâĶĢâĶĢâĶĢ": 769,
      "Ġacc": 770,
      "Ġ\\\\": 771,
      "ware": 772,
      "Ġbec": 773,
      "Ġtheir": 774,
      "Ġnumber": 775,
      "Ġalgorithms": 776,
      "pert": 777,
      "left": 778,
      "Ġbit": 779,
      "Ġphot": 780,
      "Ġwhen": 781,
      "ize": 782,
      "Ġprocess": 783,
      "ces": 784,
      "echn": 785,
      "ĠIf": 786,
      "Ġmo": 787,
      "Ġused": 788,
      "ks": 789,
      "Ġgiv": 790,
      "Ġperform": 791,
      "yp": 792,
      "Ġdis": 793,
      "eng": 794,
      "Ġunderstand": 795,
      "Ġalso": 796,
      "com": 797,
      "Ġtra": 798,
      "ider": 799,
      "ĠY": 800,
      "ingle": 801,
      "ile": 802,
      "Ġcons": 803,
      "Ġexample": 804,
      "Ġunit": 805,
      "ures": 806,
      "Ġimplement": 807,
      "Ġset": 808,
      "Ġabout": 809,
      "ogical": 810,
      "Ġeffect": 811,
      "ruct": 812,
      "ject": 813,
      "ized": 814,
      "rou": 815,
      "Ġdesc": 816,
      "Ġprobability": 817,
      "unt": 818,
      "Ġwork": 819,
      "Ġform": 820,
      "Ġpl": 821,
      "Ġqiskit": 822,
      "imit": 823,
      "Ġerrors": 824,
      "Ġadd": 825,
      "vert": 826,
      "Ġatom": 827,
      "pend": 828,
      "ities": 829,
      "very": 830,
      "Ġke": 831,
      "Ġget": 832,
      "ual": 833,
      "Ġ3": 834,
      "egin": 835,
      "Ġbasis": 836,
      "ĠX": 837,
      "begin": 838,
      "Ġnoise": 839,
      "Ġcomplex": 840,
      "Ġcre": 841,
      "ian": 842,
      "Ġreal": 843,
      "Ġreg": 844,
      "ning": 845,
      "Ġtechn": 846,
      "ast": 847,
      "Ġ'": 848,
      "ĠAl": 849,
      "iment": 850,
      "Ġsec": 851,
      "herence": 852,
      "Ġphase": 853,
      "Ġsign": 854,
      "ract": 855,
      "ause": 856,
      "Ġway": 857,
      "periment": 858,
      "Ġpa": 859,
      "arch": 860,
      "ature": 861,
      "Ġpossi": 862,
      "Ġdefin": 863,
      "Ġsingle": 864,
      "Ġpropert": 865,
      "--------": 866,
      "ulti": 867,
      "Ġfield": 868,
      "nel": 869,
      "ĠZ": 870,
      "ata": 871,
      "Ġfind": 872,
      "Ġconst": 873,
      "vel": 874,
      "get": 875,
      "plications": 876,
      "agn": 877,
      "ĠV": 878,
      "}}": 879,
      "Ġobs": 880,
      "phi": 881,
      "Ġact": 882,
      "Ġfre": 883,
      "ound": 884,
      "ollow": 885,
      "Ġenc": 886,
      "Ġmechanics": 887,
      "ful": 888,
      "Ġsame": 889,
      "Ġsuperposition": 890,
      "uring": 891,
      "oth": 892,
      "Ġquestion": 893,
      "Ġhard": 894,
      "theta": 895,
      "=\\": 896,
      "Ġcomputer": 897,
      "Ġwave": 898,
      "ative": 899,
      "amet": 900,
      "rough": 901,
      "op": 902,
      "raph": 903,
      "itial": 904,
      "par": 905,
      "ues": 906,
      "Ġi": 907,
      "ange": 908,
      "Ġfollow": 909,
      "igen": 910,
      "):": 911,
      "icient": 912,
      "01": 913,
      "cul": 914,
      "Ġinst": 915,
      "vector": 916,
      "Ġnon": 917,
      "ethod": 918,
      "vant": 919,
      "ob": 920,
      "ak": 921,
      "ĠCom": 922,
      "Ġdescrib": 923,
      "mathcal": 924,
      "ments": 925,
      "ĠSt": 926,
      "Ġfirst": 927,
      "etic": 928,
      "cept": 929,
      "plit": 930,
      "Ġsens": 931,
      "Ġkey": 932,
      "iqu": 933,
      "ced": 934,
      "Ġexperiment": 935,
      "uli": 936,
      "ever": 937,
      "Ġlimit": 938,
      "Ġmulti": 939,
      "pi": 940,
      "Ġgro": 941,
      "pre": 942,
      "Ġem": 943,
      "xim": 944,
      "Ġcould": 945,
      "action": 946,
      "Ġapproach": 947,
      "Ġthrough": 948,
      "Ġmany": 949,
      "Ġpossible": 950,
      "Ġvari": 951,
      "Ġmeasurements": 952,
      "Ġâ": 953,
      "Ġup": 954,
      "ding": 955,
      "ency": 956,
      "Ġjust": 957,
      "Ġmodel": 958,
      "Ġcircuits": 959,
      "Ġcorrection": 960,
      "Ġtyp": 961,
      "}{\\": 962,
      "Ġgo": 963,
      "gram": 964,
      "Ġphysical": 965,
      "Ġeigen": 966,
      "igma": 967,
      "equ": 968,
      "Ġproblems": 969,
      "OT": 970,
      "Ġyour": 971,
      "Ġfact": 972,
      "Ġdetect": 973,
      "ples": 974,
      "velo": 975,
      "Ġint": 976,
      "ĠCl": 977,
      "ilt": 978,
      "ertain": 979,
      "Ġspecific": 980,
      "Ġinv": 981,
      "ots": 982,
      "hould": 983,
      "ables": 984,
      "Ġmethod": 985,
      "py": 986,
      "Ġx": 987,
      "ress": 988,
      "eas": 989,
      "otential": 990,
      "ify": 991,
      "Ġext": 992,
      "Ġoperations": 993,
      "andom": 994,
      "Ġproperties": 995,
      "Ġthem": 996,
      "ĠEx": 997,
      "sigma": 998,
      "ĠTo": 999,
      "dag": 1000,
      "orm": 1001,
      "Ġwas": 1002,
      "Ġshould": 1003,
      "^\\": 1004,
      "inear": 1005,
      "val": 1006,
      "ict": 1007,
      "auli": 1008,
      "],": 1009,
      "ten": 1010,
      "one": 1011,
      "Ġob": 1012,
      "Ġunitary": 1013,
      "inci": 1014,
      "Ġterm": 1015,
      "Ġconsider": 1016,
      "Ġdata": 1017,
      "Ġobserv": 1018,
      "Ġfl": 1019,
      ")\\": 1020,
      "dagger": 1021,
      "Ġneeded": 1022,
      "Ġparamet": 1023,
      "Ġdisc": 1024,
      "ead": 1025,
      "eed": 1026,
      "..": 1027,
      "Ġallow": 1028,
      "Ġbecause": 1029,
      "()": 1030,
      "Ġlar": 1031,
      "odes": 1032,
      "ne": 1033,
      "ensity": 1034,
      "Ġ4": 1035,
      "ough": 1036,
      "pha": 1037,
      "ivity": 1038,
      "Ġshow": 1039,
      "Ġrequire": 1040,
      "ament": 1041,
      "ied": 1042,
      "ok": 1043,
      "undament": 1044,
      "Ġcase": 1045,
      "ong": 1046,
      "amb": 1047,
      "rit": 1048,
      "Ġsimulation": 1049,
      "Ġspace": 1050,
      "oc": 1051,
      "Ġoptimization": 1052,
      "pmatrix": 1053,
      "ident": 1054,
      "ĠPro": 1055,
      "ism": 1056,
      "NOT": 1057,
      "Ġexist": 1058,
      "mathb": 1059,
      "da": 1060,
      "Ġcorrect": 1061,
      "annel": 1062,
      "Ġboth": 1063,
      "Ġpotential": 1064,
      "Ġspin": 1065,
      "ves": 1066,
      "alpha": 1067,
      "velop": 1068,
      "agnetic": 1069,
      "Ġapply": 1070,
      "Ġsee": 1071,
      "Ġoperators": 1072,
      "Ġmay": 1073,
      "Ġprogram": 1074,
      "Ġredu": 1075,
      "not": 1076,
      "amilt": 1077,
      "amilton": 1078,
      "Ġdeterm": 1079,
      "10": 1080,
      "rad": 1081,
      "Ġhardware": 1082,
      "Ġ$|\\": 1083,
      "conduct": 1084,
      "ep": 1085,
      "ages": 1086,
      "state": 1087,
      "Ġgiven": 1088,
      "ister": 1089,
      "Ġback": 1090,
      "Ġresults": 1091,
      "ros": 1092,
      "ane": 1093,
      "rm": 1094,
      "Ġprovid": 1095,
      "nect": 1096,
      "Ġhel": 1097,
      "ambda": 1098,
      "ĠK": 1099,
      "Ġfundament": 1100,
      "hi": 1101,
      "Ġparticles": 1102,
      "Ġfa": 1103,
      "Ġwant": 1104,
      "pect": 1105,
      "aps": 1106,
      "Ġexplain": 1107,
      "old": 1108,
      "ivers": 1109,
      "abiliz": 1110,
      ".,": 1111,
      "Ġdire": 1112,
      "ĠThese": 1113,
      "pro": 1114,
      "Ġtheory": 1115,
      "Ġentangled": 1116,
      "erial": 1117,
      "Ġoperation": 1118,
      "Ġmy": 1119,
      "emper": 1120,
      "ub": 1121,
      "Ġrun": 1122,
      "Ġchall": 1123,
      "Ġinitial": 1124,
      "Ġlogical": 1125,
      "urr": 1126,
      "ĠQiskit": 1127,
      "app": 1128,
      "Ġunderstanding": 1129,
      "ents": 1130,
      "ower": 1131,
      "plitud": 1132,
      "ĠEn": 1133,
      "yn": 1134,
      "Ġchannel": 1135,
      "Ġfrequ": 1136,
      "ĠSo": 1137,
      "ex": 1138,
      "Ġinteraction": 1139,
      "Ġrandom": 1140,
      "olog": 1141,
      "Ġcalcul": 1142,
      "ree": 1143,
      "Ġlear": 1144,
      "ved": 1145,
      "ality": 1146,
      "Ġmust": 1147,
      "Ġstr": 1148,
      "ute": 1149,
      "ï¬": 1150,
      "fore": 1151,
      "Ġident": 1152,
      "Ġinclude": 1153,
      "ĠPauli": 1154,
      "oding": 1155,
      "amiltonian": 1156,
      "Ġpoint": 1157,
      "Ġoutput": 1158,
      "+\\": 1159,
      "ix": 1160,
      "Ġparticle": 1161,
      "Ġanswer": 1162,
      "Ġdesign": 1163,
      "\\\\": 1164,
      "Ġphoton": 1165,
      "Ġprinci": 1166,
      "dition": 1167,
      "Ġimpro": 1168,
      "ively": 1169,
      "unic": 1170,
      "ince": 1171,
      "Ġgeneral": 1172,
      "easure": 1173,
      "Ġuses": 1174,
      "Ġelectron": 1175,
      "Ġlevel": 1176,
      "hem": 1177,
      "ays": 1178,
      "istic": 1179,
      "ink": 1180,
      "olution": 1181,
      "âķ": 1182,
      "ffect": 1183,
      "$$": 1184,
      "Ġbeh": 1185,
      "circuit": 1186,
      "ibr": 1187,
      "idel": 1188,
      "Ġsignific": 1189,
      "Ġz": 1190,
      "Ġsolution": 1191,
      "ires": 1192,
      "Ġdepend": 1193,
      "Ġlead": 1194,
      "rypt": 1195,
      "ĠHowever": 1196,
      "tation": 1197,
      "oherence": 1198,
      "lear": 1199,
      "ĠUn": 1200,
      "fter": 1201,
      "cise": 1202,
      "ving": 1203,
      "ĠWe": 1204,
      "Ġscal": 1205,
      "Ġrem": 1206,
      "ases": 1207,
      "Ġdevelop": 1208,
      "ting": 1209,
      "Ġind": 1210,
      "^{\\": 1211,
      "Ġdensity": 1212,
      "Ġinput": 1213,
      "ines": 1214,
      "Ġapplications": 1215,
      "Ġstabiliz": 1216,
      "Ġtemper": 1217,
      "Ġconnect": 1218,
      "Ġphysics": 1219,
      "row": 1220,
      "Ġlinear": 1221,
      "Ġpat": 1222,
      "Ġsur": 1223,
      "Ġqc": 1224,
      "ograph": 1225,
      "port": 1226,
      "Ġvalue": 1227,
      "lambda": 1228,
      "pond": 1229,
      "ï¬ģ": 1230,
      "ĠThen": 1231,
      "Ġadvant": 1232,
      "Ġchar": 1233,
      "Ġproduct": 1234,
      "hemat": 1235,
      "cill": 1236,
      "Ġfundamental": 1237,
      "}_": 1238,
      "ribution": 1239,
      "}(": 1240,
      "ructure": 1241,
      "Ġamplitud": 1242,
      "uil": 1243,
      "etwork": 1244,
      "Ġatoms": 1245,
      "urrent": 1246,
      "cial": 1247,
      "ory": 1248,
      "Ġtechniqu": 1249,
      "als": 1250,
      "Ġanal": 1251,
      "Ġwithout": 1252,
      "respond": 1253,
      "ĠÎ": 1254,
      "the": 1255,
      "ences": 1256,
      "ĠDe": 1257,
      "ices": 1258,
      "Ġest": 1259,
      "cl": 1260,
      "ish": 1261,
      "))": 1262,
      "Ġpract": 1263,
      "tern": 1264,
      "Ġmost": 1265,
      "ĠSu": 1266,
      "Ġcoll": 1267,
      "Ġread": 1268,
      "Ġcommunic": 1269,
      "Ġrec": 1270,
      "fl": 1271,
      "ĠPh": 1272,
      "Ġmaterial": 1273,
      "ĠYou": 1274,
      "Ġte": 1275,
      "ĠSh": 1276,
      "ĠCon": 1277,
      "Ġfollowing": 1278,
      "elf": 1279,
      "ĠIs": 1280,
      "aster": 1281,
      "Ġeven": 1282,
      "ually": 1283,
      "Ġwhy": 1284,
      "BM": 1285,
      "Ġcorrespond": 1286,
      "conducting": 1287,
      "Ġvector": 1288,
      "Ġquant": 1289,
      "',": 1290,
      "Ġmin": 1291,
      "Ġele": 1292,
      "ount": 1293,
      "Ġta": 1294,
      "imul": 1295,
      "âĢĻ": 1296,
      "ational": 1297,
      "ible": 1298,
      "Ġinte": 1299,
      "Ġhere": 1300,
      "Ġunivers": 1301,
      "ĠHamiltonian": 1302,
      "Ġinvol": 1303,
      "round": 1304,
      "Ġmean": 1305,
      "face": 1306,
      "bmatrix": 1307,
      "ators": 1308,
      "Ġwhile": 1309,
      "ĠCh": 1310,
      "-\\": 1311,
      "Ġlarge": 1312,
      "andard": 1313,
      "Ġlight": 1314,
      "Ġsecond": 1315,
      "ĠAs": 1316,
      "ength": 1317,
      "Ġbeing": 1318,
      "idelity": 1319,
      "str": 1320,
      "Ġmultiple": 1321,
      "mall": 1322,
      "Ġconcept": 1323,
      "ming": 1324,
      "Ġcertain": 1325,
      "ĠIBM": 1326,
      "ource": 1327,
      "mathbb": 1328,
      "ole": 1329,
      "urn": 1330,
      "ference": 1331,
      "col": 1332,
      "Ġfin": 1333,
      "chie": 1334,
      "Ġ5": 1335,
      "Ġ{": 1336,
      "Ġ:": 1337,
      "Ġcodes": 1338,
      "Ġcomb": 1339,
      "pling": 1340,
      "Ġpaper": 1341,
      "ĠâĶ": 1342,
      "gate": 1343,
      "Ġchalleng": 1344,
      "oment": 1345,
      "Ġspeed": 1346,
      "Ġmake": 1347,
      "izing": 1348,
      "ero": 1349,
      "beta": 1350,
      "Ġac": 1351,
      "Ġstart": 1352,
      "sion": 1353,
      "ÏĪ": 1354,
      "])": 1355,
      "Th": 1356,
      "uch": 1357,
      "imens": 1358,
      "Ġnetwork": 1359,
      "Ġsupp": 1360,
      "âķĲ": 1361,
      ",\\": 1362,
      "Ġefficient": 1363,
      "Ġdirect": 1364,
      "Ġmeans": 1365,
      "quantum": 1366,
      "Ġachie": 1367,
      "hat": 1368,
      "Ġbits": 1369,
      "fin": 1370,
      "arget": 1371,
      "adam": 1372,
      "ier": 1373,
      "Ġmight": 1374,
      "Ġdev": 1375,
      "adamard": 1376,
      "Ġsub": 1377,
      "Ġvery": 1378,
      "mathrm": 1379,
      "Ġsignificant": 1380,
      "earch": 1381,
      "ĠCNOT": 1382,
      "Ġcommunication": 1383,
      "ography": 1384,
      "acy": 1385,
      "Ġdeta": 1386,
      "iron": 1387,
      "Ġdi": 1388,
      "Ġterms": 1389,
      "ket": 1390,
      "Ġ#": 1391,
      "Ġlocal": 1392,
      "ased": 1393,
      "ord": 1394,
      "ĠBell": 1395,
      "Ġphotons": 1396,
      "ously": 1397,
      "Ġcondition": 1398,
      "viron": 1399,
      "oper": 1400,
      "Ġcannot": 1401,
      "rong": 1402,
      "Ġlearning": 1403,
      "Ġtest": 1404,
      "Ġequation": 1405,
      "tr": 1406,
      "Ġ|\\": 1407,
      "Ġestim": 1408,
      "Ġdon": 1409,
      "Ġsmall": 1410,
      "ional": 1411,
      "ove": 1412,
      "itive": 1413,
      "dict": 1414,
      "Ġfaster": 1415,
      "ear": 1416,
      "own": 1417,
      "}|": 1418,
      "'m": 1419,
      "rons": 1420,
      "ĠBut": 1421,
      "Ġnew": 1422,
      "achine": 1423,
      "ĠMy": 1424,
      "orre": 1425,
      "ĠThere": 1426,
      "Ġtimes": 1427,
      "12": 1428,
      "ĠJ": 1429,
      "_{\\": 1430,
      "Ġvers": 1431,
      "Ġaffect": 1432,
      "cd": 1433,
      "of": 1434,
      "Ġappl": 1435,
      "Ġassum": 1436,
      "ling": 1437,
      "Ġaccur": 1438,
      "âķĲâķĲ": 1439,
      "Ġbound": 1440,
      "Ġcomputational": 1441,
      "Ġcreate": 1442,
      "ormal": 1443,
      "Ġimportant": 1444,
      "avi": 1445,
      "Ġpres": 1446,
      "Ġresearch": 1447,
      "Ġmoment": 1448,
      "eps": 1449,
      "ources": 1450,
      "Ġrequires": 1451,
      "other": 1452,
      "Ġocc": 1453,
      "Ġ)": 1454,
      "Ġexpect": 1455,
      "ying": 1456,
      "âĪ": 1457,
      "ta": 1458,
      "Ġfe": 1459,
      "Ġprovide": 1460,
      "Ġeigenval": 1461,
      "Ġpul": 1462,
      "Ġbel": 1463,
      "Ġmathemat": 1464,
      "Ġcurrent": 1465,
      "Ġcorrel": 1466,
      "Ġmagnetic": 1467,
      "align": 1468,
      "back": 1469,
      "Ġprobabil": 1470,
      "etter": 1471,
      "ility": 1472,
      "Ġinde": 1473,
      "Ġsc": 1474,
      "Ġang": 1475,
      "ĠThey": 1476,
      "Ġmeasuring": 1477,
      "Circuit": 1478,
      "Ġproject": 1479,
      "ology": 1480,
      "Ġtop": 1481,
      "Ġfault": 1482,
      "Ġfrequency": 1483,
      "Ġmethods": 1484,
      "Ġinterpre": 1485,
      "Ġparameters": 1486,
      "bers": 1487,
      "Ġregister": 1488,
      "ĠGro": 1489,
      "Ġcontrolled": 1490,
      "Ġstructure": 1491,
      "Ġexpon": 1492,
      "Ġcollaps": 1493,
      "Ġenviron": 1494,
      "Ġwell": 1495,
      "Ġeas": 1496,
      "Ġcoherence": 1497,
      "ĠClassical": 1498,
      "Ġdistribution": 1499,
      "rucial": 1500,
      "ption": 1501,
      "Ġ$$\\": 1502,
      "Phi": 1503,
      "Ġhe": 1504,
      "Ġorder": 1505,
      "----------------": 1506,
      "big": 1507,
      "Ġstandard": 1508,
      "ilar": 1509,
      "Ġhelp": 1510,
      "Ġafter": 1511,
      "pped": 1512,
      "ruction": 1513,
      "ld": 1514,
      "âĶĢâĶĢâĶĢâĶĢâĶĢâĶĢâĶĢâĶĢ": 1515,
      "Ġcomplexity": 1516,
      "Ġdem": 1517,
      "Ġess": 1518,
      "ĠHadamard": 1519,
      "Ġvalues": 1520,
      "ynam": 1521,
      "Ġincre": 1522,
      "onal": 1523,
      "Ġpractical": 1524,
      "ĠIm": 1525,
      "Ġcho": 1526,
      "ness": 1527,
      "ote": 1528,
      "ck": 1529,
      "Ġcol": 1530,
      "Ġret": 1531,
      "ins": 1532,
      "fficient": 1533,
      "ost": 1534,
      "Ġstabilizer": 1535,
      "Ġcrucial": 1536,
      "Ġsam": 1537,
      "plication": 1538,
      "Ġpair": 1539,
      "rices": 1540,
      "Ġfidelity": 1541,
      "ared": 1542,
      "Ġsuperconducting": 1543,
      "Ġtransform": 1544,
      "Ġmain": 1545,
      "Ġnow": 1546,
      "Ġtheorem": 1547,
      "Ġbehavi": 1548,
      "Ġtarget": 1549,
      "Ġminim": 1550,
      "ĠGrover": 1551,
      "ĠBob": 1552,
      "ĠWhen": 1553,
      "99": 1554,
      "Ġparticular": 1555,
      "Ġsum": 1556,
      "rror": 1557,
      "eck": 1558,
      "ĠAlice": 1559,
      "Ġenables": 1560,
      "Ġcount": 1561,
      "Ġsurface": 1562,
      "Ġmuch": 1563,
      "pendent": 1564,
      "Ġav": 1565,
      "like": 1566,
      "Ġbetter": 1567,
      "Ġgu": 1568,
      "Ġlat": 1569,
      "Ġoften": 1570,
      "Ġfactor": 1571,
      "Ġtechniques": 1572,
      "ings": 1573,
      "omet": 1574,
      "ĠNe": 1575,
      "Ġag": 1576,
      "Ġcap": 1577,
      "Ġens": 1578,
      "Ġapproxim": 1579,
      "ray": 1580,
      "irq": 1581,
      "Ġsubs": 1582,
      "acter": 1583,
      "Ġessential": 1584,
      "Ġdecoherence": 1585,
      "ological": 1586,
      "Ġdue": 1587,
      "wh": 1588,
      "Ġmatrices": 1589,
      "Ġour": 1590,
      "Ġide": 1591,
      "ification": 1592,
      "Ġdistance": 1593,
      "oler": 1594,
      "ll": 1595,
      "},": 1596,
      "met": 1597,
      "itions": 1598,
      "come": 1599,
      "ĠÏ": 1600,
      "Ġconf": 1601,
      "ĠRe": 1602,
      "Ġenvironment": 1603,
      "Ġdecom": 1604,
      "Ġlow": 1605,
      "Ġgives": 1606,
      "olar": 1607,
      "Ġmeasured": 1608,
      "tocol": 1609,
      "ĠFirst": 1610,
      "Ġprovides": 1611,
      "ford": 1612,
      "Ġbeg": 1613,
      "Ġpredict": 1614,
      "Ġadvantage": 1615,
      "Ġseem": 1616,
      "Ġnumbers": 1617,
      "Ġatt": 1618,
      "Ġchallenges": 1619,
      "FT": 1620,
      "Ġexact": 1621,
      "tt": 1622,
      "cos": 1623,
      "ĠâĢ": 1624,
      "Ġsepar": 1625,
      "Ġlog": 1626,
      "Ġmachine": 1627,
      "over": 1628,
      "Ġmatter": 1629,
      "rodu": 1630,
      "Ġthink": 1631,
      "Ġabove": 1632,
      "ook": 1633,
      "}^": 1634,
      "Ġmaterials": 1635,
      "ade": 1636,
      "Ġvi": 1637,
      "Ġevery": 1638,
      "Ġbehavior": 1639,
      "Ġaccess": 1640,
      "ways": 1641,
      "Ġknown": 1642,
      "Ġlong": 1643,
      "Ġallows": 1644,
      "Ġsearch": 1645,
      "Ġtake": 1646,
      "}^{": 1647,
      "atic": 1648,
      "light": 1649,
      "atures": 1650,
      "Ġcou": 1651,
      "ixed": 1652,
      "':": 1653,
      "ĠLet": 1654,
      "Ġprogramming": 1655,
      "ĠâĪ": 1656,
      "toler": 1657,
      "ifford": 1658,
      "Ġrep": 1659,
      "Ġsay": 1660,
      "cis": 1661,
      "Ġbeen": 1662,
      "}(\\": 1663,
      "edi": 1664,
      "Ġcompon": 1665,
      "Ġsolve": 1666,
      "Ġfields": 1667,
      "Ġmole": 1668,
      "ocus": 1669,
      "Ġbackend": 1670,
      "red": 1671,
      "Ġtemperature": 1672,
      "Ġexponential": 1673,
      "Qu": 1674,
      "ĠHere": 1675,
      "Ġamplitude": 1676,
      "onstr": 1677,
      "enom": 1678,
      "Ġdep": 1679,
      "Ġbuil": 1680,
      "ining": 1681,
      "Ġbre": 1682,
      "urity": 1683,
      "ival": 1684,
      "Ġ10": 1685,
      "Ġsym": 1686,
      "ropy": 1687,
      "Ġaddress": 1688,
      "Ġrepresentation": 1689,
      "Ġorac": 1690,
      "Ġstill": 1691,
      "Ġchang": 1692,
      "Ġcrypt": 1693,
      "istics": 1694,
      "Ġlas": 1695,
      "Ġprotocol": 1696,
      "bitr": 1697,
      "uc": 1698,
      "ains": 1699,
      "ĠShor": 1700,
      "Ġanother": 1701,
      "Ġcharacter": 1702,
      "Ġpower": 1703,
      "Ġencoding": 1704,
      "Ġconstant": 1705,
      "Ġmomentum": 1706,
      "vectors": 1707,
      "Ġsince": 1708,
      "Ġexpres": 1709,
      "artic": 1710,
      "ately": 1711,
      "ĠNow": 1712,
      "Ġrole": 1713,
      "Ġlevels": 1714,
      "ection": 1715,
      "ift": 1716,
      "ither": 1717,
      "ether": 1718,
      "Ġref": 1719,
      "its": 1720,
      "thon": 1721,
      "Ġgroup": 1722,
      "ĠFin": 1723,
      "ivid": 1724,
      "Ġdiff": 1725,
      "enomen": 1726,
      "Ġzero": 1727,
      "algorithm": 1728,
      "Ġbased": 1729,
      "Ġobtain": 1730,
      "Ġfound": 1731,
      "ined": 1732,
      "ecess": 1733,
      "Ġcontin": 1734,
      "Ġuseful": 1735,
      "Ġins": 1736,
      "Ġrad": 1737,
      "Ġmaxim": 1738,
      "ner": 1739,
      "Ġsequ": 1740,
      "sin": 1741,
      "Ġexec": 1742,
      "Ġelectrons": 1743,
      "^{-": 1744,
      "Ġprinciple": 1745,
      "Ġclear": 1746,
      "Ġarbitr": 1747,
      "rame": 1748,
      "ral": 1749,
      "Ġsyn": 1750,
      "bra": 1751,
      "Ġcomplete": 1752,
      "EC": 1753,
      "Ġion": 1754,
      "(|": 1755,
      "Ġ6": 1756,
      "iew": 1757,
      "Ġdemonstr": 1758,
      "Ġhand": 1759,
      "ĠComput": 1760,
      "Ġions": 1761,
      "pec": 1762,
      "Ġdescribed": 1763,
      "Ġreturn": 1764,
      "//": 1765,
      "Ġclass": 1766,
      "Ġalways": 1767,
      "ĠMat": 1768,
      "Ġcalled": 1769,
      "')": 1770,
      "Ġintegr": 1771,
      "Ġdiag": 1772,
      "reat": 1773,
      "ensor": 1774,
      "Ġprint": 1775,
      "Ġbefore": 1776,
      "man": 1777,
      "Ġdifference": 1778,
      "Ġancill": 1779,
      "ark": 1780,
      "pping": 1781,
      "Ġloo": 1782,
      "urb": 1783,
      "inst": 1784,
      "Ġtas": 1785,
      "tolerant": 1786,
      "Ġfocus": 1787,
      "Ġphenomen": 1788,
      "rite": 1789,
      "Ġdevelopment": 1790,
      "Ġdefine": 1791,
      "Ġpost": 1792,
      "Ġsimilar": 1793,
      "ram": 1794,
      "Ġnecess": 1795,
      "Ġstat": 1796,
      "Ġground": 1797,
      "Ġcost": 1798,
      "000": 1799,
      "easurement": 1800,
      "Ġabs": 1801,
      "leport": 1802,
      "Ġrange": 1803,
      "Ġinteractions": 1804,
      "Ġpure": 1805,
      "Ġsw": 1806,
      "Ġdirectly": 1807,
      "Ġperformance": 1808,
      "Ġsci": 1809,
      "Ġful": 1810,
      "ĠNo": 1811,
      "ses": 1812,
      "Ġthough": 1813,
      "Ġintrodu": 1814,
      "herent": 1815,
      "ystem": 1816,
      "Ġimprove": 1817,
      "arrow": 1818,
      "Ġinterference": 1819,
      "sing": 1820,
      "Ġmade": 1821,
      "ĠSch": 1822,
      "gg": 1823,
      "Ġflu": 1824,
      "Ġdefined": 1825,
      "igation": 1826,
      "bits": 1827,
      "Ġsimple": 1828,
      "line": 1829,
      "ified": 1830,
      "aves": 1831,
      "ĠMan": 1832,
      "Ġprecise": 1833,
      "Ġbl": 1834,
      "Ġpath": 1835,
      "work": 1836,
      "pose": 1837,
      "The": 1838,
      "Ġoracle": 1839,
      "Ġtri": 1840,
      "Ġoff": 1841,
      "Ġwrit": 1842,
      "rav": 1843,
      "mon": 1844,
      "Ġequival": 1845,
      "qubits": 1846,
      "ĠEnt": 1847,
      "aneously": 1848,
      "trol": 1849,
      "phas": 1850,
      "ĠQuantumCircuit": 1851,
      "aw": 1852,
      "ftware": 1853,
      "Ġelements": 1854,
      "}}\\": 1855,
      "fect": 1856,
      "Ġoutcome": 1857,
      "Ġevolution": 1858,
      "Ġstep": 1859,
      "flu": 1860,
      "Ġlet": 1861,
      "Ġdetail": 1862,
      "pace": 1863,
      "ĠWhy": 1864,
      "comes": 1865,
      "Ġgive": 1866,
      "ather": 1867,
      "})": 1868,
      "Ġconc": 1869,
      "ross": 1870,
      "Ġtrue": 1871,
      "Ġrate": 1872,
      "AB": 1873,
      "Ġincluding": 1874,
      "based": 1875,
      "Ġthree": 1876,
      "ym": 1877,
      "Ġdoesn": 1878,
      "aces": 1879,
      "cdot": 1880,
      "ilon": 1881,
      "pen": 1882,
      "kes": 1883,
      "ick": 1884,
      "Ġdown": 1885,
      "ibm": 1886,
      "oling": 1887,
      "ey": 1888,
      "ee": 1889,
      "Ġdeg": 1890,
      "Ġarbitrary": 1891,
      "Ġcorresponding": 1892,
      "Ġmathematical": 1893,
      "ĠAt": 1894,
      "Ġprodu": 1895,
      "Ġoccur": 1896,
      "ĠAd": 1897,
      "Ġoptical": 1898,
      "ail": 1899,
      "anced": 1900,
      "âĶĢâĶ": 1901,
      "Ġcollapse": 1902,
      "Ġeffects": 1903,
      "Ġexamples": 1904,
      "Ġ?": 1905,
      "ward": 1906,
      "elta": 1907,
      "ibration": 1908,
      "Ġcontext": 1909,
      "resh": 1910,
      "Ġcrit": 1911,
      "Ġeffectively": 1912,
      "Ġframe": 1913,
      "Ġreas": 1914,
      "|^": 1915,
      "orld": 1916,
      "ĠSuper": 1917,
      "me": 1918,
      "Ġobject": 1919,
      "Ġagain": 1920,
      "Ġdepends": 1921,
      "Ġentropy": 1922,
      "Ġapplied": 1923,
      "Ġgood": 1924,
      "Ġeither": 1925,
      "Ġwithin": 1926,
      "Ġequal": 1927,
      "ometh": 1928,
      "omething": 1929,
      "ty": 1930,
      "rete": 1931,
      "Ġrequired": 1932,
      "ention": 1933,
      "ĠCan": 1934,
      "Ġindivid": 1935,
      "Ġoutcomes": 1936,
      "Ġwhether": 1937,
      "ances": 1938,
      "Ġexperimental": 1939,
      "Ġunc": 1940,
      "Ġrot": 1941,
      "Ġmakes": 1942,
      "sub": 1943,
      "read": 1944,
      "verse": 1945,
      "til": 1946,
      "Ġteleport": 1947,
      "ler": 1948,
      "Ġmet": 1949,
      "Ġthose": 1950,
      "Ġ7": 1951,
      "+|": 1952,
      "'re": 1953,
      "Ġparameter": 1954,
      "Ġtypes": 1955,
      "Ġdimens": 1956,
      "Ġsize": 1957,
      "Ġlook": 1958,
      "ably": 1959,
      "itt": 1960,
      "Ġnp": 1961,
      "usion": 1962,
      "igin": 1963,
      "ensive": 1964,
      "ĠDif": 1965,
      "Ġlaser": 1966,
      "rid": 1967,
      "Ġeigenvalues": 1968,
      "au": 1969,
      "Ġsimpl": 1970,
      "Tr": 1971,
      "Ġver": 1972,
      "ox": 1973,
      "Ġsqu": 1974,
      "amma": 1975,
      "ĠFinally": 1976,
      "Ġprot": 1977,
      "Ġsure": 1978,
      "ands": 1979,
      ".\"": 1980,
      "lying": 1981,
      "Ġsolutions": 1982,
      "lection": 1983,
      "Ġexc": 1984,
      "ĠEntangle": 1985,
      "ĠError": 1986,
      "Ġsimult": 1987,
      "02": 1988,
      "Ġsomething": 1989,
      "Ġstud": 1990,
      "Ġend": 1991,
      "Ġprobabilities": 1992,
      "ination": 1993,
      "Ġchange": 1994,
      "Ġformul": 1995,
      "Ġuniversal": 1996,
      "Ġsimulate": 1997,
      "Ġnature": 1998,
      "ule": 1999,
      "ission": 2000,
      "Ġben": 2001,
      "ols": 2002,
      "Ġcommon": 2003,
      "ĠApp": 2004,
      "Ġ/": 2005,
      "Ġspect": 2006,
      "Ġexperiments": 2007,
      "orrection": 2008,
      "aging": 2009,
      "atur": 2010,
      "Ġsoftware": 2011,
      "name": 2012,
      "Ġapplying": 2013,
      "_\\": 2014,
      "ĠOpt": 2015,
      "bert": 2016,
      "reshold": 2017,
      "://": 2018,
      "ein": 2019,
      "Ġprev": 2020,
      "Ġtrying": 2021,
      "Ġmeasures": 2022,
      "alle": 2023,
      "sh": 2024,
      "gebra": 2025,
      "ument": 2026,
      "Ġ&=": 2027,
      "ingu": 2028,
      "Ġ$(": 2029,
      "Ġbelow": 2030,
      "Quantum": 2031,
      "Ġwrite": 2032,
      "bar": 2033,
      "Ġspecial": 2034,
      "Ġnear": 2035,
      "QE": 2036,
      "loch": 2037,
      "Ġconsidered": 2038,
      "inguish": 2039,
      "Ġworks": 2040,
      "ipul": 2041,
      "Ġcare": 2042,
      "Ġhtt": 2043,
      "allel": 2044,
      "iation": 2045,
      "ĠCons": 2046,
      "ired": 2047,
      "Ġcheck": 2048,
      "cing": 2049,
      "Ġstrong": 2050,
      "ĠClifford": 2051,
      "Psi": 2052,
      "Ġrotation": 2053,
      "Ġinstead": 2054,
      "Ġcomponents": 2055,
      "Ġright": 2056,
      "raction": 2057,
      "izes": 2058,
      "Ġequivalent": 2059,
      "idd": 2060,
      "Ġcontinu": 2061,
      "Ġenable": 2062,
      "cision": 2063,
      "Ġtype": 2064,
      "inary": 2065,
      "Ġinterest": 2066,
      "Ġprinciples": 2067,
      "Ġdiscus": 2068,
      "Ġdepth": 2069,
      "Ġdynam": 2070,
      "Ġconstruct": 2071,
      "tal": 2072,
      "Ġadv": 2073,
      "result": 2074,
      "ysis": 2075,
      "drom": 2076,
      "Ġgraph": 2077,
      "lob": 2078,
      "Ġdescribe": 2079,
      "ĠTr": 2080,
      "raw": 2081,
      "omial": 2082,
      "Ġtrace": 2083,
      "aries": 2084,
      "Ġlay": 2085,
      "Ġsensing": 2086,
      "oss": 2087,
      "local": 2088,
      "Ġapplication": 2089,
      "Ġ8": 2090,
      "Ġorigin": 2091,
      "Ġmic": 2092,
      "Ġresources": 2093,
      "Ġactually": 2094,
      "imulator": 2095,
      "Ġhttps": 2096,
      "icon": 2097,
      "Ġmeaning": 2098,
      "Ġreason": 2099,
      "AP": 2100,
      "pr": 2101,
      "Ġjob": 2102,
      "Ġsymmet": 2103,
      "Ġtherm": 2104,
      "Ġancilla": 2105,
      "ert": 2106,
      "Ġrather": 2107,
      "Ġcaus": 2108,
      "\",": 2109,
      "atter": 2110,
      "Ġstim": 2111,
      "tag": 2112,
      "ĠQA": 2113,
      "ax": 2114,
      "ĠInter": 2115,
      "Ġwere": 2116,
      "Ġmit": 2117,
      "iled": 2118,
      "Ġlist": 2119,
      "Ġexplan": 2120,
      "Ġindividual": 2121,
      "Ġframework": 2122,
      "Ġinterpretation": 2123,
      "Ġrepe": 2124,
      "Ġass": 2125,
      "Ġsimulator": 2126,
      "peri": 2127,
      "cop": 2128,
      "Ġmanipul": 2129,
      "Ġresource": 2130,
      "Ġrespect": 2131,
      "Ġmodels": 2132,
      "Ġhapp": 2133,
      "Ġaround": 2134,
      "oli": 2135,
      "Ġcooling": 2136,
      "ilbert": 2137,
      "etime": 2138,
      "âĪĴ": 2139,
      "times": 2140,
      "Ġaut": 2141,
      "Ġinequ": 2142,
      "Ġrepresents": 2143,
      "Ġsl": 2144,
      "ĠQM": 2145,
      "Ġmaking": 2146,
      "Ġimplementation": 2147,
      "Ġachieve": 2148,
      "Ġavail": 2149,
      "Ġsch": 2150,
      "Ġdetection": 2151,
      "Ġextre": 2152,
      "oint": 2153,
      "Ġcent": 2154,
      "ĠThat": 2155,
      "Ġobservable": 2156,
      "Ġchanges": 2157,
      "head": 2158,
      "sed": 2159,
      "jor": 2160,
      "ĠNote": 2161,
      "lvert": 2162,
      "Ġdevices": 2163,
      "Ġleading": 2164,
      "Ġcryptography": 2165,
      "Ġvectors": 2166,
      "Ġefficiently": 2167,
      "Ġseems": 2168,
      "Ġthreshold": 2169,
      "Ġtensor": 2170,
      "oring": 2171,
      "('": 2172,
      "ĠBy": 2173,
      "Ġtun": 2174,
      "isy": 2175,
      "Ġexcit": 2176,
      "comput": 2177,
      "Ġtheoret": 2178,
      "gamma": 2179,
      "Ġexactly": 2180,
      "icult": 2181,
      "array": 2182,
      "ĠQFT": 2183,
      "ĠEntanglement": 2184,
      "Ġel": 2185,
      "oton": 2186,
      "Ġsupport": 2187,
      "ĠThus": 2188,
      "ven": 2189,
      "lyn": 2190,
      "Ġï¬ģ": 2191,
      "Ġteleportation": 2192,
      "Ġemphas": 2193,
      "Ġdefinition": 2194,
      "Ġmot": 2195,
      "Ġsimultaneously": 2196,
      "alk": 2197,
      "ching": 2198,
      "Ġinteract": 2199,
      "Ġcoupling": 2200,
      "mar": 2201,
      "arily": 2202,
      "Ġextreme": 2203,
      "Ġpolar": 2204,
      "operator": 2205,
      "lynomial": 2206,
      "Ġenough": 2207,
      "ĠPl": 2208,
      "ĠHilbert": 2209,
      "Ġinvolves": 2210,
      "berg": 2211,
      "ially": 2212,
      "ĠDiffer": 2213,
      "ĠGo": 2214,
      "Ġindependent": 2215,
      "Ġfinding": 2216,
      "Ġbecom": 2217,
      "log": 2218,
      "Ġoffer": 2219,
      "Ġcore": 2220,
      "mod": 2221,
      "}_{": 2222,
      "Ġatomic": 2223,
      "backend": 2224,
      "Ġuncertain": 2225,
      "ciated": 2226,
      "Ġless": 2227,
      "ĠSince": 2228,
      "Ġchem": 2229,
      "ilation": 2230,
      "Ġpositive": 2231,
      "KD": 2232,
      "Ġtypically": 2233,
      "Ġsyndrom": 2234,
      "Ġincludes": 2235,
      "Ġtransm": 2236,
      "atis": 2237,
      "Ġregular": 2238,
      "ĠAlgorithm": 2239,
      "Ġnetworks": 2240,
      "Ġvarious": 2241,
      "ĠHigh": 2242,
      "Ġmap": 2243,
      "Ġposition": 2244,
      "Ġtemperatures": 2245,
      "Ġaccuracy": 2246,
      "Ġdecomposition": 2247,
      "Ġpattern": 2248,
      "Ġpulse": 2249,
      "ici": 2250,
      "Ġprecision": 2251,
      "Ġavailable": 2252,
      "OA": 2253,
      "aling": 2254,
      "Ġhigher": 2255,
      "ifying": 2256,
      "lobal": 2257,
      "ily": 2258,
      "Ġshift": 2259,
      "instein": 2260,
      "Ġrelated": 2261,
      "Ġnormal": 2262,
      "Ġable": 2263,
      "Ġdifficult": 2264,
      "Ġcorrelations": 2265,
      "Ġhighlight": 2266,
      "OR": 2267,
      "Ġtak": 2268,
      "Ġsecurity": 2269,
      "Ġspeedup": 2270,
      "Ġbreak": 2271,
      "ĠAnd": 2272,
      "const": 2273,
      "'ve": 2274,
      "ifically": 2275,
      "0000": 2276,
      "In": 2277,
      "romagnetic": 2278,
      "Ġdefinite": 2279,
      "Ġgrav": 2280,
      "Ġprepar": 2281,
      "Ġfunctions": 2282,
      "vec": 2283,
      "no": 2284,
      "Ġleast": 2285,
      "Ġ>": 2286,
      "ĠWith": 2287,
      "here": 2288,
      "ĠExam": 2289,
      "roscop": 2290,
      "oded": 2291,
      "Ġconstra": 2292,
      "Ġdat": 2293,
      "Ġparallel": 2294,
      "epsilon": 2295,
      "ription": 2296,
      "Ġdone": 2297,
      "gine": 2298,
      "Ġsatis": 2299,
      "Ġnatur": 2300,
      "Ġfree": 2301,
      "Ġimpact": 2302,
      "Ġfollows": 2303,
      "Ġreduce": 2304,
      "qiskit": 2305,
      "ga": 2306,
      "Ġtasks": 2307,
      ")|": 2308,
      "Ġbegins": 2309,
      "ĠMeasurement": 2310,
      "Ġtopological": 2311,
      "Ġconsist": 2312,
      "Ġtrapped": 2313,
      "igure": 2314,
      "Ġwritten": 2315,
      "tice": 2316,
      "Ġfull": 2317,
      "Ġed": 2318,
      "ateg": 2319,
      "Ġtechnology": 2320,
      "Ġproperty": 2321,
      "uting": 2322,
      "Ġcompute": 2323,
      "egister": 2324,
      "radient": 2325,
      "ĠMany": 2326,
      "Ġsever": 2327,
      "Ġlimitations": 2328,
      "Ġblack": 2329,
      "Ġamplitudes": 2330,
      "arri": 2331,
      "Ġprim": 2332,
      "atz": 2333,
      "omega": 2334,
      "Ġtotal": 2335,
      "Ġelement": 2336,
      "ef": 2337,
      "Ġrates": 2338,
      "Ġpur": 2339,
      "ccess": 2340,
      "Ġbecomes": 2341,
      "iod": 2342,
      "Ġiss": 2343,
      "Ġrele": 2344,
      "reg": 2345,
      "(\"": 2346,
      "\\}$": 2347,
      "Ġbos": 2348,
      "Ġreli": 2349,
      "Ġfinal": 2350,
      "Ġconditions": 2351,
      "Ġcritical": 2352,
      "Ġbest": 2353,
      "Ġblo": 2354,
      "Ġestimation": 2355,
      "algorithms": 2356,
      "book": 2357,
      "mathbf": 2358,
      "ears": 2359,
      "Ġidea": 2360,
      "time": 2361,
      "ply": 2362,
      "Ġbasic": 2363,
      "Ġbeam": 2364,
      "Ġleads": 2365,
      "âķĲâķĲâķĲâķĲ": 2366,
      "yd": 2367,
      "ĠDo": 2368,
      "ĠQAOA": 2369,
      "Ġtext": 2370,
      "emory": 2371,
      "Ġpairs": 2372,
      "Ġsend": 2373,
      "ody": 2374,
      "efficient": 2375,
      "uations": 2376,
      "itect": 2377,
      "ĠOn": 2378,
      "</": 2379,
      "Ġrelative": 2380,
      "Ġpass": 2381,
      "Ġnuc": 2382,
      "ĠAp": 2383,
      "Ġapproaches": 2384,
      "level": 2385,
      "function": 2386,
      "Ġsteps": 2387,
      "Ġproof": 2388,
      "Ġ11": 2389,
      "Ġcalibration": 2390,
      "Ġsatisf": 2391,
      "dimens": 2392,
      "rast": 2393,
      "Ġmis": 2394,
      "Ġmaintain": 2395,
      "Ġneeds": 2396,
      "Ġarg": 2397,
      "aving": 2398,
      "Ġpulses": 2399,
      "Ġseveral": 2400,
      "Ġder": 2401,
      "chitect": 2402,
      "ĠKey": 2403,
      "Ġexplanation": 2404,
      "}$$": 2405,
      "...": 2406,
      "ently": 2407,
      "Ġexpectation": 2408,
      "Ġcirq": 2409,
      "Ġet": 2410,
      "ĠEach": 2411,
      "Ġcalculate": 2412,
      "13": 2413,
      "Ġidentity": 2414,
      "Ġ9": 2415,
      "ĠDec": 2416,
      "ĠBloch": 2417,
      "ĠLo": 2418,
      "Ġanalysis": 2419,
      "length": 2420,
      "Ġthus": 2421,
      "Ġrelations": 2422,
      "Ġmolec": 2423,
      "Ġimplemented": 2424,
      "ĠVQE": 2425,
      "ĠState": 2426,
      "Ġperformed": 2427,
      "Ġconnectivity": 2428,
      "rightarrow": 2429,
      "count": 2430,
      "ercise": 2431,
      "ĠPr": 2432,
      "Ġampl": 2433,
      "num": 2434,
      "ĠOne": 2435,
      "Ġincluded": 2436,
      "Register": 2437,
      ")=": 2438,
      "asm": 2439,
      "Ġhad": 2440,
      "oid": 2441,
      "Ġprep": 2442,
      "Ġprocessing": 2443,
      "Ġlimited": 2444,
      "Ġaddition": 2445,
      "Ġfew": 2446,
      "thog": 2447,
      "Ġphenomena": 2448,
      "Ġiter": 2449,
      "==": 2450,
      "âŁ©,": 2451,
      "ious": 2452,
      "008": 2453,
      "article": 2454,
      "verage": 2455,
      "Ġversion": 2456,
      "Ġmixed": 2457,
      "Ġadvantages": 2458,
      "ĠInitial": 2459,
      "Ġpolynomial": 2460,
      "Ġnecessary": 2461,
      "view": 2462,
      "Ġcall": 2463,
      "Ġobser": 2464,
      "ides": 2465,
      "Ġâī": 2466,
      "less": 2467,
      "ĠSim": 2468,
      "ering": 2469,
      "Ġtoget": 2470,
      "Ġtogether": 2471,
      "Ġasso": 2472,
      "(-": 2473,
      "[-": 2474,
      "qc": 2475,
      "Ġsugg": 2476,
      "16": 2477,
      "ĠWhile": 2478,
      "Ġdetermine": 2479,
      "dots": 2480,
      "itivity": 2481,
      "Ġline": 2482,
      "Ġprom": 2483,
      "Ġoriginal": 2484,
      "ĠMore": 2485,
      "Ġcirc": 2486,
      "Ġfar": 2487,
      "ĠConsider": 2488,
      "âĤ": 2489,
      "Ġsimply": 2490,
      "ĠSupp": 2491,
      "Ġelectromagnetic": 2492,
      "Ġoverhead": 2493,
      "Ġconcepts": 2494,
      "Ġden": 2495,
      "Ġperiod": 2496,
      "Ġcapac": 2497,
      "Ġtrap": 2498,
      "ĠNext": 2499,
      "measure": 2500,
      "Ġtack": 2501,
      "ourier": 2502,
      "Ġnoisy": 2503,
      "dimensional": 2504,
      "Ïģ": 2505,
      "iciency": 2506,
      "medi": 2507,
      "Ġvalid": 2508,
      "Ġbecome": 2509,
      "Ġangular": 2510,
      "Ġloss": 2511,
      "Ġlogic": 2512,
      "ĠCo": 2513,
      "Ġexplained": 2514,
      "scill": 2515,
      "ifies": 2516,
      "mu": 2517,
      "Ġbuild": 2518,
      "Ġopen": 2519,
      "Ġglobal": 2520,
      "encies": 2521,
      "perience": 2522,
      "enge": 2523,
      "apt": 2524,
      "Ġlarger": 2525,
      "dinger": 2526,
      "Ġ).": 2527,
      "Ġdescribes": 2528,
      "Ġrepresented": 2529,
      "abel": 2530,
      "Ġcomputations": 2531,
      "ĠâĪĴ": 2532,
      "Ġlimits": 2533,
      "ĠHe": 2534,
      "ives": 2535,
      "Ġdiscrete": 2536,
      "Ġaffects": 2537,
      "Ġself": 2538,
      "Ġinflu": 2539,
      "Ġanaly": 2540,
      "Ġdevice": 2541,
      "Ġu": 2542,
      "Ġaction": 2543,
      "Ġneut": 2544,
      "Ġill": 2545,
      "Ġlower": 2546,
      "Ġthermal": 2547,
      "posed": 2548,
      "ium": 2549,
      "Ġmention": 2550,
      "angu": 2551,
      "Ġdri": 2552,
      "ĠCircuit": 2553,
      "Ġuncertainty": 2554,
      "Ġweak": 2555,
      "WAP": 2556,
      "Ġsem": 2557,
      "ape": 2558,
      "ready": 2559,
      "Ġmitigation": 2560,
      "Ġtheoretical": 2561,
      "Ġencoded": 2562,
      "ĠâĶľ": 2563,
      "Ġengine": 2564,
      "ĠFerm": 2565,
      "Ġimplications": 2566,
      "Ġduring": 2567,
      "IS": 2568,
      "Ġferm": 2569,
      "Ġdetermin": 2570,
      "Ġchoice": 2571,
      "satz": 2572,
      "Ġsyndrome": 2573,
      "Ġreally": 2574,
      "ĠRes": 2575,
      "ĠTrans": 2576,
      ")^": 2577,
      "Ġtransition": 2578,
      "Ġacross": 2579,
      "Ġfour": 2580,
      "ĠOper": 2581,
      "Ġsphere": 2582,
      "Ġcry": 2583,
      "ĠTra": 2584,
      "ribut": 2585,
      "Ġnote": 2586,
      "VM": 2587,
      "oud": 2588,
      "âŁ¨": 2589,
      "equation": 2590,
      "Ġchannels": 2591,
      "Ġant": 2592,
      "Ġsource": 2593,
      "Ġmass": 2594,
      "15": 2595,
      "Ġenh": 2596,
      "ique": 2597,
      "ĠQC": 2598,
      "Ġdetailed": 2599,
      "correction": 2600,
      "ĠBuil": 2601,
      "Ġdirection": 2602,
      "ann": 2603,
      "Ġsensors": 2604,
      "oh": 2605,
      "Ġdetermines": 2606,
      "su": 2607,
      "opt": 2608,
      "Ġalready": 2609,
      "Ġdest": 2610,
      "osed": 2611,
      "idden": 2612,
      "Ġlattice": 2613,
      "ffoli": 2614,
      "Ġstrateg": 2615,
      "know": 2616,
      "Ġcompar": 2617,
      "Ġvariables": 2618,
      "Ġscatter": 2619,
      "ĠMod": 2620,
      "Ġmechanism": 2621,
      "Ġreadout": 2622,
      "comm": 2623,
      "Ġalong": 2624,
      "Ġsplit": 2625,
      "Ġear": 2626,
      "([": 2627,
      "esis": 2628,
      "ries": 2629,
      "Ġax": 2630,
      "ev": 2631,
      "Ġtransformation": 2632,
      "thogonal": 2633,
      "istry": 2634,
      "urther": 2635,
      "CNOT": 2636,
      "ĠDifferent": 2637,
      "Ex": 2638,
      "Ġoptimal": 2639,
      "cules": 2640,
      "Ġremains": 2641,
      "Ġprovided": 2642,
      "ets": 2643,
      "Ġconstraint": 2644,
      "quad": 2645,
      "Ġrest": 2646,
      "Ġsecure": 2647,
      "rog": 2648,
      "Ġbro": 2649,
      "Ġcareful": 2650,
      "Ġtackle": 2651,
      "ĠSimul": 2652,
      "Ġvia": 2653,
      "Ġarchitect": 2654,
      "Ġlink": 2655,
      "Ġart": 2656,
      "Ġassociated": 2657,
      "Ġreve": 2658,
      "be": 2659,
      "pler": 2660,
      "Ġeval": 2661,
      "Ġviol": 2662,
      "Ġsuggest": 2663,
      "uts": 2664,
      "Ġdistinguish": 2665,
      "states": 2666,
      "thing": 2667,
      "Ġgradient": 2668,
      "ott": 2669,
      "delta": 2670,
      "ogle": 2671,
      "ij": 2672,
      "Ġhelps": 2673,
      "reh": 2674,
      "cale": 2675,
      "Ġcompreh": 2676,
      "sup": 2677,
      "ĠQKD": 2678,
      "Ġworking": 2679,
      "agic": 2680,
      "Ġ}": 2681,
      "Ġra": 2682,
      "irac": 2683,
      "plicit": 2684,
      "ĠOptim": 2685,
      "Ġrunning": 2686,
      "Ġdesigned": 2687,
      "wise": 2688,
      "Ġlangu": 2689,
      "Ġmajor": 2690,
      "org": 2691,
      "ank": 2692,
      "ython": 2693,
      "Ġtry": 2694,
      "Ġoscill": 2695,
      ")}": 2696,
      "atform": 2697,
      "ret": 2698,
      "Ġlast": 2699,
      "Ä§": 2700,
      "unter": 2701,
      "Ã¶": 2702,
      "Ġdid": 2703,
      "Ġreduces": 2704,
      "Ġ$\\{": 2705,
      "Ġpoints": 2706,
      "Ġdoing": 2707,
      "98": 2708,
      "ik": 2709,
      "yb": 2710,
      "iels": 2711,
      "ermit": 2712,
      "ĠPhys": 2713,
      "Ġapplies": 2714,
      "Ġpresent": 2715,
      "ern": 2716,
      "Ġinterpret": 2717,
      "Ġscience": 2718,
      "Ġcontinuous": 2719,
      "ĠGate": 2720,
      "Ġtransitions": 2721,
      "Ġtechnique": 2722,
      "Ġeasy": 2723,
      "Â²": 2724,
      "ologies": 2725,
      "Ġconvert": 2726,
      "finite": 2727,
      "uum": 2728,
      "Ġitself": 2729,
      "25": 2730,
      "code": 2731,
      "Ġsuccess": 2732,
      "cx": 2733,
      "Ġmechanical": 2734,
      "ĠYes": 2735,
      "Ġneg": 2736,
      "aking": 2737,
      "empt": 2738,
      "where": 2739,
      "Ġcour": 2740,
      "plies": 2741,
      "Ġperfect": 2742,
      "Ġproced": 2743,
      "Ġtransp": 2744,
      "Ġprotect": 2745,
      "Ġdifferences": 2746,
      "Ġ(\\": 2747,
      "ĠSchr": 2748,
      ")/": 2749,
      "Ġexhi": 2750,
      "Ġindic": 2751,
      "pin": 2752,
      "Ġtools": 2753,
      "itary": 2754,
      "Ġinstance": 2755,
      "aneous": 2756,
      "Ġlearn": 2757,
      "Ġbuilding": 2758,
      "Ġstabilizers": 2759,
      "Ã¶dinger": 2760,
      "ground": 2761,
      "\")": 2762,
      "Ġeigenvalue": 2763,
      "ybrid": 2764,
      "Ġforce": 2765,
      "Ġextract": 2766,
      "Ġprotocols": 2767,
      "operatorname": 2768,
      "Ġgreat": 2769,
      "|$": 2770,
      "Ġdiagonal": 2771,
      "14": 2772,
      "ustr": 2773,
      "Ġpossib": 2774,
      "Ġdimension": 2775,
      "ored": 2776,
      "Ġmolecules": 2777,
      "ĠSchrÃ¶dinger": 2778,
      "Ġanalog": 2779,
      "Ġrefer": 2780,
      "Ġefficiency": 2781,
      "Ġdesired": 2782,
      "Ġrequirements": 2783,
      "sto": 2784,
      "Ġclassically": 2785,
      "Ġreduced": 2786,
      "Ġsequence": 2787,
      "requ": 2788,
      "Ġonce": 2789,
      "Ġagainst": 2790,
      "ĠBuilding": 2791,
      "ĠAer": 2792,
      "Ġansatz": 2793,
      "Ġunique": 2794,
      "Ġencrypt": 2795,
      "QP": 2796,
      "ĠPlan": 2797,
      "ises": 2798,
      "ising": 2799,
      "sible": 2800,
      "lic": 2801,
      "Ġ...": 2802,
      "ermitian": 2803,
      "ording": 2804,
      "Ġstring": 2805,
      "Ġphotonic": 2806,
      "isual": 2807,
      "Ġcompared": 2808,
      "Ġcharge": 2809,
      "Ġfam": 2810,
      "Ġmemory": 2811,
      "Ġregard": 2812,
      "Ġfail": 2813,
      "overy": 2814,
      "ĠPre": 2815,
      "rug": 2816,
      "Ġwon": 2817,
      "Ġser": 2818,
      "Ġshots": 2819,
      "ords": 2820,
      "];": 2821,
      "ctuations": 2822,
      "Ġwrong": 2823,
      "Ġfurther": 2824,
      "uality": 2825,
      "Ġweight": 2826,
      "ledge": 2827,
      "Ġexists": 2828,
      "ips": 2829,
      "uang": 2830,
      "Ġextremely": 2831,
      "ĠFourier": 2832,
      "Ġobserved": 2833,
      "Ġremain": 2834,
      "ĠComputing": 2835,
      "Ġaspect": 2836,
      "leq": 2837,
      "versal": 2838,
      "Ġdescription": 2839,
      "Ġways": 2840,
      "Ġalgebra": 2841,
      "ĠUnlike": 2842,
      "ake": 2843,
      "Ġcreates": 2844,
      "Ġsense": 2845,
      "Ġshows": 2846,
      "Ġthought": 2847,
      "circ": 2848,
      "Ġindu": 2849,
      "Ġcombination": 2850,
      "ĠSuppose": 2851,
      "Ġextend": 2852,
      "Ġuniverse": 2853,
      "part": 2854,
      "Ġamount": 2855,
      "Ġsampling": 2856,
      "ielsen": 2857,
      "Ġensure": 2858,
      "Ġradiation": 2859,
      "itted": 2860,
      "ĠDes": 2861,
      "which": 2862,
      "Ġillustr": 2863,
      "ĠOr": 2864,
      "##": 2865,
      "Ġshort": 2866,
      "Ġcases": 2867,
      "Ġ12": 2868,
      "econd": 2869,
      "istance": 2870,
      "map": 2871,
      "acuum": 2872,
      "ĠSome": 2873,
      "istical": 2874,
      "Ġassume": 2875,
      ".$$": 2876,
      "ND": 2877,
      "asing": 2878,
      "Ġobservables": 2879,
      "Ġinstant": 2880,
      "Ġsources": 2881,
      "ĠQubits": 2882,
      "exp": 2883,
      "Ġevalu": 2884,
      "pag": 2885,
      "Ġserv": 2886,
      "Ġnotation": 2887,
      "Ġinteger": 2888,
      "Ġmagn": 2889,
      "Ġsignificantly": 2890,
      "Ġversus": 2891,
      "term": 2892,
      "Ġangle": 2893,
      "Ġplatform": 2894,
      "aim": 2895,
      "Ġes": 2896,
      "Ġadj": 2897,
      "Ġquality": 2898,
      "Ġclose": 2899,
      "Ġchallenge": 2900,
      "Ġeasily": 2901,
      "ense": 2902,
      "Ġexponentially": 2903,
      "Ġdiagram": 2904,
      "Ġsquare": 2905,
      "Ġanne": 2906,
      "lish": 2907,
      "Ġinequality": 2908,
      "Ġbu": 2909,
      "Ġspac": 2910,
      "classical": 2911,
      "trans": 2912,
      "\\!": 2913,
      "ock": 2914,
      "iven": 2915,
      "Ġentire": 2916,
      "Ġcapacity": 2917,
      "Ġwavelength": 2918,
      "Ġhold": 2919,
      "Ġanalyz": 2920,
      "Ġprobabilistic": 2921,
      "ĠAfter": 2922,
      "ĠQubit": 2923,
      "Ġbinary": 2924,
      ")),": 2925,
      "by": 2926,
      "alf": 2927,
      "Ġstrength": 2928,
      "Ġtakes": 2929,
      "uture": 2930,
      "ĠToffoli": 2931,
      "ĠUnder": 2932,
      "ault": 2933,
      "known": 2934,
      "Ġvariational": 2935,
      "Ġimproves": 2936,
      "ĠDet": 2937,
      "Ġparticularly": 2938,
      "eez": 2939,
      "Ġfinite": 2940,
      "self": 2941,
      "change": 2942,
      "Ġ--": 2943,
      "Ġevol": 2944,
      "Ġderiv": 2945,
      "ĠPlanck": 2946,
      "ml": 2947,
      "thers": 2948,
      "Ġsuit": 2949,
      "anc": 2950,
      "Ġtoo": 2951,
      "pm": 2952,
      "det": 2953,
      "Ġlength": 2954,
      "ĠAny": 2955,
      "Ġresulting": 2956,
      "001": 2957,
      "--------------------------------": 2958,
      "Ġquestions": 2959,
      "ĠComp": 2960,
      "ĠGoogle": 2961,
      "Ġpers": 2962,
      "]$": 2963,
      "control": 2964,
      "Ġlooking": 2965,
      "stim": 2966,
      "Ġcomprehensive": 2967,
      "ĠElect": 2968,
      "Ġscaling": 2969,
      "plus": 2970,
      "rue": 2971,
      "Ġibm": 2972,
      "Ġavoid": 2973,
      "down": 2974,
      "Ġsa": 2975,
      "Ġbr": 2976,
      "plo": 2977,
      "equiv": 2978,
      "ĠâĶĤ": 2979,
      "Ġpolarization": 2980,
      "chmar": 2981,
      "âŁ©.": 2982,
      "Ġrevers": 2983,
      "Ġbelie": 2984,
      "Ġattempt": 2985,
      "ĠDis": 2986,
      "asis": 2987,
      "ĠInst": 2988,
      "Ġreson": 2989,
      "Ġschem": 2990,
      "Ġexce": 2991,
      "Ġknowledge": 2992,
      "gates": 2993,
      "adr": 2994,
      "Ġoverall": 2995,
      "'ll": 2996,
      "Ġscale": 2997,
      "Ġside": 2998,
      "Ġcoefficient": 2999,
      "Ġrepeat": 3000,
      "ird": 3001,
      "yc": 3002,
      "np": 3003,
      "Ġlikely": 3004,
      "Ġfrequencies": 3005,
      "Ġdynamics": 3006,
      "Ġconv": 3007,
      "Ġability": 3008,
      "Ġshown": 3009,
      "23": 3010,
      "Ġbi": 3011,
      "Ġleft": 3012,
      "Ġdistin": 3013,
      "Ġfluctuations": 3014,
      "way": 3015,
      "Ġcounts": 3016,
      "Ġscattering": 3017,
      "Ġdoc": 3018,
      "Ġspecifically": 3019,
      "Ġfactors": 3020,
      "20": 3021,
      "Ġimpos": 3022,
      "ists": 3023,
      "Ġcreating": 3024,
      "Ġaccurate": 3025,
      "with": 3026,
      "Ġorthogonal": 3027,
      "Ġoffers": 3028,
      "ural": 3029,
      "Ġgenerally": 3030,
      "fo": 3031,
      "Ġyield": 3032,
      "articles": 3033,
      "Ġtell": 3034,
      "$,": 3035,
      "OVM": 3036,
      "olute": 3037,
      "riv": 3038,
      "Ġcalculations": 3039,
      "oplus": 3040,
      "Ġcause": 3041,
      "Ġtransfer": 3042,
      "Ġtechnologies": 3043,
      "Ġdetails": 3044,
      "Ġencryption": 3045,
      "Ġdecay": 3046,
      "simulator": 3047,
      "onger": 3048,
      "âĶĢâĶĢâĶĢâĶ": 3049,
      "Ġgenerate": 3050,
      "Ġcorresponds": 3051,
      "Ġtw": 3052,
      "Ġrepl": 3053,
      "Ġwavefunction": 3054,
      "ov": 3055,
      "pons": 3056,
      "Ġtom": 3057,
      "ribute": 3058,
      "Ġsignal": 3059,
      "Ġstatistics": 3060,
      "Ġothers": 3061,
      "Ġdisturb": 3062,
      "Ġprove": 3063,
      "lib": 3064,
      "Ġexplicit": 3065,
      "Ġinvolved": 3066,
      "ĠInitially": 3067,
      "var": 3068,
      "Ġmagic": 3069,
      "Ġcreated": 3070,
      "ĠPrinci": 3071,
      "anies": 3072,
      "Ġcontain": 3073,
      "ĠQML": 3074,
      "hip": 3075,
      "ups": 3076,
      "ters": 3077,
      "Ġrelevant": 3078,
      "Ġfermions": 3079,
      "ĠNIS": 3080,
      "Ġapproximation": 3081,
      "tilde": 3082,
      "ĠControl": 3083,
      "Ġclar": 3084,
      "Ġpotentially": 3085,
      "ĠFe": 3086,
      "orrect": 3087,
      "Ġfixed": 3088,
      "Ġquer": 3089,
      "Ġsufficient": 3090,
      "Ġrotations": 3091,
      "Ġmolecular": 3092,
      "go": 3093,
      "ĠÏģ": 3094,
      "body": 3095,
      "Ġemerg": 3096,
      "append": 3097,
      "Ġtextbook": 3098,
      "ĠSte": 3099,
      "rict": 3100,
      "Ġhidden": 3101,
      "plex": 3102,
      "ype": 3103,
      "ogen": 3104,
      "Ġsample": 3105,
      "utsch": 3106,
      "Ġname": 3107,
      "Ġexecute": 3108,
      "ĠPar": 3109,
      "ĠExpl": 3110,
      "Ġcoherent": 3111,
      "overline": 3112,
      "111": 3113,
      "Ġformula": 3114,
      "Ġcalculation": 3115,
      "Ġaltern": 3116,
      "Ġdetectors": 3117,
      "Ġloc": 3118,
      "Ġbosons": 3119,
      "24": 3120,
      "Ġsimulations": 3121,
      "raus": 3122,
      "Ġmodul": 3123,
      "Ġones": 3124,
      "Ġabsolute": 3125,
      "\".": 3126,
      "Ġturn": 3127,
      "Ġexpected": 3128,
      "Ġmaximum": 3129,
      "iring": 3130,
      "ĠTheor": 3131,
      "though": 3132,
      "abor": 3133,
      "Ġclaim": 3134,
      "Ġchemistry": 3135,
      "Ġprimary": 3136,
      "Ġhaving": 3137,
      "pri": 3138,
      "Ġelectric": 3139,
      "ĠApplications": 3140,
      "Ġge": 3141,
      "ĠNot": 3142,
      "Ġadded": 3143,
      "17": 3144,
      "Ġintern": 3145,
      "ĠFermi": 3146,
      "Ġcance": 3147,
      "lu": 3148,
      "son": 3149,
      "iform": 3150,
      "Ġsimulating": 3151,
      "Ġplay": 3152,
      "Ġfil": 3153,
      "Ġdom": 3154,
      "Ġdrug": 3155,
      "ĠTherefore": 3156,
      "Ġtim": 3157,
      "84": 3158,
      "Ġcourse": 3159,
      "ĠUse": 3160,
      "Ġtraining": 3161,
      "Ġoccurs": 3162,
      "por": 3163,
      "neling": 3164,
      "Ġpropag": 3165,
      "ĠDoes": 3166,
      "ĠUsing": 3167,
      "Ġtomography": 3168,
      "})$": 3169,
      "19": 3170,
      "Ġallowing": 3171,
      "Ġimaging": 3172,
      "Ġdefining": 3173,
      "Cl": 3174,
      "yond": 3175,
      "Ġ('": 3176,
      "ptions": 3177,
      "Ġhowever": 3178,
      "Ġactual": 3179,
      "Big": 3180,
      "enh": 3181,
      "Ġbeyond": 3182,
      "Ġidentify": 3183,
      "Ġview": 3184,
      "ibility": 3185,
      "Ġimportance": 3186,
      "Ġvacuum": 3187,
      "Ġproduce": 3188,
      "mediate": 3189,
      "Ġfast": 3190,
      "Ġvol": 3191,
      "Ġperforming": 3192,
      "Ġgrow": 3193,
      "rowave": 3194,
      "Ġprocesses": 3195,
      "Ġsignals": 3196,
      "Ġfactoring": 3197,
      "ĠAtom": 3198,
      "run": 3199,
      "Ġsymmetry": 3200,
      "Ġblock": 3201,
      "Ġgoing": 3202,
      ")=\\": 3203,
      "oning": 3204,
      "untime": 3205,
      "Ġexplaining": 3206,
      "Ġminimum": 3207,
      "QC": 3208,
      "macy": 3209,
      "Ġtable": 3210,
      "Ġequations": 3211,
      "pecially": 3212,
      "Ġprocedure": 3213,
      "standing": 3214,
      "Error": 3215,
      "ĠPOVM": 3216,
      "Ġmon": 3217,
      "io": 3218,
      "Ġencode": 3219,
      "ativity": 3220,
      "umn": 3221,
      "Ġcloud": 3222,
      "ĠNISQ": 3223,
      "Ġconstruction": 3224,
      "ometry": 3225,
      "Ġscient": 3226,
      "abric": 3227,
      "gs": 3228,
      "ĠHermitian": 3229,
      "Ġcomes": 3230,
      "abilities": 3231,
      "Ġpartial": 3232,
      "alism": 3233,
      "ĠAlso": 3234,
      "Ġextra": 3235,
      "utes": 3236,
      "Ġ(|": 3237,
      "ĠTheory": 3238,
      "Ġcompletely": 3239,
      "Ġabsor": 3240,
      "}}$": 3241,
      "Ġmess": 3242,
      "CC": 3243,
      "Ġestimate": 3244,
      "Ġrespons": 3245,
      "Ġchoose": 3246,
      "Ġnorm": 3247,
      "Ġstatistical": 3248,
      "Ġthings": 3249,
      "Ġaverage": 3250,
      "Ġinverse": 3251,
      "Ġimplies": 3252,
      "Ġpreparation": 3253,
      "iler": 3254,
      "Ġorbit": 3255,
      "Ġtrack": 3256,
      "Ġtransversal": 3257,
      "Ġelectronic": 3258,
      "Ġdel": 3259,
      "[\\": 3260,
      "hing": 3261,
      "range": 3262,
      "}=": 3263,
      "Ġprecisely": 3264,
      "Ġsuperconduct": 3265,
      "Ġintuit": 3266,
      "Ġexhibit": 3267,
      "='": 3268,
      "Ġcos": 3269,
      "Ġ16": 3270,
      "Ġhalf": 3271,
      "Ġlaw": 3272,
      "Ġquadr": 3273,
      "Ġsequences": 3274,
      "Ġissue": 3275,
      "Ġimpossible": 3276,
      "$.": 3277,
      "].": 3278,
      "ges": 3279,
      "Ġvariable": 3280,
      "Ġslow": 3281,
      "Ġconstraints": 3282,
      "Ġfuture": 3283,
      "ĠQEC": 3284,
      "Ġaccount": 3285,
      "ED": 3286,
      "Ġonto": 3287,
      "Ġsimulators": 3288,
      "Ġsets": 3289,
      "Gate": 3290,
      "Ġcat": 3291,
      "Ġbarri": 3292,
      "Ġchallenging": 3293,
      "Ġ_": 3294,
      "ydberg": 3295,
      "iab": 3296,
      "ilicon": 3297,
      "ĠSpec": 3298,
      "ĠSuperconducting": 3299,
      ".)": 3300,
      "Ġgenerators": 3301,
      "ĠProblem": 3302,
      "Ġcompos": 3303,
      "Ġappropri": 3304,
      "fined": 3305,
      "Pi": 3306,
      "Ġbases": 3307,
      "Ġdetector": 3308,
      "Ġincreases": 3309,
      "Ġask": 3310,
      "Ġrob": 3311,
      "Ġetc": 3312,
      "ores": 3313,
      "iconduct": 3314,
      "Ġgravity": 3315,
      "Ġdou": 3316,
      "ĠDE": 3317,
      "mid": 3318,
      "Ġisn": 3319,
      "ĠMechan": 3320,
      "Ġmapping": 3321,
      "Ġupon": 3322,
      "kill": 3323,
      "ibrary": 3324,
      "Ġapproximate": 3325,
      "Ġworld": 3326,
      "rot": 3327,
      "day": 3328,
      "}=\\": 3329,
      "Ġbenef": 3330,
      "ĠDecoherence": 3331,
      "Ġinputs": 3332,
      "ĠPhase": 3333,
      "Ġtried": 3334,
      "-|": 3335,
      "utation": 3336,
      "ĠRydberg": 3337,
      "Ġinstruction": 3338,
      "ĠMathemat": 3339,
      "celer": 3340,
      "Ġcontrast": 3341,
      "Ġoutputs": 3342,
      "Ġclearly": 3343,
      "swers": 3344,
      "ope": 3345,
      "vantages": 3346,
      "Ġsensitivity": 3347,
      "ĠEinstein": 3348,
      "Ġprograms": 3349,
      "Ġthing": 3350,
      "Ġmult": 3351,
      "Ġrealism": 3352,
      "Ġpowerful": 3353,
      "Pro": 3354,
      "ÏĢ": 3355,
      "Ġgetting": 3356,
      "cdots": 3357,
      "Ġcolumn": 3358,
      "Ġdeterministic": 3359,
      "Ġdecod": 3360,
      "arant": 3361,
      "Ġexecution": 3362,
      "info": 3363,
      "Ġlonger": 3364,
      "Ġrobust": 3365,
      "ĠAre": 3366,
      "Ġphenomenon": 3367,
      "ystems": 3368,
      "enari": 3369,
      "orial": 3370,
      "version": 3371,
      "Ġdepending": 3372,
      "Ġespecially": 3373,
      "Ġsensitive": 3374,
      "Ġsignificance": 3375,
      "Ġuntil": 3376,
      "Exercise": 3377,
      "we": 3378,
      "ont": 3379,
      "ĠAm": 3380,
      "().": 3381,
      "Î¸": 3382,
      "Ġinherent": 3383,
      "Ġquantization": 3384,
      "roscopic": 3385,
      "iabatic": 3386,
      "]]": 3387,
      "Ġcounter": 3388,
      "Ġcauses": 3389,
      "07": 3390,
      "ZZ": 3391,
      "obs": 3392,
      "ĠNP": 3393,
      "Ġsupre": 3394,
      "Ġtheories": 3395,
      "Ġopp": 3396,
      "Ġpub": 3397,
      "Ġannealing": 3398,
      "Pauli": 3399,
      "Ġult": 3400,
      "Ġflow": 3401,
      "Ġprepare": 3402,
      "Wave": 3403,
      "Ġinner": 3404,
      "Ġsuppress": 3405,
      "Ġdenot": 3406,
      "Ġdescribing": 3407,
      "Ġsubspace": 3408,
      "rogen": 3409,
      "Ġpage": 3410,
      "Ġproviding": 3411,
      "Ġentang": 3412,
      "Ġmentioned": 3413,
      "Ġmind": 3414,
      "Ġwaves": 3415,
      "ĠPer": 3416,
      "ĠMic": 3417,
      "âĢĵ": 3418,
      "ĠFrom": 3419,
      "Ġ13": 3420,
      "Ġunderlying": 3421,
      "Ġacting": 3422,
      "Ġhappens": 3423,
      "ributed": 3424,
      "22": 3425,
      "SA": 3426,
      "ĠCirq": 3427,
      "Ġyet": 3428,
      "ĠChall": 3429,
      "basis": 3430,
      "Ġsection": 3431,
      "ĠCal": 3432,
      "Ġflip": 3433,
      "umentation": 3434,
      "Ġbal": 3435,
      "Ġmotion": 3436,
      "Ġer": 3437,
      "Ġtoler": 3438,
      "Ġuniform": 3439,
      "Ġbenchmar": 3440,
      "97": 3441,
      "Ġquite": 3442,
      "ĠEffect": 3443,
      "Ġrepresenting": 3444,
      "Ġactive": 3445,
      "clusion": 3446,
      "Ġguarant": 3447,
      "counts": 3448,
      "Ġdestro": 3449,
      "gress": 3450,
      "rop": 3451,
      "Ġpatterns": 3452,
      "Ġarea": 3453,
      "Ġkind": 3454,
      "Ġfundamentally": 3455,
      "Ġpe": 3456,
      "izer": 3457,
      "Ġdatab": 3458,
      "18": 3459,
      "utorial": 3460,
      "order": 3461,
      "Ġbegin": 3462,
      "\\|": 3463,
      "ised": 3464,
      "Ġ\\{": 3465,
      "Ġreach": 3466,
      "uration": 3467,
      "Ġ-\\": 3468,
      "Ġsolving": 3469,
      "Ġexplo": 3470,
      "Ġcur": 3471,
      "Ġband": 3472,
      "Ġ15": 3473,
      "Ġhighly": 3474,
      "Ġfeed": 3475,
      "ĠGener": 3476,
      "Ġadditional": 3477,
      "data": 3478,
      "Ġengineering": 3479,
      "Ġbroad": 3480,
      "Ġidentical": 3481,
      "ernel": 3482,
      "Ġtherefore": 3483,
      "Ġrelationship": 3484,
      "idence": 3485,
      "Ġsupremacy": 3486,
      "Ġlines": 3487,
      "ĠSWAP": 3488,
      "ĠNon": 3489,
      "Ġguess": 3490,
      "Ġtranspile": 3491,
      "elect": 3492,
      "zero": 3493,
      ")$$": 3494,
      "rosst": 3495,
      "Ġanswers": 3496,
      "Ġhis": 3497,
      "rosstalk": 3498,
      "Ġphases": 3499,
      "Ġparity": 3500,
      "bol": 3501,
      "ï¬ģn": 3502,
      "Ġreading": 3503,
      "Ġbox": 3504,
      "Ġmaps": 3505,
      "ĠDeutsch": 3506,
      "Ġstudy": 3507,
      "ju": 3508,
      "ĠInformation": 3509,
      "Ġsetting": 3510,
      "Ġcorrelation": 3511,
      "II": 3512,
      "Ġhappen": 3513,
      "fact": 3514,
      "most": 3515,
      "Ġwide": 3516,
      "osen": 3517,
      "ĠNielsen": 3518,
      "Ġfocused": 3519,
      "draw": 3520,
      "enn": 3521,
      "Ġincrease": 3522,
      "abling": 3523,
      "ĠCX": 3524,
      "Ġexamine": 3525,
      "Ġmanipulate": 3526,
      "ancy": 3527,
      "volution": 3528,
      "'d": 3529,
      "ath": 3530,
      "Ġoccup": 3531,
      "Ġmaximally": 3532,
      "from": 3533,
      "Ġhist": 3534,
      "Ġconduct": 3535,
      "Ġprocessors": 3536,
      "53": 3537,
      "dfrac": 3538,
      "construction": 3539,
      ")^{": 3540,
      "lease": 3541,
      "Ġreliable": 3542,
      "Ds": 3543,
      "Ġ->": 3544,
      "alities": 3545,
      "Ġrece": 3546,
      "perfect": 3547,
      "Ġacts": 3548,
      "ĠDevelop": 3549,
      "Ġacceler": 3550,
      "PR": 3551,
      "Ġpack": 3552,
      "Ġimplementing": 3553,
      "Ġemission": 3554,
      "Ġcontains": 3555,
      "ĠGiven": 3556,
      "Ġaccessible": 3557,
      "gro": 3558,
      "ĠWhere": 3559,
      "Ġdistill": 3560,
      "Ġscenari": 3561,
      "XX": 3562,
      "{|": 3563,
      "Ġseen": 3564,
      "Ġsays": 3565,
      "Ġbackground": 3566,
      "Ġcouple": 3567,
      "Ġtask": 3568,
      "Ġlayer": 3569,
      "Ġnaturally": 3570,
      "IT": 3571,
      "SM": 3572,
      "ĠExperiment": 3573,
      "ĠKraus": 3574,
      "ĠExamples": 3575,
      "linear": 3576,
      "ĠAll": 3577,
      "Ġdiscovery": 3578,
      "ĠInstead": 3579,
      "ches": 3580,
      "Ġcolor": 3581,
      "Ġrelation": 3582,
      "Ġappropriate": 3583,
      "Ġow": 3584,
      "Ġpy": 3585,
      "Ġpredictions": 3586,
      "min": 3587,
      "qr": 3588,
      "ustom": 3589,
      "Ġreference": 3590,
      "ĠEstim": 3591,
      "ĠDist": 3592,
      "avity": 3593,
      "Ġtests": 3594,
      "Ġtesting": 3595,
      "Ġobservation": 3596,
      "varphi": 3597,
      "100": 3598,
      "}.": 3599,
      "ĠTwo": 3600,
      "ĠChuang": 3601,
      "64": 3602,
      "world": 3603,
      "Ġframeworks": 3604,
      "scale": 3605,
      "Ġproposed": 3606,
      "Ġreality": 3607,
      "Ġachieved": 3608,
      "}|\\": 3609,
      "Ġperm": 3610,
      "Ġbook": 3611,
      "unitary": 3612,
      "Ġexchange": 3613,
      "Ġaccording": 3614,
      "Ġpreserv": 3615,
      "Ġsolid": 3616,
      "Ġwords": 3617,
      "Ġfeature": 3618,
      "Ġspecialized": 3619,
      "Ġtunneling": 3620,
      "Ġenabling": 3621,
      "how": 3622,
      "ĠMulti": 3623,
      "Ġown": 3624,
      "ĠCho": 3625,
      "Ġpert": 3626,
      "Ġcompilation": 3627,
      "Ġcompanies": 3628,
      "Ġquantized": 3629,
      "âĶĢâĶĢâĶĢâĶĢâĶĢâĶĢâĶĢâĶĢâĶĢâĶĢâĶĢâĶĢâĶĢâĶĢâĶĢâĶĢ": 3630,
      "Ġround": 3631,
      "Ġnatural": 3632,
      "ĠPrinciple": 3633,
      "ĠLimit": 3634,
      "Ġinvest": 3635,
      "ittle": 3636,
      "Ġnuclear": 3637,
      "Ġnegative": 3638,
      "Ġwonder": 3639,
      "thesis": 3640,
      "Ġtransl": 3641,
      "Ġcoefficients": 3642,
      "Ġ14": 3643,
      "ĠQuantumRegister": 3644,
      "ĠExample": 3645,
      "Ġlanguage": 3646,
      "Ġparad": 3647,
      "Ġselect": 3648,
      "Ġindex": 3649,
      "Ġpi": 3650,
      "Ġdefect": 3651,
      "Ġcomponent": 3652,
      "ymmet": 3653,
      "ercis": 3654,
      "edom": 3655,
      "ĠTechn": 3656,
      "Ġcome": 3657,
      "noise": 3658,
      "ision": 3659,
      "Ġdecoding": 3660,
      "ercises": 3661,
      "Ġcompare": 3662,
      "Ġmodes": 3663,
      "Ġauth": 3664,
      "Ġreversible": 3665,
      "rum": 3666,
      "Ġstarting": 3667,
      "reen": 3668,
      "ecause": 3669,
      "Ġgoal": 3670,
      ");": 3671,
      "ĠUnderstanding": 3672,
      "otic": 3673,
      "ĠPython": 3674,
      "ĠImplement": 3675,
      "Ġmicrowave": 3676,
      "Ġstrings": 3677,
      "Ġaspects": 3678,
      "alse": 3679,
      "ĠIBMQ": 3680,
      "particle": 3681,
      "Ġthird": 3682,
      "ilities": 3683,
      "apter": 3684,
      "Delta": 3685,
      "bed": 3686,
      "Ġusually": 3687,
      "plete": 3688,
      "Ġprojective": 3689,
      "}^{\\": 3690,
      "Ġstruct": 3691,
      "ablish": 3692,
      "âĶ¤": 3693,
      "âĶĢâĶĢâĶĢ": 3694,
      "ĠPhoton": 3695,
      "Ġfraction": 3696,
      "oles": 3697,
      "olation": 3698,
      "Ġarray": 3699,
      "Ġeffective": 3700,
      "Ġrandomness": 3701,
      "ditional": 3702,
      "Ġexpression": 3703,
      "Ġelse": 3704,
      "Ġperturb": 3705,
      "Ġhybrid": 3706,
      "Ġnext": 3707,
      "ni": 3708,
      "Ġplot": 3709,
      "Ġeigenstate": 3710,
      "tz": 3711,
      "ĠDirac": 3712,
      "armon": 3713,
      "ĠScal": 3714,
      "inter": 3715,
      "Ġnothing": 3716,
      "ER": 3717,
      "Ġmill": 3718,
      "ĠStandard": 3719,
      "ital": 3720,
      "Ġbo": 3721,
      "Ġminimize": 3722,
      "ĠModel": 3723,
      "HL": 3724,
      "Ġsaid": 3725,
      "Ġcapt": 3726,
      "fort": 3727,
      "ulation": 3728,
      "Ġplace": 3729,
      "Ġinterested": 3730,
      "PE": 3731,
      "photon": 3732,
      "race": 3733,
      "Ġattack": 3734,
      "Ġput": 3735,
      "ĠCurrent": 3736,
      "Ġkeep": 3737,
      "Ġpict": 3738,
      "Ġred": 3739,
      "Ġimag": 3740,
      "Ġinvolve": 3741,
      "Ġswap": 3742,
      "50": 3743,
      "Ġbig": 3744,
      "Ġcurrently": 3745,
      "ison": 3746,
      "ĠCre": 3747,
      "Ġintegral": 3748,
      "Ġwhose": 3749,
      "ermin": 3750,
      "maths": 3751,
      "Ġautom": 3752,
      "Ġsemiconduct": 3753,
      "Ġnever": 3754,
      "Einstein": 3755,
      "dec": 3756,
      "Ġaim": 3757,
      "anged": 3758,
      "Ġlabel": 3759,
      "Ġaddressed": 3760,
      "avesd": 3761,
      "Ġbuilt": 3762,
      "ZE": 3763,
      "ĠÂ": 3764,
      "Ġadvance": 3765,
      "Ġarchitecture": 3766,
      "Ġspacetime": 3767,
      "Ġarises": 3768,
      "Ġneutral": 3769,
      "ĠVari": 3770,
      "Ġspat": 3771,
      "Ġprobably": 3772,
      "ĬĹ": 3773,
      "Ġnan": 3774,
      "Î±": 3775,
      "67": 3776,
      "atically": 3777,
      "igens": 3778,
      "Simulator": 3779,
      "oupling": 3780,
      "Ġunitaries": 3781,
      "Ġpaths": 3782,
      "Ġ<": 3783,
      "Ġgenerated": 3784,
      "Ġfreedom": 3785,
      "ulate": 3786,
      "Ġut": 3787,
      "Ġmove": 3788,
      "ameter": 3789,
      "Ġscales": 3790,
      "Ġstrategies": 3791,
      "thonormal": 3792,
      "Ġrow": 3793,
      "Ġmathematically": 3794,
      "Ġexpress": 3795,
      "Ġargument": 3796,
      "max": 3797,
      "Ġsmaller": 3798,
      "fine": 3799,
      "Ġcover": 3800,
      "ternal": 3801,
      "Ġupd": 3802,
      "ynamics": 3803,
      "Ġprogress": 3804,
      "Ġdeb": 3805,
      "Ġevent": 3806,
      "fluid": 3807,
      ")]": 3808,
      "ories": 3809,
      "ĠMeasure": 3810,
      "ĠRec": 3811,
      "ĠAppro": 3812,
      "ĠâĢĵ": 3813,
      "group": 3814,
      "roups": 3815,
      "Ġnucle": 3816,
      "ĠCop": 3817,
      "Ġobtained": 3818,
      "Ġdistinct": 3819,
      "pack": 3820,
      "Ġresolution": 3821,
      "âĢ²": 3822,
      "Ġintroduce": 3823,
      "Ġvs": 3824,
      "Ġcoin": 3825,
      "Ġappears": 3826,
      "Ġeigenstates": 3827,
      "Ġcorrelated": 3828,
      "Ġrespectively": 3829,
      "chi": 3830,
      "ĠEnergy": 3831,
      "RI": 3832,
      "Ġgap": 3833,
      "Ġunknown": 3834,
      "Ġvisual": 3835,
      "Ġshare": 3836,
      "ynman": 3837,
      "Ġconnection": 3838,
      "ogenic": 3839,
      "ping": 3840,
      "ume": 3841,
      "abs": 3842,
      "Ġsomeone": 3843,
      "ploy": 3844,
      "We": 3845,
      "ĠWave": 3846,
      "Ġrule": 3847,
      "Ġseparable": 3848,
      "PU": 3849,
      "edu": 3850,
      "apping": 3851,
      "Ġobjects": 3852,
      "Ġexploit": 3853,
      "agen": 3854,
      "ĠPa": 3855,
      "dependent": 3856,
      "Ġmultip": 3857,
      "measurement": 3858,
      "abrication": 3859,
      "Ġ),": 3860,
      "Ġinf": 3861,
      "ĠHHL": 3862,
      "ogn": 3863,
      "Ġdeveloping": 3864,
      "33": 3865,
      "Ġcond": 3866,
      "\"\"": 3867,
      "Ġfigure": 3868,
      "Ġdraw": 3869,
      "sequ": 3870,
      "Ġcreation": 3871,
      "Ġinteresting": 3872,
      ")(": 3873,
      "ett": 3874,
      "ECT": 3875,
      "ĠRel": 3876,
      "Ġenhance": 3877,
      "Ġprof": 3878,
      "Ġcharacteristics": 3879,
      "ĠOptimization": 3880,
      "ĠExplain": 3881,
      "enhagen": 3882,
      "96": 3883,
      "St": 3884,
      "Ġmultiplication": 3885,
      "UB": 3886,
      "hbar": 3887,
      "Ġmode": 3888,
      "ector": 3889,
      "ĠBose": 3890,
      "Ġtaking": 3891,
      "Ġneural": 3892,
      "Ġboundary": 3893,
      "/\\": 3894,
      "ili": 3895,
      "Ġroom": 3896,
      "Ġlater": 3897,
      "Ġindust": 3898,
      "Ġbarrier": 3899,
      "off": 3900,
      "Ġorthonormal": 3901,
      "Ġanyone": 3902,
      "âĢĿ": 3903,
      "Ġenvironmental": 3904,
      "rical": 3905,
      "anks": 3906,
      "Ġthous": 3907,
      "Ġbehind": 3908,
      "mit": 3909,
      "Ġher": 3910,
      "Ġkernel": 3911,
      "Ġnumpy": 3912,
      "Ġanything": 3913,
      "prov": 3914,
      "Ġhandle": 3915,
      "Ġadding": 3916,
      "color": 3917,
      "Ġlinked": 3918,
      "sim": 3919,
      "arks": 3920,
      "pers": 3921,
      "Ġincreasing": 3922,
      "Ġreflect": 3923,
      "cks": 3924,
      "Ġconju": 3925,
      "comp": 3926,
      "Ġfully": 3927,
      "ĠCS": 3928,
      "ĠSingle": 3929,
      "ĠMa": 3930,
      "Lambda": 3931,
      "ĠBe": 3932,
      "esearch": 3933,
      "ĠFeynman": 3934,
      "Ġdeveloped": 3935,
      "Ġproducts": 3936,
      "Ġensures": 3937,
      "Ġcenters": 3938,
      "iag": 3939,
      "ĠÏĪ": 3940,
      "Ġimage": 3941,
      "=|": 3942,
      "Ġ201": 3943,
      "Ġinterpretations": 3944,
      "PS": 3945,
      "des": 3946,
      "Ġspaces": 3947,
      "ldots": 3948,
      "ĠBQP": 3949,
      "Ġoperate": 3950,
      "Ġaccum": 3951,
      "Ġdegree": 3952,
      "Ġdistances": 3953,
      "Ġdistributed": 3954,
      "sa": 3955,
      "Ġlittle": 3956,
      "fty": 3957,
      "Ġallowed": 3958,
      "Ġprevent": 3959,
      "enberg": 3960,
      "ĠCopenhagen": 3961,
      "Ġbott": 3962,
      "Ġnative": 3963,
      "Ġ\\(": 3964,
      "ĠInt": 3965,
      "Ġspectral": 3966,
      "Ġaxis": 3967,
      "Ġeavesd": 3968,
      "ĠTrapped": 3969,
      "03": 3970,
      "infty": 3971,
      "Ġparties": 3972,
      "Ġpractice": 3973,
      "Ġtraps": 3974,
      "Ġ{'": 3975,
      "Ġfeatures": 3976,
      "ĠSuperposition": 3977,
      "irt": 3978,
      "Ġverify": 3979,
      "partial": 3980,
      "Ġexplicitly": 3981,
      "Ġstructures": 3982,
      "HZ": 3983,
      "Ġyears": 3984,
      "forward": 3985,
      "Ġexpressed": 3986,
      "Ġobserver": 3987,
      "ules": 3988,
      "ardware": 3989,
      "idth": 3990,
      "Ġexpand": 3991,
      "Ġtraditional": 3992,
      "ordin": 3993,
      "point": 3994,
      "Ġcar": 3995,
      "isenberg": 3996,
      "Ġswit": 3997,
      "Ġcoding": 3998,
      "Ġchec": 3999,
      "Ġassign": 4000,
      "model": 4001,
      "Ġartic": 4002,
      "ĠTheorem": 4003,
      "âĪļ": 4004,
      "ĠApply": 4005,
      "ĠAr": 4006,
      "ĠResearch": 4007,
      "Ġexplore": 4008,
      "Ġcorrectly": 4009,
      "Ġdemonstrated": 4010,
      "Ġcarefully": 4011,
      "\\{": 4012,
      "that": 4013,
      "Ġsecret": 4014,
      "computing": 4015,
      "ĠLoo": 4016,
      "xiv": 4017,
      "Ġpicture": 4018,
      "Ġlot": 4019,
      "Ġoptimize": 4020,
      "ĠâĢľ": 4021,
      "Ġresponse": 4022,
      "armonic": 4023,
      "âĢł": 4024,
      "Ġconsidering": 4025,
      "Ġcrosstalk": 4026,
      "Ġideal": 4027,
      "202": 4028,
      "free": 4029,
      "Ġtoward": 4030,
      "ĠBoh": 4031,
      "soft": 4032,
      "requency": 4033,
      "Ġdistillation": 4034,
      "geq": 4035,
      "Ġjunction": 4036,
      "Ġmanage": 4037,
      "Ġbeams": 4038,
      "}}{": 4039,
      "Ġvibr": 4040,
      "ĠSimilar": 4041,
      "Ġareas": 4042,
      "Ġflux": 4043,
      "Ġcryst": 4044,
      "rosoft": 4045,
      "Ġprocessor": 4046,
      "Ġexcited": 4047,
      "âķĲâķĲâķĲâķĲâķĲâķĲâķĲâķĲ": 4048,
      "Ġ$[": 4049,
      "ĠSp": 4050,
      "Ġstatement": 4051,
      "Ġgover": 4052,
      "Ġaccurately": 4053,
      "ople": 4054,
      "Ġtreat": 4055,
      "Ġearly": 4056,
      "Ġtutorial": 4057,
      "emble": 4058,
      "ĠNV": 4059,
      "ĠAcc": 4060,
      "acroscopic": 4061,
      "Ġ==": 4062,
      "&\\": 4063,
      "Ġslight": 4064,
      "ĠOpen": 4065,
      "ĠÎ±": 4066,
      "Ġreveals": 4067,
      "ia": 4068,
      "rees": 4069,
      "Ġinfinite": 4070,
      "ĠEqu": 4071,
      "\\,": 4072,
      "Ġgot": 4073,
      "ergies": 4074,
      "presentation": 4075,
      "Ġrealized": 4076,
      "04": 4077,
      "Ġinvari": 4078,
      "Ġregisters": 4079,
      "ĠHeisenberg": 4080,
      "algebra": 4081,
      "Ġport": 4082,
      "Ġmath": 4083,
      "\\!\\": 4084,
      "CH": 4085,
      "mary": 4086,
      "Ġperforms": 4087,
      "operation": 4088,
      "Ġstability": 4089,
      "Ġchain": 4090,
      "Ġreducing": 4091,
      "Ġamplification": 4092,
      "Ġ{\\": 4093,
      "Ġmedi": 4094,
      "cessing": 4095,
      "Ġeigenvectors": 4096,
      "Ġplatforms": 4097,
      "iny": 4098,
      "rior": 4099,
      "Ġshared": 4100,
      "Ġpossibilities": 4101,
      "undred": 4102,
      "âĸ": 4103,
      "Ġappear": 4104,
      "Ġangles": 4105,
      "Ġeasier": 4106,
      "Ġnecessarily": 4107,
      "Ġchemical": 4108,
      "Ġsit": 4109,
      "Ġinterfer": 4110,
      "ographic": 4111,
      "ĠNoise": 4112,
      "ring": 4113,
      "set": 4114,
      "itational": 4115,
      "Ġquick": 4116,
      "Ġcopy": 4117,
      "Ġheat": 4118,
      "ĠThanks": 4119,
      "Ġcommute": 4120,
      "actions": 4121,
      "exercises": 4122,
      "Ġclock": 4123,
      "Ġimplementations": 4124,
      "Ġlooks": 4125,
      "ĠSimulation": 4126,
      "enny": 4127,
      "32": 4128,
      "iter": 4129,
      "ams": 4130,
      "Ġrefers": 4131,
      "Ġdocumentation": 4132,
      "Ġdispl": 4133,
      "Ġestablish": 4134,
      "packages": 4135,
      ".+": 4136,
      "ĠCorrection": 4137,
      "}\\\\": 4138,
      "Ġconsequ": 4139,
      "ĠSol": 4140,
      "ĠMeas": 4141,
      "PT": 4142,
      "Ġprevious": 4143,
      "ians": 4144,
      "lie": 4145,
      "Ġ100": 4146,
      "Ġdetermined": 4147,
      "Ġexisting": 4148,
      "Ġconfig": 4149,
      "Ġrelatively": 4150,
      "mathsf": 4151,
      "dit": 4152,
      "Ġfix": 4153,
      "âŁ©âŁ¨": 4154,
      "Ġemitted": 4155,
      "statevector": 4156,
      "Ġassumptions": 4157,
      "Ġfocusing": 4158,
      "Ġdiscussed": 4159,
      "Ġbelieve": 4160,
      "kills": 4161,
      "05": 4162,
      "real": 4163,
      "^{(": 4164,
      "Ġstarted": 4165,
      "Ġdots": 4166,
      "Ġthin": 4167,
      "Ġadiabatic": 4168,
      "Ġrequiring": 4169,
      "ĠProb": 4170,
      "Ġentangling": 4171,
      "Ġhole": 4172,
      "Ġseparate": 4173,
      "co": 4174,
      "Ġ19": 4175,
      "Ġfeedback": 4176,
      "neq": 4177,
      "Ġcollapses": 4178,
      "Ġinfluence": 4179,
      "Ġstatevector": 4180,
      "Ġoutl": 4181,
      "Ġtransformations": 4182,
      "Ġrepeated": 4183,
      "ilot": 4184,
      "ogy": 4185,
      "Ġbreaking": 4186,
      "sess": 4187,
      "Ġir": 4188,
      "Ġhundred": 4189,
      "eless": 4190,
      "ember": 4191,
      "ĠInte": 4192,
      "enges": 4193,
      "Ġinequalities": 4194,
      "Ġperspect": 4195,
      "Ġdict": 4196,
      "Ġnodes": 4197,
      "ĠProgram": 4198,
      "Ġexistence": 4199,
      "tau": 4200,
      "Ġcancel": 4201,
      "site": 4202,
      "Ġconnected": 4203,
      "Ġhighlighting": 4204,
      "ĠPhysics": 4205,
      "Ġsus": 4206,
      "Ġsilicon": 4207,
      "Ġwor": 4208,
      "see": 4209,
      "Ġwriting": 4210,
      "._": 4211,
      "Ġgroups": 4212,
      "ĠMaterial": 4213,
      "Ġissues": 4214,
      "Ġcomparison": 4215,
      "=[": 4216,
      "Ġcyc": 4217,
      "osing": 4218,
      "Ġchosen": 4219,
      "achines": 4220,
      "Ġobserve": 4221,
      "arxiv": 4222,
      "Ġphysically": 4223,
      "Ġreturns": 4224,
      "Ġtransmit": 4225,
      "Ġmechanisms": 4226,
      "Ġwidely": 4227,
      "Ġcondens": 4228,
      "enormal": 4229,
      "Ġef": 4230,
      "Ġimperfect": 4231,
      "Ġconfus": 4232,
      "}^\\": 4233,
      "Ġvert": 4234,
      "Ġrecogn": 4235,
      "Ġcollect": 4236,
      "011": 4237,
      "ĠNum": 4238,
      "Ġtravel": 4239,
      "atively": 4240,
      "Ġimproved": 4241,
      "Ġspectrum": 4242,
      "construct": 4243,
      "Ġrestrict": 4244,
      "Ġquadratic": 4245,
      "aer": 4246,
      "Ġ@": 4247,
      "ĠAI": 4248,
      "ĠQED": 4249,
      "Ġshe": 4250,
      "Ġpop": 4251,
      "HS": 4252,
      "Ġwhole": 4253,
      "ĠBoth": 4254,
      "phase": 4255,
      "Ġreset": 4256,
      "Ġitem": 4257,
      "therm": 4258,
      "Ġpeople": 4259,
      "oriz": 4260,
      "Ġstore": 4261,
      "controlled": 4262,
      "AM": 4263,
      "bl": 4264,
      "etition": 4265,
      "Ġproport": 4266,
      "Ġpositions": 4267,
      "Ġemphasizing": 4268,
      "Ġforces": 4269,
      "ometimes": 4270,
      "Ġessentially": 4271,
      "ĠReal": 4272,
      "plot": 4273,
      "Ġcoordin": 4274,
      "random": 4275,
      "Ġquantities": 4276,
      "Ġ*": 4277,
      "add": 4278,
      "Ġgeneration": 4279,
      "teness": 4280,
      "Ġ50": 4281,
      "Ġdegener": 4282,
      "Ġmist": 4283,
      "Ġbreakdown": 4284,
      ",)),": 4285,
      "Ġevents": 4286,
      "Ġscalability": 4287,
      "Ġpapers": 4288,
      "irtual": 4289,
      "LA": 4290,
      "Ġ]": 4291,
      "ĠComm": 4292,
      "Ġsuppose": 4293,
      "Ġconditional": 4294,
      "Ġcross": 4295,
      "umann": 4296,
      "Ġtiny": 4297,
      "Ġlin": 4298,
      "inding": 4299,
      "Ġdecre": 4300,
      "Ġaccept": 4301,
      "roscopy": 4302,
      "NN": 4303,
      "itud": 4304,
      "Ġexcept": 4305,
      "Ġexternal": 4306,
      "This": 4307,
      "locality": 4308,
      "ighb": 4309,
      "Ġparadox": 4310,
      "ractical": 4311,
      "Ġtiming": 4312,
      "Ġbra": 4313,
      "uth": 4314,
      "ĠCommon": 4315,
      "side": 4316,
      "Ġstabil": 4317,
      "ĠSee": 4318,
      "Ġdeep": 4319,
      "âŁ©=": 4320,
      "Ġformalism": 4321,
      "Ġcapabilities": 4322,
      "pd": 4323,
      "âĢĶ": 4324,
      "Ġdecoder": 4325,
      "Ġdefects": 4326,
      "dd": 4327,
      "iber": 4328,
      "rology": 4329,
      "Ġlayers": 4330,
      ")?": 4331,
      "jective": 4332,
      "ĠAlgorithms": 4333,
      "bigg": 4334,
      "Ġsamples": 4335,
      "Ġgovern": 4336,
      "amond": 4337,
      "Ġspont": 4338,
      "psilon": 4339,
      "Ġappar": 4340,
      "Ġinitially": 4341,
      "Ġbenchmarking": 4342,
      "ĠEPR": 4343,
      "Ġcop": 4344,
      "cloning": 4345,
      "Ġregardless": 4346,
      "06": 4347,
      "haps": 4348,
      "ĠIon": 4349,
      "Ġparts": 4350,
      "ĠComplex": 4351,
      "ĠNeumann": 4352,
      "Ġcustom": 4353,
      "Ġ\\,": 4354,
      "Ġhence": 4355,
      "ĠBecause": 4356,
      "ĠLas": 4357,
      "Ġindeed": 4358,
      "Ġsearching": 4359,
      "Ġquery": 4360,
      "ĠChallenges": 4361,
      "nih": 4362,
      "55": 4363,
      "Ġmacroscopic": 4364,
      "arr": 4365,
      "Ġsuperpositions": 4366,
      "Ġmark": 4367,
      "Ġload": 4368,
      "Ġpublic": 4369,
      "34": 4370,
      "nd": 4371,
      "ĠHardware": 4372,
      "Ġfli": 4373,
      "Ġcombine": 4374,
      "Ġperfectly": 4375,
      "Ġadjust": 4376,
      "Ġanalyzing": 4377,
      "Ġexperience": 4378,
      "ativ": 4379,
      "Ġsymmetric": 4380,
      "sym": 4381,
      "ugh": 4382,
      "Ġruns": 4383,
      "ĠChar": 4384,
      "'$": 4385,
      "appro": 4386,
      "Ġcombin": 4387,
      "SP": 4388,
      "experience": 4389,
      "Ġschemes": 4390,
      "True": 4391,
      "iding": 4392,
      "Ġlocation": 4393,
      "Ġmessage": 4394,
      "Ġsort": 4395,
      "ĠHence": 4396,
      "Ġmatch": 4397,
      "Ġregion": 4398,
      "}}|": 4399,
      "Ġsatisfy": 4400,
      "optim": 4401,
      "Ġseries": 4402,
      "27": 4403,
      "Ġcavity": 4404,
      "rays": 4405,
      "ĠLocal": 4406,
      "rotter": 4407,
      "ĠCZ": 4408,
      "Ġspatial": 4409,
      "orpor": 4410,
      "Ġpauli": 4411,
      "Ġrecal": 4412,
      "Ġloop": 4413,
      "Qubit": 4414,
      "Ġintegration": 4415,
      "Ġsched": 4416,
      "Ġdimensions": 4417,
      "mapsto": 4418,
      "Ġdouble": 4419,
      "iously": 4420,
      "Ġprior": 4421,
      "Ġabst": 4422,
      "Ġrepresentations": 4423,
      "Ġdiagrams": 4424,
      "Ġslightly": 4425,
      "Ġnumer": 4426,
      "ĠInterpre": 4427,
      "^^": 4428,
      "Ġelectrical": 4429,
      "Ġotherwise": 4430,
      "Ġadvanced": 4431,
      "ĠDisc": 4432,
      "type": 4433,
      "Ġresol": 4434,
      "Ġsimulated": 4435,
      "Ġremo": 4436,
      "flip": 4437,
      "Ġholds": 4438,
      "Ġid": 4439,
      "Ġskills": 4440,
      "aced": 4441,
      "akage": 4442,
      "Ġflips": 4443,
      "Ġcorrecting": 4444,
      "ĠDefin": 4445,
      "Mat": 4446,
      "ĠQUB": 4447,
      "}}(|": 4448,
      "}(|": 4449,
      "Ġtransmission": 4450,
      "Ġprepared": 4451,
      "ĠOperator": 4452,
      "Ġevaluate": 4453,
      "Ġlowest": 4454,
      "Ġtolerance": 4455,
      "urface": 4456,
      "Ġroot": 4457,
      "Ġmodular": 4458,
      "Ġenergies": 4459,
      "Ġexpensive": 4460,
      "auge": 4461,
      "istinguish": 4462,
      "Ġemit": 4463,
      "Ġintroduced": 4464,
      "cho": 4465,
      "Ġideas": 4466,
      "oz": 4467,
      "rst": 4468,
      "Ġappre": 4469,
      "ativistic": 4470,
      "Ġ~": 4471,
      "Ġ00": 4472,
      "Ġimproving": 4473,
      "eno": 4474,
      "Ġaway": 4475,
      "Ġadds": 4476,
      "olarizing": 4477,
      "Ġintermediate": 4478,
      "Ġshap": 4479,
      "sian": 4480,
      "Ġinside": 4481,
      "Ġmachines": 4482,
      "iddle": 4483,
      "====": 4484,
      "Ġdomin": 4485,
      "QA": 4486,
      "ĠField": 4487,
      "selection": 4488,
      "Ġinsight": 4489,
      "Ġtriv": 4490,
      "Ġgravitational": 4491,
      "ita": 4492,
      "qua": 4493,
      "Ġinterf": 4494,
      "Ġtransforms": 4495,
      "meg": 4496,
      "Ġstra": 4497,
      "iders": 4498,
      "ĠBer": 4499,
      "fully": 4500,
      "Ġpurpose": 4501,
      "Î²": 4502,
      "orn": 4503,
      "ceed": 4504,
      "vable": 4505,
      "ĠQuant": 4506,
      "ĠSpin": 4507,
      "Ġ199": 4508,
      "Ġrisk": 4509,
      "Ġarise": 4510,
      "Ġparameterized": 4511,
      "Ġ$-": 4512,
      "olver": 4513,
      "Ġidentifying": 4514,
      "Ġprojection": 4515,
      "Op": 4516,
      "Ġ(-": 4517,
      "ificial": 4518,
      "Ġbehave": 4519,
      "ĠHigher": 4520,
      "mega": 4521,
      "Ġformat": 4522,
      "Ġconfine": 4523,
      "Ġconsistent": 4524,
      "Ġillustrate": 4525,
      "midt": 4526,
      "ĠMechanics": 4527,
      "ĠLooking": 4528,
      "spec": 4529,
      "ancial": 4530,
      "amiltonians": 4531,
      "Ġlasers": 4532,
      "Ġdig": 4533,
      "Ġclust": 4534,
      "gan": 4535,
      "pid": 4536,
      "energy": 4537,
      "ils": 4538,
      "Ġvary": 4539,
      "Ġsuperfluid": 4540,
      "ĠPhot": 4541,
      "Ġreplace": 4542,
      "ĠÄ§": 4543,
      "under": 4544,
      "Ġcontribute": 4545,
      "ĠÎ²": 4546,
      "aussian": 4547,
      "Ġcosm": 4548,
      "Ġcopies": 4549,
      "QFT": 4550,
      "Ġ24": 4551,
      "Ġpresence": 4552,
      "itaev": 4553,
      "az": 4554,
      "Ġdrive": 4555,
      "qquad": 4556,
      "Ġrely": 4557,
      "Ġreview": 4558,
      "Ġformation": 4559,
      "Ġquantity": 4560,
      "Ġboson": 4561,
      "ĠCont": 4562,
      "Ġensuring": 4563,
      "ozsa": 4564,
      "ants": 4565,
      "ample": 4566,
      "Ġassumption": 4567,
      "Ġearl": 4568,
      "Ġutil": 4569,
      "ĠEm": 4570,
      "ĠOther": 4571,
      "Ġrapid": 4572,
      "Xiv": 4573,
      "ependent": 4574,
      "pite": 4575,
      "ĠMon": 4576,
      "Ġmagnet": 4577,
      "26": 4578,
      "Ġmix": 4579,
      "izations": 4580,
      "Ġincorpor": 4581,
      "perties": 4582,
      "Ġdetected": 4583,
      "value": 4584,
      "Ġcombines": 4585,
      "print": 4586,
      "Ġcentral": 4587,
      "Ġvolume": 4588,
      "Ġhundreds": 4589,
      "Ġtool": 4590,
      "dev": 4591,
      "idelities": 4592,
      "ĠâĶľâĶ¤": 4593,
      "Ġoscillator": 4594,
      "ipart": 4595,
      "theory": 4596,
      "Ġproportional": 4597,
      "ĠMax": 4598,
      "ĠNOT": 4599,
      "Ġgreater": 4600,
      "ĠMultiple": 4601,
      "Ġrevolution": 4602,
      "Ġdeï¬ģn": 4603,
      "Ġevidence": 4604,
      "Ġcalculated": 4605,
      "Ġsubsystem": 4606,
      "stood": 4607,
      "ECTOR": 4608,
      "21": 4609,
      "TECTOR": 4610,
      "}[": 4611,
      "Ġproper": 4612,
      "Ġqml": 4613,
      "Ġdecompose": 4614,
      "'\\": 4615,
      "ĠGHZ": 4616,
      "oseph": 4617,
      "Ġrecent": 4618,
      "57": 4619,
      "As": 4620,
      "cirq": 4621,
      "isions": 4622,
      "unity": 4623,
      "ĠAnal": 4624,
      "Ġcryptographic": 4625,
      "Ġcryogenic": 4626,
      "Omega": 4627,
      "Ġquas": 4628,
      "Ġlocality": 4629,
      "Ġindependently": 4630,
      "Ġresistance": 4631,
      "Ġblocks": 4632,
      "osephson": 4633,
      "label": 4634,
      "Ġdegrees": 4635,
      "ĠHamiltonians": 4636,
      "Ġadapt": 4637,
      "Ġrouting": 4638,
      "python": 4639,
      "Ġsimpler": 4640,
      "####": 4641,
      "Ġmonit": 4642,
      "Ġrelativity": 4643,
      "Ġchanging": 4644,
      "awking": 4645,
      "ĠBohr": 4646,
      "vari": 4647,
      "Ġ18": 4648,
      "Ġprovider": 4649,
      "emperature": 4650,
      "Ġelectronics": 4651,
      "Ġcombined": 4652,
      "Ġfidelities": 4653,
      "Ġrelies": 4654,
      "Ġwanted": 4655,
      "Ġexplains": 4656,
      "Ġtaken": 4657,
      "Ġindicates": 4658,
      ")}$": 4659,
      "Ġspins": 4660,
      "ĠMicrosoft": 4661,
      "Ġedge": 4662,
      "ĠâĶĶ": 4663,
      "ĠâĢĶ": 4664,
      "Ġdiscuss": 4665,
      "Ġâī¤": 4666,
      "ĠDesc": 4667,
      "Ġalternative": 4668,
      "ĠProgramming": 4669,
      "sel": 4670,
      "Ġannih": 4671,
      "Ġbul": 4672,
      "ĠTime": 4673,
      "verg": 4674,
      "Ġchip": 4675,
      "load": 4676,
      "010": 4677,
      "sp": 4678,
      "ĠDETECTOR": 4679,
      "Ġdatabase": 4680,
      "Ġcarry": 4681,
      "correct": 4682,
      "Ġhoriz": 4683,
      "Ġcomplic": 4684,
      "ĠJosephson": 4685,
      "ĠPaul": 4686,
      "39": 4687,
      "uation": 4688,
      "ars": 4689,
      "imin": 4690,
      "Ġverification": 4691,
      "iï¬ģ": 4692,
      "qe": 4693,
      "war": 4694,
      "ĠIntegr": 4695,
      "fidelity": 4696,
      "qasm": 4697,
      "Ġfabrication": 4698,
      "Ġ[[": 4699,
      "Ġconnects": 4700,
      "Ġï¬ģrst": 4701,
      "Ġyes": 4702,
      "ĠRSA": 4703,
      "phere": 4704,
      "Ġgiving": 4705,
      "Ġfollowed": 4706,
      "Ġdetecting": 4707,
      "Ġintuition": 4708,
      "28": 4709,
      "Ġcarri": 4710,
      "ĠMeasuring": 4711,
      "len": 4712,
      "eper": 4713,
      "Ġvariations": 4714,
      "Ġwondering": 4715,
      "independent": 4716,
      "defined": 4717,
      "Ġtechnical": 4718,
      "Ġobv": 4719,
      ")\\\\": 4720,
      "ĠStatevector": 4721,
      "Ġstrategy": 4722,
      "ĠDesign": 4723,
      "Clifford": 4724,
      "list": 4725,
      "uable": 4726,
      "Ġbran": 4727,
      "Ġexceed": 4728,
      "Ġnam": 4729,
      "changed": 4730,
      "Ġdenoted": 4731,
      "Ġdr": 4732,
      "acing": 4733,
      "Ġreconstruct": 4734,
      "ĠVal": 4735,
      "Ġarchitectures": 4736,
      "Ġsemiconductor": 4737,
      "ĠË": 4738,
      "ĠFunction": 4739,
      "ĠLinear": 4740,
      "Ġmanif": 4741,
      "Ġrandomly": 4742,
      "rastructure": 4743,
      "ĠTop": 4744,
      "Ġgain": 4745,
      "ĠObs": 4746,
      "Ġoverview": 4747,
      "Ġshowing": 4748,
      "Ġlanguages": 4749,
      "Ġyields": 4750,
      "triv": 4751,
      "Ġmax": 4752,
      "irect": 4753,
      "ĠVer": 4754,
      "prob": 4755,
      "Ġguides": 4756,
      "Ġattacks": 4757,
      "urtherm": 4758,
      "ibmq": 4759,
      "Ġoccupy": 4760,
      "urthermore": 4761,
      "sl": 4762,
      "ĠCode": 4763,
      "ogram": 4764,
      "Ġintroduces": 4765,
      "selves": 4766,
      "bf": 4767,
      "fig": 4768,
      "arity": 4769,
      "Ġoptics": 4770,
      "Ġelectro": 4771,
      "Ġtermin": 4772,
      "Ġdistributions": 4773,
      "Ġeverything": 4774,
      "Ġmaintaining": 4775,
      "Ġreveal": 4776,
      "Ġwires": 4777,
      "Ġ$|+\\": 4778,
      "Ġprimarily": 4779,
      "Ġmissing": 4780,
      "Ġinternal": 4781,
      "ufact": 4782,
      "Ġstraight": 4783,
      "\":": 4784,
      ">$": 4785,
      "erve": 4786,
      "Ġhope": 4787,
      "Ġsuggests": 4788,
      "ĠBerry": 4789,
      "dat": 4790,
      "gest": 4791,
      "uments": 4792,
      "Ġqr": 4793,
      "ĠReg": 4794,
      "Ġpossess": 4795,
      "symbol": 4796,
      "Ġfine": 4797,
      "entional": 4798,
      "irm": 4799,
      "Ġbounds": 4800,
      "ĠComputation": 4801,
      "Ġproduces": 4802,
      "Ġservices": 4803,
      "ST": 4804,
      "ĠBorn": 4805,
      "Ġrules": 4806,
      "ĠÏĥ": 4807,
      "Ġdemonstrates": 4808,
      "phasing": 4809,
      "diag": 4810,
      "fe": 4811,
      "inc": 4812,
      "Ġsuitable": 4813,
      ")|\\": 4814,
      "cape": 4815,
      "ĠBB": 4816,
      "ĠChoi": 4817,
      "Ġirre": 4818,
      "=(": 4819,
      "ken": 4820,
      "Ġcell": 4821,
      "ĠColl": 4822,
      "Ġlost": 4823,
      "ympt": 4824,
      "Ġlinks": 4825,
      "ĠEven": 4826,
      "Ġ$$|\\": 4827,
      "Ġtrade": 4828,
      "Ġfinds": 4829,
      "Ġintensity": 4830,
      "Ġcalculating": 4831,
      "Ġcapability": 4832,
      "Ġlibrary": 4833,
      "ĠPotential": 4834,
      "Ġrank": 4835,
      "axis": 4836,
      "ĨĴ": 4837,
      "Ġdam": 4838,
      "Ġmatching": 4839,
      "ĠGates": 4840,
      "Ġimplements": 4841,
      "ĠMethod": 4842,
      "Ġ&=\\": 4843,
      "Ġ20": 4844,
      "SWAP": 4845,
      "Ġfra": 4846,
      "ĠTuring": 4847,
      "edia": 4848,
      "Ġedges": 4849,
      "Ġperiodic": 4850,
      "Ġhamiltonian": 4851,
      "âŁ©|": 4852,
      "Ġgets": 4853,
      "ĠÎ»": 4854,
      "Ġsometimes": 4855,
      "imate": 4856,
      "ĠCoherence": 4857,
      "Ġreduction": 4858,
      "Ġquickly": 4859,
      "ones": 4860,
      "ĠPractical": 4861,
      "ĠRequ": 4862,
      "new": 4863,
      "ĠCooper": 4864,
      "ĠSimilarly": 4865,
      "vare": 4866,
      "}-": 4867,
      "Ġsetup": 4868,
      "ĠStim": 4869,
      "ĠGood": 4870,
      "space": 4871,
      "Ġinvert": 4872,
      "ampler": 4873,
      "ĠData": 4874,
      "och": 4875,
      "ocks": 4876,
      "Ġiteration": 4877,
      "varepsilon": 4878,
      "let": 4879,
      "Ġgr": 4880,
      "Ġlif": 4881,
      "perp": 4882,
      "ĠSec": 4883,
      "Ġconcrete": 4884,
      "Ġpress": 4885,
      "Ġmed": 4886,
      "---": 4887,
      "plitude": 4888,
      "Ġdenote": 4889,
      "Ġthousands": 4890,
      "initial": 4891,
      "itrogen": 4892,
      "rel": 4893,
      "lex": 4894,
      "Ġtransport": 4895,
      "ĠÎ¸": 4896,
      "Ġaddressing": 4897,
      "subs": 4898,
      ")}\\": 4899,
      "esman": 4900,
      "ety": 4901,
      "ĠRep": 4902,
      "Ġremove": 4903,
      "Ġexcitations": 4904,
      "95": 4905,
      "Ġsummary": 4906,
      "prime": 4907,
      "Ġorbital": 4908,
      "ĠSpecifically": 4909,
      "Ġbalanced": 4910,
      "ued": 4911,
      "08": 4912,
      "Ġsent": 4913,
      "Ġremaining": 4914,
      "Ġarticle": 4915,
      "((": 4916,
      "IC": 4917,
      "bo": 4918,
      "Ġwho": 4919,
      "Ġplan": 4920,
      "Ġsubject": 4921,
      "Ġassuming": 4922,
      "Ġswapping": 4923,
      "Ġprefer": 4924,
      "Ġdemonstrate": 4925,
      "Ġrepeaters": 4926,
      "luons": 4927,
      "bility": 4928,
      "did": 4929,
      "inetic": 4930,
      "ĠFault": 4931,
      "Ġvirtual": 4932,
      "Ġencodes": 4933,
      "Ġinstall": 4934,
      "Ġinvolving": 4935,
      "Ġanti": 4936,
      "output": 4937,
      "Ġunderstood": 4938,
      "())": 4939,
      "Ġ;": 4940,
      "Ġdiv": 4941,
      "Ġnav": 4942,
      "Ġformulation": 4943,
      "ĠMajor": 4944,
      "ĠInterpretation": 4945,
      "35": 4946,
      "ancing": 4947,
      "alks": 4948,
      "econds": 4949,
      "itude": 4950,
      "ĠCond": 4951,
      "lock": 4952,
      "bold": 4953,
      "target": 4954,
      "|)": 4955,
      "anted": 4956,
      "Ġ$^": 4957,
      "ĠSign": 4958,
      "Ġentries": 4959,
      "ĠLe": 4960,
      "Ġcontrolling": 4961,
      "ï¬Ĥ": 4962,
      "flow": 4963,
      "Ġhelpful": 4964,
      "ĠPhotonic": 4965,
      "rics": 4966,
      "atives": 4967,
      "Ġcandid": 4968,
      "string": 4969,
      "Ġmolecule": 4970,
      "ikip": 4971,
      "boldsymbol": 4972,
      "iH": 4973,
      "orph": 4974,
      "arithm": 4975,
      "ulse": 4976,
      "ĠFurthermore": 4977,
      "ĠEve": 4978,
      "Ġheating": 4979,
      "ĠLear": 4980,
      "Ġupper": 4981,
      "Ġfewer": 4982,
      "Ġgeomet": 4983,
      "ikipedia": 4984,
      "orage": 4985,
      "iss": 4986,
      "âĶĮ": 4987,
      "Ġspeedups": 4988,
      "Ġ$$|": 4989,
      "Ġplt": 4990,
      "Ġdiamond": 4991,
      "ĠTheir": 4992,
      "ĠPost": 4993,
      "complete": 4994,
      "radict": 4995,
      "Ġobjective": 4996,
      "Ġsuperconductivity": 4997,
      "Ġmar": 4998,
      "Ġfiber": 4999,
      "ĠTrue": 5000,
      "ĠOver": 5001,
      "Ġanyons": 5002,
      "Ġforms": 5003,
      "Ġplus": 5004,
      "ĠUnivers": 5005,
      "ĠParameter": 5006,
      "Ġconfinement": 5007,
      ",$$": 5008,
      "dis": 5009,
      "Ġgauge": 5010,
      "Ġchapter": 5011,
      "enced": 5012,
      "110": 5013,
      "ĠAssum": 5014,
      "Ġthinking": 5015,
      "Ġearlier": 5016,
      "ĠAnother": 5017,
      "Ġincom": 5018,
      "Ġvaluable": 5019,
      "shots": 5020,
      "Ġcenter": 5021,
      "Ġscheme": 5022,
      "Ġbottom": 5023,
      "Ġtrivial": 5024,
      "Ïī": 5025,
      "ingular": 5026,
      "ash": 5027,
      "poses": 5028,
      "Ġoverl": 5029,
      "ĠImpro": 5030,
      "Ġdetailing": 5031,
      "Ġfamous": 5032,
      "going": 5033,
      "=\"": 5034,
      "alls": 5035,
      "jection": 5036,
      "Ġsupports": 5037,
      "enormalization": 5038,
      "Al": 5039,
      "pass": 5040,
      "quant": 5041,
      "iling": 5042,
      "advantages": 5043,
      "ameters": 5044,
      "ĠâĶĮ": 5045,
      "ĠQCD": 5046,
      "âĶĢâĶĢâĶĢâĶĺ": 5047,
      "94": 5048,
      "Ġarrays": 5049,
      "Ġsubst": 5050,
      "Ġmetrology": 5051,
      "ĠTopological": 5052,
      "wave": 5053,
      "Ġled": 5054,
      "ypoth": 5055,
      "Ġdiscussion": 5056,
      "Ġmotiv": 5057,
      "\\}^": 5058,
      "rig": 5059,
      "ĠSurface": 5060,
      "Ġtypical": 5061,
      "olean": 5062,
      "gers": 5063,
      "Ġbipart": 5064,
      "ĠHole": 5065,
      "Ġuns": 5066,
      "ĠBas": 5067,
      "ĠâĬĹ": 5068,
      "101": 5069,
      "ÏĨ": 5070,
      "Ġign": 5071,
      "ĠBos": 5072,
      "ĠInde": 5073,
      "Ġamong": 5074,
      "Ġindistinguish": 5075,
      "ĠAdvantages": 5076,
      "ĠLaser": 5077,
      "Ġdrift": 5078,
      "aar": 5079,
      "ged": 5080,
      "zz": 5081,
      "Ġclos": 5082,
      "75": 5083,
      "andau": 5084,
      "Ġclocks": 5085,
      "ĠMaterials": 5086,
      ":\\": 5087,
      "ÂŃ": 5088,
      "Ġharmonic": 5089,
      "Ġachieving": 5090,
      "Ġseparated": 5091,
      "Ġanalogous": 5092,
      "Ġconjugate": 5093,
      "trivial": 5094,
      "PI": 5095,
      "rang": 5096,
      "Ġonline": 5097,
      "Ġarri": 5098,
      "ĠarXiv": 5099,
      "Ġoptimizing": 5100,
      "processing": 5101,
      "ĠEnc": 5102,
      "Ġdifficulty": 5103,
      "Ġlaws": 5104,
      "ĠCSS": 5105,
      "Ġtowards": 5106,
      "uly": 5107,
      "Ġstored": 5108,
      "ĠForm": 5109,
      "ĠStates": 5110,
      "Ġevolve": 5111,
      "Ġcrystal": 5112,
      "Ġjobs": 5113,
      "Ġplate": 5114,
      "abilizer": 5115,
      "Ġdepolarizing": 5116,
      "Ġmetric": 5117,
      "Ġodd": 5118,
      "ĠDeveloping": 5119,
      "ĠVariational": 5120,
      "}+\\": 5121,
      "ĠHybrid": 5122,
      "Ġcomputationally": 5123,
      "ĠMatrix": 5124,
      "dent": 5125,
      "ĠHawking": 5126,
      "ended": 5127,
      "Ġregarding": 5128,
      "Ġderived": 5129,
      "ĠCalcul": 5130,
      "Ġperspective": 5131,
      "ĠMost": 5132,
      "Ġleakage": 5133,
      "onda": 5134,
      "âŁ©+": 5135,
      "Ġexcitation": 5136,
      "**": 5137,
      "^(": 5138,
      "ait": 5139,
      "uted": 5140,
      "istant": 5141,
      "Ġprotection": 5142,
      "Ġresonator": 5143,
      "ĠAtoms": 5144,
      "igensolver": 5145,
      "Ġstage": 5146,
      "ĠSc": 5147,
      "Ġoptimizer": 5148,
      "Ġmoving": 5149,
      "Ġresearchers": 5150,
      "Ġmitig": 5151,
      "Ġemphasize": 5152,
      "Ġscientists": 5153,
      "66": 5154,
      "Dirac": 5155,
      "To": 5156,
      "Ġcompress": 5157,
      "Ġtransmon": 5158,
      "Ġrough": 5159,
      "ellig": 5160,
      "Ġkeys": 5161,
      "tty": 5162,
      "Ġdemonstrating": 5163,
      "mann": 5164,
      "Ġdestroy": 5165,
      "ĠâŁ¨": 5166,
      "Ġduality": 5167,
      "eter": 5168,
      "Ġcontradict": 5169,
      "ĠOf": 5170,
      "Ġovercome": 5171,
      "HE": 5172,
      "ĠAB": 5173,
      "Ġ198": 5174,
      "force": 5175,
      "Ġphon": 5176,
      "Ġcontribution": 5177,
      "Ġscalar": 5178,
      "ï¬ģci": 5179,
      "Ġexponent": 5180,
      "ĠNeut": 5181,
      "Ġentirely": 5182,
      "Ġfile": 5183,
      "use": 5184,
      "ĠSP": 5185,
      "Ġsummar": 5186,
      "Ġinherently": 5187,
      "Ġannihilation": 5188,
      "Ġ%": 5189,
      "Ġhead": 5190,
      "this": 5191,
      "ĠâĢĺ": 5192,
      "ĠHall": 5193,
      "ĠMoreover": 5194,
      "Ġcomposite": 5195,
      "ĠExperimental": 5196,
      "Ġdephasing": 5197,
      "ĠApproxim": 5198,
      "Ġstated": 5199,
      "ĠAct": 5200,
      "Ġorgan": 5201,
      "maz": 5202,
      "Ġcommut": 5203,
      "Ġexpans": 5204,
      "Ġexperimentally": 5205,
      "everal": 5206,
      "Ġgoes": 5207,
      "Ġstructured": 5208,
      "ĠElectron": 5209,
      "Ġplease": 5210,
      "Ġdot": 5211,
      "perform": 5212,
      "Ġspecify": 5213,
      "Ġeigenvector": 5214,
      "Ġreflection": 5215,
      "Ġspontaneous": 5216,
      "93": 5217,
      "Sh": 5218,
      "Ġtoday": 5219,
      "Ġjoint": 5220,
      "Ġemphasized": 5221,
      "Ġconsists": 5222,
      "Ġartificial": 5223,
      "Ġwavelengths": 5224,
      "Ġinfrastructure": 5225,
      "Ġexploring": 5226,
      "Ġtweez": 5227,
      "nill": 5228,
      "ĠTest": 5229,
      "ĠMin": 5230,
      "ĠStart": 5231,
      "ĠLimitations": 5232,
      "ĠComplexity": 5233,
      "Ġhorizon": 5234,
      "vo": 5235,
      "atus": 5236,
      "Ġthreat": 5237,
      "Ġtruly": 5238,
      "Ġapart": 5239,
      "Ġrelax": 5240,
      "values": 5241,
      "ĠClassicalRegister": 5242,
      "Ġiterations": 5243,
      "Ġcycle": 5244,
      "Ġmut": 5245,
      "uling": 5246,
      "Ġcorrected": 5247,
      "ĠIsing": 5248,
      "Ġpredicts": 5249,
      "Ġscientific": 5250,
      "Ġmistake": 5251,
      "})\\": 5252,
      "Ġconsum": 5253,
      "ĠSection": 5254,
      "ĠML": 5255,
      "ĠGaussian": 5256,
      "ĠOb": 5257,
      "Ġsolved": 5258,
      "ĠÎĶ": 5259,
      "Ġestimates": 5260,
      "ometers": 5261,
      "Ġclasses": 5262,
      "ĠAdd": 5263,
      "Ġprevents": 5264,
      "Ġpromising": 5265,
      "Ġvibrations": 5266,
      "ropping": 5267,
      "ĠWhich": 5268,
      "Ġthemselves": 5269,
      "orrel": 5270,
      "Ġinsul": 5271,
      "ĠApplying": 5272,
      "Ġstraightforward": 5273,
      "bin": 5274,
      "foli": 5275,
      "|_": 5276,
      "Ġunw": 5277,
      "ĠFigure": 5278,
      "ĠRed": 5279,
      "iparticles": 5280,
      "iques": 5281,
      "ĠScalability": 5282,
      "Ġcluster": 5283,
      "DS": 5284,
      "PP": 5285,
      "atch": 5286,
      "Ġnice": 5287,
      "Ġtrain": 5288,
      "astic": 5289,
      "apse": 5290,
      "Ġsqueez": 5291,
      "Ġbenefits": 5292,
      "eq": 5293,
      "test": 5294,
      "isation": 5295,
      "Ġbase": 5296,
      "Ġquarks": 5297,
      "Ġasking": 5298,
      "lude": 5299,
      "Ġtraject": 5300,
      "subset": 5301,
      "elligence": 5302,
      "size": 5303,
      "yper": 5304,
      "Ġwalk": 5305,
      "ided": 5306,
      "Ġalone": 5307,
      "ĠSci": 5308,
      "ĠSeveral": 5309,
      "Ġkinetic": 5310,
      "Ġcomplement": 5311,
      "Ġinitialization": 5312,
      "Ġimprovement": 5313,
      "Ġbenefit": 5314,
      "Ġauthors": 5315,
      "MR": 5316,
      "spin": 5317,
      "Ġdeeper": 5318,
      "ĠNone": 5319,
      "Ġmanufact": 5320,
      "ĠExclusion": 5321,
      "Ġeveryday": 5322,
      "Ġradi": 5323,
      "mazon": 5324,
      "gener": 5325,
      "Ġcle": 5326,
      "Ġpromise": 5327,
      "CS": 5328,
      "oph": 5329,
      "tra": 5330,
      "arm": 5331,
      "produ": 5332,
      "problem": 5333,
      "Ġsends": 5334,
      "Ġ&\\": 5335,
      "ĠLandau": 5336,
      "Ġconserv": 5337,
      "Ġenhanced": 5338,
      "Ġscenario": 5339,
      "Ġclosed": 5340,
      "Ġpretty": 5341,
      "Ġcriter": 5342,
      "Ġprotected": 5343,
      "Ġfilter": 5344,
      "ĠMathematical": 5345,
      "Ġmanagement": 5346,
      "DK": 5347,
      "['": 5348,
      "acancy": 5349,
      "Ġalign": 5350,
      "Ġrelate": 5351,
      "Ġversions": 5352,
      "uous": 5353,
      "ater": 5354,
      "entangle": 5355,
      "ulates": 5356,
      "ĠPenny": 5357,
      "ĠRead": 5358,
      "Ġshot": 5359,
      "oppler": 5360,
      "Ġdiscover": 5361,
      "olec": 5362,
      "ĠOptical": 5363,
      "Ġscenarios": 5364,
      "Ġmarked": 5365,
      "agnet": 5366,
      "45": 5367,
      "simul": 5368,
      "ĠTe": 5369,
      "ĠFile": 5370,
      "Ġlever": 5371,
      "Ġincreased": 5372,
      "Ġcharacterization": 5373,
      "ĠAmazon": 5374,
      "Ġinstructions": 5375,
      "Ġcapture": 5376,
      "input": 5377,
      "Ġisol": 5378,
      "Ġstable": 5379,
      "Ġvis": 5380,
      "ĠExt": 5381,
      "Ġdynamical": 5382,
      "Str": 5383,
      "neg": 5384,
      "itness": 5385,
      "Ġau": 5386,
      "omography": 5387,
      "ĠMit": 5388,
      "ĠLog": 5389,
      "circuits": 5390,
      "Ġsubset": 5391,
      "Ġstudying": 5392,
      "Ġqueries": 5393,
      "CO": 5394,
      "Ġembed": 5395,
      "Ġconstructed": 5396,
      "ydrogen": 5397,
      "Ph": 5398,
      "xy": 5399,
      "atell": 5400,
      "Ġconve": 5401,
      "ĠInc": 5402,
      "ructive": 5403,
      "Ġintr": 5404,
      "ĠSteane": 5405,
      "Ġconfused": 5406,
      "CZ": 5407,
      "tfrac": 5408,
      "Ġstron": 5409,
      "ĠQDs": 5410,
      "ĠSens": 5411,
      "Ġ01": 5412,
      "phistic": 5413,
      "Ġshowed": 5414,
      "ynthesis": 5415,
      "Ġprojector": 5416,
      "Ġtells": 5417,
      "ĠDistribution": 5418,
      "Ġperturbation": 5419,
      "ump": 5420,
      "ĠAND": 5421,
      "Ġnormalization": 5422,
      "datetime": 5423,
      "oled": 5424,
      "qreg": 5425,
      "Ïĥ": 5426,
      "Ġsingular": 5427,
      "ager": 5428,
      "ĠRandom": 5429,
      "Ġtrapping": 5430,
      "Ġunwanted": 5431,
      "Ġalthough": 5432,
      "Ġdevelo": 5433,
      "Ġrealistic": 5434,
      "iquid": 5435,
      "piled": 5436,
      "Ġconcern": 5437,
      "Ġabstract": 5438,
      "ĠTensor": 5439,
      "ĠCar": 5440,
      "Ġharder": 5441,
      "Ġcounting": 5442,
      "Ġmatters": 5443,
      "ĠPhysical": 5444,
      "ĠDefinition": 5445,
      "ymptotic": 5446,
      "World": 5447,
      "}_{\\": 5448,
      "Ġstorage": 5449,
      "Ġlies": 5450,
      "Ġcorrections": 5451,
      "]:": 5452,
      "cr": 5453,
      "Ġhypoth": 5454,
      "Ġunchanged": 5455,
      "Ġoutside": 5456,
      "Ġcompleteness": 5457,
      "Ġinitialize": 5458,
      "âĶĢâĶĲ": 5459,
      "educe": 5460,
      "Ġ//": 5461,
      "Ġdifferently": 5462,
      "Ġphotonics": 5463,
      "Ġlooph": 5464,
      "Ġreasoning": 5465,
      "Ġpressure": 5466,
      "38": 5467,
      "Ġstands": 5468,
      "ĠMain": 5469,
      "Ġchips": 5470,
      "Ġmanner": 5471,
      "Ġsubt": 5472,
      "ĠSchmidt": 5473,
      "Ġservice": 5474,
      "phisticated": 5475,
      "}+": 5476,
      "áµ": 5477,
      "ĠMachine": 5478,
      "Ġcomplicated": 5479,
      "iver": 5480,
      "Ġcy": 5481,
      "Ġâķ": 5482,
      "Ġrepetition": 5483,
      "Ġreliably": 5484,
      "QKD": 5485,
      "Ġprobe": 5486,
      "Ġnonlinear": 5487,
      "Ġcontextuality": 5488,
      "register": 5489,
      "Ġcombinations": 5490,
      "CX": 5491,
      "Ġtem": 5492,
      "Ġshape": 5493,
      "Ġremember": 5494,
      "ĠPhotons": 5495,
      "ES": 5496,
      "Su": 5497,
      "Ġobservations": 5498,
      "Ġfinancial": 5499,
      "Ġreasonable": 5500,
      "ĠTransform": 5501,
      "Ġpermutation": 5502,
      "Ġnavigation": 5503,
      "Ġtrick": 5504,
      "roglie": 5505,
      "Ġturns": 5506,
      "aten": 5507,
      "Ġholes": 5508,
      "ĠBroglie": 5509,
      "Ġrelativistic": 5510,
      "Ġelabor": 5511,
      "Ġdamping": 5512,
      ")+": 5513,
      "ĠQPE": 5514,
      "unities": 5515,
      "Ġrew": 5516,
      "ilib": 5517,
      "rium": 5518,
      "adem": 5519,
      "ĠBra": 5520,
      "Ġdecoupling": 5521,
      "Ġcollection": 5522,
      "insic": 5523,
      "State": 5524,
      "ull": 5525,
      "ĠBo": 5526,
      "Ġscalable": 5527,
      "Ġbackends": 5528,
      "Ġlayout": 5529,
      "Ġmotional": 5530,
      "Ġswitch": 5531,
      "Ġ99": 5532,
      "âĶĶ": 5533,
      "key": 5534,
      "ĠNetwork": 5535,
      "Ġdatetime": 5536,
      "ĠTechniques": 5537,
      "Ġimperfections": 5538,
      "QASM": 5539,
      "ĠHolevo": 5540,
      "Jozsa": 5541,
      "Ġexpert": 5542,
      "ĠDensity": 5543,
      "unication": 5544,
      "ilibrium": 5545,
      "cent": 5546,
      "flo": 5547,
      "ners": 5548,
      "itution": 5549,
      "ows": 5550,
      "Ġdespite": 5551,
      "Ġtargets": 5552,
      "Ġsynthesis": 5553,
      "Ġeffort": 5554,
      "pdf": 5555,
      "LI": 5556,
      "aqua": 5557,
      "do": 5558,
      "Ġinfin": 5559,
      "Ġdark": 5560,
      "Ġequally": 5561,
      "Ġmaybe": 5562,
      "ĠConst": 5563,
      "ĠMethods": 5564,
      "dep": 5565,
      "ractive": 5566,
      "ĠProv": 5567,
      "Ġensemble": 5568,
      "Ġcontaining": 5569,
      "Ġmanifest": 5570,
      "ao": 5571,
      "omorph": 5572,
      "Ġgluons": 5573,
      "Ġcompat": 5574,
      "Ġstrengths": 5575,
      "rvert": 5576,
      "Ĭķ": 5577,
      "Ġalmost": 5578,
      "connect": 5579,
      "Ġpreserve": 5580,
      "Ġmetrics": 5581,
      "Ġcommonly": 5582,
      "Ġflex": 5583,
      "Ġusual": 5584,
      "Ġchance": 5585,
      "Ġneighb": 5586,
      "Ġminimal": 5587,
      "Ġobtaining": 5588,
      "Ġsuscept": 5589,
      "lay": 5590,
      "Ġgas": 5591,
      "rief": 5592,
      "Ġspecified": 5593,
      "Ġuniverses": 5594,
      "Ġprojects": 5595,
      "ĠResult": 5596,
      "Ġinternet": 5597,
      "Ġrounds": 5598,
      "Sch": 5599,
      "Î¨": 5600,
      "Ġlack": 5601,
      "Ġ17": 5602,
      "Ġcontrols": 5603,
      "Ġconsiderations": 5604,
      "ibraries": 5605,
      "Ġcharacterized": 5606,
      "Ġinvariant": 5607,
      "frequency": 5608,
      "width": 5609,
      "Ġtalk": 5610,
      "Ġop": 5611,
      "rupt": 5612,
      "ĠLong": 5613,
      "etti": 5614,
      "Ġmiddle": 5615,
      "rout": 5616,
      "ĠIdent": 5617,
      "Ġreprodu": 5618,
      "elv": 5619,
      "odynamics": 5620,
      "Ġprogramm": 5621,
      "Ġcollabor": 5622,
      "Ġinfluences": 5623,
      "\\|_": 5624,
      "Kitaev": 5625,
      "dist": 5626,
      "mark": 5627,
      "oks": 5628,
      "orbit": 5629,
      "ĠStat": 5630,
      "Ġmodeling": 5631,
      "Ġcoordinates": 5632,
      "Ġmonitoring": 5633,
      "ĠLearning": 5634,
      "riger": 5635,
      "PO": 5636,
      "ht": 5637,
      "Ġconven": 5638,
      "ĠEfficient": 5639,
      "Ġapplic": 5640,
      "apor": 5641,
      "aligned": 5642,
      "ĠImp": 5643,
      "ĠImplications": 5644,
      "Ġchoices": 5645,
      "Ġsequential": 5646,
      "Ġcoupled": 5647,
      "Ġchecks": 5648,
      "iers": 5649,
      "Ġpriv": 5650,
      "ĠAPI": 5651,
      "Ġleverage": 5652,
      "Ġgenerator": 5653,
      "ĠYour": 5654,
      "Ġhighlighted": 5655,
      "Ġdidn": 5656,
      "Ġslowly": 5657,
      ",\"": 5658,
      "AU": 5659,
      "job": 5660,
      "Ġlands": 5661,
      "Ġcomment": 5662,
      "ithub": 5663,
      "ĠRun": 5664,
      "Ġrequirement": 5665,
      "âĤĤ": 5666,
      "Ġconvention": 5667,
      "Ġclarity": 5668,
      "Ġtens": 5669,
      "Ġrat": 5670,
      "Ġdefinitions": 5671,
      "ĠOnce": 5672,
      "Ġnucleus": 5673,
      "Ġexpansion": 5674,
      "Ġcut": 5675,
      "ĠZeno": 5676,
      "Ġstandards": 5677,
      "Ġassess": 5678,
      "Ġmanipulation": 5679,
      "áµ¢": 5680,
      "mpl": 5681,
      "Ġpurity": 5682,
      "erving": 5683,
      "Ġthanks": 5684,
      "barri": 5685,
      "âĸł": 5686,
      "Ġrapidly": 5687,
      "yle": 5688,
      "Ġinit": 5689,
      "Ġnitrogen": 5690,
      "osite": 5691,
      "aged": 5692,
      "Ġintelligence": 5693,
      "Ġimprovements": 5694,
      "âĤģ": 5695,
      "ĠIndeed": 5696,
      "String": 5697,
      "|+\\": 5698,
      "any": 5699,
      "omic": 5700,
      "Ġ+\\": 5701,
      "Ġperhaps": 5702,
      "Ġintegers": 5703,
      "Ġtopic": 5704,
      "Ġnormalized": 5705,
      "Ġinstantly": 5706,
      "ymmetric": 5707,
      "Worlds": 5708,
      "\"),": 5709,
      "An": 5710,
      "Ġ^": 5711,
      "inal": 5712,
      "Ġevolves": 5713,
      "EL": 5714,
      "ĠFundament": 5715,
      "ĠDefine": 5716,
      "ĠConnect": 5717,
      "ĠâĶ¤": 5718,
      "Ġelementary": 5719,
      "Ġpresented": 5720,
      "Ġvolt": 5721,
      "ĠEquation": 5722,
      "77": 5723,
      "bles": 5724,
      "Ġcr": 5725,
      "Ġstages": 5726,
      "ĠCrypt": 5727,
      "Ġ=\\": 5728,
      "Ġequality": 5729,
      "Ġregions": 5730,
      "Ġdiffusion": 5731,
      "Ġtheoretically": 5732,
      "Ġadjac": 5733,
      "Ġguaranteed": 5734,
      "Ġinvestment": 5735,
      "Ġprofound": 5736,
      "65": 5737,
      "po": 5738,
      "ĠThank": 5739,
      "Ġuser": 5740,
      "ived": 5741,
      "Ġactively": 5742,
      "ĠJust": 5743,
      "Ġprojectors": 5744,
      "Ġlogarithm": 5745,
      "Ġsatisfies": 5746,
      "mediately": 5747,
      "Ġmagnitude": 5748,
      "Ġinterfaces": 5749,
      "68": 5750,
      "ĠTyp": 5751,
      "Ġdetermining": 5752,
      "ĠPerform": 5753,
      "arren": 5754,
      "(|\\": 5755,
      "AC": 5756,
      "Ġqut": 5757,
      "Ġliter": 5758,
      "Ġcomputed": 5759,
      "ĠProperties": 5760,
      "Ġfair": 5761,
      "Ġhandles": 5762,
      "Ġopport": 5763,
      "Ġconductivity": 5764,
      "Ġfrag": 5765,
      "44": 5766,
      "lane": 5767,
      "Ġtz": 5768,
      "Ġvqe": 5769,
      "ĠLow": 5770,
      "Ġgradients": 5771,
      "ĠAmplitude": 5772,
      "approx": 5773,
      "ops": 5774,
      "Ïķ": 5775,
      "Ġpsi": 5776,
      "Ġpick": 5777,
      "Ġpython": 5778,
      "Ġstru": 5779,
      "ĠSub": 5780,
      "Ġspread": 5781,
      "Ġselection": 5782,
      "ĠIts": 5783,
      "Ġoptions": 5784,
      "Ġemploy": 5785,
      "Ġsubgroup": 5786,
      "Ġviolation": 5787,
      "ĠDescription": 5788,
      "ĠMagnetic": 5789,
      "ĠDoppler": 5790,
      "Ġqreg": 5791,
      "Ġqasm": 5792,
      "Ġincorrect": 5793,
      "Ġconfirm": 5794,
      "Ġcausing": 5795,
      "Ġinstantaneously": 5796,
      "tzlocal": 5797,
      "ĠContin": 5798,
      "Ġtzinfo": 5799,
      "SD": 5800,
      "ĠSystems": 5801,
      "Ġunlike": 5802,
      "Ġbasically": 5803,
      "Ġmodern": 5804,
      "omentum": 5805,
      "Ġdecomposed": 5806,
      "Ġrefriger": 5807,
      "Ġsplitting": 5808,
      "ĠMathematically": 5809,
      "Ġbroader": 5810,
      "Ġindustry": 5811,
      "\\)": 5812,
      "xi": 5813,
      "phys": 5814,
      "Ġcooled": 5815,
      "ableau": 5816,
      "Ġdefines": 5817,
      "Ġapproximately": 5818,
      "Ġsubsequ": 5819,
      "Ġmicro": 5820,
      "kin": 5821,
      "Ġtranspose": 5822,
      "sip": 5823,
      "Ġplays": 5824,
      "Ġplasm": 5825,
      "Ġcaused": 5826,
      "Ġbipartite": 5827,
      "Ch": 5828,
      "gho": 5829,
      "oelect": 5830,
      "ĠBEC": 5831,
      "Ġdefault": 5832,
      "llation": 5833,
      "WI": 5834,
      "Ġgra": 5835,
      "through": 5836,
      "Ġtransist": 5837,
      "ĠStr": 5838,
      "ĠProcess": 5839,
      "Ġcomparing": 5840,
      "Ġreferences": 5841,
      "Ġoverlap": 5842,
      ",|": 5843,
      "Ġlos": 5844,
      "ĠBack": 5845,
      "Ġguide": 5846,
      "Ġsimplify": 5847,
      "Ġtre": 5848,
      "inte": 5849,
      "Ġprime": 5850,
      "rougho": 5851,
      "Ġeavesdrop": 5852,
      "Ġinsights": 5853,
      "roughout": 5854,
      "ilers": 5855,
      "ĠRig": 5856,
      "vantage": 5857,
      "Ġminus": 5858,
      "Ġsuppression": 5859,
      "Ġimagine": 5860,
      "paces": 5861,
      "Ġisolation": 5862,
      "anging": 5863,
      "Ġimmediately": 5864,
      "Ġ202": 5865,
      "Ġsophisticated": 5866,
      "Ġbegan": 5867,
      "ĠDetection": 5868,
      "''": 5869,
      "Oper": 5870,
      "what": 5871,
      "eros": 5872,
      "Ġinterface": 5873,
      "seud": 5874,
      "Ġeduc": 5875,
      "transp": 5876,
      "decom": 5877,
      "Ġscheduling": 5878,
      "Ġstrugg": 5879,
      "limit": 5880,
      "},\\": 5881,
      "ĠParticles": 5882,
      "ĠOut": 5883,
      "ĠRepresentation": 5884,
      "instance": 5885,
      "Ġstudies": 5886,
      "Ġopposite": 5887,
      "ĠImplementing": 5888,
      "Ġappreciated": 5889,
      "ĠMinim": 5890,
      "html": 5891,
      "29": 5892,
      "distance": 5893,
      "Ġ!": 5894,
      "Ġusers": 5895,
      "ĠLike": 5896,
      "Ġroles": 5897,
      "gery": 5898,
      "Ġpredicted": 5899,
      "']": 5900,
      "cation": 5901,
      "ĠTun": 5902,
      "istically": 5903,
      "Ġfeel": 5904,
      "ĠSimon": 5905,
      "Ġrelaxation": 5906,
      "ifier": 5907,
      "ĠPy": 5908,
      "Ġspan": 5909,
      "config": 5910,
      "def": 5911,
      "Ġdependence": 5912,
      "Ġfoundations": 5913,
      "Ġpreparing": 5914,
      "Ġclarify": 5915,
      "ript": 5916,
      "Ġdatabases": 5917,
      "Ġâķĳ": 5918,
      "lement": 5919,
      "Ġhydrogen": 5920,
      "Ġreverse": 5921,
      "Ġshar": 5922,
      "Ġconnections": 5923,
      "Ġintegrated": 5924,
      "Ġviolate": 5925,
      "Ġdomain": 5926,
      "Ġsuperconductors": 5927,
      "erministic": 5928,
      "Com": 5929,
      "library": 5930,
      "Ġtal": 5931,
      "ĠSet": 5932,
      "ĠSecond": 5933,
      "ĠEq": 5934,
      "Ġrig": 5935,
      "âĪĤ": 5936,
      "Ġfermion": 5937,
      "Ġpossibility": 5938,
      "Ġdistinction": 5939,
      "iliar": 5940,
      "dim": 5941,
      "Ġdivers": 5942,
      "Ġgenerating": 5943,
      "Ġdeduce": 5944,
      "plied": 5945,
      "Ġmiss": 5946,
      "request": 5947,
      "Ġanalyze": 5948,
      "Ġgeometry": 5949,
      "mo": 5950,
      "imination": 5951,
      "eld": 5952,
      "ĠPlease": 5953,
      "Ġobserving": 5954,
      "Ġrotating": 5955,
      "Ġextends": 5956,
      "ĠAtomic": 5957,
      "Ġpackage": 5958,
      "HSH": 5959,
      "ĠImpact": 5960,
      "Lane": 5961,
      "ON": 5962,
      "ited": 5963,
      "Ġcx": 5964,
      "ĠCol": 5965,
      "ifications": 5966,
      "obj": 5967,
      "ierarch": 5968,
      "Ġdatas": 5969,
      "IN": 5970,
      "dense": 5971,
      "ration": 5972,
      "Ġ$(\\": 5973,
      "ĠTrotter": 5974,
      "Ġnotion": 5975,
      "Ġoption": 5976,
      "ĠAlthough": 5977,
      "Ġcapable": 5978,
      "Ġfoundation": 5979,
      "Ġcontinue": 5980,
      "number": 5981,
      "super": 5982,
      "ymmetry": 5983,
      "ĠMeasurements": 5984,
      "LARI": 5985,
      "atellite": 5986,
      "Ġstronger": 5987,
      "48": 5988,
      "Ġrecomm": 5989,
      "rie": 5990,
      "ĠUs": 5991,
      "Ġsimplifies": 5992,
      "ĠWithout": 5993,
      "Ġparallelism": 5994,
      "Ġconventional": 5995,
      "ĠIonQ": 5996,
      "Ġterminology": 5997,
      "En": 5998,
      "band": 5999,
      "ixt": 6000,
      "low": 6001,
      "Ġgrid": 6002,
      "ĠPo": 6003,
      "Ġruntime": 6004,
      "Ġexplored": 6005,
      "ĠZZ": 6006,
      "ĠCloud": 6007,
      "learning": 6008,
      "Ġtopology": 6009,
      "Ġdisplay": 6010,
      "ki": 6011,
      "ĠSpect": 6012,
      "Ġseed": 6013,
      "Ġgrovers": 6014,
      "ted": 6015,
      "Ġcold": 6016,
      "ĠQND": 6017,
      "Ġ\"\"\"": 6018,
      "taining": 6019,
      "hips": 6020,
      "Ġasked": 6021,
      "Ġeavesdropping": 6022,
      "Ġportfoli": 6023,
      "POLARI": 6024,
      "POLARIZE": 6025,
      "PM": 6026,
      "pon": 6027,
      "source": 6028,
      "ugg": 6029,
      "Ġmerg": 6030,
      "Ġwish": 6031,
      "unc": 6032,
      "oltz": 6033,
      "orted": 6034,
      "Ġaccumulate": 6035,
      "09": 6036,
      "DE": 6037,
      "Ġbell": 6038,
      "istent": 6039,
      "Ġdissip": 6040,
      "Ġnetworking": 6041,
      "Ġsubrout": 6042,
      "ributes": 6043,
      "Ġobvious": 6044,
      "nu": 6045,
      "reset": 6046,
      "Ġphysic": 6047,
      "vironment": 6048,
      "Ġshifts": 6049,
      "Ġfails": 6050,
      "Ġresonance": 6051,
      "ĠEncoding": 6052,
      "parameters": 6053,
      "ĠComb": 6054,
      "Ġarbitrarily": 6055,
      "provider": 6056,
      "specific": 6057,
      "ĠFundamental": 6058,
      "}&": 6059,
      "Ġnode": 6060,
      "elian": 6061,
      "izers": 6062,
      "ĠMay": 6063,
      "Ġvon": 6064,
      "racold": 6065,
      "posing": 6066,
      "Ġrealize": 6067,
      "âĶĢâĶĢâĶĢâĶĢâĶĢâĶĢâĶĢâĶĢâĶĢâĶĢâĶĢâĶĢ": 6068,
      "âĶĢâĶĢâĶĢâĶĲ": 6069,
      "Ġabsorption": 6070,
      "Ġmedical": 6071,
      "Figure": 6072,
      "aks": 6073,
      "Ġwitness": 6074,
      "ategor": 6075,
      "igner": 6076,
      "Ġsurround": 6077,
      "Ġdemand": 6078,
      "ohn": 6079,
      "Ġfailure": 6080,
      "Ġdisturbance": 6081,
      "Ġdenotes": 6082,
      "Ġaims": 6083,
      "ĠMitigation": 6084,
      "'.": 6085,
      "Ġhav": 6086,
      "otal": 6087,
      "irk": 6088,
      "Ġcompiler": 6089,
      "Ġasks": 6090,
      "agine": 6091,
      "ĠHaar": 6092,
      "Ġsensor": 6093,
      "Ġhelium": 6094,
      "cilla": 6095,
      "Ġacqu": 6096,
      "Ġenvironments": 6097,
      "Ġoracles": 6098,
      "elvin": 6099,
      "Ġliquid": 6100,
      "ĠCHSH": 6101,
      "format": 6102,
      "ĠBen": 6103,
      "duction": 6104,
      "Ġimply": 6105,
      "Ġequals": 6106,
      "Ġoptimized": 6107,
      "Ġscreen": 6108,
      "ĠâĪļ": 6109,
      "ĠControlled": 6110,
      "but": 6111,
      "can": 6112,
      "eigen": 6113,
      "pe": 6114,
      "Ġstu": 6115,
      "Ġlinearly": 6116,
      "Ġsaying": 6117,
      "Ġexecuted": 6118,
      "Ġextrap": 6119,
      "Ġconfiguration": 6120,
      "Ġgeometric": 6121,
      "Ġroughly": 6122,
      "pired": 6123,
      "onical": 6124,
      "step": 6125,
      "ĠAut": 6126,
      "Ġoperating": 6127,
      "Ġextraction": 6128,
      "Ġdesigns": 6129,
      "ĠShow": 6130,
      "Ġinteracting": 6131,
      "ĠGeneral": 6132,
      "realization": 6133,
      "))$": 6134,
      "Ġbarren": 6135,
      "ĠPilot": 6136,
      "Ġnotes": 6137,
      "Ġchanged": 6138,
      "Ġcosts": 6139,
      "->": 6140,
      "QHE": 6141,
      "Â°": 6142,
      "Ġnor": 6143,
      "ulner": 6144,
      "ilution": 6145,
      "Ġexercise": 6146,
      "pher": 6147,
      "PauliString": 6148,
      "Ġera": 6149,
      "Ġsettings": 6150,
      "Ġmultiply": 6151,
      "Ġpseud": 6152,
      "Ġconfined": 6153,
      "ĠFlu": 6154,
      "Ġsomehow": 6155,
      "Ġgenerates": 6156,
      "Ġachieves": 6157,
      "Ġradar": 6158,
      "Ġneutrons": 6159,
      "Ġconsequence": 6160,
      "doc": 6161,
      "uzz": 6162,
      "erl": 6163,
      "itor": 6164,
      "Ġecos": 6165,
      "Ġnielsen": 6166,
      "ilos": 6167,
      "Ġrecover": 6168,
      "olarization": 6169,
      "âĤĢ": 6170,
      "ĠPrecise": 6171,
      "Ġcancellation": 6172,
      "weight": 6173,
      "Ġdegeneracy": 6174,
      "Ġratio": 6175,
      "AT": 6176,
      "Ġ--------------------------------": 6177,
      "Ġquot": 6178,
      "etical": 6179,
      "urning": 6180,
      "chuang": 6181,
      "matching": 6182,
      "âŁ©)": 6183,
      "Ġbelieved": 6184,
      "Ġsituation": 6185,
      "Ġaux": 6186,
      "oltzmann": 6187,
      "Ġhaven": 6188,
      "runtime": 6189,
      "Ġsin": 6190,
      "Ġbrief": 6191,
      "Ġ$+": 6192,
      "ĠCry": 6193,
      "Ġinstances": 6194,
      "Ġloops": 6195,
      "Ġequivalence": 6196,
      "Ġexplanations": 6197,
      "ĠSimulating": 6198,
      "ĠStep": 6199,
      "Ġcaptures": 6200,
      "ĠRigetti": 6201,
      "ze": 6202,
      "Ġwalks": 6203,
      "ĠSystem": 6204,
      "Ġvast": 6205,
      "Ġmodify": 6206,
      "Ġï¬ģn": 6207,
      "isualization": 6208,
      "Ġmillion": 6209,
      "Ġredund": 6210,
      "]])": 6211,
      "ĠÃ": 6212,
      "ĠAb": 6213,
      "unately": 6214,
      "Ġlect": 6215,
      "ĠRem": 6216,
      "ĠLag": 6217,
      "Ġunitarity": 6218,
      "Ġtransmitted": 6219,
      "Ġderive": 6220,
      "ĠDEPOLARIZE": 6221,
      "Ġdigital": 6222,
      "Ġconvex": 6223,
      "Ġintrinsic": 6224,
      "ilosoph": 6225,
      "Un": 6226,
      "more": 6227,
      "Ġwait": 6228,
      "Ġcomposed": 6229,
      "Ġdeploy": 6230,
      "Ġplane": 6231,
      "ĠÏĢ": 6232,
      "88": 6233,
      "Vert": 6234,
      "ĠDepend": 6235,
      "ĠAerSimulator": 6236,
      "CHA": 6237,
      "ĠPennyLane": 6238,
      "AND": 6239,
      "SE": 6240,
      "ĠIons": 6241,
      "Ġproceed": 6242,
      "Ġexperi": 6243,
      "Ġcomputes": 6244,
      "Ġagree": 6245,
      "AULI": 6246,
      "Ġalter": 6247,
      "ession": 6248,
      "ĠMe": 6249,
      "ipole": 6250,
      "Ġidentified": 6251,
      "Ġgeneralized": 6252,
      "ĠWeak": 6253,
      "Ġbounded": 6254,
      "Ġoccurred": 6255,
      "Ġassert": 6256,
      "ĠQMA": 6257,
      "Ġexcel": 6258,
      "Ġnuclei": 6259,
      "NNEL": 6260,
      "CHANNEL": 6261,
      "^+": 6262,
      "Ġï¬Ĥ": 6263,
      "Ġste": 6264,
      "Ġfrequent": 6265,
      "annon": 6266,
      "ĠCommunication": 6267,
      "itutions": 6268,
      "env": 6269,
      "Ġ($": 6270,
      "ĠWikipedia": 6271,
      "Ġmeant": 6272,
      "Ġobey": 6273,
      "Ġ42": 6274,
      "Ġcertainly": 6275,
      "Ġindicate": 6276,
      "Ġcolumns": 6277,
      "Ġpreserving": 6278,
      "Ġsusceptible": 6279,
      "hist": 6280,
      "anges": 6281,
      "ĠTherm": 6282,
      "ĠPur": 6283,
      "Ġstrongly": 6284,
      "Ġsyndromes": 6285,
      "ĠCooling": 6286,
      "providers": 6287,
      "Ġchecking": 6288,
      "37": 6289,
      "Ġlibraries": 6290,
      "Ġprimit": 6291,
      "ĠStrong": 6292,
      "Ġassumed": 6293,
      "shot": 6294,
      "ĠCreate": 6295,
      "ĠNumber": 6296,
      "ICK": 6297,
      "ierarchy": 6298,
      "Cut": 6299,
      "{-": 6300,
      "representation": 6301,
      "umer": 6302,
      "ĠBl": 6303,
      "ractable": 6304,
      "([[": 6305,
      "Ġexhibits": 6306,
      "barrier": 6307,
      "Ġvice": 6308,
      "Ġshor": 6309,
      "Ġket": 6310,
      "Ġrelates": 6311,
      "Ġregime": 6312,
      "Ġstarts": 6313,
      "Ġintroducing": 6314,
      "Ġsimplest": 6315,
      "Ġoffering": 6316,
      "Ġdecreases": 6317,
      "(),": 6318,
      "ging": 6319,
      "sphere": 6320,
      "}]": 6321,
      "}.$$": 6322,
      "Ġcomments": 6323,
      "ĠHel": 6324,
      "Ġsound": 6325,
      "pectation": 6326,
      "Ġelimin": 6327,
      "Ġtracking": 6328,
      "2023": 6329,
      "COOR": 6330,
      "Ġforward": 6331,
      "ĠPres": 6332,
      "ĠNear": 6333,
      "Ġintercept": 6334,
      "ielding": 6335,
      "parse": 6336,
      "ĠâĨĴ": 6337,
      "Ġconnecting": 6338,
      "ĠDifferences": 6339,
      "Ġattempts": 6340,
      "ĠCalibration": 6341,
      "Ġoutlining": 6342,
      "Ġproperly": 6343,
      "COORDS": 6344,
      "ww": 6345,
      "itter": 6346,
      "Ġ$\\{\\": 6347,
      "Ġouter": 6348,
      "Ġwhereas": 6349,
      "Ġprediction": 6350,
      "Ġgrowing": 6351,
      "Ġpiec": 6352,
      "ĠCollapse": 6353,
      "Ġsubsequent": 6354,
      "âĬĹ": 6355,
      "Ġpip": 6356,
      "structure": 6357,
      "Ġlose": 6358,
      "Ġtruth": 6359,
      "ĠOR": 6360,
      "Ġplas": 6361,
      "âķ«": 6362,
      "tolerance": 6363,
      "Ġ-->": 6364,
      "Ġautomatically": 6365,
      "plotlib": 6366,
      "ĠQUBO": 6367,
      "ugging": 6368,
      "using": 6369,
      "urations": 6370,
      "ĠSDK": 6371,
      "Ġ25": 6372,
      "Ġdiscr": 6373,
      "Ġassumes": 6374,
      "Ġordering": 6375,
      "Ġrotate": 6376,
      "Ġdrives": 6377,
      "ĠEstimation": 6378,
      "Ġnanos": 6379,
      "ĠAccording": 6380,
      "ĠRepe": 6381,
      "Ġreaction": 6382,
      "ĠCould": 6383,
      "versible": 6384,
      "plicity": 6385,
      "Ġknowing": 6386,
      "Ġcommutation": 6387,
      "ĠAltern": 6388,
      "Ġcombining": 6389,
      "ĠÏĨ": 6390,
      "Ġfamiliar": 6391,
      "Ġitems": 6392,
      "Ġnumerical": 6393,
      ">,": 6394,
      "inent": 6395,
      "Ġmixt": 6396,
      "Ġreactions": 6397,
      "ĠSum": 6398,
      "Ġsuf": 6399,
      "ĠPAULI": 6400,
      "params": 6401,
      "ĠJohn": 6402,
      "Ġsampler": 6403,
      "Ġâī¡": 6404,
      "transform": 6405,
      "Ġdecoders": 6406,
      "Ġbeginning": 6407,
      "ĠAccur": 6408,
      "Ġflipping": 6409,
      "certain": 6410,
      "gment": 6411,
      "Î»": 6412,
      "orough": 6413,
      "ĠTICK": 6414,
      "ĠSqu": 6415,
      "ĠFollow": 6416,
      "Ġproves": 6417,
      "Ġsmallest": 6418,
      "Ġsimultaneous": 6419,
      "ĠObserv": 6420,
      ",-": 6421,
      "Boh": 6422,
      "eff": 6423,
      "Ġ\\|": 6424,
      "ĠParticle": 6425,
      "Ġcha": 6426,
      "ĠCNOTs": 6427,
      "Ġboundaries": 6428,
      "9999": 6429,
      "ovay": 6430,
      "ĠDevelopment": 6431,
      "ĠSecurity": 6432,
      "Ġrigor": 6433,
      ".\\": 6434,
      "Ġhyper": 6435,
      "ĠImport": 6436,
      "Ġdirections": 6437,
      "Ġavoids": 6438,
      "Ġopportunities": 6439,
      "Ġdiverse": 6440,
      "Ġtor": 6441,
      "Ġquote": 6442,
      "eline": 6443,
      "ectors": 6444,
      "avy": 6445,
      "Ġindices": 6446,
      "Ġconceptual": 6447,
      "Ġmathematics": 6448,
      "Ġminimizes": 6449,
      "Ġengineers": 6450,
      "ottesman": 6451,
      "Ġemerge": 6452,
      "Ġgrows": 6453,
      "30": 6454,
      "chron": 6455,
      "textrm": 6456,
      "ĠEdit": 6457,
      "preserving": 6458,
      "Ġfinance": 6459,
      "Ġachievable": 6460,
      "Ġindustries": 6461,
      "Matrix": 6462,
      "oelectric": 6463,
      "{(": 6464,
      "Ġcame": 6465,
      "than": 6466,
      "Ġancillas": 6467,
      "Ġabsence": 6468,
      "Ġprepares": 6469,
      "91": 6470,
      "stein": 6471,
      "âĶĺ": 6472,
      "ĠMet": 6473,
      "Ġacadem": 6474,
      "Ġminimizing": 6475,
      "Ġimpacts": 6476,
      "ĠApproach": 6477,
      "design": 6478,
      "ĠProbability": 6479,
      "Ġapparatus": 6480,
      "ĠSignific": 6481,
      "Ġlandscape": 6482,
      "such": 6483,
      "Ġ${\\": 6484,
      "ĠCrit": 6485,
      "Ġdealing": 6486,
      "ĠUnitary": 6487,
      "imulated": 6488,
      "ecker": 6489,
      "Ġrecommend": 6490,
      "sc": 6491,
      "eness": 6492,
      "entropy": 6493,
      "ĠSilicon": 6494,
      "ĠEv": 6495,
      "Ġcorner": 6496,
      "ube": 6497,
      "Ġadvancements": 6498,
      "blad": 6499,
      "ĠCarlo": 6500,
      "âģ": 6501,
      "ercial": 6502,
      "ĠAc": 6503,
      "urd": 6504,
      "ĠAnt": 6505,
      "Ġcommuting": 6506,
      "Ġconstit": 6507,
      "paration": 6508,
      "Ġintractable": 6509,
      "Ġdynamic": 6510,
      "Ġmanipulating": 6511,
      "Ġibmq": 6512,
      "ani": 6513,
      "iness": 6514,
      "Ġcategor": 6515,
      "ĠClear": 6516,
      "Ġdifferential": 6517,
      "indblad": 6518,
      "Ġdecision": 6519,
      "Ġinstitutions": 6520,
      ")-": 6521,
      "For": 6522,
      "github": 6523,
      "Ġbody": 6524,
      "ĠMRI": 6525,
      "Ġrenormalization": 6526,
      "ithmetic": 6527,
      "ï¬ģne": 6528,
      "Ġconcaten": 6529,
      "Ġdimensional": 6530,
      "Ġâī¥": 6531,
      "Ġflipped": 6532,
      "ĠMonte": 6533,
      "rangian": 6534,
      ")^{\\": 6535,
      "ts": 6536,
      "Ġever": 6537,
      "ĠPos": 6538,
      "ĠLat": 6539,
      "Ġshall": 6540,
      "Ġspectroscopy": 6541,
      "Ġcontinuously": 6542,
      "Ġsuited": 6543,
      "Ġabsorb": 6544,
      "negative": 6545,
      "Bohm": 6546,
      "]),": 6547,
      "ees": 6548,
      "ounter": 6549,
      "Ġbond": 6550,
      "omal": 6551,
      "amore": 6552,
      "ĠSU": 6553,
      "Ġcool": 6554,
      "ĠNature": 6555,
      "Ġdistant": 6556,
      "comb": 6557,
      "ĠPOVMs": 6558,
      "Ġimaginary": 6559,
      "Ġtempor": 6560,
      "case": 6561,
      "Ġfac": 6562,
      "channel": 6563,
      "Ġdifferenti": 6564,
      "llent": 6565,
      "Ġreasons": 6566,
      "Ġsatisfying": 6567,
      "Ġweights": 6568,
      "mooth": 6569,
      "pa": 6570,
      "sign": 6571,
      "quality": 6572,
      "Ġface": 6573,
      "Ġbloch": 6574,
      "Ġstrict": 6575,
      "irror": 6576,
      "ades": 6577,
      "Ġvulner": 6578,
      "Ġaddresses": 6579,
      "Ġextended": 6580,
      "Ġvertical": 6581,
      "vergence": 6582,
      "Ġvoltage": 6583,
      "ĠLagrangian": 6584,
      "&&": 6585,
      "If": 6586,
      "imal": 6587,
      "Ġ1000": 6588,
      "Ġcollisions": 6589,
      "command": 6590,
      "Ġ$\\{|": 6591,
      "Ġoutlined": 6592,
      "CD": 6593,
      "HT": 6594,
      "^-": 6595,
      "Ġ\\[": 6596,
      "elow": 6597,
      "}\\,": 6598,
      "Ġaren": 6599,
      "Ġextens": 6600,
      "prod": 6601,
      "âĶĢâĶ¤": 6602,
      "ĠEntangled": 6603,
      "Ġspectra": 6604,
      "Ġnearest": 6605,
      "Ġcomposition": 6606,
      "ĠEstimator": 6607,
      "PC": 6608,
      "meas": 6609,
      "sol": 6610,
      "||": 6611,
      "erting": 6612,
      "ĠChem": 6613,
      "ĠRam": 6614,
      "ĠGrav": 6615,
      "Ġsolves": 6616,
      "ĠXOR": 6617,
      "pread": 6618,
      "Ġrandomized": 6619,
      "uclear": 6620,
      "Ġcharacterize": 6621,
      "ĠInterference": 6622,
      "Ġarguments": 6623,
      "ycamore": 6624,
      "Ġorbitals": 6625,
      "Ġgradu": 6626,
      "brace": 6627,
      "Ġtech": 6628,
      "Ġaver": 6629,
      "Ġentry": 6630,
      "Ġcommunity": 6631,
      "Ġfluores": 6632,
      "Ġantic": 6633,
      "Ġmodulo": 6634,
      "$?": 6635,
      "43": 6636,
      "Ġthorough": 6637,
      "Ġenumer": 6638,
      "Ġleaves": 6639,
      "upy": 6640,
      "Ġunits": 6641,
      ")/\\": 6642,
      "ĠNeutral": 6643,
      "Ġtweezers": 6644,
      "gu": 6645,
      "Ġfit": 6646,
      "account": 6647,
      "Ġconver": 6648,
      "veloc": 6649,
      "Ġheld": 6650,
      "Ġconfusion": 6651,
      "results": 6652,
      "Ġsemi": 6653,
      "ĠOpenQASM": 6654,
      "ĠMaxCut": 6655,
      "ET": 6656,
      "ĠRF": 6657,
      "Ġseparation": 6658,
      "Ġindividually": 6659,
      "Ġserve": 6660,
      "Ġconsequences": 6661,
      "De": 6662,
      "SU": 6663,
      "ext": 6664,
      "wires": 6665,
      "entz": 6666,
      "Ġongoing": 6667,
      "Ġ|+": 6668,
      "ĠDynam": 6669,
      "ĠRad": 6670,
      "ĠLor": 6671,
      "Ġsending": 6672,
      "Ġbenchmarks": 6673,
      "electron": 6674,
      "ĠPaulis": 6675,
      "del": 6676,
      "esian": 6677,
      "ĠSe": 6678,
      "1111": 6679,
      "Ġconverts": 6680,
      "EM": 6681,
      "ites": 6682,
      "Ġdivid": 6683,
      "arge": 6684,
      "Ġhadamard": 6685,
      "riptions": 6686,
      "Ġlargest": 6687,
      "ĠDev": 6688,
      "Ġaffected": 6689,
      "Ġclosely": 6690,
      "Ġpropagate": 6691,
      "Ġupdate": 6692,
      "ÌĤ": 6693,
      "Ġveloc": 6694,
      "Ġlab": 6695,
      "ĠEar": 6696,
      "Ġtrig": 6697,
      "dust": 6698,
      "Ġadder": 6699,
      "ĠLindblad": 6700,
      "Ġsymbol": 6701,
      "observ": 6702,
      "upyter": 6703,
      "^+\\": 6704,
      "two": 6705,
      "ÎĶ": 6706,
      "ery": 6707,
      "Ġconversion": 6708,
      "estim": 6709,
      "Ġgeneric": 6710,
      "Ġretrie": 6711,
      "Ġintuitive": 6712,
      "ĠActive": 6713,
      "ĠLorentz": 6714,
      "Hz": 6715,
      "QM": 6716,
      "Î½": 6717,
      "Ġaware": 6718,
      "ented": 6719,
      "Ġeigens": 6720,
      "ĠWork": 6721,
      "ciate": 6722,
      "Ġpotentials": 6723,
      "Ġinitialized": 6724,
      "Ġdesigning": 6725,
      "Ġsurgery": 6726,
      "ĠErrors": 6727,
      "Ġprocedures": 6728,
      "Ġlocations": 6729,
      "box": 6730,
      "dynamics": 6731,
      "Î¦": 6732,
      "ingly": 6733,
      "Ġwidth": 6734,
      "ĠAtt": 6735,
      "Ġgen": 6736,
      "Ġgame": 6737,
      "Ġphilosoph": 6738,
      "ĠFidelity": 6739,
      "ĠNew": 6740,
      "Ġancillary": 6741,
      "Ġconclude": 6742,
      "ĠCharacter": 6743,
      "Ġplateaus": 6744,
      "&=\\": 6745,
      "47": 6746,
      "Ġdual": 6747,
      "Ġcompens": 6748,
      "ids": 6749,
      "place": 6750,
      "plification": 6751,
      "Ġasymptotic": 6752,
      "Ġorient": 6753,
      "Ġ21": 6754,
      "Ġnovel": 6755,
      "ĠUl": 6756,
      "Ġcharacteristic": 6757,
      "ĠAdv": 6758,
      "Ġmeaningful": 6759,
      "Ġreliability": 6760,
      "Ġexcellent": 6761,
      "Ġvertices": 6762,
      "87": 6763,
      "Aer": 6764,
      "Mod": 6765,
      "VQE": 6766,
      "[:": 6767,
      "Ġmid": 6768,
      "ĠBre": 6769,
      "ometer": 6770,
      "Ġmetal": 6771,
      "idespread": 6772,
      "Ġbroke": 6773,
      "Ġpreserves": 6774,
      "Ġcosmology": 6775,
      "simulation": 6776,
      "even": 6777,
      "norm": 6778,
      "Â·": 6779,
      "irani": 6780,
      "ĠBal": 6781,
      "Ġequilibrium": 6782,
      "Ġ[]": 6783,
      "ĠCheck": 6784,
      "operators": 6785,
      "Ġmaximize": 6786,
      "Ġstudied": 6787,
      "azirani": 6788,
      "Ġquasiparticles": 6789,
      "newcommand": 6790,
      "Ġplasmas": 6791,
      "atex": 6792,
      "aconda": 6793,
      "Ġcompact": 6794,
      "Ġchoosing": 6795,
      "Ġlatter": 6796,
      "Ġintroduction": 6797,
      "Ġreferred": 6798,
      "^^^^": 6799,
      "ĠQUBIT": 6800,
      "correcting": 6801,
      "ĠReadout": 6802,
      "Ġecosystem": 6803,
      "Ġfill": 6804,
      "play": 6805,
      "Ġord": 6806,
      "Ġ200": 6807,
      "ĠLight": 6808,
      "sibility": 6809,
      "ĠExercise": 6810,
      "theor": 6811,
      "ĠShannon": 6812,
      "Ġseconds": 6813,
      "Ġrespective": 6814,
      "Ġclaimed": 6815,
      "Ġpopular": 6816,
      "Ġconvenient": 6817,
      "ocal": 6818,
      "tion": 6819,
      "stone": 6820,
      "Ġdeal": 6821,
      "errors": 6822,
      "cont": 6823,
      "ervice": 6824,
      "Ġhighest": 6825,
      "Ġencounter": 6826,
      "Ġsupposed": 6827,
      "Ġcollapsing": 6828,
      "Ġanalyt": 6829,
      "ĠMechanism": 6830,
      "Ġaccelerate": 6831,
      "Ġdegenerate": 6832,
      "Ġcells": 6833,
      "BC": 6834,
      "ug": 6835,
      "|+": 6836,
      "Ġdilution": 6837,
      "Ġstatic": 6838,
      "Ġhierarchy": 6839,
      "urs": 6840,
      "ĠHam": 6841,
      ").$$": 6842,
      "ĠUncertain": 6843,
      "Ġaffecting": 6844,
      "Ġamplify": 6845,
      "bly": 6846,
      "vdots": 6847,
      "Ġ22": 6848,
      "ĠGPU": 6849,
      "ĠOrac": 6850,
      "Ġversa": 6851,
      "Ġattractive": 6852,
      "Ġclaims": 6853,
      "Ġcovered": 6854,
      "=|\\": 6855,
      "ms": 6856,
      "ĠCas": 6857,
      "tex": 6858,
      "Ġtrust": 6859,
      "Ġleave": 6860,
      "look": 6861,
      "Ġcharged": 6862,
      "clus": 6863,
      "Ġsubsystems": 6864,
      "ĠâĪ«": 6865,
      "Ġpassing": 6866,
      "cence": 6867,
      "cons": 6868,
      "Ġduration": 6869,
      "Ġspher": 6870,
      "ends": 6871,
      "Ġoutperform": 6872,
      "Ġfrequently": 6873,
      "Ġproduction": 6874,
      "Ġanneal": 6875,
      "Ġpublish": 6876,
      "LS": 6877,
      "Ġmaster": 6878,
      "utt": 6879,
      "Ġcompilers": 6880,
      "ured": 6881,
      "itional": 6882,
      "ĠIndust": 6883,
      "Ġmodule": 6884,
      "ĠâĢł": 6885,
      "Ġfractional": 6886,
      "ĠÂ·": 6887,
      "ĠCryptography": 6888,
      "49": 6889,
      "hand": 6890,
      "onance": 6891,
      "Ġfund": 6892,
      "ĠFalse": 6893,
      "ĠImagine": 6894,
      "Ġproduced": 6895,
      "Ġformulas": 6896,
      "Ġslower": 6897,
      "Ġï¬ģeld": 6898,
      "Ġderivation": 6899,
      "Ġflows": 6900,
      "Ġcondensed": 6901,
      "Ġgoverned": 6902,
      "Ġvarying": 6903,
      "Ġtalking": 6904,
      "36": 6905,
      "ior": 6906,
      "ky": 6907,
      "ĥĹ": 6908,
      "Ġtheta": 6909,
      "Ġinversion": 6910,
      "ĠPart": 6911,
      "Ġnotice": 6912,
      "Ġformal": 6913,
      "oney": 6914,
      "Ġcharacterizes": 6915,
      "Ġlooked": 6916,
      "ĠDiff": 6917,
      "Ġadvances": 6918,
      "Ġrows": 6919,
      "ĠSolovay": 6920,
      "ĠQuantization": 6921,
      "Ġpreferred": 6922,
      "Ġmutual": 6923,
      "ĠBoolean": 6924,
      "AR": 6925,
      "sv": 6926,
      "args": 6927,
      "Ġmeasur": 6928,
      "swap": 6929,
      "ĠDav": 6930,
      "Ġexplores": 6931,
      "Ġgeneralization": 6932,
      "computers": 6933,
      "Ġdictates": 6934,
      "========": 6935,
      "Ġphonons": 6936,
      "histogram": 6937,
      "707": 6938,
      "well": 6939,
      "Ġmoves": 6940,
      "ĠZX": 6941,
      "leportation": 6942,
      "Ġverified": 6943,
      "Ġsymmetries": 6944,
      "Ġdestroys": 6945,
      "ĠCreating": 6946,
      "ĠAutom": 6947,
      "Ġlecture": 6948,
      "BS": 6949,
      "Ġpropos": 6950,
      "Ġdescriptions": 6951,
      "}}(\\": 6952,
      "Ġseparately": 6953,
      "Ġblue": 6954,
      "Ġinfluenced": 6955,
      "Ġderivative": 6956,
      "Ġmessages": 6957,
      "Ġcollective": 6958,
      "Ġmitigate": 6959,
      "mic": 6960,
      "squ": 6961,
      "vacancy": 6962,
      "zure": 6963,
      "ĠQR": 6964,
      "acle": 6965,
      "ĠGottesman": 6966,
      "}}{\\": 6967,
      "Ġclassification": 6968,
      "arkov": 6969,
      "Ġdiscussing": 6970,
      "ĠOperators": 6971,
      "Ġnotebook": 6972,
      "Ġaxes": 6973,
      "Ġeventually": 6974,
      "Ġworst": 6975,
      "Ġstabilis": 6976,
      "entangled": 6977,
      "Operator": 6978,
      "&=": 6979,
      "ded": 6980,
      "pal": 6981,
      "Î¼": 6982,
      "Ġfalse": 6983,
      "ĠSpace": 6984,
      "Ġspe": 6985,
      "ĠBased": 6986,
      "Ġdiscord": 6987,
      "ĠEnh": 6988,
      "Ġloophole": 6989,
      "Ġadjacent": 6990,
      "Knill": 6991,
      "cap": 6992,
      "Ġthroughout": 6993,
      "ĠSolution": 6994,
      "Ġweb": 6995,
      "Ġinterval": 6996,
      "ĠâĬķ": 6997,
      "Ġdiscard": 6998,
      "exist": 6999,
      "Ġlogistics": 7000,
      "erminism": 7001,
      "âķĲâķĲâķĲâķĲâķĲâķĲâķĲâķĲâķĲâķĲâķĲâķĲâķĲâķĲâķĲâķĲ": 7002,
      "ĠScience": 7003,
      "har": 7004,
      "ats": 7005,
      "Ġunpre": 7006,
      "...,": 7007,
      "ĠSuch": 7008,
      "Ġuniversality": 7009,
      "ordan": 7010,
      "Ġintegrals": 7011,
      "ickback": 7012,
      "Ġsimplified": 7013,
      "Ġmanipulated": 7014,
      "Ġpasses": 7015,
      "ĠCircuits": 7016,
      "anned": 7017,
      "ĠElectrons": 7018,
      "ĠChallenge": 7019,
      "Ġguarantee": 7020,
      "fortunately": 7021,
      "ĠBasic": 7022,
      ":=": 7023,
      "False": 7024,
      "asure": 7025,
      "ĠCorrel": 7026,
      "ems": 7027,
      "ĠAng": 7028,
      "Ġarithmetic": 7029,
      "Ġ:=": 7030,
      "Ġpropagator": 7031,
      "Ġguarantees": 7032,
      "ĠBefore": 7033,
      "Ġshapes": 7034,
      "omorphism": 7035,
      "aware": 7036,
      "hl": 7037,
      "synthesis": 7038,
      "ĠTemperature": 7039,
      "ĠCodes": 7040,
      "ĠFock": 7041,
      "Ġ|+\\": 7042,
      "Ġdecades": 7043,
      "Ġformed": 7044,
      "Ġfocuses": 7045,
      "Ġsimilarly": 7046,
      "Ġneutron": 7047,
      "depth": 7048,
      "visualization": 7049,
      "Ġbus": 7050,
      "abi": 7051,
      "Ġclassic": 7052,
      "Ġembedding": 7053,
      "ĠUncertainty": 7054,
      "Ġflo": 7055,
      "Ġfeas": 7056,
      "ched": 7057,
      "ĠEvery": 7058,
      "Ġlimiting": 7059,
      "ĠExperience": 7060,
      "Ġcertainty": 7061,
      "Ġsquared": 7062,
      "Ġcounterpart": 7063,
      "Ġcommutator": 7064,
      "dits": 7065,
      "}[\\": 7066,
      "Ġvaries": 7067,
      "roduction": 7068,
      "Ġhandling": 7069,
      "Ġgraphs": 7070,
      "Ġcourses": 7071,
      "probability": 7072,
      "Ġdivide": 7073,
      "Ġcandidates": 7074,
      "integer": 7075,
      "++": 7076,
      "tices": 7077,
      "Ġbad": 7078,
      "ĠQZE": 7079,
      "Ġtail": 7080,
      "Ġspeeds": 7081,
      "computation": 7082,
      "Ġsemiconductors": 7083,
      "Ġunsorted": 7084,
      "ĠBraket": 7085,
      "Ġliterature": 7086,
      "!!": 7087,
      "92": 7088,
      "Ġmem": 7089,
      "atever": 7090,
      "Ġ\\;": 7091,
      "ĠFact": 7092,
      "Ġstartups": 7093,
      "ramework": 7094,
      "Ġmicros": 7095,
      "Ġtuning": 7096,
      "85": 7097,
      "Ġword": 7098,
      "ĠAg": 7099,
      "Ġgave": 7100,
      "ĠBetter": 7101,
      "Ġcommercial": 7102,
      "Ġintended": 7103,
      "Ġdependent": 7104,
      "Ġestimator": 7105,
      "Ġsuccessful": 7106,
      "Ġtwice": 7107,
      "Ġsufficiently": 7108,
      "Ġreceiver": 7109,
      "also": 7110,
      "arse": 7111,
      "iggs": 7112,
      "Ġcanonical": 7113,
      "active": 7114,
      "âŁ©)/": 7115,
      "ucing": 7116,
      "Ġprotons": 7117,
      "Ġbuilds": 7118,
      "ĠCompanies": 7119,
      "Ġtableau": 7120,
      "diagonal": 7121,
      "Ġcycl": 7122,
      "typ": 7123,
      "Ġmil": 7124,
      "Ġlen": 7125,
      "ĠBelow": 7126,
      "idefinite": 7127,
      "Ġfunctionality": 7128,
      "Ġsurpr": 7129,
      "Ġpurely": 7130,
      "Ġrecall": 7131,
      ")(|": 7132,
      "1000": 7133,
      "joint": 7134,
      "temperature": 7135,
      "ĠSmall": 7136,
      "Ġvan": 7137,
      "Ġproofs": 7138,
      "Ġvisualize": 7139,
      "Ġsqueezed": 7140,
      "particles": 7141,
      "Ġqudit": 7142,
      "ĠIde": 7143,
      "Ġ27": 7144,
      "Ġfinally": 7145,
      "Ġdriving": 7146,
      "ĠAnalysis": 7147,
      "Ġvelocity": 7148,
      "Ġpilot": 7149,
      "imir": 7150,
      "romagnet": 7151,
      "atorial": 7152,
      "duced": 7153,
      "ront": 7154,
      "âĢ¢": 7155,
      "ĠZero": 7156,
      "product": 7157,
      "Ġoperational": 7158,
      "Ġsubspaces": 7159,
      "Ġseparating": 7160,
      "Ġcontinues": 7161,
      "Ġportfolio": 7162,
      "Ġphysicists": 7163,
      "/âĪļ": 7164,
      "_+": 7165,
      "option": 7166,
      "Ġmere": 7167,
      "Ġdipole": 7168,
      "ifiers": 7169,
      "ĠHiggs": 7170,
      "ĠEigen": 7171,
      "Ġsystematic": 7172,
      "Ġproved": 7173,
      "Ġlatency": 7174,
      "Ġrelationships": 7175,
      "Ġnamely": 7176,
      "Ġpropagation": 7177,
      "Ġhistory": 7178,
      "ĠApproximate": 7179,
      "40": 7180,
      "ios": 7181,
      "rec": 7182,
      "Ġimages": 7183,
      "ĠMWI": 7184,
      "Ġkit": 7185,
      "ĠSoftware": 7186,
      "APT": 7187,
      "ĠâīĪ": 7188,
      "Ġuniformly": 7189,
      "Ġjunctions": 7190,
      "Supp": 7191,
      "Ġmixture": 7192,
      "section": 7193,
      "ana": 7194,
      "Ġsave": 7195,
      "Ġreport": 7196,
      "Ġcopi": 7197,
      "hood": 7198,
      "ĠGPS": 7199,
      "ĠVon": 7200,
      "Ġâĸ": 7201,
      "ĠConcept": 7202,
      "Ġoccurr": 7203,
      "redkin": 7204,
      "Ġmodules": 7205,
      "Ġmultiplying": 7206,
      "Ġrevolutionize": 7207,
      "Ġindistinguishable": 7208,
      "ĠReducing": 7209,
      "ĠCasimir": 7210,
      "ID": 7211,
      "onent": 7212,
      "onents": 7213,
      "iseless": 7214,
      "acc": 7215,
      "ĠSampler": 7216,
      "forall": 7217,
      "ĠFinding": 7218,
      "Ġrise": 7219,
      "âŁ©$": 7220,
      "iparticle": 7221,
      ",\\,\\": 7222,
      "ĠManaging": 7223,
      "Ġdestructive": 7224,
      "Ġsuccessfully": 7225,
      "Ġinstantaneous": 7226,
      "Ġloading": 7227,
      "ĠValue": 7228,
      "Re": 7229,
      "Vector": 7230,
      "logical": 7231,
      "rank": 7232,
      "second": 7233,
      "Ġmirror": 7234,
      "arning": 7235,
      "oder": 7236,
      "Ġvide": 7237,
      "ĠEu": 7238,
      "Ġnoted": 7239,
      "Ġmatches": 7240,
      "Ġspecifying": 7241,
      "Ġwouldn": 7242,
      "Ġbitstring": 7243,
      ")))": 7244,
      "Ġrecord": 7245,
      "Ġmedium": 7246,
      "device": 7247,
      "Ġnamed": 7248,
      "Ġemployed": 7249,
      "Ġextrapolation": 7250,
      "AG": 7251,
      "mer": 7252,
      "Ġcert": 7253,
      "Ġsite": 7254,
      "ections": 7255,
      "ĠGR": 7256,
      "Ġsuperdense": 7257,
      "Ġmodified": 7258,
      "luding": 7259,
      "Ġ35": 7260,
      "],[": 7261,
      "notation": 7262,
      "âĶĢâĶĢâĶĢâĶĢâĶĢâĶĢâĶĢâĶĢâĶĢâĶĢ": 7263,
      "Ġsupported": 7264,
      "Ġdebugging": 7265,
      "offs": 7266,
      "Res": 7267,
      "dif": 7268,
      "ii": 7269,
      "ĠSycamore": 7270,
      "chmark": 7271,
      "Ġoutline": 7272,
      "Ġincident": 7273,
      "Ġthousand": 7274,
      "Ġhypothesis": 7275,
      "aoa": 7276,
      "ĠFollowing": 7277,
      "():": 7278,
      "iest": 7279,
      "nature": 7280,
      "|+|": 7281,
      "init": 7282,
      "Ġfav": 7283,
      "imately": 7284,
      "ĠCost": 7285,
      "udget": 7286,
      "Ġwants": 7287,
      "ĠEnvironment": 7288,
      "Ġcareer": 7289,
      "Inst": 7290,
      "Ġraise": 7291,
      "Ġtranslates": 7292,
      "Ġexpressions": 7293,
      "Ġconjug": 7294,
      "Ġremoved": 7295,
      "Ġtrajectories": 7296,
      ")(\\": 7297,
      "Ferm": 7298,
      "OB": 7299,
      "sx": 7300,
      "omb": 7301,
      "eli": 7302,
      "ĠSay": 7303,
      "index": 7304,
      "Ġspecies": 7305,
      "Ġaccom": 7306,
      "Ġapproximations": 7307,
      "Ġinsert": 7308,
      "Ġprominent": 7309,
      "ĠSpecific": 7310,
      "Ġtranslate": 7311,
      "Ġdeï¬ģned": 7312,
      "Ġrewrite": 7313,
      "transpiler": 7314,
      "Ġcopied": 7315,
      "Ġefï¬ģci": 7316,
      "Ġsuperfluidity": 7317,
      "initialize": 7318,
      "ĠBoson": 7319,
      "Ġmanufacturing": 7320,
      "Ġdevelopers": 7321,
      "Ġeavesdropper": 7322,
      "Ġsubroutine": 7323,
      "rate": 7324,
      "Ġsmooth": 7325,
      "Ġpus": 7326,
      "Ġstack": 7327,
      "Ġ\\(\\": 7328,
      "Ġrecon": 7329,
      "Ġresistant": 7330,
      "^{-\\": 7331,
      "Ġcodew": 7332,
      "Ġevapor": 7333,
      "Ġoptimizes": 7334,
      "perturb": 7335,
      "Ġradio": 7336,
      "Ġpossibly": 7337,
      "enhanced": 7338,
      "Ġnames": 7339,
      "Ġisolated": 7340,
      "ĠThermal": 7341,
      "Im": 7342,
      "Pr": 7343,
      "normal": 7344,
      "orthogonal": 7345,
      "ĠSw": 7346,
      "ading": 7347,
      "Ġrequest": 7348,
      "ĠÏī": 7349,
      "ernstein": 7350,
      "Ġelectricity": 7351,
      "Ġentangles": 7352,
      "Ġhistor": 7353,
      "Ġperturbations": 7354,
      "Ġbottlen": 7355,
      "Ġbulk": 7356,
      "Ġapplicable": 7357,
      "Ġdissipation": 7358,
      "$-": 7359,
      "201": 7360,
      "non": 7361,
      "Ġbands": 7362,
      "Ġpartially": 7363,
      "ĠUCC": 7364,
      "Ġexplor": 7365,
      "Ġparametric": 7366,
      "Ġidentifies": 7367,
      "flation": 7368,
      "Ġsquar": 7369,
      "Ġcontinued": 7370,
      "âĤĻ": 7371,
      "ĠFermions": 7372,
      "Ġbias": 7373,
      "It": 7374,
      "ered": 7375,
      "ream": 7376,
      "Ġexotic": 7377,
      "ĠSQ": 7378,
      "Ġpartition": 7379,
      "Ġrecently": 7380,
      "Ġvalidation": 7381,
      "Ġsuggested": 7382,
      "ĠSpeed": 7383,
      "########": 7384,
      "ĠMaintaining": 7385,
      "decompose": 7386,
      "Suppose": 7387,
      "'}": 7388,
      "yi": 7389,
      "Ġfusion": 7390,
      "Ġclifford": 7391,
      "ĠGet": 7392,
      "Ġfunctional": 7393,
      "Ġcommand": 7394,
      "Ġdisadvantages": 7395,
      "....": 7396,
      "}_\\": 7397,
      "ĠÎ³": 7398,
      "Ġdiffers": 7399,
      "Ġdemonstrations": 7400,
      "manager": 7401,
      "Ġtries": 7402,
      "Ġpurposes": 7403,
      "Ġevaluation": 7404,
      "ĠConnectivity": 7405,
      "Ġdeployment": 7406,
      "Local": 7407,
      "XY": 7408,
      "cases": 7409,
      "kl": 7410,
      "omm": 7411,
      "Ġcompet": 7412,
      "ĠCare": 7413,
      "ĠEigensolver": 7414,
      "ivation": 7415,
      "ĠNuclear": 7416,
      "Ġtranspiled": 7417,
      "ften": 7418,
      "Ġtechnological": 7419,
      "ĠEns": 7420,
      "ĠChapter": 7421,
      "Ġradial": 7422,
      "Ġpostulates": 7423,
      "Ġthermodynamics": 7424,
      "Ġfamily": 7425,
      "Ġbarriers": 7426,
      "Ġauthor": 7427,
      "Ġconfigurations": 7428,
      "Ġexponentiation": 7429,
      "Ġqutrit": 7430,
      "&-": 7431,
      "hot": 7432,
      "ss": 7433,
      "Ġgl": 7434,
      "ourne": 7435,
      "example": 7436,
      "ĠContext": 7437,
      "Ġupdates": 7438,
      "Ġpopulation": 7439,
      "Ġmarket": 7440,
      "olecular": 7441,
      "ĠSqueez": 7442,
      "Model": 7443,
      "bound": 7444,
      "eep": 7445,
      "Ġisot": 7446,
      "Ġhurd": 7447,
      "ĠGround": 7448,
      "Ġmapped": 7449,
      "encing": 7450,
      "Ġcalibr": 7451,
      "Ġbelong": 7452,
      "ooky": 7453,
      "00000000": 7454,
      "ĠOptimal": 7455,
      "Ġextracts": 7456,
      "Ġamounts": 7457,
      "determ": 7458,
      "ĠScaling": 7459,
      "ĠâĶĶâĶĢâĶĢâĶĢâĶĺ": 7460,
      "Ġbullet": 7461,
      "Let": 7462,
      "pir": 7463,
      "path": 7464,
      "vol": 7465,
      "Ġtrou": 7466,
      "ancilla": 7467,
      "icate": 7468,
      "ĠQuirk": 7469,
      "rade": 7470,
      "ĠPeter": 7471,
      "Ġ$|-\\": 7472,
      "Ġcreg": 7473,
      "Ġyourself": 7474,
      "Ġcommunicate": 7475,
      "Ġï¬ģnd": 7476,
      "Ġdefinitely": 7477,
      "Ġbring": 7478,
      "Ġcriteria": 7479,
      ")}{": 7480,
      "umin": 7481,
      "Ġsimplicity": 7482,
      "Ġshielding": 7483,
      "cible": 7484,
      "Ġpointing": 7485,
      "olet": 7486,
      "Ġhappening": 7487,
      "slit": 7488,
      "ĠRegular": 7489,
      "Ġeducation": 7490,
      "Ġfluorescence": 7491,
      "ROR": 7492,
      "tensor": 7493,
      "}-\\": 7494,
      "Ġwire": 7495,
      "rote": 7496,
      "ĠWell": 7497,
      "Ġusage": 7498,
      "ĠFrequency": 7499,
      "Ġappend": 7500,
      "orse": 7501,
      "Ġproven": 7502,
      "Ġsubmit": 7503,
      "Ġmomenta": 7504,
      "Ġfactorization": 7505,
      "Ġrobustness": 7506,
      "ĠImplementation": 7507,
      "ĠRequires": 7508,
      "ĠDavid": 7509,
      "86": 7510,
      "DR": 7511,
      "]\\": 7512,
      "iolet": 7513,
      "alth": 7514,
      "Ġfig": 7515,
      "ĠCM": 7516,
      "Ġund": 7517,
      "ĠDirect": 7518,
      "Ġneither": 7519,
      "0001": 7520,
      "Ġcontributes": 7521,
      "aved": 7522,
      "Ġparam": 7523,
      "Ġcommutes": 7524,
      "Ġphotoelectric": 7525,
      "ĠString": 7526,
      "Ġcorrectness": 7527,
      "Ġpractically": 7528,
      "strings": 7529,
      "Ġlisted": 7530,
      "Ġviolations": 7531,
      "Ġindicating": 7532,
      "Ġvisualization": 7533,
      "Ġworth": 7534,
      "Ġdeï¬ģnition": 7535,
      "books": 7536,
      "Ġcontributions": 7537,
      "Ġinsulators": 7538,
      "ĠHamming": 7539,
      "NP": 7540,
      "OS": 7541,
      "Qiskit": 7542,
      "dri": 7543,
      "multi": 7544,
      "Ġstoch": 7545,
      "ĠAhar": 7546,
      "cell": 7547,
      "ĠSem": 7548,
      "ĠInd": 7549,
      "ĠLower": 7550,
      "Ġessence": 7551,
      "Ġconstructing": 7552,
      "ĠInteractions": 7553,
      "Ġbalance": 7554,
      "ĠExperiments": 7555,
      "Ġcompression": 7556,
      "ĠSignificance": 7557,
      "dt": 7558,
      "deg": 7559,
      "latex": 7560,
      "method": 7561,
      "machine": 7562,
      "|.": 7563,
      "aly": 7564,
      "Ġstimulated": 7565,
      "ogether": 7566,
      "Ġhash": 7567,
      "Ġmoved": 7568,
      "Ġquantify": 7569,
      "Ġconstants": 7570,
      "Ġthresholds": 7571,
      "Ġconsisting": 7572,
      "Ġpurification": 7573,
      "Ġcandidate": 7574,
      "ĠBosons": 7575,
      "Ġcloser": 7576,
      "ĠOutput": 7577,
      "Ġwrote": 7578,
      "ĠBoltzmann": 7579,
      "Ġadoption": 7580,
      "pected": 7581,
      "ĠRealism": 7582,
      "Ġfoundational": 7583,
      "ĠComputational": 7584,
      "instruction": 7585,
      "Ġbenchmark": 7586,
      "Int": 7587,
      "iliary": 7588,
      "Ġinvariance": 7589,
      "Ġfragile": 7590,
      "ĠContinuous": 7591,
      "QEC": 7592,
      "ln": 7593,
      "main": 7594,
      "pauli": 7595,
      "rz": 7596,
      "Ġbudget": 7597,
      "Ġdim": 7598,
      "Ġque": 7599,
      "ĠTrace": 7600,
      "ĠAzure": 7601,
      "ĠMomentum": 7602,
      "cccc": 7603,
      "Ġconsiders": 7604,
      "Ġplates": 7605,
      "Ġstatus": 7606,
      "Ġdegrad": 7607,
      "Ġrotated": 7608,
      "ĠApplication": 7609,
      "ĠIncre": 7610,
      "ĠStrateg": 7611,
      "56": 7612,
      "ha": 7613,
      "~~": 7614,
      "âĨ": 7615,
      "Ġimmediate": 7616,
      "ĠDi": 7617,
      "Ġleaving": 7618,
      "Ġposit": 7619,
      "Ġsomewhat": 7620,
      "select": 7621,
      "neighb": 7622,
      "Ġserves": 7623,
      "Ġexpertise": 7624,
      "Ġcornerstone": 7625,
      "ĠLattice": 7626,
      "31": 7627,
      "Ġanomal": 7628,
      "ĠRo": 7629,
      "Ġdecode": 7630,
      "ĠStructure": 7631,
      "Ġlimitation": 7632,
      "nesses": 7633,
      "ABC": 7634,
      "Ġsemidefinite": 7635,
      "ĠPrinciples": 7636,
      "Ġkernels": 7637,
      "Ġtreatment": 7638,
      "Ġrepeatedly": 7639,
      "Ġincorporate": 7640,
      "Ġleverages": 7641,
      ")^\\": 7642,
      "42": 7643,
      "ION": 7644,
      "Opt": 7645,
      "iA": 7646,
      "mode": 7647,
      "ilit": 7648,
      "ĠCap": 7649,
      "ĠInput": 7650,
      "Ġshutt": 7651,
      "Ġrecovery": 7652,
      "ĠConc": 7653,
      "Ġcalls": 7654,
      "Ġdistinguishable": 7655,
      "Ġultracold": 7656,
      "Ġpymatching": 7657,
      "Ġsolids": 7658,
      "Ġlabels": 7659,
      "Ġapparent": 7660,
      "Ġheads": 7661,
      "Ġflexible": 7662,
      "Ġ----------------": 7663,
      "Ġpenny": 7664,
      "olic": 7665,
      "ĠPulse": 7666,
      "ĠFredkin": 7667,
      "Ġ|-\\": 7668,
      "alling": 7669,
      "Ġestimated": 7670,
      "Ġlattices": 7671,
      "Ġrepet": 7672,
      "ĠComputer": 7673,
      "Ġ>>": 7674,
      "Ġreplaced": 7675,
      "Classical": 7676,
      "Ġindistinguishability": 7677,
      "CP": 7678,
      "fil": 7679,
      "erning": 7680,
      "Ġtouch": 7681,
      "Ġhum": 7682,
      "ĠQS": 7683,
      "acity": 7684,
      "ames": 7685,
      "olding": 7686,
      "embles": 7687,
      "top": 7688,
      "Ġplaces": 7689,
      "yndrom": 7690,
      "Ġquantifies": 7691,
      "compute": 7692,
      "Ġswitching": 7693,
      "Ġdominant": 7694,
      "Ġdestroyed": 7695,
      "ton": 7696,
      "Î³": 7697,
      "Ġsal": 7698,
      "inger": 7699,
      "quis": 7700,
      "entions": 7701,
      "Ġnarrow": 7702,
      "Ġwhatever": 7703,
      "Ġconcise": 7704,
      "ensitive": 7705,
      "Ġinterconnect": 7706,
      "Ġiff": 7707,
      "Ġconsideration": 7708,
      "ikeli": 7709,
      "Ġalternatives": 7710,
      "Ġpreventing": 7711,
      "Ġtreats": 7712,
      "Ġsubstant": 7713,
      "Ġshorter": 7714,
      "ĠPreskill": 7715,
      "delity": 7716,
      "ikelihood": 7717,
      "CU": 7718,
      "Ġunless": 7719,
      "Ġvital": 7720,
      "ĠDem": 7721,
      "complex": 7722,
      "nov": 7723,
      "Ġwavefunctions": 7724,
      ")}|": 7725,
      "BB": 7726,
      "hard": 7727,
      "ĠAchie": 7728,
      "ĠWho": 7729,
      "matic": 7730,
      "Ġmatplotlib": 7731,
      "prec": 7732,
      "Ġdeterminism": 7733,
      "ĠCondens": 7734,
      "ĠImproved": 7735,
      "Ġplasma": 7736,
      "Ġpennylane": 7737,
      "(-\\": 7738,
      "Tableau": 7739,
      "]=": 7740,
      "Ġsil": 7741,
      "oments": 7742,
      "imum": 7743,
      "ĠWould": 7744,
      "ĠFast": 7745,
      "atory": 7746,
      "Ġdistribute": 7747,
      "Ġsomewhere": 7748,
      "rone": 7749,
      "Ġsolvable": 7750,
      "ĠStabilizer": 7751,
      "Ġdemonstration": 7752,
      "Ġproducing": 7753,
      "ridge": 7754,
      "QuantumCircuit": 7755,
      "attering": 7756,
      "Ġ90": 7757,
      "Ġbiggest": 7758,
      "Ġcoordinate": 7759,
      "Ġshaping": 7760,
      "ĠVerification": 7761,
      "46": 7762,
      "qml": 7763,
      "save": 7764,
      "ask": 7765,
      "style": 7766,
      "ĠCoupling": 7767,
      "ĠED": 7768,
      "ĠRabi": 7769,
      "ĠEngine": 7770,
      "Ġsplitters": 7771,
      "Ġevolving": 7772,
      "Ġsideband": 7773,
      "PTP": 7774,
      "you": 7775,
      "isher": 7776,
      "check": 7777,
      "ensities": 7778,
      "ĠLaw": 7779,
      "class": 7780,
      "avily": 7781,
      "Ġtransformed": 7782,
      "Ġdiffraction": 7783,
      "Ġpreviously": 7784,
      "ĠModular": 7785,
      "ĠDisadvantages": 7786,
      "Ġrepeater": 7787,
      "ĠProblems": 7788,
      "ĠTeleportation": 7789,
      "physical": 7790,
      ",...,": 7791,
      "How": 7792,
      "Runtime": 7793,
      "bi": 7794,
      "icism": 7795,
      "Ġreserv": 7796,
      "Ġ\",": 7797,
      "Ġplaced": 7798,
      "process": 7799,
      "ditionally": 7800,
      "Ġtuned": 7801,
      "Ġinteracts": 7802,
      "Ġhighlights": 7803,
      "Ġgreatly": 7804,
      "ĠDeterm": 7805,
      "Ġbiological": 7806,
      "Ġexpanded": 7807,
      "Ġsubtle": 7808,
      "Ġprimitive": 7809,
      "/(": 7810,
      "89": 7811,
      "eval": 7812,
      "Ġ],": 7813,
      "omposition": 7814,
      "Ġexclusion": 7815,
      "riz": 7816,
      "Ġ000": 7817,
      "ĠDep": 7818,
      "ĠGe": 7819,
      "Ġheavily": 7820,
      "âĶĢâĶ´": 7821,
      "Ġconverted": 7822,
      "Ġdisturbances": 7823,
      "Ġabsorbed": 7824,
      "Ġdelay": 7825,
      "Ġclean": 7826,
      "Ġâĸĳ": 7827,
      "field": 7828,
      "mn": 7829,
      "Ġstores": 7830,
      "Ġspanned": 7831,
      "ĠFull": 7832,
      "aching": 7833,
      "Ġoperates": 7834,
      "Ġrealization": 7835,
      "ĠRepresent": 7836,
      "Ġchecked": 7837,
      "ĠResource": 7838,
      "Ġoscillations": 7839,
      "Ġgrowth": 7840,
      "Ġmixing": 7841,
      "ĠObjective": 7842,
      "Ġinfinities": 7843,
      "Ġstuck": 7844,
      "ĠIndustry": 7845,
      "Ġmerely": 7846,
      "Wh": 7847,
      "onov": 7848,
      "Ġinfer": 7849,
      "ulated": 7850,
      "Ġ\\)": 7851,
      "ecting": 7852,
      "Ġalloc": 7853,
      "ronecker": 7854,
      "Ġdisorder": 7855,
      "ĠCompar": 7856,
      "ĠStud": 7857,
      "Ġprincipal": 7858,
      "ĠÏµ": 7859,
      "Ġiteratively": 7860,
      "Ġdisturbing": 7861,
      "ĠIntegration": 7862,
      "Ġconserved": 7863,
      "Ġcompatible": 7864,
      "SC": 7865,
      "\\|\\": 7866,
      "Ġinduct": 7867,
      "ampling": 7868,
      "Ġsparse": 7869,
      "Ġparams": 7870,
      "Ġtails": 7871,
      "ynamic": 7872,
      "shift": 7873,
      "Ġfilled": 7874,
      "Ġ1994": 7875,
      "ĠËĨ": 7876,
      "iHt": 7877,
      "neighbor": 7878,
      "bre": 7879,
      "naps": 7880,
      "rx": 7881,
      "{+": 7882,
      "Ġbill": 7883,
      "Ġinform": 7884,
      "Ġecho": 7885,
      "isted": 7886,
      "ĠLogical": 7887,
      "ĠGraph": 7888,
      "Ġ32": 7889,
      "Ġnonlocality": 7890,
      "tenance": 7891,
      "Ġheavy": 7892,
      "ĠOnly": 7893,
      "Ġcontradiction": 7894,
      "Ġconcerns": 7895,
      "PG": 7896,
      "Ġpast": 7897,
      "Ġwiring": 7898,
      "Ġdense": 7899,
      "edic": 7900,
      "ĠBr": 7901,
      "ĠBit": 7902,
      "}$.": 7903,
      "ĠGradient": 7904,
      "experiment": 7905,
      "Ġquanta": 7906,
      "Ġpresents": 7907,
      "bigl": 7908,
      "Ġvertex": 7909,
      "Ġmaintains": 7910,
      "Ġanalogy": 7911,
      "Ġ...,": 7912,
      "ĠPredict": 7913,
      "Ġbandwidth": 7914,
      "Ġtutorials": 7915,
      "Ġcycles": 7916,
      "ĠRequire": 7917,
      "Ġstrictly": 7918,
      "split": 7919,
      "anaconda": 7920,
      "Ġthesis": 7921,
      "Ġchains": 7922,
      "Ġ+=": 7923,
      "Ġshif": 7924,
      "Ġflat": 7925,
      "Ġfinish": 7926,
      "bigr": 7927,
      "Ġspacing": 7928,
      "Ġemerging": 7929,
      "ĠChemistry": 7930,
      "Ġanticomm": 7931,
      "BQP": 7932,
      "][": 7933,
      "eb": 7934,
      "ĠAv": 7935,
      "ĠBay": 7936,
      "poser": 7937,
      "Ġnoiseless": 7938,
      "Ġarrange": 7939,
      "Ġ30": 7940,
      "Ġtechnically": 7941,
      "Ġpointed": 7942,
      "Ġlocalization": 7943,
      "ĠQASM": 7944,
      "Ġsplits": 7945,
      "Ġinterpreted": 7946,
      "Ġillustrating": 7947,
      "ĠNotice": 7948,
      "Ġbeginners": 7949,
      "Ġtraveling": 7950,
      "Ġresolve": 7951,
      "ĠMajorana": 7952,
      "Ġrigorous": 7953,
      "Ġfacilit": 7954,
      "ĠOracle": 7955,
      "|,": 7956,
      "Ġsk": 7957,
      "Ġpen": 7958,
      "Ġhar": 7959,
      "Ġcloning": 7960,
      "ĠRot": 7961,
      "cious": 7962,
      "Ġ[-": 7963,
      "Ġhistogram": 7964,
      "Ġparadig": 7965,
      "Ġappreciate": 7966,
      "Ġmixer": 7967,
      "Ġclever": 7968,
      "Ġtreated": 7969,
      "ĠClearly": 7970,
      "ĠAharonov": 7971,
      "'),": 7972,
      "\\;": 7973,
      "Ġmeet": 7974,
      "ĠMagic": 7975,
      "ĠLie": 7976,
      "yself": 7977,
      "Ġunderground": 7978,
      "Ġworked": 7979,
      "Ġfailed": 7980,
      "Ġconditioned": 7981,
      "Ġnearly": 7982,
      "Ġsatisfied": 7983,
      "Ġbroken": 7984,
      "ĠStatistical": 7985,
      "Ġdiscrimination": 7986,
      "Ġgradually": 7987,
      "Ġstochastic": 7988,
      "Hadamard": 7989,
      "base": 7990,
      "rep": 7991,
      "ĠFind": 7992,
      "ĠNMR": 7993,
      "ĠLa": 7994,
      "abilizers": 7995,
      "program": 7996,
      "raviolet": 7997,
      "Ġserver": 7998,
      "Ġcoinc": 7999,
      "Ġdiscovered": 8000,
      "Ġcollaboration": 8001,
      "ĠBenchmar": 8002,
      "Ġauxiliary": 8003,
      "ĠCryogenic": 8004,
      "yndrome": 8005,
      "Ad": 8006,
      "memory": 8007,
      "|-\\": 8008,
      "Ġsatellite": 8009,
      "roph": 8010,
      "Ġ\\}$": 8011,
      "Ġconclusion": 8012,
      "ĠDrug": 8013,
      "Ġsegment": 8014,
      "ibers": 8015,
      "Ġknows": 8016,
      "ĠXX": 8017,
      "Ġdiagn": 8018,
      "ĠComputers": 8019,
      "evit": 8020,
      "Ġoscillation": 8021,
      "ĠLimited": 8022,
      "Ġincreasingly": 8023,
      "Alice": 8024,
      "ĠAnti": 8025,
      "Dec": 8026,
      "Note": 8027,
      "dot": 8028,
      "kron": 8029,
      "my": 8030,
      "Ïµ": 8031,
      "Ġmyself": 8032,
      "Ġstars": 8033,
      "ĠCPU": 8034,
      "ĠPen": 8035,
      "Ġqaoa": 8036,
      "Ġroutes": 8037,
      "Ġsolar": 8038,
      "Ġremote": 8039,
      "]);": 8040,
      "Ġlocally": 8041,
      "Ġbreaks": 8042,
      "QED": 8043,
      "Ġï¬ģdelity": 8044,
      "Ġadjoint": 8045,
      "Ġultra": 8046,
      "Ġtolerant": 8047,
      "Ġinterfere": 8048,
      "wargs": 8049,
      "Ġchaos": 8050,
      "typically": 8051,
      ">.": 8052,
      "cz": 8053,
      "information": 8054,
      "Ġsaw": 8055,
      "Ġmoments": 8056,
      "rotation": 8057,
      "ĠCross": 8058,
      "ĠSparse": 8059,
      "Ġsuits": 8060,
      "Ġarising": 8061,
      "Ġempt": 8062,
      "Ġbackward": 8063,
      "ĠÎ£": 8064,
      "Ġmultiplex": 8065,
      "commuting": 8066,
      "Ġ2019": 8067,
      "CHAPT": 8068,
      "Ġignore": 8069,
      "Ġcomplementary": 8070,
      "Ġfairly": 8071,
      "CHAPTER": 8072,
      "NG": 8073,
      "\\_": 8074,
      "faces": 8075,
      "ĠII": 8076,
      "ĠType": 8077,
      "Ġcoming": 8078,
      "izable": 8079,
      "Ġ111": 8080,
      "iving": 8081,
      "Ġ+|": 8082,
      "ĠUpd": 8083,
      "ĠProtocol": 8084,
      "Ġgeneralize": 8085,
      "Ġapproximated": 8086,
      "},$$": 8087,
      "ĠSuperconduct": 8088,
      "ĠInteraction": 8089,
      "Ġdistinguishes": 8090,
      "Ġtranspiler": 8091,
      "ĠArchitect": 8092,
      "Ġradius": 8093,
      "ĠUlt": 8094,
      "Ġproposal": 8095,
      "AD": 8096,
      "LE": 8097,
      "vest": 8098,
      "iting": 8099,
      "Ġsinter": 8100,
      "Ġfaces": 8101,
      "Ġhint": 8102,
      "Ġ$\\|": 8103,
      "called": 8104,
      "Ġalgorithmic": 8105,
      "ĠRedu": 8106,
      "uparrow": 8107,
      "api": 8108,
      "urrence": 8109,
      "Ġcriticality": 8110,
      "Ġuniquely": 8111,
      "Ġ$[[": 8112,
      "Ġsituations": 8113,
      "structured": 8114,
      "Ġsuffer": 8115,
      "âĶĢâĶ´âĶĢâĶĲ": 8116,
      "::": 8117,
      "Now": 8118,
      "Service": 8119,
      "trace": 8120,
      "ĠTomography": 8121,
      "used": 8122,
      "ansatz": 8123,
      "ours": 8124,
      "ĠChin": 8125,
      "Ġfailures": 8126,
      "Ġselected": 8127,
      "Ġboost": 8128,
      "Ġperspectives": 8129,
      "Ġtrajectory": 8130,
      "Ġcriterion": 8131,
      "olecule": 8132,
      "Ġprivate": 8133,
      "Ġrepetitions": 8134,
      "ai": 8135,
      "coll": 8136,
      "date": 8137,
      "pare": 8138,
      "post": 8139,
      "Ġtend": 8140,
      "anad": 8141,
      "Ġinjection": 8142,
      "ceil": 8143,
      "Ġnotic": 8144,
      "Ġparty": 8145,
      "Ġdecisions": 8146,
      "ibly": 8147,
      "Ġcouldn": 8148,
      "ression": 8149,
      "Ġconcent": 8150,
      "ĠConsequ": 8151,
      "Ġpursu": 8152,
      "iveness": 8153,
      "Ġsampled": 8154,
      "ĠAssume": 8155,
      "ĠTesting": 8156,
      "throughs": 8157,
      "ĠAlternatively": 8158,
      "Ġacademic": 8159,
      "Ġspeaking": 8160,
      "Ġmicroseconds": 8161,
      "Ġoccurring": 8162,
      "Ġtrouble": 8163,
      "Py": 8164,
      "ah": 8165,
      "bols": 8166,
      "high": 8167,
      "tun": 8168,
      "Ġsides": 8169,
      "icks": 8170,
      "Ġfabric": 8171,
      "arg": 8172,
      "resistant": 8173,
      "chain": 8174,
      "}$,": 8175,
      "jects": 8176,
      "akes": 8177,
      "Ġspinning": 8178,
      "Ġreturned": 8179,
      "ĠAdiabatic": 8180,
      "âĶĢâĶĢâĶĢâĶ¤": 8181,
      "Ġrecognizing": 8182,
      "ĠLevel": 8183,
      "Ġtailored": 8184,
      "romagnetism": 8185,
      "ĠEDIT": 8186,
      "anadu": 8187,
      "cceed": 8188,
      "âĨĴ": 8189,
      "Ġ):": 8190,
      "Ġsizes": 8191,
      "Ġinevit": 8192,
      "arp": 8193,
      "ĠTry": 8194,
      "Ġreconstruction": 8195,
      "rap": 8196,
      "there": 8197,
      "Ġsuff": 8198,
      "ĠFl": 8199,
      "ĠFound": 8200,
      "Ġcommunications": 8201,
      "Ġintegrate": 8202,
      "ĠSchro": 8203,
      "Ġargue": 8204,
      "ĠSolving": 8205,
      "Ġlosses": 8206,
      "Ġstruggle": 8207,
      "ĠRepeat": 8208,
      "ĠAgain": 8209,
      "80": 8210,
      "90": 8211,
      "iom": 8212,
      "mitted": 8213,
      "Ġpuzz": 8214,
      "Ġdram": 8215,
      "utations": 8216,
      "adder": 8217,
      "ĠBernstein": 8218,
      "ĠFake": 8219,
      "astroph": 8220,
      "ĠZe": 8221,
      "exec": 8222,
      "Ġdecomposing": 8223,
      "Ġsynchron": 8224,
      "PauliOp": 8225,
      "Ġcondensation": 8226,
      "Ġï¬Ĥip": 8227,
      "RuntimeService": 8228,
      "because": 8229,
      "ds": 8230,
      "graph": 8231,
      "Ġfibers": 8232,
      "Ġqudits": 8233,
      "ĠIter": 8234,
      "idation": 8235,
      "}^{(": 8236,
      "ĠFinance": 8237,
      "Ġdecompositions": 8238,
      "Ġperson": 8239,
      "Ġupdated": 8240,
      "Ġheral": 8241,
      "Ġelaborate": 8242,
      "float": 8243,
      "Ġdatasets": 8244,
      "ĠBlack": 8245,
      "Ġtrigger": 8246,
      "pulse": 8247,
      "vance": 8248,
      "unch": 8249,
      "ĠSearch": 8250,
      "ĠNAND": 8251,
      ")\\,": 8252,
      "ĠProof": 8253,
      "Ġzones": 8254,
      "Ġheur": 8255,
      "Ġheart": 8256,
      "Ġdistinguishing": 8257,
      "2021": 8258,
      "Ġresolved": 8259,
      "subseteq": 8260,
      "estimation": 8261,
      "Ġmeasurable": 8262,
      "Ġvanish": 8263,
      "Ġvideo": 8264,
      "Ġempty": 8265,
      ")).": 8266,
      "node": 8267,
      "Ġsix": 8268,
      "Ġwater": 8269,
      "Ġbright": 8270,
      "asc": 8271,
      "asp": 8272,
      "Ġlikelihood": 8273,
      "âĶĤ": 8274,
      "Ġdeï¬ģne": 8275,
      "Ġimm": 8276,
      "ichard": 8277,
      "Ġmanaged": 8278,
      "ĠXanadu": 8279,
      "ĠQiskitRuntimeService": 8280,
      "ĠUnit": 8281,
      "flict": 8282,
      "Ġ1024": 8283,
      "ĠOperations": 8284,
      "Ġinterferometry": 8285,
      "ĠResults": 8286,
      "Ġtransistor": 8287,
      "ĠTunneling": 8288,
      "Zeno": 8289,
      "loss": 8290,
      "oir": 8291,
      "rl": 8292,
      "Ġmim": 8293,
      "ilde": 8294,
      "ĠCos": 8295,
      "pleteness": 8296,
      "Ġshors": 8297,
      "Ġdecide": 8298,
      "ĠExpon": 8299,
      "ĠÎ´": 8300,
      "Ġdevi": 8301,
      "ĠNoisy": 8302,
      "versely": 8303,
      "Ġadvancing": 8304,
      "ĠConsiderations": 8305,
      "ĠCoherent": 8306,
      "Ġfourth": 8307,
      "ĠIntuit": 8308,
      "approxim": 8309,
      "Ġincomplete": 8310,
      "ĠMaybe": 8311,
      "erlach": 8312,
      "Ġredundancy": 8313,
      "Ġeigenspace": 8314,
      "Instance": 8315,
      "Ġold": 8316,
      "Ġball": 8317,
      "utical": 8318,
      "Ġna": 8319,
      "Ġcompile": 8320,
      "chem": 8321,
      "Ġsucceed": 8322,
      "âĶľ": 8323,
      "Ġimplicit": 8324,
      "Ġcontent": 8325,
      "ourn": 8326,
      "Ġnonlocal": 8327,
      "Ġdetects": 8328,
      "ĠChannel": 8329,
      "Ġtopics": 8330,
      "Ġslits": 8331,
      "Ġshifted": 8332,
      "Ġsender": 8333,
      "Ġextracting": 8334,
      "downarrow": 8335,
      "Ġlifetime": 8336,
      "Ġprogrammers": 8337,
      "Ġquotes": 8338,
      "Ġspherical": 8339,
      "]]$": 8340,
      "iable": 8341,
      "tomography": 8342,
      "inverse": 8343,
      "Ġworse": 8344,
      "unit": 8345,
      "asses": 8346,
      "ĠDeta": 8347,
      "entially": 8348,
      "Ġarr": 8349,
      "definite": 8350,
      "------------": 8351,
      "ĠAdvantage": 8352,
      "Trans": 8353,
      "ĠTechnology": 8354,
      "Ġbranches": 8355,
      "ĠBasically": 8356,
      "Shor": 8357,
      "floor": 8358,
      "ĠAccurate": 8359,
      "None": 8360,
      "density": 8361,
      "sample": 8362,
      "ĠStern": 8363,
      "âĶĲ": 8364,
      "aceutical": 8365,
      "ĠRef": 8366,
      "Ġcomprehens": 8367,
      "Ġlearned": 8368,
      "Ġalgebraic": 8369,
      "Ġcontrasting": 8370,
      "Ġestablished": 8371,
      "Ġsummarized": 8372,
      "armaceutical": 8373,
      "ĠStatistics": 8374,
      "ĠGravity": 8375,
      "Ġunpredict": 8376,
      "Ġfavor": 8377,
      "Ġexploration": 8378,
      "/âĪĤ": 8379,
      "83": 8380,
      "Sigma": 8381,
      "\\}": 8382,
      "ience": 8383,
      "say": 8384,
      "ties": 8385,
      "induced": 8386,
      "Ġhal": 8387,
      "oses": 8388,
      "ĠFPG": 8389,
      "ĠMolecular": 8390,
      "ĠInequ": 8391,
      "ĠRob": 8392,
      "ĠRichard": 8393,
      "Ġposes": 8394,
      "concept": 8395,
      "Ġreads": 8396,
      "ĠJordan": 8397,
      "ĠImaging": 8398,
      "Ġslit": 8399,
      "Ġreceived": 8400,
      "Ġcrystals": 8401,
      "Ġbraiding": 8402,
      "Ġphonon": 8403,
      "Ġrefrigerator": 8404,
      "Ġphilosophical": 8405,
      "#.": 8406,
      "?)": 8407,
      "Us": 8408,
      "]],": 8409,
      "Ġbrow": 8410,
      "Ġnet": 8411,
      "ĠQPT": 8412,
      "raft": 8413,
      "âĶ¼": 8414,
      "ĠRet": 8415,
      "Ġkickback": 8416,
      "Ġsoci": 8417,
      "ĠIntermediate": 8418,
      "Ġraises": 8419,
      "Ġensured": 8420,
      "ĠFeature": 8421,
      "ĠEffects": 8422,
      "Ġdestroying": 8423,
      "Ġcopying": 8424,
      "Ġcombinatorial": 8425,
      "âĶĶâĶĢâĶĢâĶĢâĶĺ": 8426,
      "Ġfeasible": 8427,
      "ĠBayesian": 8428,
      "%.": 8429,
      "63": 8430,
      "=-": 8431,
      "YY": 8432,
      "fety": 8433,
      "mos": 8434,
      "uler": 8435,
      "ferences": 8436,
      "Ġ['": 8437,
      "Ġseeing": 8438,
      "hibit": 8439,
      "Ġlocalized": 8440,
      "Ġpredicting": 8441,
      "ĠOperation": 8442,
      "Ġextracted": 8443,
      "additivity": 8444,
      "Ġabstraction": 8445,
      "Ġdominate": 8446,
      "devices": 8447,
      "Ġobviously": 8448,
      "Ġcompatibility": 8449,
      "Ġtransistors": 8450,
      "Ġretrieve": 8451,
      "precated": 8452,
      "ĠSchrodinger": 8453,
      "br": 8454,
      "oherent": 8455,
      "Ġgcd": 8456,
      "Ġgreen": 8457,
      "terra": 8458,
      "ĠFree": 8459,
      "ending": 8460,
      "Ġrout": 8461,
      "agement": 8462,
      "Ġdisrupt": 8463,
      "Ġcorrects": 8464,
      "Ġcorrespondence": 8465,
      "Theta": 8466,
      "Ġheight": 8467,
      "inspired": 8468,
      "Ġends": 8469,
      "measured": 8470,
      "ĠModels": 8471,
      "Ġrestricted": 8472,
      "Ġutilize": 8473,
      "ĠEmission": 8474,
      "ĠDesigning": 8475,
      "ĠAssuming": 8476,
      "ĠProvide": 8477,
      "Ġexperiences": 8478,
      "ĠPurcell": 8479,
      "ĠDynamical": 8480,
      "Ġpublished": 8481,
      "73": 8482,
      "win": 8483,
      "Ġconvergence": 8484,
      "idual": 8485,
      "thical": 8486,
      "Ġadvers": 8487,
      "Ġroute": 8488,
      "Ġgoals": 8489,
      "valued": 8490,
      "Ġconsistency": 8491,
      "ĠPrim": 8492,
      "Ġsafe": 8493,
      "Ġdrugs": 8494,
      "Ġerasure": 8495,
      "Ġpackages": 8496,
      "Ġspatially": 8497,
      "Ġcarriers": 8498,
      "Ġhorizontal": 8499,
      "Ġconservation": 8500,
      "Ġfermionic": 8501,
      "ĠCritical": 8502,
      "Ar": 8503,
      "OCC": 8504,
      "xx": 8505,
      "stabilizer": 8506,
      "ĠThink": 8507,
      "odynamic": 8508,
      "ĠBound": 8509,
      "Ġnoting": 8510,
      "ributing": 8511,
      "Ġcompleted": 8512,
      "Ġemits": 8513,
      "Ġvariation": 8514,
      "Ġtested": 8515,
      "Ġlets": 8516,
      "Ġinduce": 8517,
      "ĠElectro": 8518,
      "Ġinvestig": 8519,
      "ĠMaxim": 8520,
      "determined": 8521,
      "Wigner": 8522,
      "dem": 8523,
      "tes": 8524,
      "uine": 8525,
      "âī": 8526,
      "alled": 8527,
      "icity": 8528,
      "Ġfission": 8529,
      "ĠTake": 8530,
      "ecurity": 8531,
      "Ġconflict": 8532,
      "Ġchose": 8533,
      "abilistic": 8534,
      "Ġ-|": 8535,
      "ĠUsed": 8536,
      "coming": 8537,
      "Ġlinearity": 8538,
      "Ġantis": 8539,
      "ĠQCP": 8540,
      "Ġcurious": 8541,
      "âĶĢâĶĢâĶĢâĶĢâĶĢâĶĢâĶĢâĶĢâĶĢâĶĢâĶĢâĶĢâĶĢâĶĢâĶĢâĶĢâĶĢâĶĢâĶĢâĶĢâĶĢâĶĢâĶĢâĶĢâĶĢâĶĢâĶĢâĶĢâĶĢâĶĢâĶĢâĶĢ": 8542,
      "Ġprivacy": 8543,
      "54": 8544,
      "What": 8545,
      "XZ": 8546,
      "ipped": 8547,
      "onons": 8548,
      "oracle": 8549,
      "Ġhom": 8550,
      "Ġgaps": 8551,
      "advantage": 8552,
      "ĠDue": 8553,
      "Ġconscious": 8554,
      "Ġdriven": 8555,
      "ĠPerhaps": 8556,
      "Ġhistories": 8557,
      "Ġreceives": 8558,
      "Ġaccumulation": 8559,
      "Ġloses": 8560,
      "Ġnanoscale": 8561,
      "Ġextension": 8562,
      "ĠAngular": 8563,
      ")):": 8564,
      "Map": 8565,
      "Sp": 8566,
      "iq": 8567,
      "mission": 8568,
      "Ġair": 8569,
      "alysis": 8570,
      "umping": 8571,
      "Ġ${": 8572,
      "amp": 8573,
      "ĠCV": 8574,
      "parallel": 8575,
      "Ġvariety": 8576,
      "}^{-": 8577,
      "Ġswaps": 8578,
      "Ġsuggesting": 8579,
      "Ġultimate": 8580,
      "ĠRecall": 8581,
      "points": 8582,
      "Ġsurrounding": 8583,
      ">\\": 8584,
      "Ġur": 8585,
      "itting": 8586,
      "Ġstand": 8587,
      "owers": 8588,
      "arding": 8589,
      "posit": 8590,
      "Ġ[(": 8591,
      "Ġdisapp": 8592,
      "()))": 8593,
      "bigotimes": 8594,
      "ĠReview": 8595,
      "Ġpermutations": 8596,
      "Ġdisplace": 8597,
      "Ġconsumption": 8598,
      "Ġefforts": 8599,
      "Ġhuman": 8600,
      "astrophe": 8601,
      "'_": 8602,
      "[[": 8603,
      "fourier": 8604,
      "system": 8605,
      "Ġfront": 8606,
      "Ġbin": 8607,
      "Ġstar": 8608,
      "urities": 8609,
      "ĠBCS": 8610,
      "Ġshad": 8611,
      "riting": 8612,
      "Ġpackets": 8613,
      "ERROR": 8614,
      "Ġkeeping": 8615,
      "persive": 8616,
      "Ġexception": 8617,
      "Ġbranch": 8618,
      "Ġflexibility": 8619,
      "poly": 8620,
      "Ġmilest": 8621,
      "!)": 8622,
      "EE": 8623,
      "Gamma": 8624,
      "Gerlach": 8625,
      "YLA": 8626,
      "]{\\": 8627,
      "ns": 8628,
      "oun": 8629,
      "rous": 8630,
      "Ġinnov": 8631,
      "Ġconject": 8632,
      "Ġalerting": 8633,
      "plish": 8634,
      "ected": 8635,
      "ĠFuture": 8636,
      "ĠFramework": 8637,
      "endian": 8638,
      "ĠRY": 8639,
      "ĠRy": 8640,
      "Ġsupercomputers": 8641,
      "ĠExact": 8642,
      "Ġacknow": 8643,
      "final": 8644,
      "Ġrotates": 8645,
      "Ġemerged": 8646,
      "Ġmillions": 8647,
      "Ġdebated": 8648,
      "Ġsqueezing": 8649,
      "olicy": 8650,
      "CR": 8651,
      "__": 8652,
      "hline": 8653,
      "rand": 8654,
      "ica": 8655,
      "Ġbath": 8656,
      "Ġ(\"": 8657,
      "Ġ101": 8658,
      "Ġvibration": 8659,
      "ĠDFT": 8660,
      "Ġinvented": 8661,
      "}|^": 8662,
      "ĠâĪĪ": 8663,
      "ĠCompute": 8664,
      "Ġblockade": 8665,
      "ĠAmplification": 8666,
      "Ġinterferometer": 8667,
      "ĠDiscrete": 8668,
      "limited": 8669,
      "âŁ©)/âĪļ": 8670,
      "60": 8671,
      ">)": 8672,
      "qs": 8673,
      "zeros": 8674,
      "ref": 8675,
      "ĠTL": 8676,
      "oting": 8677,
      "ĠSymmetry": 8678,
      "ĠHist": 8679,
      "ĠPolarization": 8680,
      "ĠGlobal": 8681,
      "Ġrealizing": 8682,
      "ĠProcessing": 8683,
      "Ġhelped": 8684,
      "Ġmainly": 8685,
      "Ġlatest": 8686,
      "Ġtunnel": 8687,
      "Ġrelease": 8688,
      "ĠInitialize": 8689,
      "ĠResearchers": 8690,
      "Ġcarries": 8691,
      "Ġinvertible": 8692,
      "ĠCalculating": 8693,
      "ĠTypically": 8694,
      "Ġtoric": 8695,
      "ĠEnhanced": 8696,
      "ĠEucl": 8697,
      "ĠUpdate": 8698,
      "Ġnoticed": 8699,
      "'],": 8700,
      "cult": 8701,
      "jk": 8702,
      "Ġsqrt": 8703,
      "Ġtook": 8704,
      "Ġstay": 8705,
      "ĠCount": 8706,
      "andel": 8707,
      "Ġleg": 8708,
      "ĠRZ": 8709,
      "ĠRole": 8710,
      "ĠVacuum": 8711,
      "Ġminutes": 8712,
      "Ġreplacing": 8713,
      "Ġbackgrounds": 8714,
      "Ġspontaneously": 8715,
      "Ġbosonic": 8716,
      "Ġplanning": 8717,
      "ĠNetworks": 8718,
      "ĠAchieving": 8719,
      "\"?": 8720,
      ")âĶĢâĶĢâĶĢ": 8721,
      "200": 8722,
      ":=\\": 8723,
      "CM": 8724,
      "_-": 8725,
      "aut": 8726,
      "cu": 8727,
      "cond": 8728,
      "ĠHope": 8729,
      "Ġorbits": 8730,
      "tools": 8731,
      "Ġkets": 8732,
      "Ġsubstr": 8733,
      "Ġscope": 8734,
      "Ġconstructive": 8735,
      "erturb": 8736,
      "Ġtunable": 8737,
      "Ġanalogue": 8738,
      "Ġboolean": 8739,
      "Ġsuspect": 8740,
      "Ġarrival": 8741,
      "Ġ----------------------------------------------------------------": 8742,
      "ĠSummary": 8743,
      "Ġannealers": 8744,
      "Ġbusiness": 8745,
      "Ġmirrors": 8746,
      "Ġqueue": 8747,
      "Ġinevitably": 8748,
      "69": 8749,
      "RE": 8750,
      "]):": 8751,
      "^-\\": 8752,
      "hd": 8753,
      "harmonic": 8754,
      "lim": 8755,
      "power": 8756,
      "small": 8757,
      "Ġthrow": 8758,
      "Ġdx": 8759,
      "Ġisometry": 8760,
      "ĠFisher": 8761,
      "Ġwebs": 8762,
      "Ġcontroll": 8763,
      "context": 8764,
      "avities": 8765,
      "Ġforming": 8766,
      "ĠTools": 8767,
      "ĠUnfortunately": 8768,
      "Ġnecessit": 8769,
      "factor": 8770,
      "Ġ**": 8771,
      "Ġsharing": 8772,
      "square": 8773,
      "Ġpush": 8774,
      "ĠCapacity": 8775,
      "ĠDemonstr": 8776,
      "edicated": 8777,
      "HH": 8778,
      "Vazirani": 8779,
      "rically": 8780,
      "single": 8781,
      "Ġwidespread": 8782,
      "Ġecon": 8783,
      "Ġnational": 8784,
      "Ġstating": 8785,
      "Ġwhite": 8786,
      "ĠCrosstalk": 8787,
      "ĠCPTP": 8788,
      "eman": 8789,
      "chip": 8790,
      "ĠFeed": 8791,
      "_{-": 8792,
      "ĠRz": 8793,
      "ccx": 8794,
      "),$$": 8795,
      "Ġundergo": 8796,
      "ĠKronecker": 8797,
      "Ġexpectations": 8798,
      "Ġreturning": 8799,
      "Ġmaintenance": 8800,
      "Ġattention": 8801,
      "ĠEntropy": 8802,
      "Ġconcerning": 8803,
      "ĠSuperfluid": 8804,
      "Ġnormally": 8805,
      "Ġdoub": 8806,
      "Ġreached": 8807,
      "Ġutility": 8808,
      "blue": 8809,
      "Ġgrasp": 8810,
      "ĠSPAM": 8811,
      "binom": 8812,
      "documentation": 8813,
      "Ġorientation": 8814,
      "Ġaccomplish": 8815,
      ")_{": 8816,
      "SECT": 8817,
      "bb": 8818,
      "just": 8819,
      "Ġten": 8820,
      "stable": 8821,
      "Ġstation": 8822,
      "ĠSources": 8823,
      "Ġranges": 8824,
      "Ġsoon": 8825,
      "}}(": 8826,
      "ressing": 8827,
      "ĠProt": 8828,
      "Ġinitializing": 8829,
      "ĠâĪĤ": 8830,
      "Ġmaximal": 8831,
      "Ġtrial": 8832,
      "Ġoffset": 8833,
      "shape": 8834,
      "Ġfamously": 8835,
      "Ġsuppressed": 8836,
      "ĠFields": 8837,
      "ĠUniversal": 8838,
      "Ġrefrigerators": 8839,
      "envs": 8840,
      "ĠSparsePauliOp": 8841,
      "SECTION": 8842,
      "$)": 8843,
      "58": 8844,
      "So": 8845,
      "pur": 8846,
      "Ġ_{": 8847,
      "uming": 8848,
      "Ġhu": 8849,
      "ĠPath": 8850,
      "Ġche": 8851,
      "ĠGu": 8852,
      "Ġequip": 8853,
      "ĠExc": 8854,
      "Ġstrange": 8855,
      "Ġsurfaces": 8856,
      "','": 8857,
      "Ġsupply": 8858,
      "Ġobservers": 8859,
      "Ġscattered": 8860,
      "Ġrevealing": 8861,
      "ĠCompare": 8862,
      "Ġacceleration": 8863,
      "ĠChoose": 8864,
      "Ġnanow": 8865,
      "Ġdiction": 8866,
      "layout": 8867,
      "Ġaveraging": 8868,
      "Ġstabiliser": 8869,
      "iosity": 8870,
      "ĠContextuality": 8871,
      "since": 8872,
      "zeta": 8873,
      "atrous": 8874,
      "ituting": 8875,
      "Ġwind": 8876,
      "umps": 8877,
      "persion": 8878,
      "erequis": 8879,
      "pto": 8880,
      "Ġrho": 8881,
      "Ġoverlook": 8882,
      "Ġdetectable": 8883,
      "Ġobst": 8884,
      "ĠSimulators": 8885,
      "iki": 8886,
      "Ġbugs": 8887,
      "ĠTheoretical": 8888,
      "Ġdelicate": 8889,
      "Ġultimately": 8890,
      "Ġvibrational": 8891,
      "variance": 8892,
      "Ġarrive": 8893,
      "Ġpseudo": 8894,
      "Ġshallow": 8895,
      "Ġenumerate": 8896,
      "Ġsubstantial": 8897,
      "Ġarranged": 8898,
      "Ab": 8899,
      "App": 8900,
      "Back": 8901,
      "Show": 8902,
      "fra": 8903,
      "ng": 8904,
      "vqe": 8905,
      "Ã©": 8906,
      "Ġraw": 8907,
      "Ġinflation": 8908,
      "ĠPsi": 8909,
      "ĠBasis": 8910,
      "ĠFocus": 8911,
      "Ġcovers": 8912,
      "Ġbasics": 8913,
      "Ġoptimizers": 8914,
      "parameter": 8915,
      "Ġbehaves": 8916,
      "Ġdevelopments": 8917,
      "ï¬ģcult": 8918,
      "ĠÎ¨": 8919,
      "ĠÎ¼": 8920,
      "There": 8921,
      "Ġordered": 8922,
      "Ġhadrons": 8923,
      "Ġdeterminant": 8924,
      "ĠUseful": 8925,
      "Ġpreserved": 8926,
      "Ġdecrease": 8927,
      "ĠScattering": 8928,
      "Ġdataset": 8929,
      "Ent": 8930,
      "Ġsurprising": 8931,
      "ĠUCCSD": 8932,
      "ĠStrategies": 8933,
      "74": 8934,
      "net": 8935,
      "Ì¸": 8936,
      "Ġdensities": 8937,
      "Ġgases": 8938,
      "elb": 8939,
      "0011": 8940,
      "ĠLay": 8941,
      "ĠLonger": 8942,
      "standard": 8943,
      "Ġeigenbasis": 8944,
      "ĠProduct": 8945,
      "ĠKnill": 8946,
      "Ġremark": 8947,
      "Ġsymbols": 8948,
      "computer": 8949,
      "backends": 8950,
      "Ġinduced": 8951,
      "deterministic": 8952,
      "Ġdocuments": 8953,
      "Ġresponsible": 8954,
      "Ġreflects": 8955,
      "Ġadjusts": 8956,
      "iï¬ģc": 8957,
      "Ġfiltering": 8958,
      "ĠCombining": 8959,
      "ĠAutomated": 8960,
      "OM": 8961,
      "aqu": 8962,
      "middle": 8963,
      "Îµ": 8964,
      "Ġtight": 8965,
      "levant": 8966,
      "Ġquark": 8967,
      "ulomb": 8968,
      "Ġreact": 8969,
      "iral": 8970,
      "theless": 8971,
      "ĠAnne": 8972,
      "ĠMarkov": 8973,
      "ĠRather": 8974,
      "Ġ45": 8975,
      "Ġattribute": 8976,
      "ĠFinancial": 8977,
      "ĠAdditionally": 8978,
      "Ġequivalently": 8979,
      "Ġpolarized": 8980,
      "Ġcircle": 8981,
      "Ġweaknesses": 8982,
      "Ġillustrated": 8983,
      "Ġalternating": 8984,
      "Ġexceeds": 8985,
      "limits": 8986,
      "Ġfunding": 8987,
      "Ġcounterparts": 8988,
      "elbourne": 8989,
      "+|\\": 8990,
      "atial": 8991,
      "Ġputs": 8992,
      "Ġisomorphism": 8993,
      "amples": 8994,
      "ĠWD": 8995,
      "ĠST": 8996,
      "ĠFig": 8997,
      "ĠRB": 8998,
      "ĠRenormalization": 8999,
      "idean": 9000,
      "Ġvariance": 9001,
      "note": 9002,
      "expectation": 9003,
      "Ġdifficulties": 9004,
      "Ġvalidate": 9005,
      "ĠTraining": 9006,
      "Ġoscillating": 9007,
      "Ġoscillators": 9008,
      "Ġcontained": 9009,
      "rotated": 9010,
      "ĠBeh": 9011,
      "optimal": 9012,
      "ĠâĶĮâĶĢâĶĢâĶĢâĶĲ": 9013,
      "train": 9014,
      "Ġleveraging": 9015,
      "LU": 9016,
[...]
