{
  "version": "1.0",
  "truncation": null,
  "padding": null,
  "added_tokens": [
    {
      "id": 0,
      "content": "<pad>",
      "single_word": false,
      "lstrip": false,
      "rstrip": false,
      "normalized": false,
      "special": true
    },
    {
      "id": 1,
      "content": "<eos>",
      "single_word": false,
      "lstrip": false,
      "rstrip": false,
      "normalized": false,
      "special": true
    },
    {
      "id": 2,
      "content": "<unk>",
      "single_word": false,
      "lstrip": false,
      "rstrip": false,
      "normalized": false,
      "special": true
    }
  ],
  "normalizer": null,
  "pre_tokenizer": {
    "type": "ByteLevel",
    "add_prefix_space": false,
    "trim_offsets": true,
    "use_regex": true
  },
  "post_processor": {
    "type": "ByteLevel",
    "add_prefix_space": true,
    "trim_offsets": false,
    "use_regex": true
  },
  "decoder": {
    "type": "ByteLevel",
    "add_prefix_space": true,
    "trim_offsets": true,
    "use_regex": true
  },
  "model": {
    "type": "BPE",
    "dropout": null,
    "unk_token": "<unk>",
    "continuing_subword_prefix": null,
    "end_of_word_suffix": null,
    "fuse_unk": false,
    "byte_fallback": false,
    "ignore_merges": false,
    "vocab": {
      "<pad>": 0,
      "<eos>": 1,
      "<unk>": 2,
      "!": 3,
      "\"": 4,
      "#": 5,
      "$": 6,
      "%": 7,
      "&": 8,
      "'": 9,
      "(": 10,
      ")": 11,
      "*": 12,
      "+": 13,
      ",": 14,
      "-": 15,
      ".": 16,
      "/": 17,
      "0": 18,
      "1": 19,
      "2": 20,
      "3": 21,
      "4": 22,
      "5": 23,
      "6": 24,
      "7": 25,
      "8": 26,
      "9": 27,
      ":": 28,
      ";": 29,
      "<": 30,
      "=": 31,
      ">": 32,
      "?": 33,
      "@": 34,
      "A": 35,
      "B": 36,
      "C": 37,
      "D": 38,
      "E": 39,
      "F": 40,
      "G": 41,
      "H": 42,
      "I": 43,
      "J": 44,
      "K": 45,
      "L": 46,
      "M": 47,
      "N": 48,
      "O": 49,
      "P": 50,
      "Q": 51,
      "R": 52,
      "S": 53,
      "T": 54,
      "U": 55,
      "V": 56,
      "W": 57,
      "X": 58,
      "Y": 59,
      "Z": 60,
      "[": 61,
      "\\": 62,
      "]": 63,
      "^": 64,
      "_": 65,
      "`": 66,
      "a": 67,
      "b": 68,
      "c": 69,
      "d": 70,
      "e": 71,
      "f": 72,
      "g": 73,
      "h": 74,
      "i": 75,
      "j": 76,
      "k": 77,
      "l": 78,
      "m": 79,
      "n": 80,
      "o": 81,
      "p": 82,
      "q": 83,
      "r": 84,
      "s": 85,
      "t": 86,
      "u": 87,
      "v": 88,
      "w": 89,
      "x": 90,
      "y": 91,
      "z": 92,
      "{": 93,
      "|": 94,
      "}": 95,
      "~": 96,
      "¡": 97,
      "¢": 98,
      "£": 99,
      "¤": 100,
      "¥": 101,
      "¦": 102,
      "§": 103,
      "¨": 104,
      "©": 105,
      "ª": 106,
      "«": 107,
      "¬": 108,
      "®": 109,
      "¯": 110,
      "°": 111,
      "±": 112,
      "²": 113,
      "³": 114,
      "´": 115,
      "µ": 116,
      "¶": 117,
      "·": 118,
      "¸": 119,
      "¹": 120,
      "º": 121,
      "»": 122,
      "¼": 123,
      "½": 124,
      "¾": 125,
      "¿": 126,
      "Â": 127,
      "Ã": 128,
      "Ä": 129,
      "Å": 130,
      "Æ": 131,
      "Ç": 132,
      "Ê": 133,
      "Ë": 134,
      "Ì": 135,
      "Î": 136,
      "Ï": 137,
      "Ð": 138,
      "Ñ": 139,
      "á": 140,
      "â": 141,
      "ã": 142,
      "ï": 143,
      "Ċ": 144,
      "Ġ": 145,
      "Ģ": 146,
      "ģ": 147,
      "Ĥ": 148,
      "ĥ": 149,
      "Ħ": 150,
      "ħ": 151,
      "Ĩ": 152,
      "ĩ": 153,
      "Ī": 154,
      "ī": 155,
      "Ĭ": 156,
      "ĭ": 157,
      "Į": 158,
      "į": 159,
      "İ": 160,
      "ı": 161,
      "Ĳ": 162,
      "ĳ": 163,
      "Ĵ": 164,
      "ĵ": 165,
      "Ķ": 166,
      "ķ": 167,
      "ĸ": 168,
      "Ĺ": 169,
      "ĺ": 170,
      "Ļ": 171,
      "ļ": 172,
      "Ľ": 173,
      "ľ": 174,
      "Ŀ": 175,
      "ŀ": 176,
      "Ł": 177,
      "ł": 178,
      "Ń": 179,
      "Ġt": 180,
      "an": 181,
      "he": 182,
      "at": 183,
      "in": 184,
      "on": 185,
      "re": 186,
      "er": 187,
      "Ġthe": 188,
      "Ġa": 189,
      "it": 190,
      "Ġs": 191,
      "Ġc": 192,
      "le": 193,
      "or": 194,
      "is": 195,
      "en": 196,
      "al": 197,
      "Ġo": 198,
      "es": 199,
      "ion": 200,
      "ĠĠ": 201,
      "Ġp": 202,
      "ing": 203,
      "Ġw": 204,
      "ic": 205,
      "Ġb": 206,
      "Ġm": 207,
      "Ġf": 208,
      "qu": 209,
      "Ġan": 210,
      "Ġin": 211,
      "ro": 212,
      "Ġof": 213,
      "Ġd": 214,
      "ar": 215,
      "ct": 216,
      "Ġto": 217,
      "as": 218,
      "ed": 219,
      "um": 220,
      "Ġis": 221,
      "ent": 222,
      "Ġ$": 223,
      "Ġth": 224,
      "Ġe": 225,
      "im": 226,
      "om": 227,
      "ation": 228,
      "ou": 229,
      "Ġqu": 230,
      "ant": 231,
      "Ġand": 232,
      "ang": 233,
      "ut": 234,
      "Ġ\\": 235,
      "Ġn": 236,
      "et": 237,
      "st": 238,
      "ly": 239,
      "angle": 240,
      "Ġre": 241,
      "ve": 242,
      "ate": 243,
      "ot": 244,
      "antum": 245,
      "Ġst": 246,
      "Ġg": 247,
      "ac": 248,
      "ĠT": 249,
      "ĠI": 250,
      "ig": 251,
      "ĠĠĠĠ": 252,
      "ul": 253,
      "Ġh": 254,
      "il": 255,
      "Ġu": 256,
      "ow": 257,
      "Ġthat": 258,
      "Ġl": 259,
      "rangle": 260,
      "am": 261,
      "Ġbe": 262,
      "se": 263,
      "Ġquantum": 264,
      "Ġfor": 265,
      "Ġpro": 266,
      "ir": 267,
      "ith": 268,
      "Ġ(": 269,
      "per": 270,
      "Ġon": 271,
      "ol": 272,
      "bit": 273,
      "if": 274,
      "ver": 275,
      "ure": 276,
      "omp": 277,
      "de": 278,
      "ical": 279,
      "ce": 280,
      "Ġ=": 281,
      "ment": 282,
      "Ġex": 283,
      "ab": 284,
      "Ġ0": 285,
      "ch": 286,
      "ri": 287,
      "Ġcon": 288,
      "Ġcan": 289,
      "Ġal": 290,
      "Ġme": 291,
      "ĠC": 292,
      "Ġare": 293,
      "ity": 294,
      "Ġit": 295,
      "Ġ1": 296,
      "ĠS": 297,
      "Ġcomp": 298,
      "Ġas": 299,
      "cu": 300,
      "ĠThe": 301,
      "ter": 302,
      "Ġy": 303,
      "Ġwith": 304,
      "ect": 305,
      "Ġqubit": 306,
      "âĶ": 307,
      "ĠA": 308,
      "ĠQ": 309,
      "si": 310,
      "ates": 311,
      "Ġwh": 312,
      "ra": 313,
      "os": 314,
      "pp": 315,
      "Ġstate": 316,
      "un": 317,
      "ag": 318,
      "Ġyou": 319,
      "Ġde": 320,
      "Ġsu": 321,
      "mat": 322,
      "Ġwe": 323,
      "Ġthis": 324,
      "ĠH": 325,
      "Ġ$\\": 326,
      "ple": 327,
      "res": 328,
      "iz": 329,
      "ist": 330,
      "ld": 331,
      "ĠP": 332,
      "ave": 333,
      "ction": 334,
      "âĶĢ": 335,
      "cuit": 336,
      "ircuit": 337,
      "ial": 338,
      "Ġor": 339,
      "_{": 340,
      "asure": 341,
      "Ġun": 342,
      "igh": 343,
      "em": 344,
      "pl": 345,
      "for": 346,
      "$$": 347,
      "here": 348,
      "ĠW": 349,
      "rom": 350,
      "ĠB": 351,
      "nt": 352,
      "end": 353,
      "her": 354,
      "od": 355,
      "ult": 356,
      "pt": 357,
      "Ġby": 358,
      "ur": 359,
      "Ġnot": 360,
      "ay": 361,
      "Ġsp": 362,
      "ations": 363,
      "ĠE": 364,
      "id": 365,
      "Ġ&": 366,
      "ad": 367,
      "rac": 368,
      "ĠĠĠ": 369,
      "and": 370,
      "ke": 371,
      "Ġse": 372,
      "Ġcomput": 373,
      "âĶĢâĶĢ": 374,
      "ble": 375,
      "ore": 376,
      "Ġmeasure": 377,
      "art": 378,
      "Ġen": 379,
      "ass": 380,
      "Ġv": 381,
      "ies": 382,
      "Ġus": 383,
      "iv": 384,
      "ator": 385,
      "Ġim": 386,
      "ight": 387,
      "ph": 388,
      "ĠĠĠĠĠĠĠĠ": 389,
      "Ġdo": 390,
      "ĠM": 391,
      "ĠQu": 392,
      "{\\": 393,
      "``": 394,
      "og": 395,
      "'s": 396,
      "Ġph": 397,
      "form": 398,
      "ers": 399,
      "ich": 400,
      "ition": 401,
      "Ġcl": 402,
      "ain": 403,
      "ĠD": 404,
      "Ġr": 405,
      "hat": 406,
      "rix": 407,
      "ĠF": 408,
      "ere": 409,
      "Ġ|": 410,
      "Ġat": 411,
      "Ġmat": 412,
      "ces": 413,
      "Ġhave": 414,
      "ror": 415,
      "ive": 416,
      "00": 417,
      "ould": 418,
      "Ġoper": 419,
      "est": 420,
      "der": 421,
      "ill": 422,
      "du": 423,
      "Ġco": 424,
      "abil": 425,
      "Ġch": 426,
      "Ġle": 427,
      "Ġqubits": 428,
      "Ġcircuit": 429,
      "el": 430,
      "his": 431,
      "Ġsy": 432,
      "frac": 433,
      "ans": 434,
      "imes": 435,
      "able": 436,
      "Ġapp": 437,
      "Ġwhich": 438,
      "ĠQuantum": 439,
      "$.": 440,
      "Ġtr": 441,
      "eg": 442,
      "}\\": 443,
      "Ġ2": 444,
      "Ġint": 445,
      "assical": 446,
      "ary": 447,
      "ff": 448,
      "Ġfrom": 449,
      "ine": 450,
      "error": 451,
      "math": 452,
      "Ġ+": 453,
      "ithm": 454,
      "ens": 455,
      "stem": 456,
      ").": 457,
      "Ġres": 458,
      "Ġne": 459,
      "Ġmeasurement": 460,
      "ase": 461,
      "ome": 462,
      "Ġsim": 463,
      "gor": 464,
      "gorithm": 465,
      "|\\": 466,
      "Ġif": 467,
      "psi": 468,
      "ho": 469,
      "Ġ-": 470,
      "Ġerror": 471,
      "ort": 472,
      "$,": 473,
      "ec": 474,
      "ĠN": 475,
      "(\\": 476,
      "ĠThis": 477,
      "Ġsh": 478,
      "ĊĠĠĠ": 479,
      "low": 480,
      "ap": 481,
      "Ġstates": 482,
      "cal": 483,
      "Ġpart": 484,
      "Ġcont": 485,
      "^{": 486,
      "Ġsystem": 487,
      "ĠR": 488,
      "us": 489,
      "ctor": 490,
      "ign": 491,
      "fere": 492,
      "wo": 493,
      "Ġcor": 494,
      "ard": 495,
      "erm": 496,
      "hen": 497,
      "langle": 498,
      "rho": 499,
      "Ġone": 500,
      "âŁ": 501,
      "Ġalgorithm": 502,
      "ach": 503,
      "Ġent": 504,
      "Ġgate": 505,
      "ie": 506,
      "ue": 507,
      "Ġclassical": 508,
      "Ġk": 509,
      "ated": 510,
      "ime": 511,
      "ics": 512,
      "ther": 513,
      "otimes": 514,
      "Ġtwo": 515,
      "ust": 516,
      "are": 517,
      "ĠWhat": 518,
      "Ġab": 519,
      "Ġout": 520,
      "ĠIn": 521,
      "out": 522,
      "rt": 523,
      "),": 524,
      "Ġbut": 525,
      "ft": 526,
      "Ġ\"": 527,
      "Ġq": 528,
      "--": 529,
      "ber": 530,
      "ise": 531,
      "âŁ©": 532,
      "ĠL": 533,
      "ack": 534,
      "ample": 535,
      "isk": 536,
      "lo": 537,
      "ron": 538,
      "Ġhow": 539,
      "}{": 540,
      "lect": 541,
      "Ġdif": 542,
      "Ġnum": 543,
      "te": 544,
      "ame": 545,
      "con": 546,
      "iskit": 547,
      "ru": 548,
      "ance": 549,
      "}$": 550,
      "ally": 551,
      "th": 552,
      "les": 553,
      "sum": 554,
      "ener": 555,
      "Ġbas": 556,
      "ike": 557,
      "Ġinter": 558,
      "Ġfun": 559,
      "qrt": 560,
      "the": 561,
      "int": 562,
      "Ġj": 563,
      "pres": 564,
      "ire": 565,
      "ĠG": 566,
      "ions": 567,
      "sqrt": 568,
      "Ġob": 569,
      "Ġany": 570,
      "Ġthere": 571,
      "Ġprob": 572,
      "ace": 573,
      "ys": 574,
      "Ġgates": 575,
      "Ġtrans": 576,
      "Ġno": 577,
      "Ġpos": 578,
      "âĢ": 579,
      "Ġimp": 580,
      "ability": 581,
      "Ġpre": 582,
      "cess": 583,
      "Ġsome": 584,
      "Ġpartic": 585,
      "Ġper": 586,
      "Ġoperator": 587,
      "matrix": 588,
      "Ġall": 589,
      "Ġma": 590,
      "Ġmo": 591,
      "ta": 592,
      "etw": 593,
      "ĠO": 594,
      "Ġam": 595,
      "```": 596,
      "blem": 597,
      "ding": 598,
      "ide": 599,
      "Ġad": 600,
      "erg": 601,
      "ĠU": 602,
      "right": 603,
      "Ġwhere": 604,
      "rol": 605,
      "Ġcom": 606,
      "so": 607,
      "ma": 608,
      "nce": 609,
      "ose": 610,
      "act": 611,
      "Ġthen": 612,
      "rib": 613,
      "ice": 614,
      "Ġdet": 615,
      "ific": 616,
      "nd": 617,
      "11": 618,
      "Ġusing": 619,
      "ps": 620,
      "now": 621,
      "Ġdes": 622,
      "put": 623,
      "Ġwill": 624,
      "xt": 625,
      "Ġuse": 626,
      "Ġcorre": 627,
      "ite": 628,
      "Ġ$|": 629,
      "Ġso": 630,
      "arg": 631,
      "led": 632,
      "Ġ`": 633,
      "ork": 634,
      "Ġwhat": 635,
      "ous": 636,
      "formation": 637,
      "Ġentangle": 638,
      "Ġother": 639,
      "gh": 640,
      "Ġresult": 641,
      "Ġmore": 642,
      "The": 643,
      "Ġcode": 644,
      "Ġdiffere": 645,
      "Ġproblem": 646,
      "Ġdist": 647,
      "'t": 648,
      "Ġlike": 649,
      "Ġgener": 650,
      "Ġwould": 651,
      "Ġsuch": 652,
      "ry": 653,
      "vector": 654,
      "Ġmatrix": 655,
      "fin": 656,
      "left": 657,
      "lu": 658,
      "Ġev": 659,
      "ization": 660,
      "ergy": 661,
      "Ġfin": 662,
      "Ġequ": 663,
      "Ġdoes": 664,
      "âĶĢâĶĢâĶĢâĶĢ": 665,
      "Ġexample": 666,
      "ci": 667,
      "Ġhas": 668,
      "een": 669,
      "etween": 670,
      "Ġknow": 671,
      "Ġlo": 672,
      "rou": 673,
      "Ġeff": 674,
      "Ġcomple": 675,
      "Ġbetween": 676,
      "present": 677,
      "Ġonly": 678,
      "Ġ\\\\": 679,
      "age": 680,
      "ution": 681,
      "ential": 682,
      "all": 683,
      "qubit": 684,
      "Ġdec": 685,
      "Ġac": 686,
      "Ġtime": 687,
      "au": 688,
      "Ġunder": 689,
      "Ġfunction": 690,
      "Ġro": 691,
      "Ġelect": 692,
      "Ġenergy": 693,
      "pon": 694,
      "sible": 695,
      "ser": 696,
      "Ġval": 697,
      "Ġthey": 698,
      "vert": 699,
      "egin": 700,
      "Ġ[": 701,
      "our": 702,
      "Ġnumber": 703,
      "begin": 704,
      "chan": 705,
      "Ġ3": 706,
      "ip": 707,
      "Ġpo": 708,
      "ari": 709,
      "Ġsuper": 710,
      "tain": 711,
      "vers": 712,
      "av": 713,
      "}}": 714,
      "Ġneed": 715,
      "ess": 716,
      "Ġar": 717,
      "Ġsimul": 718,
      "ating": 719,
      "Ġget": 720,
      "ence": 721,
      "Ġinto": 722,
      "Ġrepresent": 723,
      "duct": 724,
      "Ġinc": 725,
      "osition": 726,
      "Ġcontrol": 727,
      "ĠIt": 728,
      "Ġthese": 729,
      "Ġunit": 730,
      "ĠHow": 731,
      "ically": 732,
      "Ġgiv": 733,
      ")$": 734,
      "pi": 735,
      "plement": 736,
      "phi": 737,
      "Ġprobability": 738,
      "ric": 739,
      "Ġbasis": 740,
      "del": 741,
      "ger": 742,
      "oton": 743,
      "ature": 744,
      "=\\": 745,
      "Ġbec": 746,
      "to": 747,
      "Ġsol": 748,
      "Ġbit": 749,
      "ck": 750,
      "theta": 751,
      "ng": 752,
      "Ġwhen": 753,
      "ob": 754,
      "Ġset": 755,
      "Ġeach": 756,
      "ient": 757,
      "Ġinformation": 758,
      "ĠX": 759,
      "ject": 760,
      "Ġphys": 761,
      "Ġabout": 762,
      "..": 763,
      "irst": 764,
      "ĊĠĠĠĠ": 765,
      "Ġopt": 766,
      "ular": 767,
      "Ġte": 768,
      "Ġrel": 769,
      "ield": 770,
      "Ġover": 771,
      "Ġway": 772,
      "Ġused": 773,
      "eth": 774,
      "Ġpa": 775,
      "ib": 776,
      "Ġdifferent": 777,
      "ollow": 778,
      "):": 779,
      "very": 780,
      "mathcal": 781,
      "Ġ'": 782,
      "pect": 783,
      "rm": 784,
      "Ġman": 785,
      "Ġspec": 786,
      "ian": 787,
      "Ġmechan": 788,
      "ak": 789,
      "Ġform": 790,
      "ingle": 791,
      "10": 792,
      "Ġcal": 793,
      "Ġalso": 794,
      "py": 795,
      "Ġimplement": 796,
      "Ġi": 797,
      "Ġcomputation": 798,
      "Ġfollow": 799,
      "Ġpar": 800,
      "igen": 801,
      "Ġthan": 802,
      "ĠZ": 803,
      "ĠY": 804,
      "Ġsame": 805,
      "Ġperform": 806,
      "Ġits": 807,
      "ann": 808,
      "Ġfa": 809,
      "ause": 810,
      "ok": 811,
      "ĠAl": 812,
      "ory": 813,
      "}{\\": 814,
      "igma": 815,
      "Ġconst": 816,
      "Ġhe": 817,
      "Ġrequ": 818,
      "Ġâ": 819,
      "ize": 820,
      "Ġyour": 821,
      "ĠFor": 822,
      "Ġimport": 823,
      "Ġphase": 824,
      "pert": 825,
      "Ġdesc": 826,
      "ound": 827,
      "sigma": 828,
      "ast": 829,
      "ogical": 830,
      "ever": 831,
      "und": 832,
      "pend": 833,
      "Ġsingle": 834,
      "stand": 835,
      "Ġwork": 836,
      "hi": 837,
      "ruct": 838,
      "ues": 839,
      "ĠV": 840,
      "Ġx": 841,
      "dag": 842,
      "ount": 843,
      "Ġquest": 844,
      "],": 845,
      "serv": 846,
      "Ġappl": 847,
      "Ġjust": 848,
      "Ġeigen": 849,
      "yp": 850,
      "ange": 851,
      "Ġfirst": 852,
      "ell": 853,
      "Ġcomm": 854,
      "Ġtheir": 855,
      ")\\": 856,
      "ual": 857,
      "^\\": 858,
      "Ġprov": 859,
      "dagger": 860,
      "da": 861,
      "Ġcomplex": 862,
      "Ġreg": 863,
      "Ġdis": 864,
      "ities": 865,
      "Ġphoton": 866,
      "Ġelectron": 867,
      "Ġ4": 868,
      "ĠIf": 869,
      "Ġpossible": 870,
      "pha": 871,
      "aul": 872,
      "Ġact": 873,
      "ĠĠĠĠĠĠĠĠĠĠĠĠĠĠĠĠ": 874,
      "ots": 875,
      "Ġinst": 876,
      "()": 877,
      "position": 878,
      "Ġunitary": 879,
      "Ġprocess": 880,
      "Ġnon": 881,
      "pmatrix": 882,
      "Ġdefin": 883,
      "circuit": 884,
      "Ġreal": 885,
      "ata": 886,
      "Ġcol": 887,
      "Ġsub": 888,
      "vel": 889,
      "enc": 890,
      "val": 891,
      "Ġqiskit": 892,
      "ulti": 893,
      "alpha": 894,
      "text": 895,
      "par": 896,
      "Ġcase": 897,
      "Ġappro": 898,
      "Ġpl": 899,
      "Ġvector": 900,
      "mathb": 901,
      "Ġpr": 902,
      "Ġexpl": 903,
      "uring": 904,
      "orm": 905,
      "amb": 906,
      "OT": 907,
      "ized": 908,
      "Ġsystems": 909,
      "agn": 910,
      "ĠSt": 911,
      "co": 912,
      "Ġwave": 913,
      "one": 914,
      "dition": 915,
      "Ġsign": 916,
      "Ġalgorithms": 917,
      "\\\\": 918,
      "ds": 919,
      "iment": 920,
      "----": 921,
      "auli": 922,
      "Ġerrors": 923,
      ".,": 924,
      "alle": 925,
      "icient": 926,
      "Ġeffect": 927,
      "imit": 928,
      "periment": 929,
      "In": 930,
      "Ġunderstand": 931,
      "Ġentanglement": 932,
      "Ġcre": 933,
      "cur": 934,
      "plit": 935,
      "Ġsc": 936,
      "01": 937,
      "Ġgo": 938,
      "ced": 939,
      "ative": 940,
      "Ġatom": 941,
      "ub": 942,
      "Ġpropert": 943,
      "ister": 944,
      "ne": 945,
      "chn": 946,
      "ambda": 947,
      "Ġcomputing": 948,
      "xim": 949,
      "Ġgiven": 950,
      "ĠEx": 951,
      "__": 952,
      "ĠCl": 953,
      "ĠCon": 954,
      "ll": 955,
      "ilt": 956,
      "equ": 957,
      "Ġfield": 958,
      "Ġquestion": 959,
      "Ġke": 960,
      "ments": 961,
      "Ġshould": 962,
      "Ġdescrib": 963,
      "rough": 964,
      "Ġwant": 965,
      "Ġmechanics": 966,
      "amet": 967,
      "ink": 968,
      "pro": 969,
      "ten": 970,
      "itial": 971,
      "ï¬": 972,
      "Ġ$|\\": 973,
      "Ġspace": 974,
      "ree": 975,
      "oth": 976,
      "odes": 977,
      "Ġoptim": 978,
      "Ġsee": 979,
      "Ġobserv": 980,
      "NOT": 981,
      "eta": 982,
      "me": 983,
      "Ġup": 984,
      "ethod": 985,
      "Ġcould": 986,
      "+\\": 987,
      "Ġbecause": 988,
      "ful": 989,
      "raph": 990,
      "Ġnoise": 991,
      "ss": 992,
      "from": 993,
      "Ġterm": 994,
      "ĠÎ": 995,
      "action": 996,
      "Ġmulti": 997,
      "cul": 998,
      "Ġmeasurements": 999,
      "app": 1000,
      "ning": 1001,
      "Ġoperators": 1002,
      "Ġthem": 1003,
      "Ġcomputers": 1004,
      "etic": 1005,
      "ensity": 1006,
      "ract": 1007,
      "Ġapply": 1008,
      "ĠÏ": 1009,
      "ict": 1010,
      "Ġmy": 1011,
      "ram": 1012,
      "ge": 1013,
      "ackend": 1014,
      "not": 1015,
      "port": 1016,
      "Ġsuperposition": 1017,
      "Ġans": 1018,
      "Ġcomputer": 1019,
      "âķ": 1020,
      "andom": 1021,
      "Ġwas": 1022,
      "pre": 1023,
      "ĠK": 1024,
      "^{\\": 1025,
      "Ġline": 1026,
      "herence": 1027,
      "ute": 1028,
      "ication": 1029,
      "Ġfind": 1030,
      "iqu": 1031,
      "ï¬ģ": 1032,
      "qc": 1033,
      "annel": 1034,
      "rit": 1035,
      "}(": 1036,
      "))": 1037,
      "amilt": 1038,
      "amilton": 1039,
      "}_": 1040,
      "Ġmodel": 1041,
      "ĊĠĠĠĠĠĠĠ": 1042,
      "row": 1043,
      "com": 1044,
      "Ġtechn": 1045,
      "Ġcorrect": 1046,
      "ile": 1047,
      "ough": 1048,
      "Ġshow": 1049,
      "lambda": 1050,
      "Ġallow": 1051,
      "round": 1052,
      "ors": 1053,
      "Ġtra": 1054,
      "ale": 1055,
      "Ġdetect": 1056,
      "abiliz": 1057,
      "ĠComp": 1058,
      "fer": 1059,
      "ĠPro": 1060,
      "Ġexperiment": 1061,
      "Ġthrough": 1062,
      "Ġmethod": 1063,
      "Ġchannel": 1064,
      "fore": 1065,
      "Ġmay": 1066,
      "ied": 1067,
      "sider": 1068,
      "ware": 1069,
      "Ġhigh": 1070,
      "Ġlarg": 1071,
      "Ġparticles": 1072,
      "Ġrun": 1073,
      "Ġoutput": 1074,
      "arch": 1075,
      "Ġentangled": 1076,
      "Ġvari": 1077,
      "Ġfollowing": 1078,
      "Ġphysical": 1079,
      "ications": 1080,
      "Ġgeneral": 1081,
      "Ġinv": 1082,
      "ong": 1083,
      "ring": 1084,
      "ud": 1085,
      "Ġexist": 1086,
      "ince": 1087,
      "-\\": 1088,
      "Ġproduct": 1089,
      "âĢĻ": 1090,
      "Ġcalcul": 1091,
      "cept": 1092,
      "Ġinput": 1093,
      "op": 1094,
      "ertain": 1095,
      "ify": 1096,
      "ĠPauli": 1097,
      "Ġmany": 1098,
      "',": 1099,
      "ident": 1100,
      "Ġenc": 1101,
      "bmatrix": 1102,
      "ency": 1103,
      "respon": 1104,
      "Ġspin": 1105,
      "Ġtyp": 1106,
      "amiltonian": 1107,
      "Ġext": 1108,
      "Ġvalue": 1109,
      "Ġparticle": 1110,
      "Ġcircuits": 1111,
      "Ġoperations": 1112,
      "Ġdire": 1113,
      "otential": 1114,
      "Ġoperation": 1115,
      "Ġproperties": 1116,
      "ix": 1117,
      "Ġboth": 1118,
      "ane": 1119,
      "fter": 1120,
      "ays": 1121,
      "Ġinclu": 1122,
      "ĊĠ": 1123,
      "Ġdata": 1124,
      "mathbb": 1125,
      "ves": 1126,
      "Ġdeterm": 1127,
      "Ġpaper": 1128,
      "cond": 1129,
      "Ġ5": 1130,
      "Ġhere": 1131,
      "agnetic": 1132,
      "beta": 1133,
      "inci": 1134,
      "Ġem": 1135,
      "Ġansw": 1136,
      "])": 1137,
      "Ġkey": 1138,
      "ism": 1139,
      "Ġlimit": 1140,
      "ivity": 1141,
      ",\\": 1142,
      "Qu": 1143,
      "Ġcorrespon": 1144,
      "state": 1145,
      "ep": 1146,
      "Ġresults": 1147,
      "Ġparamet": 1148,
      "ons": 1149,
      "ĠThese": 1150,
      "Ġspecific": 1151,
      "Ġinitial": 1152,
      "up": 1153,
      "ĠQiskit": 1154,
      "ables": 1155,
      "lf": 1156,
      "mathrm": 1157,
      "vant": 1158,
      "ting": 1159,
      "ving": 1160,
      "rad": 1161,
      "âķĲ": 1162,
      "ĠâĶ": 1163,
      "Ġeven": 1164,
      "Ġrequire": 1165,
      "Ġtheory": 1166,
      "itive": 1167,
      "requ": 1168,
      "urn": 1169,
      "velo": 1170,
      "Ġlevel": 1171,
      "Ġpoint": 1172,
      "Ġlogical": 1173,
      "cill": 1174,
      "imul": 1175,
      "Ġstabiliz": 1176,
      "inciple": 1177,
      "Ġele": 1178,
      "Ġmust": 1179,
      "alleng": 1180,
      "Ġredu": 1181,
      "12": 1182,
      "Ġ{": 1183,
      "Ġdensity": 1184,
      "Ġz": 1185,
      "ually": 1186,
      "ament": 1187,
      "Ġrandom": 1188,
      "ases": 1189,
      "ages": 1190,
      "Ġsecond": 1191,
      "Ġinteraction": 1192,
      "oment": 1193,
      "Ġbeing": 1194,
      "'m": 1195,
      "}|": 1196,
      "Ġlook": 1197,
      "ĠHamiltonian": 1198,
      "cd": 1199,
      "cise": 1200,
      "red": 1201,
      "_{\\": 1202,
      "comp": 1203,
      "Ġmean": 1204,
      "eed": 1205,
      "ĠMe": 1206,
      "Ġpotential": 1207,
      "tation": 1208,
      "ĠDe": 1209,
      "âķĲâķĲ": 1210,
      "Circuit": 1211,
      "Ġhard": 1212,
      "ove": 1213,
      "ved": 1214,
      "ĠWe": 1215,
      "istic": 1216,
      "pr": 1217,
      "Ġident": 1218,
      "ality": 1219,
      "Ġmin": 1220,
      "sp": 1221,
      "ĠCh": 1222,
      "Ġ.": 1223,
      "Ġ#": 1224,
      "Ġamplit": 1225,
      "âĪ": 1226,
      "emper": 1227,
      "col": 1228,
      "Ġdon": 1229,
      "emperature": 1230,
      "imens": 1231,
      "of": 1232,
      "ake": 1233,
      "ption": 1234,
      "ole": 1235,
      "align": 1236,
      "Ġbeh": 1237,
      "get": 1238,
      "big": 1239,
      "Ġwhy": 1240,
      "ex": 1241,
      "ower": 1242,
      "Ġmeans": 1243,
      "Ġvery": 1244,
      "Ġche": 1245,
      "Ġhel": 1246,
      "erial": 1247,
      "Phi": 1248,
      "tr": 1249,
      "king": 1250,
      "cl": 1251,
      "Ġcorrection": 1252,
      "bin": 1253,
      "Ġmod": 1254,
      "Ġlead": 1255,
      "ires": 1256,
      "Ġprovid": 1257,
      "Ġind": 1258,
      "Ġanswer": 1259,
      "Ġsm": 1260,
      "Ġtheore": 1261,
      "velop": 1262,
      "ket": 1263,
      "Ġlinear": 1264,
      "ents": 1265,
      "quantum": 1266,
      "ĊĠĠĠĠĠĠĠĠ": 1267,
      "âĶĢâĶĢâĶĢâĶĢâĶĢâĶĢâĶĢâĶĢ": 1268,
      "Ġeigenval": 1269,
      "Ġproblems": 1270,
      "Ġfund": 1271,
      "ks": 1272,
      "sion": 1273,
      "ructure": 1274,
      "Ġfundament": 1275,
      "olution": 1276,
      "where": 1277,
      "Ġfactor": 1278,
      "Ġregister": 1279,
      "ero": 1280,
      "Ġmoment": 1281,
      "Ġthink": 1282,
      "onal": 1283,
      "lap": 1284,
      "Ġassum": 1285,
      "Ġquant": 1286,
      "Ġinteg": 1287,
      "Ġdi": 1288,
      "oding": 1289,
      "Ġtry": 1290,
      "Ġdepend": 1291,
      "This": 1292,
      "asuring": 1293,
      "Ġpres": 1294,
      "Ġpat": 1295,
      "ormal": 1296,
      "Ġterms": 1297,
      "ĠSo": 1298,
      "Ġdistrib": 1299,
      "Ġmost": 1300,
      "cor": 1301,
      "arget": 1302,
      "ead": 1303,
      "Ġrem": 1304,
      "roup": 1305,
      "nect": 1306,
      "ĠPh": 1307,
      "perator": 1308,
      "cre": 1309,
      "Ġinde": 1310,
      "uch": 1311,
      "ail": 1312,
      "Ġsignific": 1313,
      "Ġsur": 1314,
      "mon": 1315,
      "ĠHowever": 1316,
      "Ġread": 1317,
      "sing": 1318,
      "ĠBob": 1319,
      "Ġest": 1320,
      "Ġcodes": 1321,
      "eps": 1322,
      "Ġmake": 1323,
      "},": 1324,
      "rary": 1325,
      "tern": 1326,
      "ĠSh": 1327,
      "verse": 1328,
      "ĠTo": 1329,
      "tt": 1330,
      "ngth": 1331,
      "adam": 1332,
      "adamard": 1333,
      "yn": 1334,
      "Ġfrequ": 1335,
      "hemat": 1336,
      "als": 1337,
      "ference": 1338,
      "rices": 1339,
      "ote": 1340,
      "BM": 1341,
      "Ġlight": 1342,
      "}^": 1343,
      "Ġexpect": 1344,
      "ĠUn": 1345,
      "Ġafter": 1346,
      "ĠYou": 1347,
      "If": 1348,
      "ĠAlice": 1349,
      "Ġorder": 1350,
      "ray": 1351,
      "}$.": 1352,
      "Ġequation": 1353,
      "Ġtemperature": 1354,
      "ĠCNOT": 1355,
      "rong": 1356,
      "ously": 1357,
      "ffect": 1358,
      "Ġcondition": 1359,
      "ional": 1360,
      "ude": 1361,
      "}^{": 1362,
      "lear": 1363,
      "Tr": 1364,
      "Ġproject": 1365,
      "':": 1366,
      "}(\\": 1367,
      "Ġbits": 1368,
      "Ġcontrolled": 1369,
      "rent": 1370,
      "Ġfe": 1371,
      "Ġour": 1372,
      "ĠBell": 1373,
      "Ġlarge": 1374,
      "Ġabove": 1375,
      "Ġret": 1376,
      "ĠIm": 1377,
      "Ġinvol": 1378,
      "ĠĊ": 1379,
      "Ġsay": 1380,
      "Ġmultiple": 1381,
      "Ġoc": 1382,
      "Ġeas": 1383,
      "andard": 1384,
      "Ġmatrices": 1385,
      "Ġvalues": 1386,
      "ograph": 1387,
      "Ġparticular": 1388,
      "ices": 1389,
      "Ġbound": 1390,
      "face": 1391,
      "$$\\": 1392,
      "Ġpair": 1393,
      "Ġsens": 1394,
      "irc": 1395,
      "Ġuni": 1396,
      "Ġlocal": 1397,
      "Ġdetermin": 1398,
      "hes": 1399,
      "ĠSu": 1400,
      "cos": 1401,
      "Ġang": 1402,
      "cial": 1403,
      "Ġadd": 1404,
      "oherence": 1405,
      "Ġchalleng": 1406,
      "line": 1407,
      "ĠâĪ": 1408,
      "Ġ$$": 1409,
      "Ġanal": 1410,
      "uting": 1411,
      "Ġprinciple": 1412,
      "Ġ10": 1413,
      "Ġwithout": 1414,
      "Ġseem": 1415,
      "Ġphotons": 1416,
      "Ġdirect": 1417,
      "Ġbu": 1418,
      "Ġmight": 1419,
      "Ġconsider": 1420,
      "})": 1421,
      "olog": 1422,
      "Ġ|\\": 1423,
      "Ġsignificant": 1424,
      "Ġcur": 1425,
      "Ġatoms": 1426,
      "Ġcannot": 1427,
      "Ġtrac": 1428,
      "Ġdef": 1429,
      "idel": 1430,
      "rover": 1431,
      "iron": 1432,
      "Ġstart": 1433,
      "Ġsupp": 1434,
      "sin": 1435,
      "ĠClassical": 1436,
      "Ġdev": 1437,
      "ĠJ": 1438,
      "Ġsimulation": 1439,
      "fficient": 1440,
      "ĠAn": 1441,
      "ĠâĢ": 1442,
      "Ġsmall": 1443,
      "Ġestim": 1444,
      "^{-": 1445,
      "Quantum": 1446,
      "Ġmaterial": 1447,
      "viron": 1448,
      "Ġefficient": 1449,
      "Ġvers": 1450,
      "count": 1451,
      "come": 1452,
      "Ġcomputational": 1453,
      "99": 1454,
      "Ġwell": 1455,
      "Ġlear": 1456,
      "Ġmeasuring": 1457,
      "rror": 1458,
      "Ġcho": 1459,
      "')": 1460,
      "result": 1461,
      "Ġknown": 1462,
      "Ġ6": 1463,
      "ĠHadamard": 1464,
      "Ġsum": 1465,
      "Ġfundamental": 1466,
      "Ġbeen": 1467,
      "Ġprobabil": 1468,
      "Ġtechniqu": 1469,
      "chie": 1470,
      "...": 1471,
      "Ġwhile": 1472,
      "bers": 1473,
      "ĠBut": 1474,
      "gram": 1475,
      "Ġcertain": 1476,
      "ĠIBM": 1477,
      "Ġnew": 1478,
      "dict": 1479,
      "own": 1480,
      "//": 1481,
      "Ġsom": 1482,
      "Ġobtain": 1483,
      "Ġdesign": 1484,
      "Ġstabilizer": 1485,
      "sub": 1486,
      "ear": 1487,
      "avi": 1488,
      "Ġtimes": 1489,
      "Ġtarget": 1490,
      "Ġdecomp": 1491,
      "ost": 1492,
      "Ġtransform": 1493,
      "other": 1494,
      "How": 1495,
      "Ġcry": 1496,
      "ĠThere": 1497,
      "ses": 1498,
      "Ġide": 1499,
      "Ġag": 1500,
      "ook": 1501,
      "olar": 1502,
      "For": 1503,
      "pling": 1504,
      "idelity": 1505,
      "(|": 1506,
      "ilar": 1507,
      "Ġevery": 1508,
      "pendent": 1509,
      "Ġimpro": 1510,
      "ways": 1511,
      "Ġrec": 1512,
      "self": 1513,
      "FT": 1514,
      "unction": 1515,
      "ational": 1516,
      "ators": 1517,
      "Ġnow": 1518,
      "Ġoften": 1519,
      "ĠApp": 1520,
      "Ġdistance": 1521,
      "conduct": 1522,
      "ared": 1523,
      "Ġexact": 1524,
      "ish": 1525,
      "ĠIs": 1526,
      "ivale": 1527,
      "ource": 1528,
      "Ġwor": 1529,
      "irq": 1530,
      "vironment": 1531,
      "Ġsince": 1532,
      "qubits": 1533,
      "part": 1534,
      "Ġconnect": 1535,
      "Ġcorrel": 1536,
      "Ġcommun": 1537,
      "Ġmagnetic": 1538,
      "Ġsimple": 1539,
      "ither": 1540,
      "Ġincre": 1541,
      "rodu": 1542,
      "}}\\": 1543,
      "Ġgroup": 1544,
      "Ġhardware": 1545,
      "Ġtake": 1546,
      "Ġachie": 1547,
      "ixed": 1548,
      "Ġcou": 1549,
      "Ġsepar": 1550,
      "measure": 1551,
      "Ġdue": 1552,
      "ĠAs": 1553,
      "ĠRe": 1554,
      "Ġconstant": 1555,
      "Ġminim": 1556,
      "Ġstill": 1557,
      "versal": 1558,
      "Ġtest": 1559,
      "Ġvi": 1560,
      "Ġdevelop": 1561,
      "Ġcollap": 1562,
      "Ġhelp": 1563,
      "Ġexpon": 1564,
      "000": 1565,
      "ind": 1566,
      "Ġstructure": 1567,
      "Ġconf": 1568,
      "acle": 1569,
      "osed": 1570,
      "$-": 1571,
      "backend": 1572,
      "Ġspeed": 1573,
      "Ġcreate": 1574,
      "Ġmap": 1575,
      "Ġapproxim": 1576,
      "gate": 1577,
      "thon": 1578,
      "Ġcombin": 1579,
      "Ġreturn": 1580,
      "Ġoptimization": 1581,
      "cdot": 1582,
      "iffor": 1583,
      "Ġnumbers": 1584,
      "utions": 1585,
      "Ġtop": 1586,
      "Ġdiag": 1587,
      "Ġmuch": 1588,
      "AB": 1589,
      "Ġarbit": 1590,
      "rite": 1591,
      "Ġcheck": 1592,
      "qiskit": 1593,
      "ĠGrover": 1594,
      "Ġpure": 1595,
      "hich": 1596,
      "ased": 1597,
      "Ġrepresentation": 1598,
      "Ġmomentum": 1599,
      "met": 1600,
      "--------": 1601,
      "Ġancill": 1602,
      "ains": 1603,
      "Ġstandard": 1604,
      "Ġatt": 1605,
      "old": 1606,
      "Ġphysics": 1607,
      "ensor": 1608,
      "Ġmeasured": 1609,
      "Ġelectrons": 1610,
      "print": 1611,
      "Ġcurrent": 1612,
      "aus": 1613,
      "ega": 1614,
      "ilon": 1615,
      "ĠThey": 1616,
      "Ġalways": 1617,
      "Ġfact": 1618,
      "ling": 1619,
      "ively": 1620,
      "Ġgives": 1621,
      "ral": 1622,
      "Ġanother": 1623,
      "Ġexpres": 1624,
      "âĶĢâĶ": 1625,
      "Ġinterpre": 1626,
      "Ġtak": 1627,
      "ility": 1628,
      "ĠMat": 1629,
      "ography": 1630,
      "}$,": 1631,
      "trol": 1632,
      "edi": 1633,
      "rier": 1634,
      "Ġlat": 1635,
      "ifford": 1636,
      "name": 1637,
      "+|": 1638,
      "Ġrep": 1639,
      "ner": 1640,
      "Ġdefined": 1641,
      "Ġuses": 1642,
      "Ġrequires": 1643,
      "EC": 1644,
      "Ġgu": 1645,
      "Ġoutcome": 1646,
      "ething": 1647,
      "ynam": 1648,
      "ately": 1649,
      "ĠQuantumCircuit": 1650,
      "Ġpredict": 1651,
      "ĠTh": 1652,
      "ext": 1653,
      "rucial": 1654,
      "Ġ*": 1655,
      "ruction": 1656,
      "arrow": 1657,
      "izing": 1658,
      "==": 1659,
      "Ġpract": 1660,
      "tocol": 1661,
      "Ġapplications": 1662,
      "Ġbehavi": 1663,
      "Ġmatter": 1664,
      "Ġenvironment": 1665,
      "Ġbased": 1666,
      "Ġcorresponding": 1667,
      "Ġparameters": 1668,
      "Ġmaxim": 1669,
      "Ġequivale": 1670,
      "Ġdoesn": 1671,
      "Ġtheorem": 1672,
      "ĠEn": 1673,
      "its": 1674,
      "Ġsym": 1675,
      "amma": 1676,
      "Ġunderstanding": 1677,
      "ense": 1678,
      "Ġrange": 1679,
      "ness": 1680,
      "imulator": 1681,
      "Ġsolution": 1682,
      "Ġfound": 1683,
      "rate": 1684,
      "Ġbackend": 1685,
      "Ġthree": 1686,
      "Ġtri": 1687,
      "://": 1688,
      "ick": 1689,
      "Ġfl": 1690,
      "Ġ:": 1691,
      "Ġ7": 1692,
      "Ġdistribution": 1693,
      "sh": 1694,
      "ropy": 1695,
      "achine": 1696,
      "bar": 1697,
      "inst": 1698,
      "Ġamplitude": 1699,
      "Ġcrucial": 1700,
      "Ġlog": 1701,
      "over": 1702,
      "Ġsomething": 1703,
      "hether": 1704,
      "Ġelements": 1705,
      "aract": 1706,
      "Ġcomplete": 1707,
      "Ġoracle": 1708,
      "Ġlet": 1709,
      "Ġdescribed": 1710,
      "omen": 1711,
      "like": 1712,
      "ources": 1713,
      "ĠTr": 1714,
      "_\\": 1715,
      "ÏĪ": 1716,
      "Ġlow": 1717,
      "Ġwrit": 1718,
      "henomen": 1719,
      "ological": 1720,
      "Ġnp": 1721,
      "etwork": 1722,
      "Ġarbitrary": 1723,
      "02": 1724,
      "til": 1725,
      "Ġexec": 1726,
      "'re": 1727,
      "erest": 1728,
      "ĠMeasure": 1729,
      "Ġpost": 1730,
      "ey": 1731,
      "ttps": 1732,
      ".\"": 1733,
      "Ġeigenvalues": 1734,
      "Ġfrequency": 1735,
      "Ġclass": 1736,
      "So": 1737,
      "Ġoccur": 1738,
      "Ġzero": 1739,
      "Psi": 1740,
      "ĠSp": 1741,
      "Ġprogram": 1742,
      "Ġadvant": 1743,
      "aracter": 1744,
      "Ġcomplexity": 1745,
      "operator": 1746,
      "Ġeither": 1747,
      "Ġdiff": 1748,
      "Now": 1749,
      "ĠEnt": 1750,
      "itt": 1751,
      "uc": 1752,
      "Ġend": 1753,
      "ision": 1754,
      "Ġbefore": 1755,
      "conducting": 1756,
      "time": 1757,
      "Ġ$(": 1758,
      "\",": 1759,
      "ration": 1760,
      "bits": 1761,
      "Ġess": 1762,
      "Ġintrodu": 1763,
      "Ġcount": 1764,
      "Ġrad": 1765,
      "ystem": 1766,
      "tag": 1767,
      "ym": 1768,
      "Ġtrue": 1769,
      "gg": 1770,
      "ark": 1771,
      "Ġexp": 1772,
      "Ġlevels": 1773,
      "Ġright": 1774,
      "Ġtrying": 1775,
      "reat": 1776,
      "Ġequal": 1777,
      "Ġtechniques": 1778,
      "Ġgive": 1779,
      "array": 1780,
      "Ġmain": 1781,
      "ification": 1782,
      "reak": 1783,
      "Ġwhether": 1784,
      "igin": 1785,
      "ection": 1786,
      "read": 1787,
      "Ġprotocol": 1788,
      "lvert": 1789,
      "Ġthose": 1790,
      "bert": 1791,
      "less": 1792,
      "Ġsurface": 1793,
      "pped": 1794,
      "Ġexponential": 1795,
      "Ġallows": 1796,
      "Ġbehavior": 1797,
      "Ġdimens": 1798,
      "Ġabs": 1799,
      "circ": 1800,
      "Ġinterest": 1801,
      "Ġav": 1802,
      "vi": 1803,
      "Ġprovide": 1804,
      "Ġback": 1805,
      "Ġobject": 1806,
      "Ġinstead": 1807,
      "Ġaffect": 1808,
      "Ġreas": 1809,
      "log": 1810,
      "Ġ8": 1811,
      "sist": 1812,
      "Ġstat": 1813,
      "Ġphenomen": 1814,
      "ĠWhen": 1815,
      "hy": 1816,
      "times": 1817,
      "Ġsearch": 1818,
      "Ġcalled": 1819,
      "Ġthing": 1820,
      "Ġapplied": 1821,
      "ler": 1822,
      "Ġlong": 1823,
      "Ġnecess": 1824,
      "We": 1825,
      "Ġ/": 1826,
      "âĪĴ": 1827,
      "Ġimpl": 1828,
      "aw": 1829,
      "Ġchange": 1830,
      "Ġcontin": 1831,
      "Ġtrace": 1832,
      "omet": 1833,
      "Ġposition": 1834,
      "ĠShor": 1835,
      "Ġmethods": 1836,
      "Ġbuil": 1837,
      "Ġpul": 1838,
      "Ġmathemat": 1839,
      "ĠSch": 1840,
      "which": 1841,
      "Ġdirectly": 1842,
      "aneously": 1843,
      "Ġï¬ģ": 1844,
      "Ġwrite": 1845,
      "Ġchang": 1846,
      "hed": 1847,
      "Ġinclude": 1848,
      "Ġsw": 1849,
      "etter": 1850,
      "('": 1851,
      "ument": 1852,
      "Ġdifference": 1853,
      "raw": 1854,
      "Ġexplain": 1855,
      "ably": 1856,
      "gamma": 1857,
      "aster": 1858,
      "Ġequivalent": 1859,
      "Ġrese": 1860,
      "Ġcap": 1861,
      "}_{": 1862,
      "Ġsqu": 1863,
      "Ġfidelity": 1864,
      "|^": 1865,
      "Ġstring": 1866,
      "Ġconstruct": 1867,
      "Ġinteractions": 1868,
      "num": 1869,
      "Ġconcept": 1870,
      "ward": 1871,
      "Ġapproach": 1872,
      "Ġseems": 1873,
      "ures": 1874,
      "aves": 1875,
      "Ġprop": 1876,
      "ĠHere": 1877,
      "Ġinf": 1878,
      "Ġessential": 1879,
      "Ġfault": 1880,
      "ĠEntangle": 1881,
      "Ġcommunication": 1882,
      "urb": 1883,
      "Ġagain": 1884,
      "ĠAd": 1885,
      "Ġsize": 1886,
      "ptim": 1887,
      "leport": 1888,
      "Ġhand": 1889,
      "ivid": 1890,
      "Ġprobabilities": 1891,
      "ier": 1892,
      ")$.": 1893,
      "sive": 1894,
      "Ġref": 1895,
      "Ġevolution": 1896,
      "ology": 1897,
      "ĠĠĠĠĠĠĠ": 1898,
      "Ġprovides": 1899,
      "ather": 1900,
      "Ġbl": 1901,
      "ines": 1902,
      "omial": 1903,
      "cx": 1904,
      "Ġpower": 1905,
      "lock": 1906,
      "igher": 1907,
      "ĠÏĪ": 1908,
      "sed": 1909,
      "side": 1910,
      "Ex": 1911,
      "istics": 1912,
      "Ġbelow": 1913,
      "0000": 1914,
      "Ġancilla": 1915,
      "As": 1916,
      "ilbert": 1917,
      "ĠThen": 1918,
      "Ġorigin": 1919,
      "Ġmeaning": 1920,
      "Ġpath": 1921,
      "lying": 1922,
      "Ġmaterials": 1923,
      "icle": 1924,
      "Ġpositive": 1925,
      "fect": 1926,
      "comes": 1927,
      "ift": 1928,
      "Ġlearning": 1929,
      "Ġsimilar": 1930,
      "Ġcharacter": 1931,
      "Ġrespect": 1932,
      "ross": 1933,
      "____": 1934,
      "aser": 1935,
      "ention": 1936,
      "Ġcoherence": 1937,
      "Ġsolve": 1938,
      "Ġsequ": 1939,
      "Ġthough": 1940,
      "Ġ11": 1941,
      "Ġimportant": 1942,
      "herent": 1943,
      "ox": 1944,
      "nel": 1945,
      "pping": 1946,
      "inary": 1947,
      "Ġwere": 1948,
      "Ġprodu": 1949,
      "OR": 1950,
      "ĠClifford": 1951,
      "Ġentropy": 1952,
      "Ġrate": 1953,
      "Ġrotation": 1954,
      "Ġsat": 1955,
      "tal": 1956,
      "Ġgood": 1957,
      "Reg": 1958,
      "Ġable": 1959,
      "Ġdecoherence": 1960,
      "ĠHilbert": 1961,
      "Ġdeg": 1962,
      "iew": 1963,
      "Ġvectors": 1964,
      "loch": 1965,
      "Ġfields": 1966,
      "aces": 1967,
      "ax": 1968,
      "set": 1969,
      "Ġprecise": 1970,
      "etime": 1971,
      "Ġnetwork": 1972,
      "Ġdefinition": 1973,
      "Ġbetter": 1974,
      "omega": 1975,
      "Ġground": 1976,
      "Ġqc": 1977,
      "Ġstep": 1978,
      "Ġcompon": 1979,
      "Ġrot": 1980,
      "Ġobservable": 1981,
      "usion": 1982,
      "ee": 1983,
      "man": 1984,
      "epsilon": 1985,
      "Ġapplying": 1986,
      "Ġoutcomes": 1987,
      "Ġwithin": 1988,
      "Ġreason": 1989,
      "lob": 1990,
      "ĊĠĠĠĠĠĠĠĠĠĠĠ": 1991,
      "Ġhapp": 1992,
      "Ġexc": 1993,
      "Ġful": 1994,
      "igure": 1995,
      "lyn": 1996,
      "Ġcost": 1997,
      "mathbf": 1998,
      ")=": 1999,
      "oint": 2000,
      "Ġeffects": 2001,
      "Ġdone": 2002,
      "Ġjob": 2003,
      "Ġbreak": 2004,
      "Ġfollows": 2005,
      "vec": 2006,
      "lynomial": 2007,
      "ty": 2008,
      "ĠSuper": 2009,
      "Ġstud": 2010,
      "AP": 2011,
      "aries": 2012,
      "(\"": 2013,
      "Ġexactly": 2014,
      "Ġleast": 2015,
      "'ve": 2016,
      "Ġtensor": 2017,
      "reg": 2018,
      "Ġprep": 2019,
      "âķĲâķĲâķĲâķĲ": 2020,
      "Ġmachine": 2021,
      "Ġsimpl": 2022,
      "Ġtransition": 2023,
      "Ġ,": 2024,
      "ĠNo": 2025,
      "ĠAt": 2026,
      "It": 2027,
      "ĠError": 2028,
      "ond": 2029,
      "Ġscal": 2030,
      "Ġcrypt": 2031,
      "utation": 2032,
      "Ġactually": 2033,
      "ibm": 2034,
      "Ġden": 2035,
      "Ġmole": 2036,
      "code": 2037,
      "Ġrequired": 2038,
      "Ġnormal": 2039,
      "rightarrow": 2040,
      "crete": 2041,
      "Ġsatis": 2042,
      "ired": 2043,
      "ven": 2044,
      "13": 2045,
      "with": 2046,
      "nces": 2047,
      "ission": 2048,
      "ĠDif": 2049,
      "raction": 2050,
      "ercise": 2051,
      "Ġcontext": 2052,
      "no": 2053,
      "St": 2054,
      "ply": 2055,
      "ros": 2056,
      "ified": 2057,
      "Ġspect": 2058,
      "udes": 2059,
      "Register": 2060,
      "Ġindependent": 2061,
      "$\\": 2062,
      "Ġinequ": 2063,
      "Ġuseful": 2064,
      "[-": 2065,
      "Ġcompute": 2066,
      "ingu": 2067,
      "(-": 2068,
      "Ġser": 2069,
      "Ġstrong": 2070,
      "Ġformul": 2071,
      "008": 2072,
      "ĠAlgorithm": 2073,
      "urther": 2074,
      "CNOT": 2075,
      "ein": 2076,
      "Ġoff": 2077,
      "bra": 2078,
      "iation": 2079,
      "ĠLet": 2080,
      "Ġteleport": 2081,
      "Ġwritten": 2082,
      "Ġinterference": 2083,
      "ially": 2084,
      "kes": 2085,
      "oler": 2086,
      "Ġdecomposition": 2087,
      "ndrom": 2088,
      "Ġworks": 2089,
      "atic": 2090,
      "Ġlist": 2091,
      "ily": 2092,
      "ĠEntanglement": 2093,
      "Ġsimulator": 2094,
      "To": 2095,
      "ible": 2096,
      "Ġgraph": 2097,
      "Ġdemon": 2098,
      "##": 2099,
      "Ġet": 2100,
      "Ġidentity": 2101,
      "Ġbecom": 2102,
      "Ġflu": 2103,
      "Ġaround": 2104,
      "Ġcalculate": 2105,
      "16": 2106,
      "rame": 2107,
      "âŁ©,": 2108,
      "ciated": 2109,
      "Ġpolar": 2110,
      "Âł": 2111,
      "Ġ9": 2112,
      "ances": 2113,
      "bol": 2114,
      "Ġencoding": 2115,
      "aving": 2116,
      "Ġsimult": 2117,
      "}$$": 2118,
      "mu": 2119,
      "pth": 2120,
      "abel": 2121,
      "ppose": 2122,
      "lie": 2123,
      "Ġelement": 2124,
      "ĠâĪĴ": 2125,
      "lection": 2126,
      "Ġcall": 2127,
      "</": 2128,
      "ĠPl": 2129,
      "Ġaut": 2130,
      "QE": 2131,
      "ĊĠĠ": 2132,
      "Ïģ": 2133,
      "local": 2134,
      "Ġrather": 2135,
      "Ġneeded": 2136,
      "Ġrelated": 2137,
      "dots": 2138,
      "sc": 2139,
      "Ġproof": 2140,
      "Ġâī": 2141,
      "Ġsatisf": 2142,
      "Ġidea": 2143,
      "ming": 2144,
      "Ġdemonst": 2145,
      "Ġdepends": 2146,
      "Ġparameter": 2147,
      "Ġcollapse": 2148,
      "Ġarg": 2149,
      "oli": 2150,
      "Ġconsist": 2151,
      "odel": 2152,
      "Ġcrit": 2153,
      "ĠInter": 2154,
      "ĠCo": 2155,
      "lib": 2156,
      "ĠDo": 2157,
      "pen": 2158,
      "Ġsend": 2159,
      "idd": 2160,
      "be": 2161,
      "Ġver": 2162,
      "Ġthus": 2163,
      "Let": 2164,
      "âĤ": 2165,
      "Ġsimply": 2166,
      "Ġimplementation": 2167,
      "Ġcontinu": 2168,
      "ĊĠĠĠĠĠĠĠĠĠĠĠĠĠĠĠĠ": 2169,
      "Ġdown": 2170,
      "Ġless": 2171,
      "What": 2172,
      "certain": 2173,
      "des": 2174,
      "anced": 2175,
      "ĠQFT": 2176,
      ")^": 2177,
      "oss": 2178,
      "Ġdefine": 2179,
      "Ġsymmet": 2180,
      "lobal": 2181,
      "Ġtotal": 2182,
      "Ġhigher": 2183,
      "Ġclear": 2184,
      "âŁ¨": 2185,
      "Ġleading": 2186,
      "ription": 2187,
      "Ġsure": 2188,
      "([": 2189,
      "Ġbecomes": 2190,
      "Ġlink": 2191,
      "equation": 2192,
      "Ġsimulate": 2193,
      "Th": 2194,
      "You": 2195,
      "Is": 2196,
      "ĠExample": 2197,
      "Ġpolynomial": 2198,
      "sib": 2199,
      "Ġhttps": 2200,
      "ĠâĶľ": 2201,
      "Ġreally": 2202,
      "15": 2203,
      "function": 2204,
      "Ġdescribe": 2205,
      "Ġmet": 2206,
      "arily": 2207,
      "icult": 2208,
      "Ġcommon": 2209,
      "efficient": 2210,
      "Ġenough": 2211,
      "Con": 2212,
      "Ġnature": 2213,
      "Ġoriginal": 2214,
      "ij": 2215,
      "Ġsuperconducting": 2216,
      "Ġdetail": 2217,
      "delta": 2218,
      "ĠBloch": 2219,
      "Ġmakes": 2220,
      "Ġindivid": 2221,
      "Ġimprove": 2222,
      "&=": 2223,
      "Ġrepresents": 2224,
      "Ġresearch": 2225,
      "quad": 2226,
      "Ġaddition": 2227,
      "ĠCan": 2228,
      "rid": 2229,
      "dimens": 2230,
      ")}": 2231,
      "toler": 2232,
      "ggest": 2233,
      "cision": 2234,
      "curac": 2235,
      "ĠRes": 2236,
      "Ġsample": 2237,
      "Ġpairs": 2238,
      "cing": 2239,
      "pm": 2240,
      "ogonal": 2241,
      "Ġenables": 2242,
      "ĠKey": 2243,
      "Ġfinding": 2244,
      "Ġversion": 2245,
      "Ġinvolves": 2246,
      "Ġadvantage": 2247,
      "Ġchallenges": 2248,
      "Ġrepe": 2249,
      "iod": 2250,
      "oded": 2251,
      "asm": 2252,
      "def": 2253,
      "Ġamplitudes": 2254,
      "ĠMeasurement": 2255,
      "rav": 2256,
      "Ġexcit": 2257,
      "hile": 2258,
      "ching": 2259,
      "Ġfunctions": 2260,
      "run": 2261,
      "`.": 2262,
      "Ġlaser": 2263,
      "Ġions": 2264,
      "Ġsolutions": 2265,
      "work": 2266,
      "Ġpractical": 2267,
      "ences": 2268,
      "tical": 2269,
      "ĠWhy": 2270,
      "space": 2271,
      "Ġnote": 2272,
      "ank": 2273,
      "Ġsuggest": 2274,
      "ord": 2275,
      "Ġmixed": 2276,
      "inguish": 2277,
      ")|": 2278,
      "Ġ$\\{": 2279,
      "Ġblack": 2280,
      "Ġfaster": 2281,
      "Ġcaus": 2282,
      "stim": 2283,
      "ody": 2284,
      "comm": 2285,
      "curacy": 2286,
      "ready": 2287,
      "Ġdifficult": 2288,
      "Ġlast": 2289,
      "light": 2290,
      "\")": 2291,
      "14": 2292,
      "allel": 2293,
      "Ġsimultaneously": 2294,
      "Ġadv": 2295,
      "atter": 2296,
      "Ġtype": 2297,
      "ysis": 2298,
      "25": 2299,
      "Ġdoing": 2300,
      "thing": 2301,
      "asing": 2302,
      "Ġpur": 2303,
      "import": 2304,
      "Ġsyndrom": 2305,
      "ynamics": 2306,
      "ipul": 2307,
      "Ġtas": 2308,
      "itary": 2309,
      "oling": 2310,
      ")$,": 2311,
      "Ġdat": 2312,
      "arge": 2313,
      "Ġfinal": 2314,
      "ural": 2315,
      "ĠPr": 2316,
      "Ġperformance": 2317,
      "Ġincluding": 2318,
      "np": 2319,
      "Ġconc": 2320,
      ")/": 2321,
      "Ġsuc": 2322,
      "Ġens": 2323,
      "ĠThat": 2324,
      "Ġexpectation": 2325,
      "Ġdiagonal": 2326,
      "Ġimplemented": 2327,
      "Ä§": 2328,
      "Ġtherm": 2329,
      "leq": 2330,
      "However": 2331,
      "orre": 2332,
      "Ġself": 2333,
      "resh": 2334,
      "org": 2335,
      "Ġalready": 2336,
      "ĊĊĠĠĠ": 2337,
      "Ġtypically": 2338,
      "];": 2339,
      "Ġfar": 2340,
      "dimensional": 2341,
      "ress": 2342,
      "operatorname": 2343,
      "simulator": 2344,
      "Ġsci": 2345,
      "Ġpass": 2346,
      "Ġbest": 2347,
      "ĠState": 2348,
      "Ġ)": 2349,
      "Ġprot": 2350,
      "Ġder": 2351,
      "Ġglobal": 2352,
      "Ġsphere": 2353,
      "Â²": 2354,
      "Ġaction": 2355,
      "Ġwon": 2356,
      "ĠNe": 2357,
      "Ġmaking": 2358,
      "Ġel": 2359,
      ".$$": 2360,
      "Ġefficiently": 2361,
      "Ġtransformation": 2362,
      "Ġuniversal": 2363,
      "Ġfew": 2364,
      "Ġsupport": 2365,
      "map": 2366,
      "Pro": 2367,
      "vid": 2368,
      "Ġasso": 2369,
      "ductor": 2370,
      "Ġant": 2371,
      "verage": 2372,
      "Ġsever": 2373,
      "Ġdirection": 2374,
      "itig": 2375,
      "Ġrest": 2376,
      "Ġnuc": 2377,
      "Ġrelative": 2378,
      "curity": 2379,
      "itian": 2380,
      "Ġ(\\": 2381,
      "Ġproperty": 2382,
      "Ġinteract": 2383,
      "Ġrepresented": 2384,
      "instein": 2385,
      "Ġseveral": 2386,
      "Ġdefinite": 2387,
      "Ġangular": 2388,
      "Ġexperimental": 2389,
      "Ġcirq": 2390,
      "back": 2391,
      "Ġinstance": 2392,
      "tice": 2393,
      "sup": 2394,
      "ols": 2395,
      "Ġvia": 2396,
      "Ġiss": 2397,
      "Ġdid": 2398,
      "**": 2399,
      "Ġoptical": 2400,
      "Ġmic": 2401,
      "ĠDiffere": 2402,
      "tolerant": 2403,
      "Ġsense": 2404,
      "ĠBy": 2405,
      "Ġconstra": 2406,
      "Ġdevelopment": 2407,
      "vent": 2408,
      "length": 2409,
      "Ġmathematical": 2410,
      "Ġcare": 2411,
      "Ġorth": 2412,
      "VM": 2413,
      "Ġeigenvalue": 2414,
      "Ġiter": 2415,
      "ffoli": 2416,
      "Ġinterpretation": 2417,
      "Ġexperiments": 2418,
      "Ġstim": 2419,
      "counts": 2420,
      "certainty": 2421,
      "Ġlarger": 2422,
      "rosco": 2423,
      "\\!": 2424,
      "$?": 2425,
      "ape": 2426,
      "Ġdetermine": 2427,
      "ĠTrans": 2428,
      "sto": 2429,
      "Ġmeasures": 2430,
      "trans": 2431,
      "ories": 2432,
      "Ġobser": 2433,
      "Ġsteps": 2434,
      "finite": 2435,
      "Ġdevices": 2436,
      "Ġachieve": 2437,
      "Ġassume": 2438,
      "Ġconditions": 2439,
      "Al": 2440,
      "izes": 2441,
      "ĠMan": 2442,
      "WAP": 2443,
      "ises": 2444,
      "ĠCom": 2445,
      "Ġperformed": 2446,
      "Ġindividual": 2447,
      "Ġ12": 2448,
      "Ġmodels": 2449,
      "acy": 2450,
      "Ġtun": 2451,
      "Ġblock": 2452,
      "cuss": 2453,
      "lic": 2454,
      "Ġframe": 2455,
      "\".": 2456,
      ")),": 2457,
      "ml": 2458,
      "Ġaccuracy": 2459,
      "ocu": 2460,
      "Ġion": 2461,
      "Ġcour": 2462,
      "Ġmade": 2463,
      "Ġdevice": 2464,
      "ÂłÂł": 2465,
      "Ġdepth": 2466,
      "cording": 2467,
      "Ġmot": 2468,
      "Ġrole": 2469,
      "Ġneg": 2470,
      "ev": 2471,
      "Ġfour": 2472,
      "Ġmanipul": 2473,
      "Ġalong": 2474,
      "Ġsa": 2475,
      "Ġtransm": 2476,
      "ourier": 2477,
      "ĠInt": 2478,
      "ifically": 2479,
      "lex": 2480,
      "Ġimag": 2481,
      "ique": 2482,
      "icon": 2483,
      "atz": 2484,
      "Ġteleportation": 2485,
      "ĠDec": 2486,
      "Ġpy": 2487,
      "Ġstabilizers": 2488,
      "Ġtemperatures": 2489,
      "icles": 2490,
      "plus": 2491,
      "Ġextre": 2492,
      "Ġperiod": 2493,
      "ently": 2494,
      "ĠComputing": 2495,
      "Ġlooking": 2496,
      "tilde": 2497,
      "Ġax": 2498,
      "Ġlower": 2499,
      "romagnetic": 2500,
      "There": 2501,
      "asis": 2502,
      "alf": 2503,
      "Ġmem": 2504,
      "ert": 2505,
      "aling": 2506,
      "ĠQA": 2507,
      "ĠFerm": 2508,
      "ĠQC": 2509,
      "001": 2510,
      "Ġreduced": 2511,
      "Ġdetection": 2512,
      "ici": 2513,
      "uations": 2514,
      "var": 2515,
      "Ġshift": 2516,
      "Ġmultipl": 2517,
      "Ġexists": 2518,
      "Ġinteger": 2519,
      "But": 2520,
      "Ġlay": 2521,
      "Ġchanges": 2522,
      "Ġmis": 2523,
      "ĠDes": 2524,
      "aps": 2525,
      "Ġapplication": 2526,
      "Ġcorrelations": 2527,
      "rateg": 2528,
      "Ġavail": 2529,
      "equiv": 2530,
      "ries": 2531,
      "Ġvarious": 2532,
      "23": 2533,
      "dinger": 2534,
      "Ġaccur": 2535,
      "Ġencoded": 2536,
      "Ġnotation": 2537,
      "ott": 2538,
      "Ġaccess": 2539,
      "det": 2540,
      "Ġleft": 2541,
      "ĠPhys": 2542,
      "Ġdiscrete": 2543,
      "Ġed": 2544,
      "Ġsem": 2545,
      "els": 2546,
      "Ġprecision": 2547,
      "states": 2548,
      "Ġphenomena": 2549,
      "]]": 2550,
      "KD": 2551,
      "itted": 2552,
      "Ġdiscuss": 2553,
      "Ġatomic": 2554,
      "ns": 2555,
      "oplus": 2556,
      "oring": 2557,
      "jor": 2558,
      "ĠAer": 2559,
      "ĠHe": 2560,
      "Ġreduce": 2561,
      "Ġinflu": 2562,
      "Note": 2563,
      "based": 2564,
      "corre": 2565,
      "Ġdimension": 2566,
      "we": 2567,
      "Ġeigenvector": 2568,
      "Ġcoupling": 2569,
      "Ġcomponents": 2570,
      "cc": 2571,
      "Ġ}": 2572,
      "Ġgreat": 2573,
      "ĠSim": 2574,
      "ĠThus": 2575,
      "wise": 2576,
      "Ġsche": 2577,
      "Ġassociated": 2578,
      "Ġorthogonal": 2579,
      "19": 2580,
      "ying": 2581,
      "Ġcases": 2582,
      "Ġnecessary": 2583,
      "know": 2584,
      "Ġtell": 2585,
      "20": 2586,
      "Ġproced": 2587,
      "Ġvalid": 2588,
      "Ġspecial": 2589,
      "Ġeasy": 2590,
      "Ġbinary": 2591,
      "Ġmolecu": 2592,
      "Ġchoice": 2593,
      "'ll": 2594,
      "head": 2595,
      "âŁ©.": 2596,
      "Ġexamples": 2597,
      "My": 2598,
      "icit": 2599,
      "Ġweight": 2600,
      "ipart": 2601,
      "ored": 2602,
      "Ġsource": 2603,
      "Ġmention": 2604,
      "Ġbeam": 2605,
      "Ġprim": 2606,
      "Ġcombination": 2607,
      "Ġsquare": 2608,
      "book": 2609,
      "Ġextreme": 2610,
      "Ġtoget": 2611,
      "overline": 2612,
      "Ġtogether": 2613,
      "Ġins": 2614,
      "Ġresources": 2615,
      "Ġbecome": 2616,
      "ins": 2617,
      "control": 2618,
      "Ġcomputations": 2619,
      "ĠFourier": 2620,
      "âĶĢâĶĢâĶĢâĶ": 2621,
      "Ġchannels": 2622,
      "Ġgenerally": 2623,
      "Ġrepl": 2624,
      "Ġitself": 2625,
      "Ġnear": 2626,
      "inf": 2627,
      "Ġcoefficient": 2628,
      "Ġrele": 2629,
      "iven": 2630,
      "Ġregard": 2631,
      "Ã¶": 2632,
      "Ġsyndrome": 2633,
      "Error": 2634,
      "Su": 2635,
      "Ġpattern": 2636,
      "Ġwrong": 2637,
      "Ġfull": 2638,
      "ock": 2639,
      "Ġru": 2640,
      "ĠâĶĤ": 2641,
      "isy": 2642,
      "ermitian": 2643,
      "Ġdescribes": 2644,
      "append": 2645,
      "Ġfail": 2646,
      "Ġhad": 2647,
      "Ġamount": 2648,
      "Ġlattice": 2649,
      "Ġbos": 2650,
      "min": 2651,
      "ĠQM": 2652,
      "Ġconvert": 2653,
      "ising": 2654,
      "Ġestimation": 2655,
      "ĠExpl": 2656,
      "iled": 2657,
      "oper": 2658,
      "system": 2659,
      "Ġrunning": 2660,
      "Big": 2661,
      "exp": 2662,
      "isual": 2663,
      "alk": 2664,
      "Ġtypes": 2665,
      "Ġcourse": 2666,
      "sequ": 2667,
      "Ġtakes": 2668,
      "Ġferm": 2669,
      "Ġduring": 2670,
      "ilation": 2671,
      "ĠSimul": 2672,
      "empt": 2673,
      "ef": 2674,
      "ears": 2675,
      "Ġclose": 2676,
      "ĠÏģ": 2677,
      "Ġdemonstr": 2678,
      "Ġshown": 2679,
      "irac": 2680,
      "scill": 2681,
      "ze": 2682,
      "ĠSchr": 2683,
      "ĠOne": 2684,
      "24": 2685,
      "apter": 2686,
      "Ġavailable": 2687,
      "Ġlength": 2688,
      ")=\\": 2689,
      "Ġshots": 2690,
      "Ġeasily": 2691,
      "Ġangle": 2692,
      "17": 2693,
      "itivity": 2694,
      "lectron": 2695,
      "attering": 2696,
      "ND": 2697,
      "Ġ&=": 2698,
      "Ġtoo": 2699,
      "ets": 2700,
      "Ã¶dinger": 2701,
      "Cl": 2702,
      "[\\": 2703,
      "ĠAnd": 2704,
      "Ġobserved": 2705,
      "Ġviol": 2706,
      "Ġhowever": 2707,
      "ĠPlan": 2708,
      "`,": 2709,
      "Ġperfect": 2710,
      "Ġmass": 2711,
      "ĠDet": 2712,
      "Ġ('": 2713,
      "Ġresulting": 2714,
      "Ġlogic": 2715,
      "Ġparallel": 2716,
      "Ġyield": 2717,
      "pile": 2718,
      "$)": 2719,
      "ĠCircuit": 2720,
      "ĠVQE": 2721,
      "vious": 2722,
      "].": 2723,
      "Ġprove": 2724,
      "Ġprinciples": 2725,
      "Ġra": 2726,
      "Ġsuccess": 2727,
      "Ġturn": 2728,
      "qr": 2729,
      "Ġindic": 2730,
      "ĠSchrÃ¶dinger": 2731,
      "Here": 2732,
      "Ġexhi": 2733,
      "Ġgenerate": 2734,
      "\\}$": 2735,
      "Gate": 2736,
      "down": 2737,
      "Ġunique": 2738,
      "berg": 2739,
      "radient": 2740,
      "Ġeval": 2741,
      "OA": 2742,
      "aches": 2743,
      "uum": 2744,
      "uted": 2745,
      "Ġobservables": 2746,
      "Ġbook": 2747,
      "ird": 2748,
      "Ġfree": 2749,
      "Ġcorresponds": 2750,
      "ience": 2751,
      "oh": 2752,
      "ibration": 2753,
      "Ġfeature": 2754,
      "iels": 2755,
      "Pauli": 2756,
      "ium": 2757,
      "ĠMore": 2758,
      "Ġuniverse": 2759,
      "98": 2760,
      "pec": 2761,
      "Ġfurther": 2762,
      "reshold": 2763,
      "Ġinequality": 2764,
      "medi": 2765,
      "}=": 2766,
      "Ġhy": 2767,
      "Ġloss": 2768,
      "Ġweak": 2769,
      "Ġrelations": 2770,
      "Ġconstraint": 2771,
      "Ġhaving": 2772,
      "Ġforce": 2773,
      "rict": 2774,
      "Ġcritical": 2775,
      "Ġshows": 2776,
      "Ġgrav": 2777,
      "though": 2778,
      "Ġvariables": 2779,
      "Ġanalog": 2780,
      "iciency": 2781,
      "ĠSince": 2782,
      "Pi": 2783,
      "Ġsplit": 2784,
      "Ġdescription": 2785,
      "Ġquestions": 2786,
      "idden": 2787,
      "Ġcar": 2788,
      "Ġsequence": 2789,
      ".)": 2790,
      "\\|": 2791,
      "itect": 2792,
      "Ġworking": 2793,
      "gebra": 2794,
      "range": 2795,
      "ĠĠĠĠĠĠĠĠĠĠĠĠĠĠĠĠĠĠĠĠĠĠĠĠĠĠĠĠĠĠĠĠ": 2796,
      "Ġtopological": 2797,
      "QP": 2798,
      "level": 2799,
      "ptions": 2800,
      "Ġneeds": 2801,
      "Ġexecute": 2802,
      "mid": 2803,
      "ĠQubits": 2804,
      "111": 2805,
      "pose": 2806,
      "Ġuncertainty": 2807,
      "Ġpreser": 2808,
      "Ġcapac": 2809,
      "Ġgoing": 2810,
      "known": 2811,
      "Ġear": 2812,
      "Ġes": 2813,
      "Ġsecurity": 2814,
      "ype": 2815,
      "ĠPlanck": 2816,
      "iform": 2817,
      "Ġcompared": 2818,
      "Ġcontain": 2819,
      "fully": 2820,
      "Ġthermal": 2821,
      "Ġampl": 2822,
      "Ġthings": 2823,
      "}=\\": 2824,
      "Ġben": 2825,
      "fl": 2826,
      "ĠNote": 2827,
      "ĠConsider": 2828,
      "Ġbuild": 2829,
      "Exercise": 2830,
      "='": 2831,
      "ĠTra": 2832,
      "ault": 2833,
      "Ġfocu": 2834,
      "Ġdesired": 2835,
      "ĠToffoli": 2836,
      "18": 2837,
      "ĠQubit": 2838,
      "Ġfinite": 2839,
      "data": 2840,
      "Ġpresent": 2841,
      "ĠTe": 2842,
      "ifying": 2843,
      "ĠOptim": 2844,
      "Ġacross": 2845,
      "cument": 2846,
      "Ġdiagram": 2847,
      "chitect": 2848,
      "Ġ16": 2849,
      "ives": 2850,
      "Ġcent": 2851,
      "Ġhalf": 2852,
      "Ġentire": 2853,
      "Ġelectromagnetic": 2854,
      "Ġcompletely": 2855,
      "ik": 2856,
      "ftware": 2857,
      "OVM": 2858,
      "ny": 2859,
      "Ġprepar": 2860,
      "Ġclassically": 2861,
      "Ġperforming": 2862,
      "cdots": 2863,
      "ining": 2864,
      "ĠHermitian": 2865,
      "-|": 2866,
      "ĠEach": 2867,
      "aim": 2868,
      "Ġnat": 2869,
      "Ġcooling": 2870,
      "Ġmechanical": 2871,
      "Ġanalysis": 2872,
      "acuum": 2873,
      "Ġradiation": 2874,
      "ĠYes": 2875,
      "ĠĠĠĠĠĠĠĠĠĠĠĠ": 2876,
      "info": 2877,
      "ZZ": 2878,
      "ÏĢ": 2879,
      "Ġcharge": 2880,
      "Ġways": 2881,
      "oid": 2882,
      "ĠNiels": 2883,
      "Ġcolum": 2884,
      "anc": 2885,
      "Ġbasic": 2886,
      "Ġtheoretical": 2887,
      "Ġspeedup": 2888,
      "ifies": 2889,
      "Ġcontinuous": 2890,
      "ED": 2891,
      "âĢĵ": 2892,
      "Ġpossib": 2893,
      "uang": 2894,
      "Ġname": 2895,
      "Ġpage": 2896,
      "utes": 2897,
      "Ġask": 2898,
      "const": 2899,
      "Ġart": 2900,
      "Ġoscill": 2901,
      "Ġstrateg": 2902,
      "Î¸": 2903,
      "ands": 2904,
      "Ġgetting": 2905,
      "cation": 2906,
      "ĠControl": 2907,
      "Ġinterpret": 2908,
      "io": 2909,
      "vial": 2910,
      "().": 2911,
      "Ġnorm": 2912,
      "Ġremain": 2913,
      "22": 2914,
      "dependent": 2915,
      "07": 2916,
      "mod": 2917,
      "ibr": 2918,
      "versible": 2919,
      "Ġspac": 2920,
      "ju": 2921,
      "Ġexpected": 2922,
      "ĠDifferent": 2923,
      "Ġetc": 2924,
      "II": 2925,
      "change": 2926,
      "dfrac": 2927,
      "job": 2928,
      "Ġonto": 2929,
      "ĠGate": 2930,
      "Ġparticularly": 2931,
      "Ġsam": 2932,
      "Ġsufficient": 2933,
      "ĠÎ±": 2934,
      "Ġdenot": 2935,
      "dro": 2936,
      "Ġpulse": 2937,
      "Ġmagn": 2938,
      "Ġfli": 2939,
      "Ġ...": 2940,
      "Ġbar": 2941,
      "ĠCorre": 2942,
      "Ġevalu": 2943,
      "Ġsignificantly": 2944,
      "by": 2945,
      "Ġwavefunction": 2946,
      "Ġoptimal": 2947,
      "Ġlimited": 2948,
      "ĠWhile": 2949,
      "^*": 2950,
      "ern": 2951,
      "Ġframework": 2952,
      "unitary": 2953,
      "classical": 2954,
      "Ġcontrib": 2955,
      "{|": 2956,
      "----------------": 2957,
      "Ġprocedure": 2958,
      "ĠHigh": 2959,
      ")^{": 2960,
      "Ġopen": 2961,
      "Ġresource": 2962,
      "Ġderiv": 2963,
      "Ġbelie": 2964,
      "Ġchoose": 2965,
      "Ġside": 2966,
      "Ġmaintain": 2967,
      "Ġinputs": 2968,
      "QC": 2969,
      "ered": 2970,
      "Ġprint": 2971,
      "draw": 2972,
      "Ġattempt": 2973,
      "Ġpolarization": 2974,
      "97": 2975,
      "raus": 2976,
      "ĠMechan": 2977,
      "Ġchem": 2978,
      "Ġmemory": 2979,
      "hing": 2980,
      "Ġfixed": 2981,
      "Ġprocessing": 2982,
      "ĠPrinciple": 2983,
      "pler": 2984,
      "Ġextremely": 2985,
      "&\\": 2986,
      "ĠDis": 2987,
      "lease": 2988,
      "Ġcryptography": 2989,
      "ï¬ģn": 2990,
      "Ġacting": 2991,
      "35": 2992,
      "body": 2993,
      "ides": 2994,
      "Ġenable": 2995,
      "go": 2996,
      "Ġstre": 2997,
      "Ġshort": 2998,
      "Ġisn": 2999,
      "uts": 3000,
      "ecause": 3001,
      "ĠMathemat": 3002,
      "====": 3003,
      "CC": 3004,
      "Ġleads": 3005,
      "zero": 3006,
      "provid": 3007,
      "ĠOr": 3008,
      "uality": 3009,
      "view": 3010,
      "Ġtherefore": 3011,
      "ĠAppl": 3012,
      "most": 3013,
      "ctuations": 3014,
      "ĠPart": 3015,
      "ĠChalleng": 3016,
      "Ġagainst": 3017,
      "Ġmechanism": 3018,
      "Ġreading": 3019,
      "100": 3020,
      "ĠInst": 3021,
      "Ġinner": 3022,
      "Ġdest": 3023,
      "Ġ00": 3024,
      "Del": 3025,
      "ĠPy": 3026,
      "Ġevol": 3027,
      "*}": 3028,
      "Ġoffer": 3029,
      "Ġ\\{": 3030,
      "nter": 3031,
      "Ġrates": 3032,
      "basis": 3033,
      "Ġbeg": 3034,
      "ossible": 3035,
      "Ġneut": 3036,
      "Ġ-\\": 3037,
      "Ġinverse": 3038,
      "angu": 3039,
      "Ġtried": 3040,
      "Ġissue": 3041,
      "Ġaverage": 3042,
      "Ġquite": 3043,
      "Ġprom": 3044,
      "Ġprotocols": 3045,
      "itigation": 3046,
      "aneous": 3047,
      "ĠNow": 3048,
      "'d": 3049,
      "Ġintu": 3050,
      "Ġestimate": 3051,
      "Ġimplies": 3052,
      "apt": 3053,
      "varphi": 3054,
      "IT": 3055,
      "Ġpartial": 3056,
      "ĠChuang": 3057,
      "}.": 3058,
      "ĠQAOA": 3059,
      "ĠNielsen": 3060,
      "ĠPOVM": 3061,
      "Ġpulses": 3062,
      "Ġ<": 3063,
      "Ġuniform": 3064,
      "way": 3065,
      "Ġmess": 3066,
      "utor": 3067,
      "ĠPar": 3068,
      "Ġwavelength": 3069,
      "Ġwords": 3070,
      "Ġexhibit": 3071,
      "rast": 3072,
      "ermin": 3073,
      "Ġabsor": 3074,
      "Ġconnectivity": 3075,
      "33": 3076,
      "plo": 3077,
      "Ġscattering": 3078,
      "84": 3079,
      "Ġprepare": 3080,
      "Ġrotations": 3081,
      "Delta": 3082,
      "XX": 3083,
      "izer": 3084,
      "Ġadj": 3085,
      "ledge": 3086,
      "Ġscale": 3087,
      "Ġmaximum": 3088,
      ");": 3089,
      "Ġseen": 3090,
      "Ġnoisy": 3091,
      "Ġexplicit": 3092,
      "Ġlearn": 3093,
      "Ġmult": 3094,
      "sem": 3095,
      "Ġformula": 3096,
      "Ġfam": 3097,
      "Ġtext": 3098,
      "ering": 3099,
      "Ġconstruction": 3100,
      "Ġsubspace": 3101,
      "Ġpropag": 3102,
      "lis": 3103,
      "race": 3104,
      "anation": 3105,
      "Ġthreshold": 3106,
      "Ġhar": 3107,
      "Ġinstant": 3108,
      ")$$": 3109,
      "Ġapproximation": 3110,
      "Ġworld": 3111,
      "\"\"": 3112,
      "64": 3113,
      "}|\\": 3114,
      "Ġperm": 3115,
      "osing": 3116,
      "âĶĢâĶĢâĶĢâĶĢâĶĢâĶĢâĶĢâĶĢâĶĢâĶĢâĶĢâĶĢâĶĢâĶĢâĶĢâĶĢ": 3117,
      "}^{\\": 3118,
      "ĠTheory": 3119,
      "rot": 3120,
      "plot": 3121,
      "Ġwonder": 3122,
      "Suppose": 3123,
      "Ġ^": 3124,
      "olute": 3125,
      "adr": 3126,
      "Ġpers": 3127,
      "Ġdri": 3128,
      "Ġ13": 3129,
      "max": 3130,
      "Ġextract": 3131,
      "Ġparity": 3132,
      "Ġefficiency": 3133,
      "Ġrepresenting": 3134,
      "Ġminimum": 3135,
      "mar": 3136,
      "ised": 3137,
      "Ġeffectively": 3138,
      "Ġanaly": 3139,
      "ittle": 3140,
      "Ġher": 3141,
      "ĠQKD": 3142,
      "DE": 3143,
      "Ġacts": 3144,
      "Ġ>": 3145,
      "Ġpub": 3146,
      "ceed": 3147,
      "âĶ¤": 3148,
      "encies": 3149,
      "cure": 3150,
      "Ġ15": 3151,
      "Ġorbit": 3152,
      "ĠFe": 3153,
      "Ġdistinguish": 3154,
      "Ġcalculations": 3155,
      "Ġextend": 3156,
      "Ġguess": 3157,
      "ov": 3158,
      "ĠSte": 3159,
      "utorial": 3160,
      ")(": 3161,
      "pic": 3162,
      "Ġallowing": 3163,
      "Then": 3164,
      "Ġlikely": 3165,
      "Ġelectronic": 3166,
      "Ġdetectors": 3167,
      "ackages": 3168,
      "Ġass": 3169,
      "Ġenh": 3170,
      "Ġindex": 3171,
      "ologies": 3172,
      "osen": 3173,
      "Ġhappens": 3174,
      ")]": 3175,
      "Ġpe": 3176,
      "âĶĢâĶĢâĶĢ": 3177,
      "Ġcreating": 3178,
      "ĠDevelop": 3179,
      "vice": 3180,
      "Ġrefer": 3181,
      "Ġsignal": 3182,
      "Ġtable": 3183,
      "Ġ->": 3184,
      "&=\\": 3185,
      "pecially": 3186,
      "Mat": 3187,
      "ni": 3188,
      "sim": 3189,
      "Ġ14": 3190,
      "fined": 3191,
      "Ġarchitect": 3192,
      "osite": 3193,
      "Ġusually": 3194,
      "ĠQuantumRegister": 3195,
      "ĠFermi": 3196,
      "ode": 3197,
      "Ġreve": 3198,
      "Ġhighly": 3199,
      "Ġcalculation": 3200,
      "linear": 3201,
      "IS": 3202,
      "Ġoverhead": 3203,
      "ibmq": 3204,
      "orem": 3205,
      "Ġcomes": 3206,
      "Ġgenerators": 3207,
      "ĠKraus": 3208,
      "Ġprecisely": 3209,
      "Ġsaid": 3210,
      "do": 3211,
      "pri": 3212,
      "alse": 3213,
      "alism": 3214,
      "Ġplay": 3215,
      "ĠProblem": 3216,
      "Ġlimitations": 3217,
      "Ġthought": 3218,
      "Ġcorrespond": 3219,
      "Ġcoefficients": 3220,
      "Ġdesigned": 3221,
      "Ġcirc": 3222,
      "Ġthird": 3223,
      "Ġonce": 3224,
      "istance": 3225,
      "Ġdistin": 3226,
      "ĠPhoton": 3227,
      "Ġcapacity": 3228,
      "Ġcompar": 3229,
      "Ġimpact": 3230,
      "Ġoccurs": 3231,
      "Ġlabel": 3232,
      "Ġalgebra": 3233,
      "istical": 3234,
      "Ġclaim": 3235,
      "Ġmajor": 3236,
      "that": 3237,
      "Ġencode": 3238,
      "Ġfactors": 3239,
      "Ġinterested": 3240,
      "uture": 3241,
      "ĠPre": 3242,
      "Ġstatistics": 3243,
      "Ġcontains": 3244,
      "Ġflip": 3245,
      "more": 3246,
      "site": 3247,
      "Ġpoints": 3248,
      "05": 3249,
      "su": 3250,
      "And": 3251,
      "Ġcos": 3252,
      "statevector": 3253,
      "reed": 3254,
      "Ġbases": 3255,
      "Ġapproaches": 3256,
      "Ġbosons": 3257,
      "Simulator": 3258,
      "Ġ_": 3259,
      "ters": 3260,
      "ldots": 3261,
      "ĠGo": 3262,
      "ĬĹ": 3263,
      "Ġvariable": 3264,
      "Ġaccording": 3265,
      "Ġ($": 3266,
      "cumentation": 3267,
      "ER": 3268,
      "Ġlaw": 3269,
      "Ġreference": 3270,
      "Ġrow": 3271,
      "sidered": 3272,
      "Ġ?": 3273,
      "ĠAc": 3274,
      "âĢ²": 3275,
      "Ġfermions": 3276,
      "32": 3277,
      "Ġexpression": 3278,
      "Ġindu": 3279,
      "Ġknowledge": 3280,
      "vantages": 3281,
      "Ġput": 3282,
      "Ġabsolute": 3283,
      "Ġmentioned": 3284,
      "Ġquer": 3285,
      "iler": 3286,
      "ĠEffect": 3287,
      "Ġprobably": 3288,
      "Ġhis": 3289,
      "chi": 3290,
      "âĢĿ": 3291,
      "Ġoverall": 3292,
      "Ġactual": 3293,
      "Ġgradient": 3294,
      "covery": 3295,
      "Ġrece": 3296,
      "agic": 3297,
      "ĠLimit": 3298,
      "ĠAtom": 3299,
      "Ġdetails": 3300,
      "ocal": 3301,
      "Ġsources": 3302,
      "uration": 3303,
      "Ġvacuum": 3304,
      "Ġreli": 3305,
      "Ġmaximally": 3306,
      "Ġbi": 3307,
      "ĠOperator": 3308,
      "Ġequations": 3309,
      "Ġapplies": 3310,
      "ĠTherefore": 3311,
      "Ġmaps": 3312,
      "Ġbuilding": 3313,
      "Ġbox": 3314,
      "Ġsoftware": 3315,
      "algorithm": 3316,
      "Ġcy": 3317,
      "Ġconsidered": 3318,
      "ĠQEC": 3319,
      "Ġsetting": 3320,
      "Ġchallenge": 3321,
      "lete": 3322,
      "ĠInformation": 3323,
      "ĠÎ²": 3324,
      "Ġespecially": 3325,
      "67": 3326,
      "ĠOb": 3327,
      "Ġtransitions": 3328,
      "Ġfluctuations": 3329,
      "Ġow": 3330,
      "Ġround": 3331,
      "Ġprobabilistic": 3332,
      "anks": 3333,
      "Ġlangu": 3334,
      "ECT": 3335,
      "sf": 3336,
      "SA": 3337,
      "ativity": 3338,
      "hbar": 3339,
      "ĠExperiment": 3340,
      "/\\": 3341,
      "Ġnext": 3342,
      "Ġidentical": 3343,
      "Ġprocesses": 3344,
      "Ġdetector": 3345,
      "Ġlimits": 3346,
      "gates": 3347,
      "Ġimplementing": 3348,
      "perience": 3349,
      "ists": 3350,
      "Ġtranspile": 3351,
      "Ġoutputs": 3352,
      "nal": 3353,
      "Ġge": 3354,
      "Lambda": 3355,
      "Ġorthon": 3356,
      "Ġeng": 3357,
      "ĠUse": 3358,
      "Ġphenomenon": 3359,
      "enari": 3360,
      "Ġdynamics": 3361,
      "Ġvol": 3362,
      "Ġsubsystem": 3363,
      "Ġobtained": 3364,
      "UB": 3365,
      "Ġsays": 3366,
      "Ġview": 3367,
      "version": 3368,
      "ĠSpec": 3369,
      "\\{": 3370,
      "Ġunitaries": 3371,
      "Ġeigenstate": 3372,
      "Ġoccu": 3373,
      "partial": 3374,
      "string": 3375,
      "Ġnothing": 3376,
      "Ġdecay": 3377,
      "ĠImplement": 3378,
      "Ġdetermines": 3379,
      "Ġslow": 3380,
      "Ġargument": 3381,
      "Ġuntil": 3382,
      "ogle": 3383,
      "measurement": 3384,
      "Ġhappen": 3385,
      "Ġelse": 3386,
      "Ġincreases": 3387,
      "Ġinteresting": 3388,
      "ometry": 3389,
      "neling": 3390,
      "Ġmolecules": 3391,
      "Ġexponentially": 3392,
      "Ġavoid": 3393,
      "ĠMany": 3394,
      "Ġnegative": 3395,
      "Ġprimary": 3396,
      "Ġnever": 3397,
      "Ġanything": 3398,
      "color": 3399,
      "ĠEnergy": 3400,
      "Sh": 3401,
      "Ġupon": 3402,
      "ĠCho": 3403,
      "fty": 3404,
      "Ġansatz": 3405,
      "Ġadditional": 3406,
      "Ġsecure": 3407,
      "Ġothers": 3408,
      "Ġown": 3409,
      "Ġpri": 3410,
      "Ġfigure": 3411,
      "ĠUsing": 3412,
      "ĠExamples": 3413,
      "Ġaccurate": 3414,
      "Ds": 3415,
      "infty": 3416,
      "Ġ\\(": 3417,
      "Ġdiffer": 3418,
      "Ġexplo": 3419,
      "Ġnetworks": 3420,
      "|$": 3421,
      "Ġmon": 3422,
      "rug": 3423,
      "Ġtransversal": 3424,
      "Ġtrapped": 3425,
      "Ġorthonormal": 3426,
      "96": 3427,
      "cirq": 3428,
      "Ġdeterministic": 3429,
      "Ġproduce": 3430,
      "=|": 3431,
      "ector": 3432,
      "Ġextra": 3433,
      "actor": 3434,
      "ope": 3435,
      "Ġsection": 3436,
      "Ġsomeone": 3437,
      "Ġremains": 3438,
      "Ġshe": 3439,
      "Ġcause": 3440,
      "semble": 3441,
      "ĠSe": 3442,
      "oses": 3443,
      "Ġstrings": 3444,
      "PE": 3445,
      "iag": 3446,
      "Ġkeep": 3447,
      "202": 3448,
      "onger": 3449,
      "Ġband": 3450,
      "ĠFin": 3451,
      "}}{": 3452,
      "Ġwaves": 3453,
      "Ġanne": 3454,
      "arc": 3455,
      "Ġlittle": 3456,
      "see": 3457,
      "Ġprovided": 3458,
      "orld": 3459,
      "Ġcoherent": 3460,
      "ĠNon": 3461,
      "Ġimpossible": 3462,
      "ĠAny": 3463,
      "Ġrespectively": 3464,
      "Ġsensors": 3465,
      "ĠâĢľ": 3466,
      "Ġcurrently": 3467,
      "utsch": 3468,
      "Ġtransfer": 3469,
      "$:": 3470,
      "Ġaccount": 3471,
      "ĠExplain": 3472,
      "Ġdom": 3473,
      "mathsf": 3474,
      "Ġsets": 3475,
      "Ġones": 3476,
      "ogen": 3477,
      "ĠNP": 3478,
      "110": 3479,
      "geq": 3480,
      "xiv": 3481,
      "Ġreson": 3482,
      "Ġsimulations": 3483,
      "Ġdou": 3484,
      "Ġlot": 3485,
      "Ġ==": 3486,
      "Ġnumpy": 3487,
      "ĠUnder": 3488,
      "Ġimplications": 3489,
      "tz": 3490,
      "cular": 3491,
      "Ġkind": 3492,
      "ĠGener": 3493,
      "ameter": 3494,
      "Ġversus": 3495,
      "ground": 3496,
      "Ġtools": 3497,
      "ĠSome": 3498,
      "Ġincludes": 3499,
      "Ġstudy": 3500,
      "Ġbegin": 3501,
      "04": 3502,
      "reedom": 3503,
      "oning": 3504,
      "Ġincrease": 3505,
      "âķĲâķĲâķĲâķĲâķĲâķĲâķĲâķĲ": 3506,
      "Ġconju": 3507,
      "Ġwhose": 3508,
      "abilities": 3509,
      "clusion": 3510,
      "Ġauth": 3511,
      "\\!\\": 3512,
      ".+": 3513,
      "34": 3514,
      "inc": 3515,
      "ĠDecoherence": 3516,
      "$).": 3517,
      "Ġgot": 3518,
      "Ġsolving": 3519,
      "Ġtrap": 3520,
      "optim": 3521,
      "}}$": 3522,
      "ĠÂ": 3523,
      "Ġseparable": 3524,
      "Ġscience": 3525,
      "roscopic": 3526,
      "Ġsampling": 3527,
      "Ġreversible": 3528,
      "Ġappropri": 3529,
      "Ġprojective": 3530,
      "ales": 3531,
      "Ġcome": 3532,
      "aging": 3533,
      "Ġphases": 3534,
      "CH": 3535,
      "hip": 3536,
      "Ġhidden": 3537,
      "}\\\\": 3538,
      "Ġpotentially": 3539,
      "ĠPhase": 3540,
      "ĠSWAP": 3541,
      "Ġrelation": 3542,
      "ymmet": 3543,
      "ĠTechn": 3544,
      "son": 3545,
      "alities": 3546,
      "Ġrepeat": 3547,
      "Ġprotect": 3548,
      "\\,": 3549,
      "Ġprogramming": 3550,
      "atform": 3551,
      "Ġgrow": 3552,
      "ĠWith": 3553,
      "âĢł": 3554,
      "ĠComput": 3555,
      "ĠAm": 3556,
      "istry": 3557,
      "ĠOn": 3558,
      "Ġexplanation": 3559,
      "Ġadvantages": 3560,
      "PU": 3561,
      "flu": 3562,
      "avity": 3563,
      "ĠWave": 3564,
      "cret": 3565,
      "ĠCX": 3566,
      "Ġspecifically": 3567,
      "photon": 3568,
      "Ġtechnology": 3569,
      "open": 3570,
      "Ġlooks": 3571,
      "bed": 3572,
      "dit": 3573,
      "bigg": 3574,
      "âĸ": 3575,
      "Ġbro": 3576,
      "abs": 3577,
      "Ġability": 3578,
      "Ġquantized": 3579,
      "ternal": 3580,
      "Ġsensitive": 3581,
      "Ġinherent": 3582,
      "Ġgenerated": 3583,
      "ĠDoes": 3584,
      "neq": 3585,
      "Ġintroduce": 3586,
      "polar": 3587,
      "Ġ$[": 3588,
      "Ġquadr": 3589,
      "ĠScal": 3590,
      "âŁ©âŁ¨": 3591,
      "Ġscenari": 3592,
      "ĠIBMQ": 3593,
      "SM": 3594,
      "packages": 3595,
      "reen": 3596,
      "Ġtom": 3597,
      "^{(": 3598,
      "Ġrelevant": 3599,
      "SS": 3600,
      "aer": 3601,
      "olds": 3602,
      "Ġdecod": 3603,
      "95": 3604,
      "Ġfil": 3605,
      "Ġmultiplication": 3606,
      "etition": 3607,
      "ĠCal": 3608,
      "Ġinstruction": 3609,
      "Ġnucle": 3610,
      "iconductor": 3611,
      "Ġhelps": 3612,
      "Ġsensing": 3613,
      "Ġtasks": 3614,
      "Ġeigenvectors": 3615,
      "RI": 3616,
      "ĠSol": 3617,
      "ople": 3618,
      "por": 3619,
      "random": 3620,
      "Ġfraction": 3621,
      "Ġdraw": 3622,
      "Ġmapping": 3623,
      "=[": 3624,
      "rum": 3625,
      "Ġopp": 3626,
      "Ġlines": 3627,
      "Ġelectric": 3628,
      "Ġsmaller": 3629,
      "Ġcounts": 3630,
      "ams": 3631,
      "rypt": 3632,
      "Ġtaking": 3633,
      "tau": 3634,
      "Ġdisturb": 3635,
      "arxiv": 3636,
      "ustom": 3637,
      "Ġconstraints": 3638,
      "When": 3639,
      "hence": 3640,
      "Ġaffects": 3641,
      "Ġsymmetry": 3642,
      "brid": 3643,
      "Ġeigenstates": 3644,
      "Ġreduces": 3645,
      "ternative": 3646,
      "Ġchallenging": 3647,
      "Wave": 3648,
      "term": 3649,
      "Ġcolor": 3650,
      "âĪļ": 3651,
      "Ġsuit": 3652,
      "fort": 3653,
      "Ġevent": 3654,
      "Ġrob": 3655,
      "ĠElectron": 3656,
      "ĠDirac": 3657,
      "Ġcommute": 3658,
      "Ġstrength": 3659,
      "pies": 3660,
      "Ġapproximate": 3661,
      "ĠCol": 3662,
      "Ġarises": 3663,
      "dens": 3664,
      "idence": 3665,
      "Ġprevious": 3666,
      "Ġfuture": 3667,
      "Ġanyone": 3668,
      "initial": 3669,
      "Ġproducts": 3670,
      "ĠSuppose": 3671,
      "Ġfreedom": 3672,
      "Ġimage": 3673,
      "True": 3674,
      "Ġtechnique": 3675,
      "Ġcorrelation": 3676,
      "ordin": 3677,
      "ĠâĢĵ": 3678,
      ")?": 3679,
      "Ġcreated": 3680,
      "Ġpict": 3681,
      "Ġexpressed": 3682,
      "https": 3683,
      "}^\\": 3684,
      "06": 3685,
      "HL": 3686,
      "ĠCre": 3687,
      "ĠEinstein": 3688,
      "Ġfactoring": 3689,
      "Ġminimize": 3690,
      "igens": 3691,
      "SP": 3692,
      "turb": 3693,
      "Ġbig": 3694,
      "Ġstatement": 3695,
      "Ġregisters": 3696,
      "Ġscaling": 3697,
      "Ġobjects": 3698,
      "ĠFirst": 3699,
      "Qubit": 3700,
      "Ġill": 3701,
      "Ġtw": 3702,
      "Ġnecessarily": 3703,
      "Ġengine": 3704,
      "yond": 3705,
      "ĠPer": 3706,
      "Ġcalibration": 3707,
      "wards": 3708,
      "ZE": 3709,
      "Ġbeyond": 3710,
      "Ġ100": 3711,
      "Ġmove": 3712,
      "Ġintegral": 3713,
      ",)),": 3714,
      "})$": 3715,
      "Ġwhole": 3716,
      "Ġspaces": 3717,
      "Ġcreates": 3718,
      "####": 3719,
      "PR": 3720,
      "tri": 3721,
      "Ġspat": 3722,
      "ges": 3723,
      "cel": 3724,
      "add": 3725,
      "Ġobservation": 3726,
      "iter": 3727,
      "imin": 3728,
      "ĠNot": 3729,
      "Ġspacetime": 3730,
      "pd": 3731,
      "Ġslight": 3732,
      "celer": 3733,
      "âĢĶ": 3734,
      "noise": 3735,
      "Ġcouple": 3736,
      "Ġlonger": 3737,
      "ĠCorrection": 3738,
      "Ġrobust": 3739,
      "Ġtechnologies": 3740,
      "Ġaxis": 3741,
      "ailed": 3742,
      "Ġtoler": 3743,
      "chang": 3744,
      "Ġunderlying": 3745,
      "Ġpreparation": 3746,
      "âŁ©=": 3747,
      "Ġintegr": 3748,
      "Ġindeed": 3749,
      "Ġtask": 3750,
      "ping": 3751,
      "qasm": 3752,
      "Ġmagic": 3753,
      "Ġperturb": 3754,
      "Ġarray": 3755,
      "State": 3756,
      "Ġinfinite": 3757,
      "}}|": 3758,
      "dd": 3759,
      "pe": 3760,
      "Ġ\\,": 3761,
      "ĠMic": 3762,
      "appro": 3763,
      "._": 3764,
      "haps": 3765,
      "ĊĊĠ": 3766,
      "Ġcolumn": 3767,
      "Ġsit": 3768,
      "ĠDist": 3769,
      "Ġyet": 3770,
      "abric": 3771,
      "Ġchosen": 3772,
      "Ġdifferences": 3773,
      "Ġdescribing": 3774,
      "Ġcauses": 3775,
      "Ġtomography": 3776,
      "Ġflow": 3777,
      "Ġconfus": 3778,
      "Ġattack": 3779,
      "Ġstatistical": 3780,
      "Ġbr": 3781,
      "Ġemitted": 3782,
      "Ġsuppose": 3783,
      "Ġtutorial": 3784,
      "mapsto": 3785,
      "Ġgravity": 3786,
      "ĠĠĠĠĠĠ": 3787,
      "Ġexchange": 3788,
      "Ġemission": 3789,
      "ĠModel": 3790,
      "standing": 3791,
      "otic": 3792,
      "ĠEqu": 3793,
      "ymbol": 3794,
      "ĠSuperposition": 3795,
      "Ġselect": 3796,
      "Ġclock": 3797,
      "Ġsolid": 3798,
      "Ġstarting": 3799,
      "Ġplace": 3800,
      "Ġcorrelated": 3801,
      "Ġpractice": 3802,
      "Ġ(|": 3803,
      "ĠSystem": 3804,
      "Ġpapers": 3805,
      "Ġpeople": 3806,
      "model": 3807,
      "arks": 3808,
      "ulation": 3809,
      "Ġer": 3810,
      "Ġcat": 3811,
      "Ġrealism": 3812,
      "Ġdepending": 3813,
      "Ġ$$\\": 3814,
      "Ġhist": 3815,
      "ĠDeutsch": 3816,
      "Ġappropriate": 3817,
      "rst": 3818,
      "arant": 3819,
      "Ġbehind": 3820,
      "Ġdistinct": 3821,
      "orth": 3822,
      "Ġdetermined": 3823,
      "Ġcounter": 3824,
      "Ġnatural": 3825,
      "Ġmultip": 3826,
      "mary": 3827,
      "volution": 3828,
      "order": 3829,
      "Ġsimulating": 3830,
      "Ġeffective": 3831,
      "ensive": 3832,
      "ili": 3833,
      "Ġplot": 3834,
      "ditional": 3835,
      "prob": 3836,
      "Ġessentially": 3837,
      "Ġspectral": 3838,
      "75": 3839,
      "Ġred": 3840,
      "psilon": 3841,
      "Ġreality": 3842,
      "Einstein": 3843,
      "cr": 3844,
      "Ġ{\\": 3845,
      "ĠEstim": 3846,
      "urface": 3847,
      "mediate": 3848,
      "Ġconduct": 3849,
      "Ġshare": 3850,
      "ĠRel": 3851,
      "Ġrule": 3852,
      "ĠChallenges": 3853,
      "gen": 3854,
      "Ġunknown": 3855,
      "Ġgoal": 3856,
      "Ġfrequencies": 3857,
      "Ġachieved": 3858,
      "Ġlater": 3859,
      "Ġhence": 3860,
      "uth": 3861,
      "LA": 3862,
      "ryption": 3863,
      "ĊĠĠĠĠĠĠĠĠĠĠĠĠĠĠĠ": 3864,
      "Ġreadout": 3865,
      "HZ": 3866,
      "Ġeasier": 3867,
      "iab": 3868,
      "perfect": 3869,
      "Ġvisual": 3870,
      "shots": 3871,
      "Ġboundary": 3872,
      "Ġbott": 3873,
      "ampler": 3874,
      "NN": 3875,
      "]$": 3876,
      "mega": 3877,
      "inter": 3878,
      "eez": 3879,
      "Ġproport": 3880,
      "particle": 3881,
      "ĠInstead": 3882,
      "qua": 3883,
      "prem": 3884,
      "edia": 3885,
      "03": 3886,
      "Ġgap": 3887,
      "Ġplatform": 3888,
      "Ġpredictions": 3889,
      "li": 3890,
      "lay": 3891,
      "point": 3892,
      "util": 3893,
      "ĠHHL": 3894,
      "Ġappre": 3895,
      "ĠAlso": 3896,
      "Ġcreation": 3897,
      "Ġinvari": 3898,
      "Ġnuclear": 3899,
      "Ġexcept": 3900,
      "ĠAfter": 3901,
      "ĠBe": 3902,
      "}(|": 3903,
      "Ġcorrectly": 3904,
      "Ġir": 3905,
      "ĠTheorem": 3906,
      "apping": 3907,
      "Ġinvolve": 3908,
      "Ġrestrict": 3909,
      "Ġquick": 3910,
      "qreg": 3911,
      "rees": 3912,
      "Ġstatevector": 3913,
      "Ġmath": 3914,
      "Ġallowed": 3915,
      "Ġincreasing": 3916,
      "ĠAlgorithms": 3917,
      "Ġmotion": 3918,
      "Ġmodes": 3919,
      "play": 3920,
      "101": 3921,
      "Ġ50": 3922,
      "Ġquantization": 3923,
      "21": 3924,
      "ĠMulti": 3925,
      "ĠNum": 3926,
      "Ġmode": 3927,
      "Ġsimulators": 3928,
      "Ġsatisfy": 3929,
      "controlled": 3930,
      "QFT": 3931,
      "oud": 3932,
      "Ġvs": 3933,
      "rowave": 3934,
      "Ġpaths": 3935,
      "Ġensure": 3936,
      "Ġswap": 3937,
      "Ġ(-": 3938,
      "ĠWhere": 3939,
      "Ġenerg": 3940,
      "Ġfix": 3941,
      "rons": 3942,
      "Ġscales": 3943,
      "Ġguarant": 3944,
      "CX": 3945,
      "^^": 3946,
      "ĠĠĠĠĠ": 3947,
      "fluid": 3948,
      "yd": 3949,
      "Ġphotonic": 3950,
      "Ġadvance": 3951,
      "Do": 3952,
      "Op": 3953,
      "ont": 3954,
      "Ġtheories": 3955,
      "Ġpack": 3956,
      "icity": 3957,
      "Ġconv": 3958,
      "Ġdistances": 3959,
      "Omega": 3960,
      "Ġarea": 3961,
      "Ġdecoding": 3962,
      "Ġswit": 3963,
      "}[": 3964,
      "Ġupd": 3965,
      "ographic": 3966,
      "Ġlinked": 3967,
      "One": 3968,
      "Ġsl": 3969,
      "Ġbelieve": 3970,
      "ploy": 3971,
      "Ġcoordin": 3972,
      "Ġunivers": 3973,
      "hesis": 3974,
      "Ġexpress": 3975,
      "Ġpicture": 3976,
      "ded": 3977,
      "qquad": 3978,
      "Ġvert": 3979,
      "Ġ19": 3980,
      "python": 3981,
      "ĠComplex": 3982,
      "Ġidentify": 3983,
      "________": 3984,
      "Ġautom": 3985,
      "Ġassign": 3986,
      "Ġfast": 3987,
      "Ġexistence": 3988,
      "Ġbuilt": 3989,
      "ĠâĶľâĶ¤": 3990,
      "Ġobserve": 3991,
      "Ġsort": 3992,
      "ĠApplications": 3993,
      "Xiv": 3994,
      "Ġdrug": 3995,
      "new": 3996,
      "value": 3997,
      "Ġanswers": 3998,
      "Ġbreakdown": 3999,
      "Ġtunneling": 4000,
      "PT": 4001,
      "ade": 4002,
      "Ġdeï¬ģn": 4003,
      "Ġ24": 4004,
      "Ġrespon": 4005,
      "Ġacceler": 4006,
      "ibility": 4007,
      "Ġcomponent": 4008,
      "ÂłÂłÂłÂł": 4009,
      "Ġtim": 4010,
      "()`": 4011,
      "Ġfundamentally": 4012,
      "Ġpowerful": 4013,
      "ECTOR": 4014,
      "'\\": 4015,
      "TECTOR": 4016,
      "Ġsensitivity": 4017,
      "ĠAppro": 4018,
      "fe": 4019,
      "list": 4020,
      "perties": 4021,
      "Ġcollapses": 4022,
      "26": 4023,
      "ops": 4024,
      "ĠMy": 4025,
      "midt": 4026,
      "sess": 4027,
      "Ġdocumentation": 4028,
      "Ġchapter": 4029,
      "energ": 4030,
      "Ġdetailed": 4031,
      "}}(|": 4032,
      "Ġdatab": 4033,
      "Ġbarrier": 4034,
      "label": 4035,
      "Ġult": 4036,
      "under": 4037,
      "Ġsus": 4038,
      "output": 4039,
      "Ġ$-": 4040,
      "Ġï¬ģrst": 4041,
      "Ġmessage": 4042,
      "iabatic": 4043,
      "Ġevents": 4044,
      "Ġexplained": 4045,
      "fig": 4046,
      "forward": 4047,
      "Ġverify": 4048,
      "che": 4049,
      "ĠBose": 4050,
      "Ġemerg": 4051,
      "ĠComm": 4052,
      "27": 4053,
      "ernel": 4054,
      "---": 4055,
      "Ġdimensions": 4056,
      "Ġrepeated": 4057,
      "Ġprof": 4058,
      "Ġconcepts": 4059,
      "Ġexcited": 4060,
      "rical": 4061,
      "ĠStandard": 4062,
      "Ġideal": 4063,
      "flip": 4064,
      "uil": 4065,
      "Ġ{'": 4066,
      "Ġinvolved": 4067,
      "bs": 4068,
      "but": 4069,
      "fine": 4070,
      "group": 4071,
      "ĠÄ§": 4072,
      "ital": 4073,
      "jective": 4074,
      "normal": 4075,
      "ĠMechanics": 4076,
      "oriz": 4077,
      "oser": 4078,
      "Ġsignals": 4079,
      "ĠRepresent": 4080,
      "ĠSuperconducting": 4081,
      "ĠGoogle": 4082,
      "Can": 4083,
      "Ġ@": 4084,
      "etimes": 4085,
      "Ġslightly": 4086,
      "mes": 4087,
      "Ġreconst": 4088,
      "Ġâī¤": 4089,
      "ĠPython": 4090,
      "algorithms": 4091,
      "premacy": 4092,
      "Ġmitigation": 4093,
      "oupling": 4094,
      "Ġstabil": 4095,
      "ĠTwo": 4096,
      "Ġtransl": 4097,
      "Ġadding": 4098,
      "sert": 4099,
      "Thus": 4100,
      "Ġwondering": 4101,
      "ians": 4102,
      "type": 4103,
      "Ġcopy": 4104,
      "Ġmodul": 4105,
      "55": 4106,
      "ĠEm": 4107,
      "Ġphysically": 4108,
      "Ġseries": 4109,
      "Ġregardless": 4110,
      "ĠOptimization": 4111,
      "isen": 4112,
      "Ġyes": 4113,
      "ĠFrom": 4114,
      "Ġlanguage": 4115,
      "oph": 4116,
      "Ġ20": 4117,
      "Ġ--": 4118,
      ")\\\\": 4119,
      "Ġstra": 4120,
      "Ġexternal": 4121,
      "Ġdistill": 4122,
      "ĠâĶĶ": 4123,
      "Ġrequirements": 4124,
      "Ġprepared": 4125,
      "ynman": 4126,
      "Ġangles": 4127,
      "ĠË": 4128,
      "Ġdict": 4129,
      "Ġhole": 4130,
      "nother": 4131,
      "Ġearly": 4132,
      "Ġwide": 4133,
      "Ġaccept": 4134,
      "ĠVari": 4135,
      "Consider": 4136,
      "Ġoccupy": 4137,
      "App": 4138,
      "Ph": 4139,
      "dat": 4140,
      "ken": 4141,
      "Ġ201": 4142,
      "Ġnumer": 4143,
      "umann": 4144,
      "Ġconsequ": 4145,
      "ĠEve": 4146,
      "Ġreflect": 4147,
      "Ġkin": 4148,
      "ĠInteg": 4149,
      "bf": 4150,
      "oles": 4151,
      "sure": 4152,
      "ilarly": 4153,
      "Ġobserver": 4154,
      "Ġdenoted": 4155,
      "ĠPhysics": 4156,
      "ume": 4157,
      "perp": 4158,
      "Ġperforms": 4159,
      "Ġquantities": 4160,
      "Ġsymmetric": 4161,
      "Ġrelationship": 4162,
      "how": 4163,
      "Ġbal": 4164,
      "Ġroot": 4165,
      "Ġtransformations": 4166,
      "Ġprevent": 4167,
      "Ġinequalities": 4168,
      "ĠAre": 4169,
      "inear": 4170,
      "cessing": 4171,
      "isenberg": 4172,
      "HS": 4173,
      "ups": 4174,
      "Î±": 4175,
      "Ġcustom": 4176,
      "Ġappears": 4177,
      "Ġcross": 4178,
      "Ġbra": 4179,
      "irt": 4180,
      "Ġreturns": 4181,
      "viously": 4182,
      "diag": 4183,
      "ĠDE": 4184,
      "Ġproposed": 4185,
      "Ġsequences": 4186,
      "28": 4187,
      "}-": 4188,
      "Ġdynam": 4189,
      "ĠQuant": 4190,
      "ferences": 4191,
      "Ġtaken": 4192,
      "Ġproportional": 4193,
      "input": 4194,
      "acroscopic": 4195,
      "Ġdecre": 4196,
      "Ġdestro": 4197,
      "bl": 4198,
      "ath": 4199,
      "len": 4200,
      "Ġef": 4201,
      "Ġholds": 4202,
      "Ġ01": 4203,
      "ĠSpin": 4204,
      "ĠNeumann": 4205,
      "Ġnan": 4206,
      "Ġstore": 4207,
      "Ġcompare": 4208,
      "Ġassumption": 4209,
      ")|\\": 4210,
      "45": 4211,
      "ined": 4212,
      "Ġbo": 4213,
      "iring": 4214,
      "ĠChe": 4215,
      "sian": 4216,
      "ĠĠĠĠĠĠĠĠĠ": 4217,
      "ĠDesc": 4218,
      "Ġintuition": 4219,
      "CZ": 4220,
      "gener": 4221,
      "off": 4222,
      "Ġforces": 4223,
      "ĠFunction": 4224,
      "load": 4225,
      "Ġfully": 4226,
      "Ġannealing": 4227,
      "Ġgover": 4228,
      "actions": 4229,
      "vare": 4230,
      "ĠTuring": 4231,
      "ĠNOT": 4232,
      "provider": 4233,
      "Ġexplicitly": 4234,
      "\":": 4235,
      "idth": 4236,
      "Ġconsidering": 4237,
      "Ġcryst": 4238,
      "ĠBoh": 4239,
      "avesdro": 4240,
      "Ġdegener": 4241,
      "Ġdenote": 4242,
      "Ġsemiconductor": 4243,
      "varepsilon": 4244,
      "SWAP": 4245,
      "Ġfeed": 4246,
      "Ġspectrum": 4247,
      "agen": 4248,
      "Ġsimulated": 4249,
      "Ġdecompose": 4250,
      "Ġgreater": 4251,
      "nih": 4252,
      "36": 4253,
      "Ġregion": 4254,
      "ĠÏĥ": 4255,
      "Ġmissing": 4256,
      "08": 4257,
      "this": 4258,
      "Ġrepetition": 4259,
      "Ġexploit": 4260,
      "Ġaim": 4261,
      "Ġquality": 4262,
      "ĠRec": 4263,
      "ibrary": 4264,
      "Ġemit": 4265,
      "Ġseparate": 4266,
      "Ġreplace": 4267,
      "abling": 4268,
      "Ġrank": 4269,
      "Ġlocation": 4270,
      "ĠAll": 4271,
      "axis": 4272,
      "Ġarticle": 4273,
      ")}\\": 4274,
      "net": 4275,
      "target": 4276,
      "roups": 4277,
      "Ġassumptions": 4278,
      "cord": 4279,
      "ĠDesign": 4280,
      "ĠHeisenberg": 4281,
      "hagen": 4282,
      "pace": 4283,
      "ĠBecause": 4284,
      "Ġappear": 4285,
      "())": 4286,
      "ĠComputation": 4287,
      "ĠMaterial": 4288,
      "Ġexecution": 4289,
      "opt": 4290,
      "Ġmedi": 4291,
      "ogram": 4292,
      "ĠDefin": 4293,
      "Ġinsight": 4294,
      "ĠQML": 4295,
      "Since": 4296,
      "Ġcoding": 4297,
      "ĊĠĠĠĠĠ": 4298,
      "Ġimproves": 4299,
      "correct": 4300,
      "openhagen": 4301,
      "Ġqml": 4302,
      "ĠProb": 4303,
      "stood": 4304,
      "vari": 4305,
      "ĠMa": 4306,
      "Ġencryption": 4307,
      "ĠFeynman": 4308,
      "rang": 4309,
      "Ġhold": 4310,
      "Ġtransp": 4311,
      "ï¬Ĥ": 4312,
      "ĠLocal": 4313,
      "ĠÎ¸": 4314,
      "Ġremo": 4315,
      "Ġmanipulate": 4316,
      "AM": 4317,
      "Ġ18": 4318,
      "Ġconfig": 4319,
      "Ġenergies": 4320,
      "((": 4321,
      "ĠSc": 4322,
      "prime": 4323,
      "Ġyields": 4324,
      "Ġdecoder": 4325,
      "size": 4326,
      "Ġotherwise": 4327,
      "Ġsubset": 4328,
      "Ġlayer": 4329,
      "ĠField": 4330,
      "dsymbol": 4331,
      "boldsymbol": 4332,
      "Ġcarry": 4333,
      "ĠChoi": 4334,
      ",$$": 4335,
      "ares": 4336,
      "ches": 4337,
      "Ġ$|+\\": 4338,
      "ĠSimulation": 4339,
      "lished": 4340,
      "50": 4341,
      "ĠInterpre": 4342,
      "iï¬ģ": 4343,
      "mit": 4344,
      "uation": 4345,
      "cho": 4346,
      "args": 4347,
      "Ġgets": 4348,
      "aussian": 4349,
      "ĨĴ": 4350,
      "Ġtreat": 4351,
      "ulate": 4352,
      "Ġentries": 4353,
      "soft": 4354,
      "Ġconditional": 4355,
      "\\}^": 4356,
      "ĠCopenhagen": 4357,
      "âĶĮ": 4358,
      "lude": 4359,
      "Ġquantity": 4360,
      "Ġbenef": 4361,
      "ikip": 4362,
      "Ġtextbook": 4363,
      "iH": 4364,
      "Ġwho": 4365,
      "Ġformalism": 4366,
      "$^": 4367,
      "'$": 4368,
      "Ġsent": 4369,
      "decomp": 4370,
      "Ġheat": 4371,
      "Ġdefect": 4372,
      "Ġstraight": 4373,
      "ikipedia": 4374,
      "dis": 4375,
      "ĊĠĠĠĠĊĠĠĠ": 4376,
      "ĠâĢĶ": 4377,
      "ativ": 4378,
      "rosoft": 4379,
      "Ġ$.": 4380,
      "olver": 4381,
      "ĠSee": 4382,
      "Ġtests": 4383,
      "Ġcyc": 4384,
      "Ġwires": 4385,
      "Ġconsistent": 4386,
      "ĠâŁ¨": 4387,
      "Ġarise": 4388,
      "Ġbroad": 4389,
      "On": 4390,
      "QA": 4391,
      "bine": 4392,
      "...,": 4393,
      "Ġillust": 4394,
      "ĠApply": 4395,
      "Ġscalar": 4396,
      "Ġrelatively": 4397,
      "energy": 4398,
      "=(": 4399,
      "Ġid": 4400,
      "ĠTime": 4401,
      "Ġloop": 4402,
      "Ġcalculated": 4403,
      "Ġsometimes": 4404,
      "ia": 4405,
      "Ġeverything": 4406,
      "From": 4407,
      "Ġfile": 4408,
      "asers": 4409,
      "Ġhope": 4410,
      "Ġhoriz": 4411,
      "defined": 4412,
      "Ġinvest": 4413,
      "Ġinfluence": 4414,
      "=\"": 4415,
      "sw": 4416,
      "Ġdig": 4417,
      "Ġcondens": 4418,
      "circuits": 4419,
      "Ġrecent": 4420,
      "Ġmolecular": 4421,
      ":\\": 4422,
      "aced": 4423,
      "ĠAr": 4424,
      "ĠOpt": 4425,
      "Ġparad": 4426,
      "Ġcore": 4427,
      "Ġensemble": 4428,
      "Ġenabling": 4429,
      "Ġaddres": 4430,
      "Ġspatial": 4431,
      "Ġcavity": 4432,
      "Ġinstall": 4433,
      "ĠAnal": 4434,
      "IC": 4435,
      "['": 4436,
      "ÂŃ": 4437,
      "Ġresol": 4438,
      "ardware": 4439,
      "Ġpresence": 4440,
      "monic": 4441,
      "âĶĢâĶĢâĶĢâĶĺ": 4442,
      "94": 4443,
      "Ġutil": 4444,
      "Ġmark": 4445,
      "Ġbench": 4446,
      "orph": 4447,
      "tty": 4448,
      "Ġflips": 4449,
      "Given": 4450,
      "Ġpossess": 4451,
      "ĠStim": 4452,
      "Ġexisting": 4453,
      "Ïī": 4454,
      "hers": 4455,
      "phase": 4456,
      "Ġcontrast": 4457,
      "Ġsubst": 4458,
      "Ġvariational": 4459,
      "requency": 4460,
      "comput": 4461,
      "Ġaddress": 4462,
      "ipartite": 4463,
      "ĠSingle": 4464,
      "ĠBQP": 4465,
      "ĠNIS": 4466,
      "values": 4467,
      "Ġtrivial": 4468,
      "Ġirre": 4469,
      "lish": 4470,
      "Ġexperience": 4471,
      "Ġreducing": 4472,
      "Ġbackground": 4473,
      "correction": 4474,
      "Ch": 4475,
      "pass": 4476,
      "Ġaspect": 4477,
      "âŁ©+": 4478,
      "Ġscient": 4479,
      "atically": 4480,
      "ilities": 4481,
      "ĠCirq": 4482,
      "cover": 4483,
      "Ġwriting": 4484,
      "eq": 4485,
      "world": 4486,
      "|)": 4487,
      "ison": 4488,
      "Ġparts": 4489,
      "ï¬ģci": 4490,
      "Ġtraining": 4491,
      "Ġfeatures": 4492,
      "Ġstrategies": 4493,
      "ativistic": 4494,
      "010": 4495,
      "ĠâĬĹ": 4496,
      "Ġupper": 4497,
      "conductivity": 4498,
      "trivial": 4499,
      "Ġpop": 4500,
      "ĠâĶĮ": 4501,
      "Ġassuming": 4502,
      "Ġsuggests": 4503,
      "|+\\": 4504,
      "ĠRed": 4505,
      "changed": 4506,
      "mic": 4507,
      "Ġmacroscopic": 4508,
      "ilot": 4509,
      "ĠReg": 4510,
      "ĠVer": 4511,
      "ogenic": 4512,
      "Ġdouble": 4513,
      "Int": 4514,
      "az": 4515,
      "}+\\": 4516,
      "Ġreach": 4517,
      "Ġproper": 4518,
      "Ġoperate": 4519,
      "Ġmax": 4520,
      "Ġsubject": 4521,
      "Ġfine": 4522,
      "Ġcopies": 4523,
      "Ġcollect": 4524,
      "teness": 4525,
      "ĠâĢĺ": 4526,
      "Ġdegree": 4527,
      "ĠDeveloping": 4528,
      "Ġquadratic": 4529,
      "ule": 4530,
      "Ġdeb": 4531,
      "Ġdepolar": 4532,
      "ĠMon": 4533,
      "Ġacc": 4534,
      "ameters": 4535,
      "Ġprojection": 4536,
      "Ġmicrowave": 4537,
      "-$": 4538,
      "38": 4539,
      "sel": 4540,
      "Ġprocessor": 4541,
      "Ġrefers": 4542,
      "ĠNoise": 4543,
      ")`": 4544,
      "Ġsecret": 4545,
      "ĠAdvantages": 4546,
      "Ġimaging": 4547,
      "Ġpatterns": 4548,
      "Ġplease": 4549,
      "Ġinvert": 4550,
      "Ġdeveloped": 4551,
      "test": 4552,
      "Ġdegrees": 4553,
      "Ġsamples": 4554,
      "rotter": 4555,
      "011": 4556,
      "CO": 4557,
      "istinguish": 4558,
      "Ġprocessors": 4559,
      "iddle": 4560,
      "Ġensures": 4561,
      "Ġauthors": 4562,
      "''": 4563,
      "Ġ]": 4564,
      "itude": 4565,
      "Ġrandomly": 4566,
      "subset": 4567,
      "abrication": 4568,
      "More": 4569,
      "Ġschemes": 4570,
      "Ġconjugate": 4571,
      "sa": 4572,
      "rel": 4573,
      "Ġrely": 4574,
      "Ġgain": 4575,
      "Ġgoes": 4576,
      "ancy": 4577,
      "ST": 4578,
      "Ġnice": 4579,
      "ĠTop": 4580,
      "matic": 4581,
      "Ġinternal": 4582,
      "Ġpretty": 4583,
      "Ġspins": 4584,
      "Ġpublic": 4585,
      "po": 4586,
      "sl": 4587,
      "isation": 4588,
      "Ġcomplic": 4589,
      "arent": 4590,
      "Ġgiving": 4591,
      "Ġrelies": 4592,
      "Un": 4593,
      "})\\": 4594,
      "Ġ~": 4595,
      "ĠAI": 4596,
      "amiltonians": 4597,
      "Ġdetected": 4598,
      "angling": 4599,
      "ĠSign": 4600,
      "Ġvibr": 4601,
      "conductor": 4602,
      "ĠUni": 4603,
      "Ġconnected": 4604,
      "Ġenvironmental": 4605,
      "Ġoffers": 4606,
      "Ġenhance": 4607,
      "Ġitem": 4608,
      "$$|\\": 4609,
      "ĠUnlike": 4610,
      "Ġexpand": 4611,
      "Ġoscillator": 4612,
      "Ġchemical": 4613,
      "De": 4614,
      "inal": 4615,
      "abor": 4616,
      "riers": 4617,
      "Ġspont": 4618,
      "Ġvary": 4619,
      "ĠRequ": 4620,
      "Ġexplore": 4621,
      "ĠClassicalRegister": 4622,
      "Ġanti": 4623,
      "irtual": 4624,
      "dent": 4625,
      "Ġsuperpositions": 4626,
      "Ġcarefully": 4627,
      "Ġeavesdro": 4628,
      "achines": 4629,
      "ĠGates": 4630,
      "PP": 4631,
      "With": 4632,
      "enny": 4633,
      "Ġnodes": 4634,
      "ĠOper": 4635,
      "Ġunderstood": 4636,
      "Ġperfectly": 4637,
      "tin": 4638,
      "Ġsk": 4639,
      "Ġisol": 4640,
      "Ġdiscovery": 4641,
      "problem": 4642,
      "Ġscheme": 4643,
      "77": 4644,
      "]:": 4645,
      "ingular": 4646,
      "Ġprog": 4647,
      "verg": 4648,
      "olean": 4649,
      "Ġquery": 4650,
      "Ġbottom": 4651,
      "Ġmill": 4652,
      "Ġannih": 4653,
      "Ġdem": 4654,
      "Ġevidence": 4655,
      "Ġrepresentations": 4656,
      "QuantumCircuit": 4657,
      "Ġtesting": 4658,
      "Ġsimpler": 4659,
      "scale": 4660,
      ")+": 4661,
      "cs": 4662,
      "dim": 4663,
      "Ġign": 4664,
      "atus": 4665,
      "ĠSection": 4666,
      "Ġ[[": 4667,
      "Ġmathematically": 4668,
      "determin": 4669,
      "Ġodd": 4670,
      "ression": 4671,
      "ĠEPR": 4672,
      "Ġinitially": 4673,
      "Ġtransforms": 4674,
      "register": 4675,
      "roscopy": 4676,
      "Ġremaining": 4677,
      "Ġengineering": 4678,
      "An": 4679,
      "Ġsil": 4680,
      "Ġinside": 4681,
      "ĠCur": 4682,
      "ĠGiven": 4683,
      "Ġexplains": 4684,
      "Ġmicro": 4685,
      "Ġearl": 4686,
      "ydberg": 4687,
      "PS": 4688,
      "Ġtool": 4689,
      "ĠCSS": 4690,
      "Ġfollowed": 4691,
      "spin": 4692,
      "datetime": 4693,
      "Me": 4694,
      "ĠQED": 4695,
      "aking": 4696,
      "ĠStates": 4697,
      "Ġperspect": 4698,
      "Ġturns": 4699,
      "Ġasking": 4700,
      "Ġsupremacy": 4701,
      "ĠHa": 4702,
      "ĠMod": 4703,
      "Ġchain": 4704,
      "Ġexpensive": 4705,
      "Ġtells": 4706,
      "Comp": 4707,
      "First": 4708,
      "mann": 4709,
      "deed": 4710,
      "Ġconfused": 4711,
      "Ġdatabase": 4712,
      "rvert": 4713,
      "Ïĥ": 4714,
      "Ġreset": 4715,
      "Ġedge": 4716,
      "tra": 4717,
      "Ġtowards": 4718,
      "entangle": 4719,
      "ager": 4720,
      "ĠPotential": 4721,
      "ĠNone": 4722,
      "ĠRSA": 4723,
      "rth": 4724,
      "produ": 4725,
      "Ġprojector": 4726,
      "Ġlowest": 4727,
      "Ġiteration": 4728,
      "Ġchemistry": 4729,
      "Ġquickly": 4730,
      "mpl": 4731,
      "vo": 4732,
      "|_": 4733,
      "lement": 4734,
      "Ġdots": 4735,
      "ĠData": 4736,
      "Ġbehave": 4737,
      "Ġhandle": 4738,
      "ventional": 4739,
      "Ġtransmission": 4740,
      "}_{\\": 4741,
      "results": 4742,
      "Ġcharacteristics": 4743,
      "Ġevaluate": 4744,
      "tfrac": 4745,
      "Ġphot": 4746,
      "Ġelectrical": 4747,
      "Ġcryptographic": 4748,
      "Ġorbital": 4749,
      "ĠNISQ": 4750,
      "That": 4751,
      "ĠFigure": 4752,
      "ĠUnderstanding": 4753,
      "ued": 4754,
      "ames": 4755,
      "ĠRydberg": 4756,
      "Ġjunction": 4757,
      "ĠGHZ": 4758,
      "Ġsolved": 4759,
      "Ġport": 4760,
      "ĠHence": 4761,
      "Ġcoin": 4762,
      "Ġarchitecture": 4763,
      "ĠLimitations": 4764,
      "Ġinvariant": 4765,
      "Ġdam": 4766,
      "ulse": 4767,
      "ĠHamiltonians": 4768,
      "irect": 4769,
      "Ġrelativity": 4770,
      "ĠÏĨ": 4771,
      "Ġdistributed": 4772,
      "Ġconnection": 4773,
      "Ġprior": 4774,
      "}+": 4775,
      "any": 4776,
      "Ġlibrary": 4777,
      "ĠÎĶ": 4778,
      "Ġintroduces": 4779,
      "ĠCooper": 4780,
      "Ġstrategy": 4781,
      "========": 4782,
      "ĠScalability": 4783,
      "Why": 4784,
      "ĠSci": 4785,
      "Ġshared": 4786,
      "Ġtravel": 4787,
      "ĠImpl": 4788,
      "urthermore": 4789,
      "Ġcell": 4790,
      "Ġproviding": 4791,
      "Ġsummary": 4792,
      "DS": 4793,
      "âŁ©|": 4794,
      "ĠEnc": 4795,
      "Thanks": 4796,
      "Also": 4797,
      "Ġaccurately": 4798,
      "ĠComplexity": 4799,
      "39": 4800,
      "aqua": 4801,
      "Ġmechanisms": 4802,
      "Ġdistillation": 4803,
      "ĠDefinition": 4804,
      "place": 4805,
      "luons": 4806,
      "abilizer": 4807,
      "Ġintroduced": 4808,
      "ĠMathematical": 4809,
      "pdf": 4810,
      "Re": 4811,
      "gs": 4812,
      "quant": 4813,
      "Ġabst": 4814,
      "ribution": 4815,
      "âĶĢâĶĲ": 4816,
      "ympt": 4817,
      "Ġclearly": 4818,
      "Ġadvanced": 4819,
      "Ġintensity": 4820,
      "Ġkernel": 4821,
      "Ġmaybe": 4822,
      "Ġmodular": 4823,
      "Ġrules": 4824,
      "Ġstability": 4825,
      "undament": 4826,
      "66": 4827,
      "Any": 4828,
      "Ġdistributions": 4829,
      "ĠImpro": 4830,
      "Ġchanging": 4831,
      "Ġfocus": 4832,
      "Ġlaws": 4833,
      "LI": 4834,
      "âĶĶ": 4835,
      "ĠInitial": 4836,
      "ĠOver": 4837,
      "ĠÎ»": 4838,
      "Ġruns": 4839,
      "ĠSchmidt": 4840,
      "Ġsuitable": 4841,
      "ĠCommun": 4842,
      "Ġstraightforward": 4843,
      "neg": 4844,
      "Ġimperfect": 4845,
      "auge": 4846,
      "ĠForm": 4847,
      "Ġdatetime": 4848,
      "Ġbeams": 4849,
      "Ġanalogous": 4850,
      "flow": 4851,
      "Ġyears": 4852,
      "using": 4853,
      "ĠLear": 4854,
      "Ġindependently": 4855,
      "Ġconsists": 4856,
      "09": 4857,
      "Ĭķ": 4858,
      "ita": 4859,
      "Ġalthough": 4860,
      "Ġalternative": 4861,
      "complete": 4862,
      "Ġpermutation": 4863,
      "Ġtrick": 4864,
      "Ġdeveloping": 4865,
      "ht": 4866,
      "xy": 4867,
      "áµ": 4868,
      "Ġaway": 4869,
      "ĠBer": 4870,
      "Ġusual": 4871,
      "Ġinterfer": 4872,
      "Ġload": 4873,
      "Ġsuperfluid": 4874,
      "Ġsends": 4875,
      "Clifford": 4876,
      "ĠParameter": 4877,
      "Ġreconstruct": 4878,
      "ĠPaul": 4879,
      "Ġcorrecting": 4880,
      "spec": 4881,
      "Ġseparated": 4882,
      "Ġclasses": 4883,
      "ĠCalcul": 4884,
      "ĠTopological": 4885,
      "rins": 4886,
      "Ġcomposite": 4887,
      "iding": 4888,
      "Ġimplementations": 4889,
      "Ġoptimize": 4890,
      "Ġpositions": 4891,
      "String": 4892,
      "ĠMultiple": 4893,
      "ĠĠĊĠĠĠ": 4894,
      "ĠBoth": 4895,
      "Ġmatch": 4896,
      "Ġ+\\": 4897,
      "Ġbitstring": 4898,
      "Ġâķ": 4899,
      "ĠVal": 4900,
      "ĠImp": 4901,
      "ĠStatevector": 4902,
      "Ġamplification": 4903,
      "ĠInterpretation": 4904,
      "PO": 4905,
      "Ġresearc": 4906,
      "Ġdiagrams": 4907,
      "ĠExperimental": 4908,
      "day": 4909,
      "Ġdeep": 4910,
      "ember": 4911,
      "Ġspecify": 4912,
      "awking": 4913,
      "By": 4914,
      "Ġrew": 4915,
      "Ġstated": 4916,
      "ĠAND": 4917,
      "Ġformation": 4918,
      "Ġremove": 4919,
      "Ġideas": 4920,
      "Ġproduces": 4921,
      "Ġattacks": 4922,
      "Ġconvention": 4923,
      "ĠOpen": 4924,
      "Ġcomputationally": 4925,
      "computing": 4926,
      "Ġinterpretations": 4927,
      "Im": 4928,
      "vable": 4929,
      "Ġpick": 4930,
      "Ġ199": 4931,
      "Ġmanage": 4932,
      "Ġcalculating": 4933,
      "AU": 4934,
      "Ġquas": 4935,
      "ithub": 4936,
      "ĠCZ": 4937,
      "reset": 4938,
      "Ġcombined": 4939,
      "omorph": 4940,
      "Ġthinking": 4941,
      "Ġsymbol": 4942,
      "Ġhybrid": 4943,
      "ĠBohr": 4944,
      "EL": 4945,
      "orn": 4946,
      "Ġperhaps": 4947,
      "Ġcomment": 4948,
      "radict": 4949,
      "Ġrandomness": 4950,
      "Ġintegers": 4951,
      "ometric": 4952,
      "selves": 4953,
      "Qiskit": 4954,
      "ker": 4955,
      "ores": 4956,
      "Ïķ": 4957,
      "Ġconve": 4958,
      "ĠQDs": 4959,
      "Ġindicates": 4960,
      "\\|_": 4961,
      "itaev": 4962,
      "29": 4963,
      "57": 4964,
      "1111": 4965,
      "Ġactive": 4966,
      "ĠMatrix": 4967,
      "Ġexcitations": 4968,
      "Ġhorizon": 4969,
      "then": 4970,
      "Ġtalk": 4971,
      "Ġau": 4972,
      "Ġsynt": 4973,
      "Ġregular": 4974,
      "ĠReal": 4975,
      "Ġcle": 4976,
      "Ġclust": 4977,
      "plitude": 4978,
      "ĠÎ¨": 4979,
      "Ġbounds": 4980,
      ",|": 4981,
      "Ġcapt": 4982,
      "Ġgroups": 4983,
      "ĠAB": 4984,
      "ighb": 4985,
      "Ġclosed": 4986,
      "approx": 4987,
      "Ġbase": 4988,
      "ump": 4989,
      "ĠEven": 4990,
      "ableau": 4991,
      "Ġgeneration": 4992,
      "Ġimplements": 4993,
      "Ġinvolving": 4994,
      "Ġpossibilities": 4995,
      "Ġcomplicated": 4996,
      "AC": 4997,
      "what": 4998,
      "aring": 4999,
      "arithm": 5000,
      "Ġstored": 5001,
      "ĠBB": 5002,
      "ogn": 5003,
      "params": 5004,
      "Ġstarted": 5005,
      "Ġexponent": 5006,
      "ĠCode": 5007,
      "âĸł": 5008,
      "Aer": 5009,
      "Ġtz": 5010,
      "ited": 5011,
      "Ġquarks": 5012,
      "cessible": 5013,
      "Ġjoint": 5014,
      "Ġmoving": 5015,
      "Ġconven": 5016,
      "ĠHardware": 5017,
      "$$|": 5018,
      "Ġbasically": 5019,
      "Ġequality": 5020,
      "âĤĤ": 5021,
      "Ġgovern": 5022,
      "ĠImplications": 5023,
      "\"),": 5024,
      "Res": 5025,
      "Sch": 5026,
      "urally": 5027,
      "Ġadded": 5028,
      "Ġtrack": 5029,
      "Ġconstructed": 5030,
      "tzlocal": 5031,
      "Ġtzinfo": 5032,
      "Ġsingular": 5033,
      "Ġreview": 5034,
      "Ġmanif": 5035,
      "Ġstudying": 5036,
      "Ġimagine": 5037,
      "ĠPhysical": 5038,
      "Ġderived": 5039,
      "uri": 5040,
      "Ġtre": 5041,
      "Ġmut": 5042,
      "Ġ17": 5043,
      "Ġconfine": 5044,
      "Ġpurpose": 5045,
      "ips": 5046,
      "onons": 5047,
      "iss": 5048,
      "estion": 5049,
      "library": 5050,
      "âĤģ": 5051,
      "ĠTransform": 5052,
      "Ġdemonstrated": 5053,
      "áµ¢": 5054,
      "MR": 5055,
      "\\)": 5056,
      "tically": 5057,
      "ĠÂ²": 5058,
      "independent": 5059,
      "ĠTheir": 5060,
      "ended": 5061,
      "Ġtraps": 5062,
      "instance": 5063,
      "Ġobjective": 5064,
      "Ġcontribute": 5065,
      ")}$": 5066,
      "At": 5067,
      "inim": 5068,
      "ĠBro": 5069,
      "lectric": 5070,
      "Ġcoll": 5071,
      "Ġobtaining": 5072,
      "Ġcommut": 5073,
      "Ġmolecule": 5074,
      "Ġscenario": 5075,
      "Fin": 5076,
      "Figure": 5077,
      "Vert": 5078,
      "xi": 5079,
      "Ġmachines": 5080,
      "Ġsuperconductor": 5081,
      "barrier": 5082,
      "Ġiterations": 5083,
      "Ġdefects": 5084,
      "(|\\": 5085,
      "44": 5086,
      "cent": 5087,
      "init": 5088,
      "Ġdidn": 5089,
      "html": 5090,
      ":*": 5091,
      "Î²": 5092,
      "orage": 5093,
      "Ġalmost": 5094,
      "ĠCoherence": 5095,
      "ansion": 5096,
      "ĠGaussian": 5097,
      "pectation": 5098,
      "ypically": 5099,
      "ĠMeasuring": 5100,
      "aligned": 5101,
      "cloning": 5102,
      "Ġprojectors": 5103,
      "Ġsearching": 5104,
      "Ġcapabilities": 5105,
      "ÏĨ": 5106,
      "Ġpi": 5107,
      "str": 5108,
      "ĠBas": 5109,
      "ĠFundament": 5110,
      "Ġsatisfies": 5111,
      "Ġcrystal": 5112,
      "$),": 5113,
      "HE": 5114,
      "Py": 5115,
      "atch": 5116,
      "ety": 5117,
      "Ġlies": 5118,
      "key": 5119,
      "Ġcontradict": 5120,
      "Ġstructures": 5121,
      "Ġelementary": 5122,
      "ĠDescription": 5123,
      "free": 5124,
      "pid": 5125,
      "eno": 5126,
      "ogy": 5127,
      "Ġcloud": 5128,
      "Ġadiabatic": 5129,
      "Ġissues": 5130,
      "Ġcontaining": 5131,
      "Ġinstantaneously": 5132,
      "ĠQPE": 5133,
      "conds": 5134,
      "piled": 5135,
      "Ġsubt": 5136,
      "Ġoptimizer": 5137,
      "number": 5138,
      "Ġvolume": 5139,
      "Does": 5140,
      "Ġaccum": 5141,
      "Ġfi": 5142,
      "ĠâĶ¤": 5143,
      "Ġpredicts": 5144,
      "^(": 5145,
      "},\\": 5146,
      "ater": 5147,
      "Ġcancel": 5148,
      "ĠBuil": 5149,
      "Ġsubgroup": 5150,
      "Ġmotiv": 5151,
      "Ġentirely": 5152,
      "85": 5153,
      "oz": 5154,
      "ĠEq": 5155,
      "ĠProperties": 5156,
      "Ġlayers": 5157,
      "Ġrapid": 5158,
      "Ġmagnet": 5159,
      "Ġappreciated": 5160,
      "ĠBerry": 5161,
      "']": 5162,
      "Ġresolution": 5163,
      "Ġtranspose": 5164,
      "Ġgenerator": 5165,
      "Ġprovider": 5166,
      "Ġlocality": 5167,
      "Ġcareful": 5168,
      "ĠSpecifically": 5169,
      "Not": 5170,
      "ait": 5171,
      "Ġop": 5172,
      "Ġsignificance": 5173,
      "Ġhelpful": 5174,
      "ĠEquation": 5175,
      "Ġfeedback": 5176,
      "can": 5177,
      "itational": 5178,
      "Ġliter": 5179,
      "ypot": 5180,
      "Ġestab": 5181,
      "Ġnormalization": 5182,
      "Ġregarding": 5183,
      "Ġdepolarizing": 5184,
      "ĠQUB": 5185,
      "Ġsetup": 5186,
      "Ġmind": 5187,
      "Ġnormalized": 5188,
      "drogen": 5189,
      "Ġinherently": 5190,
      "Ġtolerance": 5191,
      "Ġcoordinates": 5192,
      "ĠAP": 5193,
      "ĠBen": 5194,
      "ĠLe": 5195,
      "alls": 5196,
      "Ġearlier": 5197,
      "long": 5198,
      "use": 5199,
      "ĠSens": 5200,
      "iliar": 5201,
      "LARI": 5202,
      "cated": 5203,
      "pos": 5204,
      "ĠLand": 5205,
      "ĠOther": 5206,
      "agnet": 5207,
      "Ġexperimentally": 5208,
      "Ġdiscussion": 5209,
      "Ġrounds": 5210,
      "IBM": 5211,
      "Ġbipartite": 5212,
      "obj": 5213,
      "Ġtypical": 5214,
      "Ġapproximately": 5215,
      "Ġreflection": 5216,
      "Ġdomin": 5217,
      "Ġunchanged": 5218,
      "Ġradi": 5219,
      "Ġedges": 5220,
      "ĠSystems": 5221,
      "air": 5222,
      "qe": 5223,
      "ĠHy": 5224,
      "Ġlost": 5225,
      "Ġwanted": 5226,
      "POLARI": 5227,
      "POLARIZE": 5228,
      "zz": 5229,
      "Ġmist": 5230,
      "ĠHole": 5231,
      "Ġprefer": 5232,
      "Ġadapt": 5233,
      "Ġcontrolling": 5234,
      "Ġprime": 5235,
      "cilla": 5236,
      "Ġdemonstrates": 5237,
      "Ġarchitectures": 5238,
      "Ġkinetic": 5239,
      "Operator": 5240,
      "mall": 5241,
      "Ġtal": 5242,
      "ars": 5243,
      "Ġalign": 5244,
      "ĊĠĠĠĠĠĠ": 5245,
      "Ġinitialize": 5246,
      "âĪĤ": 5247,
      "ĠTrue": 5248,
      "Ġblocks": 5249,
      "Ġtransmit": 5250,
      "SE": 5251,
      "\\}$.": 5252,
      "Ġrecomm": 5253,
      "Ġreferences": 5254,
      "dex": 5255,
      "ĠDensity": 5256,
      "config": 5257,
      "Ġrequiring": 5258,
      "Ġshowing": 5259,
      "Ġflux": 5260,
      "âĶĢâĶĢâĶĢâĶĲ": 5261,
      "ĠMoreover": 5262,
      "ĠParticles": 5263,
      "ĠCurrent": 5264,
      "ĠCrypt": 5265,
      "ĠSub": 5266,
      "ĠMethod": 5267,
      "Ġcombine": 5268,
      "lapse": 5269,
      "orrect": 5270,
      "Matrix": 5271,
      "Ġreveals": 5272,
      "37": 5273,
      "Ġnonlinear": 5274,
      "ĠConst": 5275,
      "iquid": 5276,
      "Ġswapping": 5277,
      "Ġannihilation": 5278,
      "ĠHaar": 5279,
      "Ġâķĳ": 5280,
      "IN": 5281,
      "eigen": 5282,
      "ript": 5283,
      "ĠCar": 5284,
      "ĠBos": 5285,
      "Ġsaying": 5286,
      "ĠIsing": 5287,
      "Ġoutside": 5288,
      "parameters": 5289,
      "ĠRepresentation": 5290,
      "Ġmarked": 5291,
      "Ġperspective": 5292,
      "ĠImpact": 5293,
      "my": 5294,
      "nu": 5295,
      "ww": 5296,
      "}]": 5297,
      "acon": 5298,
      "ĠTest": 5299,
      "Ġlasers": 5300,
      "Ġexercise": 5301,
      "ĠLaser": 5302,
      "Inst": 5303,
      "ractable": 5304,
      "âĶĢâĶĢâĶĢâĶĢâĶĢâĶĢâĶĢâĶĢâĶĢâĶĢâĶĢâĶĢ": 5305,
      "igensolver": 5306,
      "Ġsuscept": 5307,
      "Ġprogress": 5308,
      ">$": 5309,
      "fidelity": 5310,
      "hand": 5311,
      "such": 5312,
      "uck": 5313,
      "itor": 5314,
      "Ġdiv": 5315,
      "Ġvirtual": 5316,
      "Ġrisk": 5317,
      "ĠLinear": 5318,
      "Ġdefining": 5319,
      "Ġindistinguish": 5320,
      "Ġcombinations": 5321,
      "Ġpython": 5322,
      "ĠSimilarly": 5323,
      "Ġresearchers": 5324,
      "Ġnotion": 5325,
      "Ġharmonic": 5326,
      "ĠLearning": 5327,
      "56": 5328,
      "oc": 5329,
      "Â°": 5330,
      "real": 5331,
      "orpor": 5332,
      "Ġcomputed": 5333,
      "phasing": 5334,
      "Ġoptics": 5335,
      "omentum": 5336,
      "Ġcriter": 5337,
      "PauliString": 5338,
      "Ġdenotes": 5339,
      "Ġmagnitude": 5340,
      "&&": 5341,
      "mark": 5342,
      "orbit": 5343,
      "Ġholes": 5344,
      "ĠMain": 5345,
      "Ġasked": 5346,
      ",\"": 5347,
      "sol": 5348,
      "ĠIdent": 5349,
      "izations": 5350,
      "Ġ202": 5351,
      "astic": 5352,
      "enced": 5353,
      "ĠStat": 5354,
      "ĠApplying": 5355,
      "iparticles": 5356,
      "Ġmaintaining": 5357,
      "Ġadjust": 5358,
      "Ġcomparison": 5359,
      "Ġreliable": 5360,
      "Ġparadox": 5361,
      "Ġclar": 5362,
      "Ġparties": 5363,
      "Ġoverlap": 5364,
      "Ġembed": 5365,
      "Ġdefault": 5366,
      "]])": 5367,
      "icate": 5368,
      "Ġmeas": 5369,
      "ĠHall": 5370,
      "Ġresistance": 5371,
      "shot": 5372,
      "Ġintuitive": 5373,
      "Ġwavelengths": 5374,
      "rinsic": 5375,
      "ON": 5376,
      "Ġaware": 5377,
      "ached": 5378,
      "perform": 5379,
      "Ġnotes": 5380,
      "Ġqr": 5381,
      "iques": 5382,
      "olecu": 5383,
      "Ġintegration": 5384,
      "Ġversions": 5385,
      "Ġformulation": 5386,
      "Ġnaturally": 5387,
      "pite": 5388,
      "Ġencodes": 5389,
      "Ġtiming": 5390,
      "ĠMaterials": 5391,
      "eld": 5392,
      "electron": 5393,
      "Ġï¬Ĥ": 5394,
      "selection": 5395,
      "phys": 5396,
      "ĠRun": 5397,
      "Ġobvious": 5398,
      "Ġcounting": 5399,
      "ozsa": 5400,
      "&-": 5401,
      "Dirac": 5402,
      "{'": 5403,
      "Ġ$(\\": 5404,
      "Ġreprodu": 5405,
      "ĠHawking": 5406,
      "Ġintermediate": 5407,
      "atively": 5408,
      "ractical": 5409,
      "Ġhighlight": 5410,
      "ĠAtoms": 5411,
      "CHA": 5412,
      "Finally": 5413,
      "ĠFundamental": 5414,
      ">>": 5415,
      "wave": 5416,
      "ancial": 5417,
      "let": 5418,
      "Ġmix": 5419,
      "rie": 5420,
      "Ġconserv": 5421,
      "ĠSurface": 5422,
      "unately": 5423,
      "Ġlect": 5424,
      "Alice": 5425,
      "ĠĠĠĠĠĠĠĠĠĠĠĠĠ": 5426,
      "AULI": 5427,
      "ĠBorn": 5428,
      "ĠExt": 5429,
      "Ġlever": 5430,
      "Ġincorpor": 5431,
      "Ġimproved": 5432,
      "Ġopposite": 5433,
      "NNEL": 5434,
      "CHANNEL": 5435,
      "After": 5436,
      "did": 5437,
      "tic": 5438,
      "ĠÃ": 5439,
      "Ġanyons": 5440,
      "everal": 5441,
      "Ġemploy": 5442,
      "Ġnucleus": 5443,
      "Ġprofound": 5444,
      "Ġwidely": 5445,
      ".\\": 5446,
      "Run": 5447,
      "Sim": 5448,
      "Ġsin": 5449,
      "Ġdot": 5450,
      "Ġlif": 5451,
      "amond": 5452,
      "Ġ$\\{\\": 5453,
      "ĠBo": 5454,
      "integ": 5455,
      "ructive": 5456,
      "Ġlinearly": 5457,
      "Ġpressure": 5458,
      "ĠâĪļ": 5459,
      "Ġminimal": 5460,
      "Ġbackends": 5461,
      "Ġprograms": 5462,
      "(),": 5463,
      "flo": 5464,
      "}.$$": 5465,
      "Ġ$+": 5466,
      "Ġcomposed": 5467,
      "ĠMachine": 5468,
      "Ġchance": 5469,
      "Ġcharg": 5470,
      "Ġimply": 5471,
      "Ġrelax": 5472,
      "([[": 5473,
      "Ġdiscussed": 5474,
      "88": 5475,
      "âĬĹ": 5476,
      "Ġreduction": 5477,
      "ĠTrapped": 5478,
      "ĠMathematically": 5479,
      "ĠSteane": 5480,
      "$|": 5481,
      "SD": 5482,
      "zing": 5483,
      "iling": 5484,
      "emory": 5485,
      "Ġarri": 5486,
      "ĠExclusion": 5487,
      "Ġcertainly": 5488,
      "Ġsituation": 5489,
      "ĠOptical": 5490,
      "ICK": 5491,
      "Ġdamping": 5492,
      "Ġqut": 5493,
      "Ġentangling": 5494,
      "Ġ\"\"\"": 5495,
      "Ġtraditional": 5496,
      "Ġchanged": 5497,
      "Ġevolve": 5498,
      "Ġindust": 5499,
      "uments": 5500,
      "Ġexceed": 5501,
      "Ġamong": 5502,
      "Ġ42": 5503,
      "allest": 5504,
      "ĠAdd": 5505,
      "Ġpossibility": 5506,
      "AT": 5507,
      "Ġmitig": 5508,
      "ĠTensor": 5509,
      "Ġvis": 5510,
      "Ġchip": 5511,
      "Ġcomments": 5512,
      "textrm": 5513,
      "ĠConnect": 5514,
      "Ġcryogenic": 5515,
      "Ġreasonable": 5516,
      "mediately": 5517,
      "providers": 5518,
      "ymmetric": 5519,
      "Ġmultiply": 5520,
      "COOR": 5521,
      "Ġaux": 5522,
      ",-": 5523,
      "uous": 5524,
      "uli": 5525,
      "dered": 5526,
      "Ġcandid": 5527,
      "advantages": 5528,
      "Ġshot": 5529,
      "connect": 5530,
      "rology": 5531,
      "Ġincorrect": 5532,
      "Ġkeys": 5533,
      "Ġexpansion": 5534,
      "weight": 5535,
      "COORDS": 5536,
      "Ad": 5537,
      "earch": 5538,
      "duction": 5539,
      "Ġrealized": 5540,
      "Ġexecuted": 5541,
      "ĠLandau": 5542,
      "Or": 5543,
      "yle": 5544,
      "Ġgluons": 5545,
      "ulates": 5546,
      "ĠSec": 5547,
      "Ġmatching": 5548,
      "Ġshape": 5549,
      "ĠDetection": 5550,
      "Ġfamiliar": 5551,
      "ĠImplementing": 5552,
      "^+": 5553,
      "hist": 5554,
      "irm": 5555,
      "ĠSpect": 5556,
      "Ġunlike": 5557,
      "Ġpredicted": 5558,
      "DETECTOR": 5559,
      "2023": 5560,
      "Ġcycle": 5561,
      "Ġwalk": 5562,
      "Ġformat": 5563,
      "9999": 5564,
      "âĤĢ": 5565,
      "Ġdatas": 5566,
      "Ġcolumns": 5567,
      "91": 5568,
      "BC": 5569,
      "itoring": 5570,
      "Ġcontrols": 5571,
      "Ġrequirement": 5572,
      "ierarch": 5573,
      "Ġlinks": 5574,
      "ĠDifferences": 5575,
      "ĠCommon": 5576,
      "isualization": 5577,
      "HT": 5578,
      "QUB": 5579,
      "brace": 5580,
      "pper": 5581,
      "eros": 5582,
      "env": 5583,
      "phistic": 5584,
      "jection": 5585,
      "Ġtraject": 5586,
      "phisticated": 5587,
      "Ġstage": 5588,
      "acing": 5589,
      "Ġland": 5590,
      "Ġtruth": 5591,
      "oseph": 5592,
      "locality": 5593,
      "Ġneutrons": 5594,
      "Ġperturbation": 5595,
      "{-": 5596,
      "Ġinfin": 5597,
      "igor": 5598,
      "ĠSy": 5599,
      "preser": 5600,
      "....": 5601,
      "Ġhead": 5602,
      "Ġregions": 5603,
      "parse": 5604,
      "Ġdetermining": 5605,
      "Ġstarts": 5606,
      "ĠPerform": 5607,
      "ords": 5608,
      "ĠHigher": 5609,
      "ĠNV": 5610,
      "Ġket": 5611,
      "ĠProcess": 5612,
      "Ġdecomposed": 5613,
      "ĠQCD": 5614,
      "Ġpromising": 5615,
      "Ġdrive": 5616,
      "dense": 5617,
      "glie": 5618,
      "rl": 5619,
      "Ġapart": 5620,
      "ĠSeveral": 5621,
      "Ġrelate": 5622,
      "Ġillustr": 5623,
      "osephson": 5624,
      "dist": 5625,
      "erl": 5626,
      "ash": 5627,
      "Ġtransport": 5628,
      "Ġsuperconductivity": 5629,
      "Ġfair": 5630,
      "ĠâĨĴ": 5631,
      "ĠÏĢ": 5632,
      "Ġcharacterized": 5633,
      "Ġbalanced": 5634,
      "ymptotic": 5635,
      "ĠBroglie": 5636,
      "Edit": 5637,
      "{(": 5638,
      "att": 5639,
      "ĠMagnetic": 5640,
      "Ġelectro": 5641,
      "Ġgeneralized": 5642,
      "ĠShow": 5643,
      "Ġagree": 5644,
      "Ġâī¡": 5645,
      "ĠObserv": 5646,
      "Ġinsights": 5647,
      "Ġconvex": 5648,
      "Ġrecommend": 5649,
      "nill": 5650,
      "Ġgauge": 5651,
      "âŁ©)": 5652,
      "taining": 5653,
      "Ġforms": 5654,
      "Ġrecogn": 5655,
      "ĠAssum": 5656,
      "Ġdemonstrate": 5657,
      "Ġnotebook": 5658,
      "command": 5659,
      "Ġcenter": 5660,
      "marking": 5661,
      "Ġvolt": 5662,
      "vered": 5663,
      "Ġseed": 5664,
      "Ġimmediately": 5665,
      "ĠNetwork": 5666,
      "ĠLow": 5667,
      "rupt": 5668,
      "ribute": 5669,
      "Ġfails": 5670,
      "Another": 5671,
      "Ġgas": 5672,
      "ĠSet": 5673,
      "Ġvast": 5674,
      "Ġentry": 5675,
      "Ġrealize": 5676,
      "Ġindices": 5677,
      "plotlib": 5678,
      "ĠTechniques": 5679,
      "Ġscenarios": 5680,
      "ĠEncoding": 5681,
      "ĠQUBO": 5682,
      "SU": 5683,
      "piler": 5684,
      "zed": 5685,
      "ants": 5686,
      "rays": 5687,
      "These": 5688,
      "Ġrealistic": 5689,
      "ï¬ģne": 5690,
      "ĠCooling": 5691,
      "Ġcausing": 5692,
      "ĠApproxim": 5693,
      "ĠMajor": 5694,
      "QKD": 5695,
      "Ġrough": 5696,
      "aged": 5697,
      "matching": 5698,
      "ĠElect": 5699,
      "Ġaccessible": 5700,
      "Ġmanner": 5701,
      "Ġthemselves": 5702,
      "Ġsmallest": 5703,
      "Ġbounded": 5704,
      "Ġsimplify": 5705,
      "Ġmetric": 5706,
      "Ġinsul": 5707,
      "Ġpromise": 5708,
      "Ġconsequence": 5709,
      "Ġconfinement": 5710,
      "har": 5711,
      "lane": 5712,
      "pauli": 5713,
      "Ġduality": 5714,
      "aratus": 5715,
      "ste": 5716,
      "Ġobey": 5717,
      "Ġrelativistic": 5718,
      "âķ«": 5719,
      "sibility": 5720,
      "Ġinfluences": 5721,
      "ĠMicrosoft": 5722,
      "Ġpackage": 5723,
      "Pr": 5724,
      "github": 5725,
      "two": 5726,
      "|+": 5727,
      "Ġhypot": 5728,
      "âĶĺ": 5729,
      "Ġneural": 5730,
      "Ġnode": 5731,
      "Ġphysic": 5732,
      "Ġï¬ģeld": 5733,
      "Ġadjac": 5734,
      ")-": 5735,
      "Using": 5736,
      "Where": 5737,
      "Ġstorage": 5738,
      "ĠTemperature": 5739,
      "Ġareas": 5740,
      "observ": 5741,
      "processing": 5742,
      "Ġderive": 5743,
      "No": 5744,
      "ki": 5745,
      "lation": 5746,
      "Ġwish": 5747,
      "Ġconsum": 5748,
      "unding": 5749,
      "agine": 5750,
      "ĠĠĠĠĠĠĠĠĠĠĠ": 5751,
      "Ġrat": 5752,
      "}\\,": 5753,
      "annon": 5754,
      "Ġfeel": 5755,
      "ĠJosephson": 5756,
      "ĠMeasurements": 5757,
      "Ġhydrogen": 5758,
      "Ġcentral": 5759,
      "Ġplatforms": 5760,
      "negative": 5761,
      "]),": 5762,
      "âģ": 5763,
      "second": 5764,
      "oltz": 5765,
      "ppler": 5766,
      "ĠIts": 5767,
      "ĠCNOTs": 5768,
      "Ġconcer": 5769,
      "going": 5770,
      "Ġqueries": 5771,
      "AND": 5772,
      "ixt": 5773,
      "ings": 5774,
      "Ġ\\[": 5775,
      "Ġlack": 5776,
      "ĠPost": 5777,
      "ĠRep": 5778,
      "Ġprev": 5779,
      "ĠOR": 5780,
      "Ġoptions": 5781,
      "Ġabstract": 5782,
      "WI": 5783,
      "Ġreverse": 5784,
      "ĠTun": 5785,
      "section": 5786,
      "ĠPAULI": 5787,
      "Ġsomehow": 5788,
      "Ġjobs": 5789,
      "Ġnuclei": 5790,
      "Ġsusceptible": 5791,
      "30": 5792,
      "wires": 5793,
      "ionic": 5794,
      "Ġcompat": 5795,
      "Ġcomplement": 5796,
      "Ġscreen": 5797,
      "Ġdomain": 5798,
      "newcommand": 5799,
      "imate": 5800,
      "Ġ000": 5801,
      "ived": 5802,
      "Ġlen": 5803,
      "elian": 5804,
      "Ġtransist": 5805,
      "atures": 5806,
      "Ġtransmitted": 5807,
      "Classical": 5808,
      "Ġneutral": 5809,
      "Ġconductivity": 5810,
      "Ġmodulo": 5811,
      "vin": 5812,
      "Ġconventional": 5813,
      "Ġalone": 5814,
      "through": 5815,
      "Ġroom": 5816,
      "ĠWeak": 5817,
      "Ġspeedups": 5818,
      "Ġ$\\{|": 5819,
      ")/\\": 5820,
      "ĠParticle": 5821,
      "ĠVariational": 5822,
      "Ġdestroy": 5823,
      ")*": 5824,
      "86": 5825,
      "ders": 5826,
      "kin": 5827,
      "Ġ=\\": 5828,
      "ĠFault": 5829,
      "ĠNature": 5830,
      "prod": 5831,
      "Ġbreaking": 5832,
      "Ġgravitational": 5833,
      "ĠCrit": 5834,
      "call": 5835,
      "âĢ¢": 5836,
      "Ġobserving": 5837,
      "Ġcorrections": 5838,
      "Ġimprovement": 5839,
      "ymmetry": 5840,
      "qml": 5841,
      "Ġstable": 5842,
      "ilib": 5843,
      "ĠWikipedia": 5844,
      "Ġovercome": 5845,
      "Ġdiffusion": 5846,
      "Ġdimensional": 5847,
      "Ġâī¥": 5848,
      "Ġperiodic": 5849,
      "Ġflipped": 5850,
      "ĠPhotons": 5851,
      "ĠAtomic": 5852,
      "initialize": 5853,
      "False": 5854,
      "Ġtail": 5855,
      "atom": 5856,
      "Ġever": 5857,
      "istically": 5858,
      "Ġvice": 5859,
      "apor": 5860,
      "-->": 5861,
      "Ġsophisticated": 5862,
      "Ġoption": 5863,
      "ĠDepend": 5864,
      "rastructure": 5865,
      "Ġbeginning": 5866,
      "cations": 5867,
      "faces": 5868,
      "sample": 5869,
      "width": 5870,
      "otal": 5871,
      "Ġstrict": 5872,
      "irk": 5873,
      "ĠSU": 5874,
      "Ġprobe": 5875,
      "Ġobservations": 5876,
      "Ġimproving": 5877,
      "Ġlogarithm": 5878,
      "Ġfailure": 5879,
      "ĠSimulating": 5880,
      "Ġpreserve": 5881,
      "Ġabsorption": 5882,
      "ĠPhotonic": 5883,
      "ĠHolevo": 5884,
      "_+": 5885,
      "fact": 5886,
      "late": 5887,
      "ĠĊĠĠĠ": 5888,
      "rop": 5889,
      "account": 5890,
      "Ġleverage": 5891,
      ").$$": 5892,
      "Ġsimplest": 5893,
      "Ġimaginary": 5894,
      "Ġcosm": 5895,
      "Ġswitch": 5896,
      "ani": 5897,
      "rely": 5898,
      "Ġbody": 5899,
      "Ġ${\\": 5900,
      "Ġgame": 5901,
      "Ġexpert": 5902,
      "ectors": 5903,
      "Ġvon": 5904,
      "errors": 5905,
      "Ġassumed": 5906,
      "Ġancillary": 5907,
      "ĠResearch": 5908,
      "Ġelimin": 5909,
      "Ġprimarily": 5910,
      "ĠCommunication": 5911,
      "ierarchy": 5912,
      "oltzmann": 5913,
      "factor": 5914,
      "uable": 5915,
      "onon": 5916,
      "itness": 5917,
      "Ġsound": 5918,
      "stone": 5919,
      "rium": 5920,
      "Ġapparatus": 5921,
      "ciate": 5922,
      "Ġplane": 5923,
      "Ġsupposed": 5924,
      "Ġincreased": 5925,
      "Ġboson": 5926,
      "ES": 5927,
      "Ġbin": 5928,
      "arXiv": 5929,
      "Ġadds": 5930,
      "Ġ**": 5931,
      "Ġdifficulty": 5932,
      ")^{\\": 5933,
      "707": 5934,
      "QM": 5935,
      "bo": 5936,
      "sv": 5937,
      "Ġbul": 5938,
      "imal": 5939,
      "Ġgenerating": 5940,
      "ĠThanks": 5941,
      "preserving": 5942,
      "}[\\": 5943,
      "Â·": 5944,
      "ret": 5945,
      "ronger": 5946,
      "Ġspecified": 5947,
      "Ġmodify": 5948,
      "âĶĢâĶ¤": 5949,
      "Ġhyper": 5950,
      "ĠNumber": 5951,
      "ilibrium": 5952,
      "Ġ//": 5953,
      "omm": 5954,
      "Ġstru": 5955,
      "Ġhav": 5956,
      "Ġcompilation": 5957,
      "ĠMay": 5958,
      "Ġ21": 5959,
      "ĠDefine": 5960,
      "Ġexcitation": 5961,
      "ĠControlled": 5962,
      "ĠDistribution": 5963,
      "ĠEstimation": 5964,
      "QASM": 5965,
      "'.": 5966,
      "^+\\": 5967,
      "rounding": 5968,
      "umer": 5969,
      "Ġmeant": 5970,
      "Ġ111": 5971,
      "ĠMitigation": 5972,
      "ĠIndeed": 5973,
      "Ġdisc": 5974,
      "ĠAerSimulator": 5975,
      "Ġviolate": 5976,
      "Ġevolves": 5977,
      "Ġpriv": 5978,
      "Ġfilter": 5979,
      "ĠCheck": 5980,
      "Ġaspects": 5981,
      "Ġsilicon": 5982,
      "QUBIT": 5983,
      "ones": 5984,
      "Ġmiddle": 5985,
      "Ġnotice": 5986,
      "ĠMax": 5987,
      "ĠFurthermore": 5988,
      "Ġincomp": 5989,
      "ĠXOR": 5990,
      "Ġplays": 5991,
      "Ġdetecting": 5992,
      "operators": 5993,
      "Ġsqueez": 5994,
      "Ġfewer": 5995,
      "Ġreferred": 5996,
      "Ġinstructions": 5997,
      "ĠSignific": 5998,
      "Ġlecture": 5999,
      "Ġbring": 6000,
      "Ġcomposition": 6001,
      "ĠAb": 6002,
      "Ġspann": 6003,
      "Ġgeneric": 6004,
      "ĠarXiv": 6005,
      "Ġprojects": 6006,
      "Ġlatter": 6007,
      "Ġequivalence": 6008,
      "Ġoccurred": 6009,
      "Ġpreparing": 6010,
      "super": 6011,
      "92": 6012,
      "ÌĤ": 6013,
      "Ġtem": 6014,
      "ĠMinim": 6015,
      "ĠOf": 6016,
      "roduction": 6017,
      "ĠEntangled": 6018,
      "Ġreasoning": 6019,
      "ĠInterference": 6020,
      "aconda": 6021,
      "ÎĶ": 6022,
      "ancilla": 6023,
      "Ġleak": 6024,
      "Ġneighb": 6025,
      "igner": 6026,
      "}}{\\": 6027,
      "Ġdeï¬ģnition": 6028,
      "Ġspontaneous": 6029,
      "VQE": 6030,
      "ĠIon": 6031,
      "Ġdephasing": 6032,
      "Ġ22": 6033,
      "ipole": 6034,
      "Ġparameterized": 6035,
      "Ġreveal": 6036,
      "ĠPaulis": 6037,
      "Jozsa": 6038,
      "dri": 6039,
      "och": 6040,
      "onical": 6041,
      "Ġcame": 6042,
      "Ġwait": 6043,
      "Ġrevolution": 6044,
      "force": 6045,
      "ĠFile": 6046,
      "Ġgenerates": 6047,
      "}}(\\": 6048,
      "Ġordering": 6049,
      "Ġindicate": 6050,
      "Are": 6051,
      "you": 6052,
      "ĠSum": 6053,
      "Ġrouting": 6054,
      "Ġcollection": 6055,
      "Ġreasons": 6056,
      "Ġrotate": 6057,
      "Ġhaven": 6058,
      "\\}$,": 6059,
      "cale": 6060,
      "norm": 6061,
      "Î½": 6062,
      "ĥĹ": 6063,
      "ren": 6064,
      "ĠAct": 6065,
      "ĠRead": 6066,
      "Ġdecision": 6067,
      "ĠYour": 6068,
      "Ġsettings": 6069,
      "[[": 6070,
      "Ġcut": 6071,
      "Ġmar": 6072,
      "Ġliquid": 6073,
      "rag": 6074,
      "Ġrigor": 6075,
      "gery": 6076,
      "ractive": 6077,
      "Ġachieving": 6078,
      "design": 6079,
      "Ġensuring": 6080,
      "ibraries": 6081,
      "^^^^": 6082,
      "HSH": 6083,
      "swap": 6084,
      "46": 6085,
      "[:": 6086,
      "sis": 6087,
      "Ġpie": 6088,
      "omography": 6089,
      "device": 6090,
      "ĠTherm": 6091,
      "Ġorient": 6092,
      "format": 6093,
      "ansatz": 6094,
      "ĠLo": 6095,
      "Ġcontinue": 6096,
      "Ġantic": 6097,
      "Ġresonance": 6098,
      "Ġstrugg": 6099,
      "\\|\\": 6100,
      "Ġfabrication": 6101,
      "ett": 6102,
      "Ġgr": 6103,
      "pers": 6104,
      "Ġassert": 6105,
      "Ġ[]": 6106,
      "ĠProgram": 6107,
      "Ġmatters": 6108,
      "Ġinteracting": 6109,
      "Ġviolation": 6110,
      "--------------------------------": 6111,
      "ĠDevelopment": 6112,
      "Ġuniverses": 6113,
      "Ġeffort": 6114,
      "Ġconvenient": 6115,
      ":=": 6116,
      "Kitaev": 6117,
      "OB": 6118,
      "odynamics": 6119,
      "Ġ25": 6120,
      "ĠRandom": 6121,
      "Ġadder": 6122,
      "entially": 6123,
      "Ġinitialized": 6124,
      "ĠâĢł": 6125,
      "ĠProbability": 6126,
      "Ġcluster": 6127,
      "ĠAPI": 6128,
      "Ġtalking": 6129,
      "87": 6130,
      "visualization": 6131,
      "utine": 6132,
      "Ġintrinsic": 6133,
      "Ġequals": 6134,
      "Ġtrade": 6135,
      "ĠDoppler": 6136,
      "Ġconclude": 6137,
      "ĠSimon": 6138,
      "ĠQuantization": 6139,
      "logical": 6140,
      "Î»": 6141,
      "utput": 6142,
      "Ġrenormal": 6143,
      "Ġ($\\": 6144,
      "Ġdeal": 6145,
      "ĠâĬķ": 6146,
      "class": 6147,
      "histogram": 6148,
      "ched": 6149,
      "Ġeigens": 6150,
      "Ġrecover": 6151,
      "ĠSP": 6152,
      "Ġinitialization": 6153,
      "Ġstrongly": 6154,
      "Ġsemi": 6155,
      "âķĲâķĲâķĲâķĲâķĲâķĲâķĲâķĲâķĲâķĲâķĲâķĲâķĲâķĲâķĲâķĲ": 6156,
      "########": 6157,
      "Ġmanifest": 6158,
      "also": 6159,
      "Ġnative": 6160,
      "ull": 6161,
      "Ġconfined": 6162,
      "ĠCHSH": 6163,
      "Ġuser": 6164,
      "Ġestimates": 6165,
      "uclear": 6166,
      "ometers": 6167,
      "Ġsupports": 6168,
      "Ġmanipulation": 6169,
      "ĠÂ·": 6170,
      "eff": 6171,
      "rarily": 6172,
      "aten": 6173,
      "Ġmixt": 6174,
      "Ġweb": 6175,
      "Ġleave": 6176,
      "ĠLog": 6177,
      "pyter": 6178,
      "Ġshowed": 6179,
      "Ġemph": 6180,
      "Ġsending": 6181,
      "Ġpurity": 6182,
      "ĠMechanism": 6183,
      "ĠOperators": 6184,
      "fortunately": 6185,
      "Ġ%": 6186,
      "ĠML": 6187,
      "Ġmodern": 6188,
      "Ġchoices": 6189,
      "Ġtopic": 6190,
      "Ġ:=": 6191,
      "Ġsatisfying": 6192,
      "Ġdirections": 6193,
      "probability": 6194,
      "ĠMethods": 6195,
      "hanced": 6196,
      "non": 6197,
      "rz": 6198,
      "|$.": 6199,
      "izers": 6200,
      "ĠBEC": 6201,
      "Ġknowing": 6202,
      "Ġpauli": 6203,
      "Ġproduced": 6204,
      "****": 6205,
      "ĠCreate": 6206,
      "box": 6207,
      "dits": 6208,
      "mistry": 6209,
      "ĠPenny": 6210,
      "ĠFidelity": 6211,
      "Ġcorner": 6212,
      "ĠLag": 6213,
      "Ġmodeling": 6214,
      "ĠUnitary": 6215,
      "rosst": 6216,
      "Ġclocks": 6217,
      "Ġdigital": 6218,
      "Î¼": 6219,
      "ifications": 6220,
      "Ġruntime": 6221,
      "exec": 6222,
      "Ġsurrounding": 6223,
      "Ġrows": 6224,
      "entangled": 6225,
      "rosstalk": 6226,
      "pation": 6227,
      "Ġtend": 6228,
      "lent": 6229,
      "arp": 6230,
      "Ġstronger": 6231,
      "Ġspe": 6232,
      "racold": 6233,
      "ĠRad": 6234,
      "spaces": 6235,
      "Ġsimilarly": 6236,
      "asmas": 6237,
      "diagonal": 6238,
      "decompose": 6239,
      "49": 6240,
      "CD": 6241,
      "dif": 6242,
      "ii": 6243,
      "ĠEfficient": 6244,
      "Ġapparent": 6245,
      "ront": 6246,
      "Ġwhereas": 6247,
      ")))": 6248,
      "Ġmodule": 6249,
      "Ġspecialized": 6250,
      "Ġclosely": 6251,
      "Ġsplitting": 6252,
      "Ġstabilis": 6253,
      "Ġnumerical": 6254,
      "Ġproperly": 6255,
      "Ġvoltage": 6256,
      "Ġratio": 6257,
      "=|\\": 6258,
      "nature": 6259,
      "vices": 6260,
      "vdots": 6261,
      "}&": 6262,
      "ĊĊĠĠĠĠĠĠĠ": 6263,
      "atever": 6264,
      "Ġcompleteness": 6265,
      "Ġdefines": 6266,
      "meas": 6267,
      "Ġassumes": 6268,
      "runtime": 6269,
      "Ġgeometry": 6270,
      "ÂłÂłÂłÂłÂłÂłÂłÂł": 6271,
      "53": 6272,
      "index": 6273,
      "Ġbad": 6274,
      "structure": 6275,
      "ows": 6276,
      "ifier": 6277,
      "racle": 6278,
      "Ġshap": 6279,
      "Ġfinds": 6280,
      "Ġacqu": 6281,
      "Ġboundaries": 6282,
      "Ġconfirm": 6283,
      "Ġpropagate": 6284,
      "Ġorbitals": 6285,
      "tensor": 6286,
      "Ġded": 6287,
      "Ġqudit": 6288,
      "forall": 6289,
      "Ġouter": 6290,
      "Ġinstances": 6291,
      "product": 6292,
      "Ġretrie": 6293,
      "Ġchecking": 6294,
      "Thank": 6295,
      "ĠNeut": 6296,
      "Ġautomatically": 6297,
      "Ġsuperconductors": 6298,
      "ĠCryptography": 6299,
      "++": 6300,
      "1000": 6301,
      "dt": 6302,
      "limit": 6303,
      "uitive": 6304,
      "Ġisomorph": 6305,
      "Ġ\\|": 6306,
      "Ġintractable": 6307,
      "particles": 6308,
      "Ġgeometric": 6309,
      "Ġcoupled": 6310,
      "Ġtor": 6311,
      "Ġdark": 6312,
      "Ġlab": 6313,
      "Ġproceed": 6314,
      "Ġ1000": 6315,
      "Ġenumer": 6316,
      "elow": 6317,
      "ĠLight": 6318,
      "ĠZZ": 6319,
      "Ġplt": 6320,
      "Ġcorrected": 6321,
      "veloc": 6322,
      "ĠChapter": 6323,
      "Ġarbitrarily": 6324,
      "Ġcommonly": 6325,
      "operation": 6326,
      "Ġdoub": 6327,
      "Ġresponse": 6328,
      "Ġconfiguration": 6329,
      "ĠScience": 6330,
      "Ġrelaxation": 6331,
      "Ġprevents": 6332,
      "CU": 6333,
      "Ġcons": 6334,
      "Ġaren": 6335,
      "ills": 6336,
      "Ġ200": 6337,
      "Ġplan": 6338,
      ",\\,\\": 6339,
      "ĠShannon": 6340,
      "Ġpurely": 6341,
      "Ġredund": 6342,
      "Ġimperfections": 6343,
      "Ġliterature": 6344,
      "Vector": 6345,
      "While": 6346,
      "^-": 6347,
      "ĠĠĊ": 6348,
      "Ġwitness": 6349,
      "Ġflex": 6350,
      "olation": 6351,
      "ĠBra": 6352,
      "Ġ&\\": 6353,
      "ĠMet": 6354,
      "âŁ©)/": 6355,
      "ĠImport": 6356,
      "Ġintroducing": 6357,
      "ĠErrors": 6358,
      "ĊĠĠĠĠĠĠĠĠĠĠĠĠĠĠĠĠĠĠĠĠĠĠĠĠĠĠĠĠĠĠĠĠ": 6359,
      "crimin": 6360,
      "Ġdecreases": 6361,
      "Ġdegenerate": 6362,
      "Local": 6363,
      "]`": 6364,
      "cy": 6365,
      "Ġold": 6366,
      "arning": 6367,
      "Ġonline": 6368,
      "atest": 6369,
      "ĠFalse": 6370,
      "Ġoperating": 6371,
      "ĠAlthough": 6372,
      "Ġâĸ": 6373,
      "Ġhelium": 6374,
      "Ġchoosing": 6375,
      "Ġchecks": 6376,
      "scape": 6377,
      "Ġabsorb": 6378,
      "Ġvertical": 6379,
      "Ġvertices": 6380,
      "Ġgoverned": 6381,
      "ĠBuilding": 6382,
      "40": 6383,
      "PC": 6384,
      "Ġveloc": 6385,
      "itter": 6386,
      "Ġdual": 6387,
      "plt": 6388,
      "Ġoptimized": 6389,
      "ĠCharacter": 6390,
      "ĠâĪ«": 6391,
      "Ġtargets": 6392,
      "Ġpreserving": 6393,
      "ĠChallenge": 6394,
      "ĠGeneral": 6395,
      "Ġupdate": 6396,
      "Dec": 6397,
      "kl": 6398,
      "atives": 6399,
      "ingly": 6400,
      "],[": 6401,
      "Ġblue": 6402,
      "Ġdefinitions": 6403,
      "transpiler": 6404,
      "cz": 6405,
      "iver": 6406,
      "ishes": 6407,
      "Ġ\\;": 6408,
      "ĠPo": 6409,
      "ĠLong": 6410,
      "Ġelectronics": 6411,
      "Ġplus": 6412,
      "Ġtopology": 6413,
      "Ġpreserves": 6414,
      "Ġharder": 6415,
      "Ġextended": 6416,
      "Ġcomparing": 6417,
      "Ġvibrations": 6418,
      "because": 6419,
      "save": 6420,
      "|+|": 6421,
      "ery": 6422,
      "Ġreaction": 6423,
      "amming": 6424,
      "Ġconstit": 6425,
      "imitive": 6426,
      "Ġguide": 6427,
      "Ġcontextuality": 6428,
      "ottes": 6429,
      "Ġanalyze": 6430,
      "ĠElectrons": 6431,
      "ĠCollapse": 6432,
      "Measure": 6433,
      "Ġfiber": 6434,
      "All": 6435,
      "gu": 6436,
      "ites": 6437,
      "Ġdr": 6438,
      "Ġthous": 6439,
      "ounter": 6440,
      "peri": 6441,
      "ĠCry": 6442,
      "Ġsuff": 6443,
      "ided": 6444,
      "channel": 6445,
      "avig": 6446,
      "Ġcommuting": 6447,
      "Ġcommutation": 6448,
      "Ġversa": 6449,
      "Ġaffected": 6450,
      "Ġmultiplying": 6451,
      "76": 6452,
      "Hz": 6453,
      "]\\": 6454,
      "sy": 6455,
      "ufact": 6456,
      "acles": 6457,
      "Ġexcel": 6458,
      "ĠPur": 6459,
      "Ġpartition": 6460,
      "ube": 6461,
      "}_\\": 6462,
      "00000000": 6463,
      "Ġscalability": 6464,
      "Ġarguments": 6465,
      "Ġdeï¬ģned": 6466,
      "ĠDETECTOR": 6467,
      "Ġrewrite": 6468,
      "ĠBasic": 6469,
      "/âĪļ": 6470,
      "201": 6471,
      "AR": 6472,
      "sampler": 6473,
      "there": 6474,
      "anted": 6475,
      "seud": 6476,
      "urning": 6477,
      "ĠFlu": 6478,
      "ĠExercise": 6479,
      "Ġwants": 6480,
      "ĠÎ¦": 6481,
      "ĠAdv": 6482,
      "Ġsufficiently": 6483,
      "Ġauthor": 6484,
      "Ġefï¬ģci": 6485,
      "48": 6486,
      "NP": 6487,
      "Rec": 6488,
      "ules": 6489,
      "Ġdivid": 6490,
      "Ġhierarchy": 6491,
      "ĠBl": 6492,
      "orted": 6493,
      "idefinite": 6494,
      "Ġcodew": 6495,
      "Trans": 6496,
      "Ġrecently": 6497,
      "Ġmanagement": 6498,
      "Model": 6499,
      "Part": 6500,
      "sign": 6501,
      "Ġ!": 6502,
      "ĠQND": 6503,
      "Ġspread": 6504,
      "Ġdependent": 6505,
      "instruction": 6506,
      "correcting": 6507,
      "ĠUnivers": 6508,
      "ottesman": 6509,
      "93": 6510,
      "eper": 6511,
      "gan": 6512,
      "oled": 6513,
      "surface": 6514,
      "onents": 6515,
      "asible": 6516,
      "irror": 6517,
      "Ġconcrete": 6518,
      "ĠAnt": 6519,
      "Ġsyste": 6520,
      "ĠExperience": 6521,
      "ĠContin": 6522,
      "Ġlargest": 6523,
      "Question": 6524,
      "Ġcollapsing": 6525,
      "Ġcapable": 6526,
      "manager": 6527,
      "Ġservice": 6528,
      "ĠResult": 6529,
      "Ġpassing": 6530,
      "Ġsubsystems": 6531,
      "Ġgrows": 6532,
      "Ġbran": 6533,
      "():": 6534,
      ")(\\": 6535,
      "joint": 6536,
      "oe": 6537,
      "uly": 6538,
      "anies": 6539,
      "ils": 6540,
      "ĠWhich": 6541,
      "ĠEigen": 6542,
      "Ġnovel": 6543,
      "Ġattempts": 6544,
      "lisions": 6545,
      "ĠStep": 6546,
      "Ġdynamic": 6547,
      "LS": 6548,
      "vqe": 6549,
      "Ġdealing": 6550,
      "ĠPilot": 6551,
      "Ġwouldn": 6552,
      "ĠÏī": 6553,
      "Ġuniformly": 6554,
      "Ġfamily": 6555,
      "43": 6556,
      "Ġfalse": 6557,
      "Ġaltern": 6558,
      "ĠCodes": 6559,
      "ĠSw": 6560,
      "Ġusers": 6561,
      "Ġvaluable": 6562,
      "ourne": 6563,
      "Ġunits": 6564,
      "Ġyourself": 6565,
      "Ġcommand": 6566,
      "Ġdissi": 6567,
      "Ġsurpr": 6568,
      "Ġguides": 6569,
      "ynamic": 6570,
      "Ġï¬ģnd": 6571,
      "Ġsimplifies": 6572,
      "Ġprotons": 6573,
      "ĠNew": 6574,
      "ĠĠĠĠĠĠĠĠĠĠĠĠĠĠĠĠĠĠĠĠĠĠĠĠĠĠĠĠĠĠĠĠĠĠĠĠĠĠĠĠĠĠĠĠĠĠĠĠĠĠĠĠĠĠĠĠĠĠĠĠĠĠĠĠ": 6575,
      "Ġdegeneracy": 6576,
      "rangian": 6577,
      "'}": 6578,
      "65": 6579,
      "QHE": 6580,
      "dot": 6581,
      "multi": 6582,
      "rank": 6583,
      "||": 6584,
      "ithmetic": 6585,
      "Ġfinancial": 6586,
      "Ġdisplay": 6587,
      "Ġvariations": 6588,
      "âĶĢâĶĢâĶĢâĶĢâĶĢâĶĢâĶĢâĶĢâĶĢâĶĢ": 6589,
      "Ġweights": 6590,
      "ĠPrecise": 6591,
      "DR": 6592,
      "sx": 6593,
      "Ġsite": 6594,
      "Ġlose": 6595,
      "Ġequally": 6596,
      "ĠZeno": 6597,
      "ĠStrong": 6598,
      "computation": 6599,
      "ĠDiff": 6600,
      "Ġmetal": 6601,
      "Ġsyndromes": 6602,
      "ĠDetermin": 6603,
      "Ġtableau": 6604,
      "Ġbenefit": 6605,
      "ĠHybrid": 6606,
      "Ġqutrit": 6607,
      ")}{": 6608,
      "DK": 6609,
      "EM": 6610,
      "ROR": 6611,
      "rics": 6612,
      "ton": 6613,
      "ĠTrotter": 6614,
      "Ġbelong": 6615,
      "ĠHel": 6616,
      "Ġselection": 6617,
      "Ġ|+": 6618,
      "Ġ35": 6619,
      "cccc": 6620,
      "latex": 6621,
      "Ste": 6622,
      "main": 6623,
      "Ġ\\(\\": 6624,
      "stein": 6625,
      "ressed": 6626,
      "herical": 6627,
      "Ġmapped": 6628,
      "rouble": 6629,
      "Ġdifferential": 6630,
      "ĠConcept": 6631,
      "Ġworst": 6632,
      "ĠAmplitude": 6633,
      "ĠBoolean": 6634,
      "ĠLagrangian": 6635,
      "ET": 6636,
      "}-\\": 6637,
      "~~": 6638,
      "Ġcr": 6639,
      "Ġgen": 6640,
      "depth": 6641,
      "Ġinterval": 6642,
      "Ġproved": 6643,
      "Ġphotonics": 6644,
      "Ġsubsequ": 6645,
      "vantage": 6646,
      "leportation": 6647,
      "Ġfocusing": 6648,
      "Ġtwice": 6649,
      "frequency": 6650,
      "ancing": 6651,
      "ask": 6652,
      "ĠDi": 6653,
      "Ġ|+\\": 6654,
      "Ġqreg": 6655,
      "tex": 6656,
      "imulated": 6657,
      "ĠJust": 6658,
      "Ġconfusion": 6659,
      "Ġinfrastructure": 6660,
      "Ġscalable": 6661,
      "Ġremoved": 6662,
      "ĠRepe": 6663,
      "ln": 6664,
      "rig": 6665,
      "Ġthreat": 6666,
      "Ġexperi": 6667,
      "^{-\\": 6668,
      "ĠLore": 6669,
      "ession": 6670,
      "Ġseparating": 6671,
      "Ġsquared": 6672,
      "Ġmeaningful": 6673,
      "ĠFinally": 6674,
      "Ġguarantee": 6675,
      "Hadamard": 6676,
      "distance": 6677,
      "Ġmerg": 6678,
      "Ġgra": 6679,
      "ntz": 6680,
      "Ġleaves": 6681,
      "pied": 6682,
      "spired": 6683,
      "Ġsurgery": 6684,
      "âĤĻ": 6685,
      "Ġpresented": 6686,
      "ĠEstimator": 6687,
      "ĠâĶĶâĶĢâĶĢâĶĢâĶĺ": 6688,
      "(-\\": 6689,
      "pip": 6690,
      "tion": 6691,
      "uff": 6692,
      "Ġfit": 6693,
      "Ġstages": 6694,
      "Ġalter": 6695,
      "ĠAnother": 6696,
      "urations": 6697,
      "ĠMost": 6698,
      "ĠZX": 6699,
      "paration": 6700,
      "compute": 6701,
      "vironments": 6702,
      "Ġprotection": 6703,
      "Ġmanipulating": 6704,
      "Ġinfluenced": 6705,
      "Ġsuccessfully": 6706,
      "Ġconjug": 6707,
      "ĠWithout": 6708,
      "Ġvarying": 6709,
      "Ġrapidly": 6710,
      "olecule": 6711,
      "Runtime": 6712,
      "integer": 6713,
      "Of": 6714,
      "ao": 6715,
      "orter": 6716,
      "Ġworth": 6717,
      "Ġ$,": 6718,
      "Ġcool": 6719,
      "ecker": 6720,
      "Ġdependence": 6721,
      "ivalent": 6722,
      "ABC": 6723,
      "ĠâīĪ": 6724,
      "Ġpossibly": 6725,
      "ĠLorentz": 6726,
      "CP": 6727,
      "Tableau": 6728,
      "rehen": 6729,
      "arity": 6730,
      "Ġlibraries": 6731,
      "ĠPractical": 6732,
      "ems": 6733,
      "iest": 6734,
      "ension": 6735,
      "Ġconsisting": 6736,
      "Ġsupported": 6737,
      "ĠAnalysis": 6738,
      "CS": 6739,
      "Ġtoday": 6740,
      "Ġappend": 6741,
      "ĠOnce": 6742,
      "ĠStart": 6743,
      "Ġword": 6744,
      "Ġabsence": 6745,
      "ĠComputer": 6746,
      "iliary": 6747,
      "ĠRequires": 6748,
      "vol": 6749,
      "assive": 6750,
      "ĠCas": 6751,
      "ids": 6752,
      "Ġtrig": 6753,
      "final": 6754,
      "Ġcommutes": 6755,
      "ĠStructure": 6756,
      "Ġextraction": 6757,
      "Ġcertainty": 6758,
      "Ġcaused": 6759,
      "Ġamounts": 6760,
      "ĠComputational": 6761,
      "ĠMonte": 6762,
      "eval": 6763,
      "Ġtrouble": 6764,
      "oracle": 6765,
      "ĠAng": 6766,
      "ĠMomentum": 6767,
      "dule": 6768,
      "Ġcha": 6769,
      "}}(": 6770,
      "Ġfrequent": 6771,
      "Ġseparation": 6772,
      "APT": 6773,
      "ĠCombin": 6774,
      "ĠFermions": 6775,
      "Ġlayout": 6776,
      "Ġmutual": 6777,
      "$'": 6778,
      "Ent": 6779,
      "vation": 6780,
      "avy": 6781,
      "delity": 6782,
      "Ġsubro": 6783,
      "Ġverification": 6784,
      "Ġcenters": 6785,
      "Ġreliably": 6786,
      "ĠImplementation": 6787,
      "orthogonal": 6788,
      "display": 6789,
      "ĠCarlo": 6790,
      "))$": 6791,
      "ION": 6792,
      "gain": 6793,
      "method": 6794,
      "uzz": 6795,
      "hest": 6796,
      "ervice": 6797,
      "Ġfill": 6798,
      "arm": 6799,
      "ĠIde": 6800,
      "ighest": 6801,
      "ulner": 6802,
      "istant": 6803,
      "ften": 6804,
      "ditionally": 6805,
      "Ġtrapping": 6806,
      "Ġaxes": 6807,
      "ĠCircuits": 6808,
      "Ġbelieved": 6809,
      "Ġreceiver": 6810,
      "Ġlanguages": 6811,
      "ĠSignificance": 6812,
      "Ġmixture": 6813,
      "31": 6814,
      "47": 6815,
      "BQP": 6816,
      "poses": 6817,
      "Ġinversion": 6818,
      "Ġtruly": 6819,
      "Ġiff": 6820,
      "ponential": 6821,
      "Ġincident": 6822,
      "Ġsubspaces": 6823,
      "Ġradar": 6824,
      "Ġhappening": 6825,
      "Ġemphas": 6826,
      "oelectric": 6827,
      "!!": 6828,
      "Boh": 6829,
      "even": 6830,
      "esian": 6831,
      "Ġfore": 6832,
      "quare": 6833,
      "rote": 6834,
      "dec": 6835,
      "Ġuns": 6836,
      "ronecker": 6837,
      "Ġinterface": 6838,
      "Ġ$|-\\": 6839,
      "Ġequilibrium": 6840,
      "covered": 6841,
      "complex": 6842,
      "Ġremember": 6843,
      "Ġdesigning": 6844,
      "Ġcharacteristic": 6845,
      "ĠRedu": 6846,
      "Ġdemand": 6847,
      "89": 6848,
      "ooth": 6849,
      "xx": 6850,
      "|-\\": 6851,
      "Ġconversion": 6852,
      "ĠBased": 6853,
      "Ġvan": 6854,
      "Ġvide": 6855,
      "ĠRF": 6856,
      "ĠUl": 6857,
      "Ġancillas": 6858,
      "Ġstudied": 6859,
      "ĠPrinciples": 6860,
      "Ġrepeaters": 6861,
      "Statevector": 6862,
      "IBMQ": 6863,
      "Ġdiscard": 6864,
      ",...,": 6865,
      "]=": 6866,
      "bound": 6867,
      "kron": 6868,
      "Î³": 6869,
      "Ġwrote": 6870,
      "omal": 6871,
      "Ġwhatever": 6872,
      "Ġkick": 6873,
      "Ġsomewhat": 6874,
      "Ġformal": 6875,
      "Ġplas": 6876,
      "Ġsuggested": 6877,
      "Ġshifts": 6878,
      "Ġroughly": 6879,
      ")^\\": 6880,
      "BB": 6881,
      "foli": 6882,
      "Ġsave": 6883,
      "arse": 6884,
      "Ġhund": 6885,
      "Ġconver": 6886,
      "Ġrise": 6887,
      "api": 6888,
      "pected": 6889,
      "Ġsummar": 6890,
      "hedul": 6891,
      "Ġcapability": 6892,
      "minim": 6893,
      "ĠPOVMs": 6894,
      "Ġmonitoring": 6895,
      "Ġeventually": 6896,
      "PTP": 6897,
      "vergence": 6898,
      "cases": 6899,
      "dynamics": 6900,
      "pal": 6901,
      "since": 6902,
      "imately": 6903,
      "Ġforward": 6904,
      "cell": 6905,
      "Ġcomputes": 6906,
      "ĠString": 6907,
      "Ġoptimizing": 6908,
      "ĠÎ³": 6909,
      "Ġtheoretically": 6910,
      "learly": 6911,
      "Ġrespective": 6912,
      "Therefore": 6913,
      "Ġcapture": 6914,
      "Ġmistake": 6915,
      ">\\": 6916,
      "Type": 6917,
      "World": 6918,
      "ious": 6919,
      "ipped": 6920,
      "|.": 6921,
      "ats": 6922,
      "Ġ\\)": 6923,
      "ilos": 6924,
      "plification": 6925,
      "Ġqasm": 6926,
      "ĠGrav": 6927,
      "})$.": 6928,
      "Ġseparately": 6929,
      "Ġâĸĳ": 6930,
      "Ġvelocity": 6931,
      "ky": 6932,
      "split": 6933,
      "ted": 6934,
      "ana": 6935,
      "Ġgl": 6936,
      "ceil": 6937,
      "Ġunless": 6938,
      "ĠWork": 6939,
      "Ġestimator": 6940,
      "Ġï¬ģn": 6941,
      "Ġcharacterization": 6942,
      "ramework": 6943,
      "Ġsuccessful": 6944,
      "Ġframeworks": 6945,
      "ĠSecurity": 6946,
      "Ġdynamical": 6947,
      "Result": 6948,
      "ĠBosons": 6949,
      "42": 6950,
      "XY": 6951,
      "well": 6952,
      "Ġaver": 6953,
      "Ġwire": 6954,
      "ategor": 6955,
      "Ġhighest": 6956,
      "ĠSem": 6957,
      "ĠMark": 6958,
      "Ġlocations": 6959,
      "Ġheavi": 6960,
      "current": 6961,
      "ĠÏµ": 6962,
      "olecular": 6963,
      "Control": 6964,
      "ordan": 6965,
      "Ġmotional": 6966,
      "Ġsemidefinite": 6967,
      "Ġsampler": 6968,
      "Ġderivation": 6969,
      "ERROR": 6970,
      "Ġscientific": 6971,
      "Ġcharged": 6972,
      "ms": 6973,
      "pare": 6974,
      "iness": 6975,
      "Ġduration": 6976,
      "edical": 6977,
      "Ġnames": 6978,
      "Ġ27": 6979,
      "Ġ+=": 6980,
      "Ġtransmon": 6981,
      "Ġdiscrimin": 6982,
      "Ġplasmas": 6983,
      "incipal": 6984,
      "Ġmetrology": 6985,
      "EDIT": 6986,
      "Ġenhanced": 6987,
      "ĠComputers": 6988,
      "ĠËĨ": 6989,
      "Ġaims": 6990,
      "urious": 6991,
      "Ġindistinguishable": 6992,
      "ĠIons": 6993,
      "ĠPlease": 6994,
      "Ġspan": 6995,
      "ĠMRI": 6996,
      "ĠNuclear": 6997,
      "ĠIncre": 6998,
      "Ġgeneralization": 6999,
      "Ġmodified": 7000,
      "Ġconnects": 7001,
      "ĠMaintaining": 7002,
      "Ġphysicists": 7003,
      "?)": 7004,
      "\\;": 7005,
      "ha": 7006,
      "rand": 7007,
      "vide": 7008,
      "|$,": 7009,
      "Ġthesis": 7010,
      "Ġflo": 7011,
      "irani": 7012,
      "isting": 7013,
      "ĠFock": 7014,
      "0001": 7015,
      "ĠGottesman": 7016,
      "Ġincluded": 7017,
      "]);": 7018,
      "ĊĠĠĠĠĠĠĠĠĠ": 7019,
      "ĠUncertainty": 7020,
      "ĠRealism": 7021,
      "Ġrotated": 7022,
      "Ġpasses": 7023,
      "iHt": 7024,
      "azirani": 7025,
      "Bohm": 7026,
      "ccx": 7027,
      "Ġ...,": 7028,
      "anaconda": 7029,
      "ĠCost": 7030,
      "ĠĠĠĠĠĠĠĠĠĠ": 7031,
      "ĠQuirk": 7032,
      "Ġ|-\\": 7033,
      "Ġcover": 7034,
      "ĠGPU": 7035,
      "Ġsomewhere": 7036,
      "Ġapplic": 7037,
      "abilizers": 7038,
      "expectation": 7039,
      "},$$": 7040,
      "Ġconsiderations": 7041,
      "ĠJoh": 7042,
      "ĠEnvironment": 7043,
      "Ġintroduction": 7044,
      "ĠInteractions": 7045,
      "Ġintegrals": 7046,
      "Ġdipole": 7047,
      "omb": 7048,
      "Ġcloser": 7049,
      "ĠRem": 7050,
      "than": 7051,
      "ĠVon": 7052,
      "oney": 7053,
      "bigl": 7054,
      "Ġprepares": 7055,
      "Ġconcern": 7056,
      "Ġraise": 7057,
      "ovay": 7058,
      "Ġassess": 7059,
      "Shor": 7060,
      "Ġstrengths": 7061,
      "Ġappreciate": 7062,
      "Ġitems": 7063,
      "Ġcells": 7064,
      "Ġtempor": 7065,
      ")}|": 7066,
      "->": 7067,
      "/(": 7068,
      "Us": 7069,
      "file": 7070,
      "hamiltonian": 7071,
      "ts": 7072,
      "trace": 7073,
      "Ġ99": 7074,
      "amed": 7075,
      "chron": 7076,
      "ĠHamming": 7077,
      "Ġenvironments": 7078,
      "Ġphonons": 7079,
      "bigr": 7080,
      "ĠSupp": 7081,
      "ĠSpace": 7082,
      "transpile": 7083,
      "ĠDisadvantages": 7084,
      "Ġresonator": 7085,
      "Ġdictates": 7086,
      "Apply": 7087,
      "Ġinvestig": 7088,
      "Ġcollective": 7089,
      "Ġquasiparticles": 7090,
      "Ġmitigate": 7091,
      "Ġspanned": 7092,
      "AD": 7093,
      "Gener": 7094,
      "memory": 7095,
      "upyter": 7096,
      "Ġpseud": 7097,
      "rief": 7098,
      "ĠAut": 7099,
      "ĠBoltzmann": 7100,
      "ĠEvery": 7101,
      "Ġarithmetic": 7102,
      "Ġcollisions": 7103,
      "Ġtrain": 7104,
      "âĶĢâĶ´": 7105,
      "Ġcontinuously": 7106,
      "ĊĠĠĠĠĠĠĠĠĠĠĠĠĠĠĠĠĠĠĠ": 7107,
      "ĠFinding": 7108,
      "ĠCreating": 7109,
      "blad": 7110,
      "Ġeavesdropper": 7111,
      "Ġembedding": 7112,
      "SC": 7113,
      "Ġstuck": 7114,
      "ĠQR": 7115,
      "rade": 7116,
      "Ġdevelo": 7117,
      "Ġorgan": 7118,
      "romagnet": 7119,
      "ĠFactor": 7120,
      "ĠGet": 7121,
      "Ġdistingu": 7122,
      "Ġprediction": 7123,
      "Ġpropagation": 7124,
      "Ġanneal": 7125,
      "Ġexpressions": 7126,
      "Ġmedium": 7127,
      "Ġemployed": 7128,
      "Which": 7129,
      "][": 7130,
      "graph": 7131,
      "represent": 7132,
      "umin": 7133,
      "impl": 7134,
      "select": 7135,
      "ĠPres": 7136,
      "dual": 7137,
      "Ġcooled": 7138,
      "consist": 7139,
      "active": 7140,
      "Ġ32": 7141,
      "Ġregime": 7142,
      "valid": 7143,
      "subi": 7144,
      "indblad": 7145,
      "Ġï¬ģdelity": 7146,
      "Ġcharacterize": 7147,
      "CHAPT": 7148,
      "float": 7149,
      "CHAPTER": 7150,
      "68": 7151,
      "mer": 7152,
      "Ïµ": 7153,
      "unc": 7154,
      "ĠHig": 7155,
      "urable": 7156,
      "Ġimages": 7157,
      "called": 7158,
      "Ġdistant": 7159,
      "Ġlooph": 7160,
      "hips": 7161,
      "idelities": 7162,
      "Ġcombines": 7163,
      "Ġcosts": 7164,
      "Ġindicating": 7165,
      "Ġcounterpart": 7166,
      "check": 7167,
      "ĠConnectivity": 7168,
      "Ġstrictly": 7169,
      "heduling": 7170,
      "None": 7171,
      "Next": 7172,
      "PM": 7173,
      "âī": 7174,
      "inverse": 7175,
      "entropy": 7176,
      "Ġreport": 7177,
      "Ġste": 7178,
      "ifi": 7179,
      "Ġcompanies": 7180,
      "ĠEu": 7181,
      "Ġstatic": 7182,
      "Ġpurposes": 7183,
      "Ġcycl": 7184,
      "Ġhistogram": 7185,
      "Ġvisualize": 7186,
      "Ġauxiliary": 7187,
      "Ġadjacent": 7188,
      ")).": 7189,
      "QEC": 7190,
      "base": 7191,
      "case": 7192,
      "options": 7193,
      "typically": 7194,
      "wargs": 7195,
      "ourth": 7196,
      "Ġcanonical": 7197,
      "ĠCap": 7198,
      "Ġcomprehen": 7199,
      "Ġoracles": 7200,
      "Ġdesigns": 7201,
      "Ġminimizing": 7202,
      "Ġconstructing": 7203,
      "Ġspectra": 7204,
      "ndrome": 7205,
      "Proof": 7206,
      "Show": 7207,
      "Ġbenchmarking": 7208,
      "Ġcommutator": 7209,
      "'),": 7210,
      ")(|": 7211,
      "LE": 7212,
      "date": 7213,
      "while": 7214,
      "Ġcrosstalk": 7215,
      "alks": 7216,
      "Ġfac": 7217,
      "imir": 7218,
      "Ġintended": 7219,
      "ielding": 7220,
      "redict": 7221,
      "Ġcommunity": 7222,
      "Ġsatisfied": 7223,
      "Ġargue": 7224,
      "Ġsymmetries": 7225,
      "Ġpropagator": 7226,
      "Ġscientists": 7227,
      "ĠImproved": 7228,
      "Ġlandscape": 7229,
      "ĠHiggs": 7230,
      "Service": 7231,
      "ai": 7232,
      "density": 7233,
      "{+": 7234,
      "Ġinsert": 7235,
      "oll": 7236,
      "Ġasymptotic": 7237,
      "Ġcoinc": 7238,
      "Ġ+|": 7239,
      "Ġpreviously": 7240,
      "parrow": 7241,
      "Ġsimplicity": 7242,
      "Ġgreatly": 7243,
      "Ġanalyzing": 7244,
      "2021": 7245,
      "approxim": 7246,
      "Ġï¬Ĥip": 7247,
      "Ġbulk": 7248,
      "90": 7249,
      "post": 7250,
      "uparrow": 7251,
      "Ġtens": 7252,
      "Ġwidth": 7253,
      "step": 7254,
      "Ġdeeper": 7255,
      "ĠEng": 7256,
      "hood": 7257,
      "Ġknows": 7258,
      "Ġsensor": 7259,
      "Ġlabels": 7260,
      "ĠExperiments": 7261,
      "Ġaddressing": 7262,
      "ĠThermal": 7263,
      "80": 7264,
      "Bob": 7265,
      "]],": 7266,
      "mn": 7267,
      "Ġmirror": 7268,
      "Ġmerely": 7269,
      "Ġunw": 7270,
      "ĠBern": 7271,
      "textuality": 7272,
      "ormalization": 7273,
      "Ġpostulates": 7274,
      "Ġinteracts": 7275,
      "Ġreplaced": 7276,
      "Ġadjoint": 7277,
      "Ġfractional": 7278,
      "Ġdisturbance": 7279,
      "ĠProgramming": 7280,
      "ĠCasimir": 7281,
      "En": 7282,
      "Sp": 7283,
      "cut": 7284,
      "ior": 7285,
      "rx": 7286,
      "Ġsaw": 7287,
      "Ġqudits": 7288,
      "Ġrecovery": 7289,
      "ĠCoupling": 7290,
      "ĠSuch": 7291,
      "âĶľ": 7292,
      "ificial": 7293,
      "Ġfinally": 7294,
      "anning": 7295,
      "Ġworked": 7296,
      "Ġplates": 7297,
      "Ġdiamond": 7298,
      "Ġcontinued": 7299,
      "Problem": 7300,
      "transpiled": 7301,
      "Ġprocedures": 7302,
      "ĠQMA": 7303,
      "Ġclaims": 7304,
      "ternatively": 7305,
      "Ġtolerant": 7306,
      "ilosoph": 7307,
      "::": 7308,
      "abi": 7309,
      "ĠPredict": 7310,
      "Ġmatches": 7311,
      "Ġleaving": 7312,
      "ĠRo": 7313,
      "}$?": 7314,
      "Ġinternet": 7315,
      "Ġaccomp": 7316,
      "Ġproven": 7317,
      "Ġplaced": 7318,
      "ĠStrateg": 7319,
      "Ġtechnical": 7320,
      "Ġpotentials": 7321,
      "Ġessence": 7322,
      "Ġimprovements": 7323,
      "Ġfocused": 7324,
      "Ġguaranteed": 7325,
      "Ġadvancements": 7326,
      "Ġsynthesis": 7327,
      "Ġspeaking": 7328,
      "Ġdrift": 7329,
      "RuntimeService": 7330,
      "folio": 7331,
      "ID": 7332,
      "aut": 7333,
      "Ġmaster": 7334,
      "Ġnor": 7335,
      "eter": 7336,
      "pty": 7337,
      "ĠMWI": 7338,
      "ortun": 7339,
      "Ġfunctional": 7340,
      "ĠZero": 7341,
      "Ġcouldn": 7342,
      "Ġmomenta": 7343,
      "gging": 7344,
      "Example": 7345,
      "Ġdemonstrating": 7346,
      "ĠBefore": 7347,
      "ĠDEPOLARIZE": 7348,
      "\\_": 7349,
      "mode": 7350,
      "ressing": 7351,
      "ĠBit": 7352,
      "arest": 7353,
      "cible": 7354,
      "aved": 7355,
      "Ġarrays": 7356,
      "process": 7357,
      "Ġnoiseless": 7358,
      "Ġminus": 7359,
      "node": 7360,
      "Ġindividually": 7361,
      "ĠQASM": 7362,
      "ĠApplication": 7363,
      "*(": 7364,
      "bb": 7365,
      "ees": 7366,
      "lim": 7367,
      "alth": 7368,
      "ether": 7369,
      "Ġdeï¬ģne": 7370,
      "Ġuncertain": 7371,
      "ĠBreak": 7372,
      "Ġshorter": 7373,
      "ĠLie": 7374,
      "Ġ[-": 7375,
      "Ġexplored": 7376,
      "Ġtermin": 7377,
      "ĠInteraction": 7378,
      "PauliOp": 7379,
      "Ġignore": 7380,
      "Instance": 7381,
      "physical": 7382,
      "Ac": 7383,
      "Hence": 7384,
      "Lane": 7385,
      "qs": 7386,
      "Ġinit": 7387,
      "Ġnavig": 7388,
      "ilde": 7389,
      "unit": 7390,
      "Ġusage": 7391,
      "Ġmatplotlib": 7392,
      "Ġdecode": 7393,
      "ĠÎ£": 7394,
      "Ġmyself": 7395,
      "Ġexplaining": 7396,
      "Ġcalls": 7397,
      "Ġinterpreted": 7398,
      "Ġevaluation": 7399,
      "Ġ$[[": 7400,
      "Phase": 7401,
      "Ġcondensed": 7402,
      "subseteq": 7403,
      "Ġanticomm": 7404,
      "âĶĢâĶ´âĶĢâĶĲ": 7405,
      "XZ": 7406,
      "loss": 7407,
      "ners": 7408,
      "stabilizer": 7409,
      "Ġhint": 7410,
      "âĶĤ": 7411,
      "iving": 7412,
      "ĠStud": 7413,
      "Ġlocally": 7414,
      "Assum": 7415,
      "Ġsimplified": 7416,
      "Ġdistinction": 7417,
      "ufacturing": 7418,
      "$;": 7419,
      "=-": 7420,
      "Per": 7421,
      "RE": 7422,
      "]{\\": 7423,
      "pulse": 7424,
      "when": 7425,
      "iny": 7426,
      "eng": 7427,
      "Ġfidelities": 7428,
      "Ġdim": 7429,
      "ctrl": 7430,
      "amp": 7431,
      "Ġexam": 7432,
      "Ġallo": 7433,
      "Ġled": 7434,
      "ĠLindblad": 7435,
      "ĠOracle": 7436,
      "Ġcoming": 7437,
      "Theta": 7438,
      "Ġdecide": 7439,
      "}}$.": 7440,
      "Ġfactorization": 7441,
      "ĠImagine": 7442,
      "Ġachieves": 7443,
      "Ġachievable": 7444,
      "Ġcombining": 7445,
      "ĠSpeed": 7446,
      "Ġproofs": 7447,
      "Ġvertex": 7448,
      "downarrow": 7449,
      "Ġderivative": 7450,
      "Ġbenefits": 7451,
      "Ġestablish": 7452,
      "Ġindustry": 7453,
      "Ġcosmology": 7454,
      "Am": 7455,
      "simul": 7456,
      "Ġ],": 7457,
      "Ġfourth": 7458,
      "style": 7459,
      "ĠSampler": 7460,
      "ĠSmall": 7461,
      "Ġdepre": 7462,
      "oretical": 7463,
      "âĢĥ": 7464,
      "Ġfailed": 7465,
      "Ġheating": 7466,
      "Ġapproximations": 7467,
      "Ġmathematics": 7468,
      "Ġconverted": 7469,
      "Ġdistinguishable": 7470,
      "Ġperturbations": 7471,
      "Ġeavesdropping": 7472,
      "âĶĶâĶĢâĶĢâĶĢâĶĺ": 7473,
      "Ġthousands": 7474,
      "aled": 7475,
      "say": 7476,
      "Ġ__": 7477,
      "Ġtheta": 7478,
      "utations": 7479,
      "Ġdeploy": 7480,
      "Ġ$\\|": 7481,
      "atorial": 7482,
      "ollowing": 7483,
      "}^{(": 7484,
      "Ġestimated": 7485,
      "Ġoccurring": 7486,
      "script": 7487,
      "ĠLimited": 7488,
      "ĠSpecific": 7489,
      "Ġbroken": 7490,
      "Ġuniversality": 7491,
      "deterministic": 7492,
      "Map": 7493,
      "iate": 7494,
      "Ġball": 7495,
      "dev": 7496,
      "unch": 7497,
      "urd": 7498,
      "Ġnotic": 7499,
      "Ġvulner": 7500,
      "Ġoutperform": 7501,
      "top": 7502,
      "Ġrequest": 7503,
      "apply": 7504,
      "Ġempty": 7505,
      "Ġlimiting": 7506,
      "Ġreturned": 7507,
      "Ġproducing": 7508,
      "Ġneutron": 7509,
      "Ġrepeatedly": 7510,
      "Ġconsequences": 7511,
      "Chapter": 7512,
      "Ġcontradiction": 7513,
      "ĠStatistics": 7514,
      "Ġrigorous": 7515,
      "hard": 7516,
      "land": 7517,
      "lvin": 7518,
      "mitian": 7519,
      "Ġsides": 7520,
      "allow": 7521,
      "Ġpus": 7522,
      "Ġbus": 7523,
      "rotation": 7524,
      "ĠII": 7525,
      "seed": 7526,
      "Ġcompact": 7527,
      "terra": 7528,
      "izable": 7529,
      "ĠRY": 7530,
      "Ġobviously": 7531,
      "Ġ30": 7532,
      "Ġplate": 7533,
      "imitives": 7534,
      "ĠProvid": 7535,
      "Ġsmooth": 7536,
      "Ġ1024": 7537,
      "Ġaffecting": 7538,
      "Ġstudies": 7539,
      "Ġsimultaneous": 7540,
      "ĊĠĠĊĠ": 7541,
      "Ġdetailing": 7542,
      "âĶĢâĶĢâĶĢâĶ¤": 7543,
      "ĠConsiderations": 7544,
      "Ġprotected": 7545,
      "Ġtrajectories": 7546,
      "Ġcornerstone": 7547,
      "Ġsubsequent": 7548,
      "BS": 7549,
      "bi": 7550,
      "ging": 7551,
      "ĠTICK": 7552,
      "Ġdel": 7553,
      "Ġcloning": 7554,
      "used": 7555,
      "Ġdespite": 7556,
      "Ġabsorbed": 7557,
      "Ġinstantaneous": 7558,
      "Ġreceived": 7559,
      "Ġfilled": 7560,
      "execute": 7561,
      "Ob": 7562,
      "ercial": 7563,
      "Ġpast": 7564,
      "icated": 7565,
      "Ġbands": 7566,
      "ampling": 7567,
      "ĠCould": 7568,
      "adder": 7569,
      "ĠInd": 7570,
      "ĠCondens": 7571,
      "Ġconstants": 7572,
      "Ġserver": 7573,
      "Ġ90": 7574,
      "Ġverified": 7575,
      "Ġsucceed": 7576,
      "Ġuniquely": 7577,
      "Ġperson": 7578,
      "Ġpublished": 7579,
      "ĠAccording": 7580,
      "layout": 7581,
      "Ġsubstit": 7582,
      "Ġdebu": 7583,
      "poly": 7584,
      "Ġcriteria": 7585,
      "Ġeigenspace": 7586,
      ")):": 7587,
      "onance": 7588,
      "Ġhamiltonian": 7589,
      "ĠCPU": 7590,
      "Ġdeli": 7591,
      "Ġpartially": 7592,
      ")\\,": 7593,
      "Ġdiscord": 7594,
      "Ġgraphs": 7595,
      "Ġmetrics": 7596,
      "Ġparallelism": 7597,
      "Ġextends": 7598,
      "ĠSolving": 7599,
      "ĠSolovay": 7600,
      "Ġexponentiation": 7601,
      "parsePauliOp": 7602,
      "Ġcompatible": 7603,
      "etti": 7604,
      "82": 7605,
      "Please": 7606,
      "âĶ¼": 7607,
      "ĠWell": 7608,
      "ĠĠĠĠĠĠĠĠĠĠĠĠĠĠĠ": 7609,
      "redkin": 7610,
      "Ġmessages": 7611,
      "âĶĢâĶĢâĶĢâĶĢâĶĢâĶĢâĶĢâĶĢâĶĢâĶĢâĶĢâĶĢâĶĢâĶĢâĶĢâĶĢâĶĢâĶĢâĶĢâĶĢâĶĢâĶĢâĶĢâĶĢâĶĢâĶĢâĶĢâĶĢâĶĢâĶĢâĶĢâĶĢ": 7612,
      "Ġdecoders": 7613,
      "Ġsolids": 7614,
      "ĠIntegr": 7615,
      "Ġrepetitions": 7616,
      "Ġpopular": 7617,
      "Ġsubtle": 7618,
      "Ġsystematic": 7619,
      "Worlds": 7620,
      ":=\\": 7621,
      "AG": 7622,
      "CR": 7623,
      "Man": 7624,
      "ran": 7625,
      "quality": 7626,
      "Ġisometry": 7627,
      "Ġrecon": 7628,
      "Ġhal": 7629,
      "ĠLa": 7630,
      "Ġinterfere": 7631,
      "Ġfunctionality": 7632,
      "Ġexploring": 7633,
      "Ġthroughout": 7634,
      "Ġpointing": 7635,
      "}^{-": 7636,
      "Ġtransformed": 7637,
      "sively": 7638,
      "Ġnearly": 7639,
      "Ġesc": 7640,
      "Ġreliability": 7641,
      "pdate": 7642,
      "Ġheavily": 7643,
      "ĠJohn": 7644,
      "!)": 7645,
      "$|\\": 7646,
      "/âĪĤ": 7647,
      "Backend": 7648,
      "_-": 7649,
      "`:": 7650,
      "band": 7651,
      "nap": 7652,
      "single": 7653,
      "âĨĴ": 7654,
      "alled": 7655,
      "ica": 7656,
      "Ġgcd": 7657,
      "acity": 7658,
      "Ġhum": 7659,
      "ĠQS": 7660,
      "Ġrang": 7661,
      "Ġmoves": 7662,
      "luding": 7663,
      "alling": 7664,
      "Ġdifferently": 7665,
      "Ġformed": 7666,
      "Ġrealization": 7667,
      "ĠProvide": 7668,
      "Ġconcaten": 7669,
      "Ġbarriers": 7670,
      "rotated": 7671,
      "Ġslits": 7672,
      "ĠEmission": 7673,
      "Ġpopulation": 7674,
      "ĠRegular": 7675,
      "Ġclean": 7676,
      "Ġpreferred": 7677,
      "Ġunwanted": 7678,
      "\"?": 7679,
      ")_{": 7680,
      "Pre": 7681,
      "\\}": 7682,
      "eb": 7683,
      "qft": 7684,
      "Ġcurious": 7685,
      "arlie": 7686,
      "Ġreactions": 7687,
      "riptions": 7688,
      "Ġseconds": 7689,
      "Ġneither": 7690,
      "ĠRen": 7691,
      "ĠUsed": 7692,
      "}|^": 7693,
      "bigotimes": 7694,
      "Ġclassification": 7695,
      "Ġnamely": 7696,
      "Ġoffering": 7697,
      "ĠTechnology": 7698,
      "ĠOnly": 7699,
      "specific": 7700,
      "'],": 7701,
      "AN": 7702,
      "See": 7703,
      "vially": 7704,
      "|,": 7705,
      "reds": 7706,
      "ished": 7707,
      "rous": 7708,
      "definite": 7709,
      "ĠPolar": 7710,
      "Ġsparse": 7711,
      "ading": 7712,
      "ĠLike": 7713,
      "They": 7714,
      "perturb": 7715,
      "()))": 7716,
      "note": 7717,
      "Ġgeneralize": 7718,
      "ĠQiskitRuntimeService": 7719,
      "Ġmoments": 7720,
      "Ġimplicit": 7721,
      "ridge": 7722,
      "lihood": 7723,
      "return": 7724,
      "Ġleakage": 7725,
      "ĠAngular": 7726,
      "Ar": 7727,
      "Ġpen": 7728,
      "Ġfusion": 7729,
      "Ġna": 7730,
      "âĶĲ": 7731,
      "ivation": 7732,
      "),$$": 7733,
      "ĠProduct": 7734,
      "creg": 7735,
      "ĠEffects": 7736,
      "Ġgradients": 7737,
      "optimization": 7738,
      "ĠScaling": 7739,
      "Ġconserved": 7740,
      "Similarly": 7741,
      "ĠBlack": 7742,
      "54": 7743,
      "Ab": 7744,
      "Sigma": 7745,
      "Ġbrief": 7746,
      "Ġfront": 7747,
      "Ġdense": 7748,
      "asc": 7749,
      "Ġisot": 7750,
      "Ġgave": 7751,
      "ĠTrace": 7752,
      "uler": 7753,
      "Ġ(\"": 7754,
      "nthesis": 7755,
      "Ġchips": 7756,
      "ĠRot": 7757,
      "âŁ©$": 7758,
      "ĠLaw": 7759,
      "Ġintercept": 7760,
      "Ġinterconnect": 7761,
      "tools": 7762,
      "Ġfeasible": 7763,
      "ĠPrim": 7764,
      "]]$": 7765,
      "sequently": 7766,
      "Ġfamous": 7767,
      "ĠSearch": 7768,
      "ĠCalibration": 7769,
      "Ġrestricted": 7770,
      "ĠDesigning": 7771,
      "ĠVerification": 7772,
      "ĠCritical": 7773,
      "Ġretrieve": 7774,
      "'_": 7775,
      "200": 7776,
      "62": 7777,
      "73": 7778,
      "after": 7779,
      "cit": 7780,
      "hline": 7781,
      "just": 7782,
      "kwargs": 7783,
      "attice": 7784,
      "Ġcategor": 7785,
      "queez": 7786,
      "Ġgrid": 7787,
      "olding": 7788,
      "Ġconclusion": 7789,
      "ĠAchie": 7790,
      "ĠInequ": 7791,
      "Ġrelates": 7792,
      "Ġseeing": 7793,
      "riting": 7794,
      "backends": 7795,
      "shape": 7796,
      "iki": 7797,
      "Ġdestructive": 7798,
      "documentation": 7799,
      "Ġslowly": 7800,
      "optimizer": 7801,
      "Ġerasure": 7802,
      "Ġultra": 7803,
      "Ġpreventing": 7804,
      "Ġtreated": 7805,
      "Ġrenormalization": 7806,
      "Controlled": 7807,
      ")âĶĢâĶĢâĶĢ": 7808,
      "Ry": 7809,
      "YY": 7810,
      "]):": 7811,
      "cult": 7812,
      "Ġque": 7813,
      "Ġnet": 7814,
      "Ġrecord": 7815,
      "Ġstoch": 7816,
      "ĠSDK": 7817,
      "Ġimmediate": 7818,
      "Ġcontent": 7819,
      "Ġhash": 7820,
      "Ġsubmit": 7821,
      "ĠÎ´": 7822,
      "','": 7823,
      "Ġpointed": 7824,
      "Ġchecked": 7825,
      "ĠDeterm": 7826,
      "Ġamplify": 7827,
      "ĠGood": 7828,
      "Ġaccelerate": 7829,
      "================": 7830,
      "Ġfairly": 7831,
      "ĠMajorana": 7832,
      "ĠReadout": 7833,
      "jk": 7834,
      "lated": 7835,
      "Ġ_{": 7836,
      "ref": 7837,
      "Ġrevers": 7838,
      "Ġ198": 7839,
      "estim": 7840,
      "convert": 7841,
      ")$?": 7842,
      "Ġplaces": 7843,
      "ĠKronecker": 7844,
      "example": 7845,
      "Ġquanta": 7846,
      "Ġexhibits": 7847,
      "ĠTeleportation": 7848,
      "Ġpermutations": 7849,
      "Ġsuspect": 7850,
      "ĠIntegration": 7851,
      "blue": 7852,
      "Ġinvertible": 7853,
      "Ġleverages": 7854,
      "HH": 7855,
      "hd": 7856,
      "hl": 7857,
      "mitted": 7858,
      "Ġwalks": 7859,
      "ĠCou": 7860,
      "atory": 7861,
      "ĠRole": 7862,
      "ours": 7863,
      "Ġoverview": 7864,
      "ĊĠĠĠĠĠĠĠĠĠĠĠĠĠ": 7865,
      "Ġpresents": 7866,
      "Ġconceptual": 7867,
      "Ġproduction": 7868,
      "Ġrotating": 7869,
      "Ġinstantly": 7870,
      "Ġsemiconductors": 7871,
      "ĠValue": 7872,
      "ĠLevel": 7873,
      "www": 7874,
      "Ġmarket": 7875,
      "Sec": 7876,
      "Ġstand": 7877,
      "Ġloops": 7878,
      "ĠCondition": 7879,
      "ĠImaging": 7880,
      "Ġradio": 7881,
      "ĠAdvantage": 7882,
      "QED": 7883,
      "Ġpurification": 7884,
      "Ġconcent": 7885,
      "Ġtuned": 7886,
      "ĠProblems": 7887,
      "Ġopportun": 7888,
      "Ġslit": 7889,
      "Ġboolean": 7890,
      "Ġtranspiler": 7891,
      "+|\\": 7892,
      "Estim": 7893,
      "SECT": 7894,
      "cnot": 7895,
      "pag": 7896,
      "Ġsix": 7897,
      "ĠAtt": 7898,
      "_{-": 7899,
      "pto": 7900,
      "ĠDirect": 7901,
      "ĠNMR": 7902,
      "ĠGe": 7903,
      "ĠChannel": 7904,
      "olet": 7905,
      "ĠâĪĪ": 7906,
      "Ġcommunicate": 7907,
      "Ġfoundations": 7908,
      "Ġends": 7909,
      "ĊĠĠĠĠĠĠĠĠĠĠĠĠĠĠĠĠĠĠĠĠĠĠ": 7910,
      "detector": 7911,
      "iparticle": 7912,
      "ĠFeature": 7913,
      "Ġsituations": 7914,
      "Ġcoordinate": 7915,
      "âŁ©)/âĪļ": 7916,
      "SECTION": 7917,
      "Sampler": 7918,
      "first": 7919,
      "information": 7920,
      "Ġinfer": 7921,
      "Ġthrow": 7922,
      "ĠTyp": 7923,
      "Ġdelay": 7924,
      "ĠFake": 7925,
      "Ġtrust": 7926,
      "ĠRam": 7927,
      "Ġtechnically": 7928,
      "Ġemits": 7929,
      "ĠTools": 7930,
      "Ġstatus": 7931,
      "ometer": 7932,
      "Ġequivalently": 7933,
      "Ġclaimed": 7934,
      "Ġspatially": 7935,
      "Ġintegrated": 7936,
      "Ġexception": 7937,
      "Ġexcellent": 7938,
      "romagnetism": 7939,
      "implies": 7940,
      "Spec": 7941,
      "iom": 7942,
      "option": 7943,
      "err": 7944,
      "Ġdx": 7945,
      "oun": 7946,
      "Ġhu": 7947,
      "ĠCPTP": 7948,
      "theless": 7949,
      "Theorem": 7950,
      "Ġ['": 7951,
      "Ġspecies": 7952,
      "Ġquantify": 7953,
      "ĠUnit": 7954,
      "Ġdeterminant": 7955,
      "Ġdefinitely": 7956,
      "Ġgrowth": 7957,
      "Ġhistory": 7958,
      "Ġinvariance": 7959,
      "computer": 7960,
      "train": 7961,
      "ĠTunneling": 7962,
      "Ġdedu": 7963,
      ")+\\": 7964,
      "Gamma": 7965,
      "field": 7966,
      "rence": 7967,
      "aly": 7968,
      "Ġongoing": 7969,
      "Ġspherical": 7970,
      "aching": 7971,
      "Ġkets": 7972,
      "ĠUs": 7973,
      "Ġprimitive": 7974,
      "cope": 7975,
      "ï¬ģcult": 7976,
      "identity": 7977,
      "sphere": 7978,
      "Ġremark": 7979,
      "Ġpropos": 7980,
      "Ġserve": 7981,
      "Ġdecompositions": 7982,
      "Ġtranslate": 7983,
      "ĠRequire": 7984,
      "Ġcandidates": 7985,
      "Ġinsulators": 7986,
      "Be": 7987,
      "Data": 7988,
      "Par": 7989,
      "bourne": 7990,
      "kill": 7991,
      "Ì¸": 7992,
      "atrous": 7993,
      "leteness": 7994,
      "ationary": 7995,
      "atell": 7996,
      "Ġbell": 7997,
      "Ġcompens": 7998,
      "Ġunpre": 7999,
      "emma": 8000,
      "ĠWD": 8001,
      "idx": 8002,
      "ĠFind": 8003,
      "arding": 8004,
      "Ġ[(": 8005,
      "Ġparam": 8006,
      "valued": 8007,
      "Ġprincipal": 8008,
      "program": 8009,
      "Ġvariety": 8010,
      "experiment": 8011,
      "binom": 8012,
      "Ġconditioned": 8013,
      "Ġworse": 8014,
      "violet": 8015,
      "Ġsafe": 8016,
      "Ġbias": 8017,
      "Ġcycles": 8018,
      "Ġsubstant": 8019,
      "ĠOperation": 8020,
      "attered": 8021,
      "Ġconcerns": 8022,
      "File": 8023,
      "OM": 8024,
      "^-\\": 8025,
      "has": 8026,
      "square": 8027,
      "rec": 8028,
      "Ġgreen": 8029,
      "Ġ101": 8030,
      "Ġoperates": 8031,
      "ĠGu": 8032,
      "ception": 8033,
      "Ġoperational": 8034,
      "Ġfluores": 8035,
      "ĠPennyLane": 8036,
      "Step": 8037,
      "Ġkickback": 8038,
      "start": 8039,
      "ĠTomography": 8040,
      "osystem": 8041,
      "ĠBar": 8042,
      "ĠMolecular": 8043,
      "ensities": 8044,
      "ĠProtocol": 8045,
      "ĠProcessing": 8046,
      "Ġpolarized": 8047,
      "ĠQCP": 8048,
      "Ġanalogue": 8049,
      "Python": 8050,
      "envs": 8051,
      "ĠActive": 8052,
      "Ġstabiliser": 8053,
      "Ġnoticed": 8054,
      "60": 8055,
      "63": 8056,
      "Knill": 8057,
      "LU": 8058,
      "br": 8059,
      "molecule": 8060,
      "ties": 8061,
      "zeta": 8062,
      "hel": 8063,
      "Ġexotic": 8064,
      "ĠCos": 8065,
      "osses": 8066,
      "ĠPulse": 8067,
      "ĠDem": 8068,
      "ĠFound": 8069,
      "ĠFrequency": 8070,
      "elbourne": 8071,
      "Ġnearest": 8072,
      "ĠRZ": 8073,
      "Ġundergo": 8074,
      "Ġsolvable": 8075,
      "Ġimportance": 8076,
      "Ġdisper": 8077,
      "Ġextension": 8078,
      "Ġlinearity": 8079,
      "ĠâĪĤ": 8080,
      "Ġconnections": 8081,
      "Ġattribute": 8082,
      "show": 8083,
      "default": 8084,
      "DEPOLARIZE": 8085,
      "Ġavoids": 8086,
      "ĠAmplification": 8087,
      "Ġupdated": 8088,
      "lenec": 8089,
      "Ġutilize": 8090,
      "determined": 8091,
      "Ġhorizontal": 8092,
      "Ġorientation": 8093,
      "Ġsubroutine": 8094,
      "Ġvideo": 8095,
      "QU": 8096,
      "block": 8097,
      "page": 8098,
      "small": 8099,
      "temperature": 8100,
      "Ġtack": 8101,
      "Ġsizes": 8102,
      "levant": 8103,
      "oration": 8104,
      "Ġfrag": 8105,
      "Ġrecall": 8106,
      "Ġhom": 8107,
      "ilter": 8108,
      "ĠAhar": 8109,
      "ĠBal": 8110,
      "endian": 8111,
      "Ġclos": 8112,
      "0011": 8113,
      "versary": 8114,
      "avor": 8115,
      "Ġarrange": 8116,
      "Ġdescriptions": 8117,
      "ĠVacuum": 8118,
      "parallel": 8119,
      "ĠSoftware": 8120,
      "Ġfoundation": 8121,
      "Ġsender": 8122,
      "evit": 8123,
      "\"\"\"": 8124,
      "Ġtutorials": 8125,
      "ĠBeh": 8126,
      "Ġdiction": 8127,
      "variance": 8128,
      "Ġbenchmark": 8129,
      "Ġdataset": 8130,
      "Ġunsorted": 8131,
      "Ġpseudo": 8132,
      "Ġcomprehensive": 8133,
      "74": 8134,
      "pir": 8135,
      "Ġpow": 8136,
      "icks": 8137,
      "Ġdil": 8138,
      "ĠTypically": 8139,
      "ilit": 8140,
      "dem": 8141,
      "Ġcompression": 8142,
      "ĠPri": 8143,
      "ider": 8144,
      "ĠUCC": 8145,
      "parameter": 8146,
      "Ġscheduling": 8147,
      "properties": 8148,
      "Ġtechnological": 8149,
      "compose": 8150,
      "Ġmostly": 8151,
      "Ġlocalized": 8152,
      "ĠRef": 8153,
      "Ġradial": 8154,
      "Ġoscillations": 8155,
      "Phys": 8156,
      "Ġspontaneously": 8157,
      "riger": 8158,
      "Ferm": 8159,
      "mal": 8160,
      "zeros": 8161,
      "Ġmim": 8162,
      "Ġanomal": 8163,
      "omin": 8164,
      "Ġstack": 8165,
      "ĠDue": 8166,
      "ĠGraph": 8167,
      "Ġtranspiled": 8168,
      "Ġsoon": 8169,
      "jecture": 8170,
      "Ġmanually": 8171,
      "ĠâĨ": 8172,
      "Ġmodules": 8173,
      "âĶĢâĶĺ": 8174,
      "commun": 8175,
      "Ġflipping": 8176,
      "Ġinvestment": 8177,
      "Ġresolve": 8178,
      "Ġskills": 8179,
      "Ġcandidate": 8180,
      "erlach": 8181,
      "ĠEucl": 8182,
      ")])": 8183,
      "CM": 8184,
      "OCC": 8185,
      "]$.": 8186,
      "have": 8187,
      "nder": 8188,
      "some": 8189,
      "tes": 8190,
      "âĦ": 8191,
      "onent": 8192,
      "Ġwater": 8193,
      "Ġnarrow": 8194,
      "ulated": 8195,
      "chain": 8196,
      "ultip": 8197,
      "Ġsyn": 8198,
      "Input": 8199,
      "Ġfrequently": 8200,
      "Ġminimizes": 8201,
      "Ġmaximal": 8202,
      "Ġlets": 8203,
      "Toffoli": 8204,
      "transform": 8205,
      "erturb": 8206,
      "Ġcircle": 8207,
      "Ġinduce": 8208,
      "âĸĳ": 8209,
      "Ġguarantees": 8210,
      "ĠScattering": 8211,
      "center": 8212,
      "Ġaccumulate": 8213,
      "Ġstochastic": 8214,
      "83": 8215,
      "RZ": 8216,
      "Val": 8217,
      "Ġtit": 8218,
      "Ġtiny": 8219,
      "Ġwin": 8220,
      "Ġstars": 8221,
      "ĠCP": 8222,
      "ĠQZE": 8223,
      "Ġvaries": 8224,
      "ĠDrug": 8225,
      "lose": 8226,
      "}$)": 8227,
      "Ġdisapp": 8228,
      "\\\\\\": 8229,
      "Ġshouldn": 8230,
      "Ġapproximated": 8231,
      "Ġstandards": 8232,
      "Ġattractive": 8233,
      "ĠEnhanced": 8234,
      "sibly": 8235,
      "ĠDecomp": 8236,
      "optimal": 8237,
      "ĠâĶĮâĶĢâĶĢâĶĢâĶĲ": 8238,
      "Ġisolated": 8239,
      "ĠOpenQASM": 8240,
      "Ġcriterion": 8241,
      "Ġhypothesis": 8242,
      "ĠUniversity": 8243,
      "Ġbranch": 8244,
      "Ġsurprising": 8245,
      "Users": 8246,
      "Ġdeprecated": 8247,
      "OS": 8248,
      "bility": 8249,
      "pict": 8250,
      "ening": 8251,
      "Ġrecur": 8252,
      "igetti": 8253,
      "Ġ(`": 8254,
      "urities": 8255,
      "assum": 8256,
      "Ġran": 8257,
      "ĠFig": 8258,
      "ĠLower": 8259,
      "ĠâĥĹ": 8260,
      "Ġeigenbasis": 8261,
      "ĠSuperfluid": 8262,
      "Ġconfusing": 8263,
      "points": 8264,
      "Ġconfigurations": 8265,
      "limits": 8266,
      "69": 8267,
      "RX": 8268,
      "lications": 8269,
      "oke": 8270,
      "uple": 8271,
      "Ġtape": 8272,
      "Ġcert": 8273,
      "Ġnamed": 8274,
      "Ġreached": 8275,
      "Ġlatest": 8276,
      "Ġpromin": 8277,
      "ĠStern": 8278,
      "ĠTheoretical": 8279,
      "Ġnoted": 8280,
      "Ġdecoupling": 8281,
      "Ġparams": 8282,
      "standard": 8283,
      "Ġscattered": 8284,
      "ĠCont": 8285,
      "ĠÎ¼": 8286,
      "Ġlimitation": 8287,
      "Ġtracing": 8288,
      "Ġspectroscopy": 8289,
      "Ġpyhd": 8290,
      "ĠSimilar": 8291,
      "Ġrelease": 8292,
      "Ġcontained": 8293,
      "Ġwavefunctions": 8294,
      "Ġhermitian": 8295,
      "Ġhappened": 8296,
      "Ġera": 8297,
      "Ġpackets": 8298,
      "ĠArchitect": 8299,
      "Ġvibrational": 8300,
      "crib": 8301,
      "war": 8302,
      "Ġpip": 8303,
      "Ġpilot": 8304,
      "Ġinform": 8305,
      "Ġcompiler": 8306,
      "ending": 8307,
      "âĶĢâĶĢâĸł": 8308,
      "eline": 8309,
      "Ġdifï¬ģcult": 8310,
      "Ġnonzero": 8311,
      "appa": 8312,
      "Ġidentifying": 8313,
      "measurements": 8314,
      "Ġoffset": 8315,
      "Ġinduced": 8316,
      "Ġgrowing": 8317,
      "Ġdrawn": 8318,
      "additivity": 8319,
      "Ġbottlenec": 8320,
      "Ġisolation": 8321,
      "Ġjunctions": 8322,
      "Ġradius": 8323,
      "ĠSecond": 8324,
      "Ġdatasets": 8325,
      "Ġenumerate": 8326,
      "Ġdissipation": 8327,
      "Ġplasma": 8328,
      "ĠBernstein": 8329,
      "Bas": 8330,
      "Turing": 8331,
      "\\,\\": 8332,
      "kappa": 8333,
      "zure": 8334,
      "Ġfig": 8335,
      "Ġinevit": 8336,
      "ĠSymmetry": 8337,
      "ĠSqueez": 8338,
      "Ġphonon": 8339,
      "ĠFredkin": 8340,
      "erex": 8341,
      "ecr": 8342,
      "Ġposit": 8343,
      "Ġsolves": 8344,
      "ĠXX": 8345,
      "ibers": 8346,
      "Ġ45": 8347,
      "Ġlooked": 8348,
      "Ġpymatching": 8349,
      "Ġcarriers": 8350,
      "Ġreceives": 8351,
      "ĠStatistical": 8352,
      "Ġtransistors": 8353,
      "Ġisomorphism": 8354,
      "/.": 8355,
      "Each": 8356,
      "Grover": 8357,
      "Sum": 8358,
      "ca": 8359,
      "iZ": 8360,
      "edge": 8361,
      "Ġasks": 8362,
      "âĶĢâĶĢâķ«": 8363,
      "lusive": 8364,
      "Ġevapor": 8365,
      "Ġsuperdense": 8366,
      "Ġarising": 8367,
      "jects": 8368,
      "hibit": 8369,
      "Ġactively": 8370,
      "encing": 8371,
      "Ġcommunications": 8372,
      "Ġexecuting": 8373,
      "Ġdiffraction": 8374,
      "Ġpreserved": 8375,
      "underbrace": 8376,
      "ĠParameterVector": 8377,
      "70710": 8378,
      "Ġhundreds": 8379,
      ")âĶĢâĶĢâĶĢ(": 8380,
      "IM": 8381,
      "[(": 8382,
      "dx": 8383,
      "Î¨": 8384,
      "Ġsqrt": 8385,
      "icular": 8386,
      "Ġbill": 8387,
      "Ġlikelihood": 8388,
      "Ġtracking": 8389,
      "Ġsquares": 8390,
      "Ġraises": 8391,
      "Ġreferring": 8392,
      "Ġincomplete": 8393,
      "199": 8394,
      "each": 8395,
      "source": 8396,
      "âĹ": 8397,
      "eness": 8398,
      "arons": 8399,
      "oting": 8400,
      "Ġexclusion": 8401,
      "ĠQD": 8402,
      "arth": 8403,
      "Ġphilosoph": 8404,
      "ĠDFT": 8405,
      "ĠNAND": 8406,
      "Ġproving": 8407,
      "curate": 8408,
      "ĠÏķ": 8409,
      "ĠKnill": 8410,
      "ĊĠĠĠĠĠĠĠĠĠĠ": 8411,
      "Ġconnecting": 8412,
      "Ġdegrad": 8413,
      "ĠTransition": 8414,
      "Ġfermionic": 8415,
      "Ġanalogy": 8416,
      "Ġevolving": 8417,
      "Ġslower": 8418,
      "Ġswitching": 8419,
      "ademic": 8420,
      "ranged": 8421,
      "ĠValid": 8422,
      "Schmidt": 8423,
      "orbitals": 8424,
      "Ġtailored": 8425,
      "According": 8426,
      "erexample": 8427,
      "aronson": 8428,
      "+(": 8429,
      "cast": 8430,
      "power": 8431,
      "ĠTL": 8432,
      "amme": 8433,
      "Ġconduction": 8434,
      "ĠCS": 8435,
      "agraph": 8436,
      "ĠBits": 8437,
      "ĠBelow": 8438,
      "Ġparty": 8439,
      "ĠRet": 8440,
      "user": 8441,
      "}{(": 8442,
      "idean": 8443,
      "Ġsole": 8444,
      "annot": 8445,
      "Ġheart": 8446,
      "Ġheight": 8447,
      "Ġinstalled": 8448,
      "Ġbehaves": 8449,
      "ĠPhot": 8450,
      "QuantumRegister": 8451,
      "ĠMatter": 8452,
      "ĠCoherent": 8453,
      "Ġfocuses": 8454,
      "Ġdriving": 8455,
      "Ġimpacts": 8456,
      "Ġaddressed": 8457,
      "computers": 8458,
      "Introduction": 8459,
      "observable": 8460,
      "atomic": 8461,
      "ĠLogic": 8462,
      "ĠBasicAer": 8463,
      "Ġefï¬ģciently": 8464,
      "ĠRepeat": 8465,
      "ĠSemiconductor": 8466,
      "ĠAutom": 8467,
      "ĠCapacity": 8468,
      "high": 8469,
      "same": 8470,
      "win": 8471,
      "Î¦": 8472,
      "Îµ": 8473,
      "only": 8474,
      "onov": 8475,
      "itro": 8476,
      "Ġface": 8477,
      "ĠPath": 8478,
      "Ġordered": 8479,
      "ensions": 8480,
      "ĠGradient": 8481,
      "Ġpoly": 8482,
      "Ġcommercial": 8483,
      "ĠĠĠĠĠĠĠĠĠĠĠĠĠĠĠĠĠĠĠ": 8484,
      "plitudes": 8485,
      "ĠCloud": 8486,
      "ĠCharlie": 8487,
      "sharp": 8488,
      "Ġdiffers": 8489,
      "Ġsampled": 8490,
      "Ġcontribution": 8491,
      "Ġcontributions": 8492,
      "678": 8493,
      "layer": 8494,
      "decomposition": 8495,
      "ĠUniversal": 8496,
      "Ġbitstrings": 8497,
      "Ġcollabor": 8498,
      "Ġdivide": 8499,
      "Ġreproduce": 8500,
      "ĠUlt": 8501,
      "58": 8502,
      "78": 8503,
      "Could": 8504,
      "Optim": 8505,
      "bloch": 8506,
      "yi": 8507,
      "Ã©": 8508,
      "ĠÌ¸": 8509,
      "assi": 8510,
      "ĠCM": 8511,
      "uning": 8512,
      "ĠBay": 8513,
      "ĠEigensolver": 8514,
      "ĠDeta": 8515,
      "rone": 8516,
      "Ġfinance": 8517,
      "Ġproves": 8518,
      "ĠAnne": 8519,
      "Ġmaximize": 8520,
      "Super": 8521,
      "ĠOperations": 8522,
      "Ġsuperfluidity": 8523,
      ">>>": 8524,
      "Ġtransistor": 8525,
      "Ġexpertise": 8526,
      "Ġprominent": 8527,
      "He": 8528,
      "Job": 8529,
      "TICK": 8530,
      "Yes": 8531,
      "cence": 8532,
      "den": 8533,
      "Ġ;": 8534,
      "ĠĊĠĠĠĠ": 8535,
      "Ġfaces": 8536,
      "Ġtook": 8537,
      "umping": 8538,
      "Ġei": 8539,
      "ĠTry": 8540,
      "seconds": 8541,
      "ĠCore": 8542,
      "Ġassemble": 8543,
      "Ġwhite": 8544,
      "ĠWould": 8545,
      "ĠEvolution": 8546,
      "ĠNear": 8547,
      "Ġ\"/": 8548,
      "Ġroles": 8549,
      "Ġformer": 8550,
      "Ġforming": 8551,
      "Ġdiscovered": 8552,
      "ritten": 8553,
      "Ġquantifies": 8554,
      "Ġlocalization": 8555,
      "avior": 8556,
      "Ġrefriger": 8557,
      "000000": 8558,
      "scr": 8559,
      "Ġadvances": 8560,
      "Ġantis": 8561,
      "Mathemat": 8562,
      "Ġultracold": 8563,
      "--->": 8564,
      "Ġkinds": 8565,
      "Ġtreatment": 8566,
      "ennylane": 8567,
      "Ġinfinities": 8568,
      "ĠNetworks": 8569,
      "ĠContinuous": 8570,
      "-@": 8571,
      "Some": 8572,
      "cer": 8573,
      "may": 8574,
      "tutorial": 8575,
      "Ġdag": 8576,
      "stit": 8577,
      "olve": 8578,
      "ried": 8579,
      "ecting": 8580,
      "ĠQPU": 8581,
      "artree": 8582,
      "duced": 8583,
      "ĠRz": 8584,
      "ĠLoss": 8585,
      "conda": 8586,
      "ght": 8587,
      "vectors": 8588,
      "Ġnone": 8589,
      "___": 8590,
      "Ġparametri": 8591,
      "Ġcodespace": 8592,
      "ĠJordan": 8593,
      "Ġtested": 8594,
      "Ġtrial": 8595,
      "Ġclassic": 8596,
      "Ġbreaks": 8597,
      "Ġserves": 8598,
      "Ġcorrespondence": 8599,
      "Ġphotoelectric": 8600,
      "ĠOtherwise": 8601,
      "Ġcomplementary": 8602,
      "Ġwebsite": 8603,
      "Ġfacilit": 8604,
      "Ġmirrors": 8605,
      "'))": 8606,
      "Gerlach": 8607,
      "Once": 8608,
      "mma": 8609,
      "middle": 8610,
      "tices": 8611,
      "onds": 8612,
      "Ġpsi": 8613,
      "ouble": 8614,
      "ĠIter": 8615,
      "ĠPower": 8616,
      "ĠBr": 8617,
      "urch": 8618,
      "ĠFast": 8619,
      "Ġ23": 8620,
      "ĠRabi": 8621,
      "Ġabelian": 8622,
      "Ġwhenever": 8623,
      "Ġspecifying": 8624,
      "ĠStabilizer": 8625,
      "Ġsigns": 8626,
      "ĠContextuality": 8627,
      "Ġvariation": 8628,
      "ĠRev": 8629,
      "Ġlattices": 8630,
      "ĠEntropy": 8631,
      "(\"+": 8632,
      "tolerance": 8633,
      "Ġfailures": 8634,
      "anches": 8635,
      "Ġharness": 8636,
      "Ġselected": 8637,
      "Ġvisualization": 8638,
      "ĠSummary": 8639,
      "Ġconjugation": 8640,
      "ĠStrategies": 8641,
      "Equ": 8642,
      "Element": 8643,
      "Fe": 8644,
      "NG": 8645,
      "dg": 8646,
      "func": 8647,
      "Ġcard": 8648,
      "icism": 8649,
      "omic": 8650,
      "Ġlie": 8651,
      "riend": 8652,
      "Ġ$\\|\\": 8653,
      "Ġunable": 8654,
      "ĠBasis": 8655,
      "odynamic": 8656,
      "adata": 8657,
      "cious": 8658,
      "entials": 8659,
      "}},": 8660,
      "}}$$": 8661,
      "Ġparagraph": 8662,
      "combin": 8663,
      "Ġvariance": 8664,
      "versely": 8665,
      "Ġincrement": 8666,
      "Ġprogramm": 8667,
      "Ġhadrons": 8668,
      "Ġviolations": 8669,
      "Ġspacing": 8670,
      "Ġresponsible": 8671,
      "ĠFields": 8672,
      "slit": 8673,
      "Ġmeasurable": 8674,
      "itrogen": 8675,
      "BT": 8676,
      "IZ": 8677,
      "Num": 8678,
      "Rz": 8679,
      "clear": 8680,
      "gment": 8681,
      "half": 8682,
      "qobj": 8683,
      "}/": 8684,
      "ÏĦ": 8685,
      "ï£": 8686,
      "Ġfibers": 8687,
      "stabilizers": 8688,
      "ĠQPT": 8689,
      "Ġimm": 8690,
      "ĠDav": 8691,
      "token": 8692,
      "coming": 8693,
      "Ġrandomized": 8694,
      "Ġreads": 8695,
      "Ġbug": 8696,
      "Ġpredicting": 8697,
      "ĠThank": 8698,
      "shift": 8699,
      "Ġbuilds": 8700,
      "Ġrotates": 8701,
      "Ġlisted": 8702,
      "ĠResource": 8703,
      "Ġpassed": 8704,
      "Ġlearned": 8705,
      "adratic": 8706,
      "Ġbiological": 8707,
      "ogene": 8708,
      "Ġbigger": 8709,
      "Ġreconstruction": 8710,
      "nett": 8711,
      "placement": 8712,
      "ĠElectro": 8713,
      "throughs": 8714,
      "Ġdestroyed": 8715,
      "Ġbinding": 8716,
      "Ġpiece": 8717,
      "uitively": 8718,
      "Entangle": 8719,
      "Ġdictionary": 8720,
      "'}\\": 8721,
      "41": 8722,
      "Because": 8723,
      "YLA": 8724,
      "tw": 8725,
      "wer": 8726,
      "Ġpennylane": 8727,
      "ĠTable": 8728,
      "ĠWatrous": 8729,
      "ĠBack": 8730,
      "ĠGR": 8731,
      "}(-": 8732,
      "Ġchooses": 8733,
      "Ġsumm": 8734,
      "Ġcalling": 8735,
      "Ġaxiom": 8736,
      "Ġmultiplied": 8737,
      "Ġreplacing": 8738,
      "Ġartificial": 8739,
      "ploying": 8740,
      "marks": 8741,
      "nipp": 8742,
      "Ġultimately": 8743,
      "Notice": 8744,
      "Ġdominant": 8745,
      "Ġmixing": 8746,
      "Ġsqueezed": 8747,
      "Ġhuman": 8748,
      "Second": 8749,
      "59": 8750,
      "Wigner": 8751,
      "\\}_": 8752,
      "eled": 8753,
      "pa": 8754,
      "rically": 8755,
      "Î´": 8756,
      "Ġpackages": 8757,
      "Ġmid": 8758,
      "Ġrecor": 8759,
      "Ġstimulated": 8760,
      "Ġhurd": 8761,
      "ĠClearly": 8762,
      "ĠPhenomen": 8763,
      "ĠMass": 8764,
      "ĠRy": 8765,
      "Ġdecimal": 8766,
      "Ġcontinues": 8767,
      "Ġmisunder": 8768,
      "Ġconverts": 8769,
      "ĠObjective": 8770,
      "ACE": 8771,
      "ĠâĪļ(": 8772,
      "Ġarrive": 8773,
      "Ġunlikely": 8774,
      "ĠApproximate": 8775,
      "Ġflexible": 8776,
      "ĠBraket": 8777,
      "ĠAharonov": 8778,
      "DC": 8779,
      "\\|^": 8780,
      "]))": 8781,
      "ah": 8782,
      "ferm": 8783,
      "rc": 8784,
      "sime": 8785,
      "hent": 8786,
      "erc": 8787,
      "itH": 8788,
      "Ġwind": 8789,
      "Ġdram": 8790,
      "Ġquark": 8791,
      "Ġstrange": 8792,
      "Ġcompet": 8793,
      "Ġstatements": 8794,
      "Ġorbits": 8795,
      "ogether": 8796,
      "ĠQuantumInstance": 8797,
      "hose": 8798,
      "ĠLook": 8799,
      "ĠGround": 8800,
      "}}$,": 8801,
      "Ġencrypt": 8802,
      "existing": 8803,
      "ĊĠĠĠĠĠĠĠĠĠĠĠĠ": 8804,
      "ometimes": 8805,
      "Ġcryptosystem": 8806,
      "functions": 8807,
      "Ġreceive": 8808,
      "Ġtranspilation": 8809,
      "slant": 8810,
      "rthur": 8811,
      "Ġsymbols": 8812,
      "configuration": 8813,
      "Ġconcerning": 8814,
      "Ġprivate": 8815,
      "minimum": 8816,
      "Ġhuge": 8817,
      "simeq": 8818,
      "'])": 8819,
      "Bell": 8820,
      "Say": 8821,
      "grover": 8822,
      "lin": 8823,
      "posed": 8824,
      "taneous": 8825,
      "stable": 8826,
      "Ġstri": 8827,
      "Ġmeet": 8828,
      "rap": 8829,
      "ĠLi": 8830,
      "ĠOutput": 8831,
      "Ġroots": 8832,
      "pontaneous": 8833,
      "())),": 8834,
      "ĠProve": 8835,
      "Ġcounterexample": 8836,
      "commuting": 8837,
      "ÏĢi": 8838,
      "^*\\": 8839,
      "Matching": 8840,
      "âĶĮâĶĢâĶĢâĶĢâĶĲ": 8841,
      "Ġcondensation": 8842,
      "Ġmillion": 8843,
      "ING": 8844,
      "ĠGravity": 8845,
      "break": 8846,
      "dinary": 8847,
      "fra": 8848,
      "}\")": 8849,
      "âĬķ": 8850,
      "Ġfive": 8851,
      "Ġinjection": 8852,
      "Ġquot": 8853,
      "search": 8854,
      "Ġalt": 8855,
      "they": 8856,
      "Ġspeciï¬ģ": 8857,
      "service": 8858,
      "Ġexploration": 8859,
      "Initial": 8860,
      "pread": 8861,
      "alence": 8862,
      "Ġeasiest": 8863,
      "Ġcombinatorial": 8864,
      "Ġ:)": 8865,
      "ĠAdiabatic": 8866,
      "Ġdatabases": 8867,
      "Ġmodulus": 8868,
      "generate": 8869,
      "âĶĮâĶĢâĶ´âĶĢâĶĲ": 8870,
      "Ġparadig": 8871,
      "Ġirreversible": 8872,
      "Ġcaptures": 8873,
      "Ġestablished": 8874,
      "Ġclarify": 8875,
      "ĠMaybe": 8876,
      "Ġpowers": 8877,
      ",'": 8878,
      ".$": 8879,
      ".âĢĿ": 8880,
      "ZX": 8881,
      "around": 8882,
      "eep": 8883,
      "lication": 8884,
      "qp": 8885,
      "{|\\": 8886,
      "Ġscope": 8887,
      "arb": 8888,
      "Ġcomposer": 8889,
      "ĠAES": 8890,
      "ĠHidden": 8891,
      "oder": 8892,
      "ferent": 8893,
      "ĠUses": 8894,
      "textbook": 8895,
      "ĠCompute": 8896,
      "ĠComponents": 8897,
      "expl": 8898,
      "Ġcollapsed": 8899,
      "ĠĠĠĠĠĠĠĠĠĠĠĠĠĠ": 8900,
      "docs": 8901,
      "Ġillustrate": 8902,
      "Ġhighlights": 8903,
      "Ġleveraging": 8904,
      "Ġsqueezing": 8905,
      "Ġcodewords": 8906,
      "ĠMarkov": 8907,
      "Ġloophole": 8908,
      "CA": 8909,
      "Eigensolver": 8910,
      "bu": 8911,
      "lomb": 8912,
      "isher": 8913,
      "Ġment": 8914,
      "arly": 8915,
      "arry": 8916,
      "Ġtoward": 8917,
      "ented": 8918,
      "Ġstands": 8919,
      "Ġconjecture": 8920,
      "ĠCount": 8921,
      "ĠAaronson": 8922,
      "isted": 8923,
      "ĠNext": 8924,
      "Ġformally": 8925,
      "Ġheavy": 8926,
      "Ġsurfaces": 8927,
      "eye": 8928,
      "Ġconsistency": 8929,
      "256": 8930,
      "Ġthermodynamics": 8931,
      "Program": 8932,
      "Ġfermion": 8933,
      "good": 8934,
      "Ġdriven": 8935,
      "Ġalgebraic": 8936,
      "âĸĪ": 8937,
      "Ġdecrease": 8938,
      "ĠCalculate": 8939,
      "ĠSensitivity": 8940,
      "Ġincorporate": 8941,
      "Ġtrajectory": 8942,
      "Ġprivacy": 8943,
      "Particle": 8944,
      "napshot": 8945,
      "ercises": 8946,
      "%.": 8947,
      ".]": 8948,
      "Furthermore": 8949,
      "Output": 8950,
      "close": 8951,
      "ei": 8952,
      "fï¬ģci": 8953,
      "fety": 8954,
      "anal": 8955,
      "Ġfission": 8956,
      "ĠSay": 8957,
      "Ġdepict": 8958,
      "ĠBox": 8959,
      "ĠEss": 8960,
      "Ġ&&": 8961,
      "0010": 8962,
      "Ġchains": 8963,
      "ensitive": 8964,
      "ĠRigetti": 8965,
      "ĠLattice": 8966,
      "Ġinterfaces": 8967,
      "theore": 8968,
      "preset": 8969,
      "Ġimpurities": 8970,
      "pyplot": 8971,
      "ĠAlgebra": 8972,
      "param": 8973,
      "ney": 8974,
      "125": 8975,
      "Ġdiagn": 8976,
      "learning": 8977,
      "Ġmultiplex": 8978,
      "ologically": 8979,
      "ĠHadamards": 8980,
      "Ġswaps": 8981,
      "Ġteleported": 8982,
      "Ġtunnel": 8983,
      "Ġdemonstrations": 8984,
      "ĠApproach": 8985,
      "ĠËľ": 8986,
      "ĠInitialize": 8987,
      "ĠBoson": 8988,
      "Ġindistinguishability": 8989,
      "structured": 8990,
      "Ġtoric": 8991,
      "ĠCryogenic": 8992,
      "Ġapplicable": 8993,
      "ĠRenormalization": 8994,
      "Ġmimic": 8995,
      "assuming": 8996,
      "âĸĪâĸĪ": 8997,
      "GHZ": 8998,
      "\\%": 8999,
      "both": 9000,
      "vest": 9001,
      "itting": 9002,
      "Ġstay": 9003,
      "Ġgases": 9004,
      "oscale": 9005,
      "plex": 9006,
      "calcul": 9007,
      "ĠRob": 9008,
      "1024": 9009,
      "Ġthanks": 9010,
      "Ġheur": 9011,
      "ĠProjective": 9012,
      "})$,": 9013,
      "\\![": 9014,
      "ĠExplanation": 9015,
      "ĠDiscrete": 9016,
      "ĠObser": 9017,
      "Ġfractions": 9018,
      "Ġrobustness": 9019,
      "Ġbranches": 9020,
      "Ġhistor": 9021,
      "ĠSpectroscopy": 9022,
      "ĠEngine": 9023,
      "ĠBehavior": 9024,
      "'\"": 9025,
      "(âĪĴ": 9026,
      ",):": 9027,
      "HA": 9028,
      "Just": 9029,
      "`)": 9030,
      "bus": 9031,
      "pur": 9032,
      "pub": 9033,
      "rd": 9034,
      "Ġaff": 9035,
      "Ġinno": 9036,
      "Ġ\\}$": 9037,
      "Ġstationary": 9038,
      "ĠType": 9039,
      "amore": 9040,
      "ĠSil": 9041,
      "plays": 9042,
      "Ġlemma": 9043,
      "ctory": 9044,
      "ĠLogical": 9045,
      "loyd": 9046,
      "Ġcontroll": 9047,
      "Ġsolar": 9048,
      "Ġexplan": 9049,
      "ĠÎ½": 9050,
      "apped": 9051,
      "Ġzeros": 9052,
      "cosystem": 9053,
      "Ġconsideration": 9054,
      "iffords": 9055,
      "Ġformulas": 9056,
      "Ġtuning": 9057,
      "Ġschedule": 9058,
      "Ġrelationships": 9059,
      "Ġgeomet": 9060,
      "Ġbandwidth": 9061,
      "terms": 9062,
      "Ġflows": 9063,
      "offs": 9064,
      "ĠRecall": 9065,
      "Ġtreats": 9066,
      "ĠCalculating": 9067,
      "eigenvalue": 9068,
      "Ġdevelopers": 9069,
      "Ġinevitably": 9070,
      "Dri": 9071,
      "QL": 9072,
      "either": 9073,
      "yes": 9074,
      "onality": 9075,
      "lein": 9076,
      "although": 9077,
      "inger": 9078,
      "Ġbunch": 9079,
      "Ġtot": 9080,
      "Ġtoken": 9081,
      "Ġstoring": 9082,
      "Ġstuff": 9083,
      "Ġgaps": 9084,
      "ĠST": 9085,
      "ĠSparsePauliOp": 9086,
      "Ġcompile": 9087,
      "ĠPerturb": 9088,
      "ĠDiag": 9089,
[...]
