{
  "version": "1.0",
  "truncation": null,
  "padding": null,
  "added_tokens": [
    {
      "id": 0,
      "content": "<pad>",
      "single_word": false,
      "lstrip": false,
      "rstrip": false,
      "normalized": false,
      "special": true
    },
    {
      "id": 1,
      "content": "<eos>",
      "single_word": false,
      "lstrip": false,
      "rstrip": false,
      "normalized": false,
      "special": true
    },
    {
      "id": 2,
      "content": "<unk>",
      "single_word": false,
      "lstrip": false,
      "rstrip": false,
      "normalized": false,
      "special": true
    }
  ],
  "normalizer": null,
  "pre_tokenizer": {
    "type": "ByteLevel",
    "add_prefix_space": false,
    "trim_offsets": true,
    "use_regex": true
  },
  "post_processor": {
    "type": "ByteLevel",
    "add_prefix_space": true,
    "trim_offsets": false,
    "use_regex": true
  },
  "decoder": {
    "type": "ByteLevel",
    "add_prefix_space": true,
    "trim_offsets": true,
    "use_regex": true
  },
  "model": {
    "type": "BPE",
    "dropout": null,
    "unk_token": "<unk>",
    "continuing_subword_prefix": null,
    "end_of_word_suffix": null,
    "fuse_unk": false,
    "byte_fallback": false,
    "ignore_merges": false,
    "vocab": {
      "<pad>": 0,
      "<eos>": 1,
      "<unk>": 2,
      "!": 3,
      "\"": 4,
      "#": 5,
      "$": 6,
      "%": 7,
      "&": 8,
      "'": 9,
      "(": 10,
      ")": 11,
      "*": 12,
      "+": 13,
      ",": 14,
      "-": 15,
      ".": 16,
      "/": 17,
      "0": 18,
      "1": 19,
      "2": 20,
      "3": 21,
      "4": 22,
      "5": 23,
      "6": 24,
      "7": 25,
      "8": 26,
      "9": 27,
      ":": 28,
      ";": 29,
      "<": 30,
      "=": 31,
      ">": 32,
      "?": 33,
      "@": 34,
      "A": 35,
      "B": 36,
      "C": 37,
      "D": 38,
      "E": 39,
      "F": 40,
      "G": 41,
      "H": 42,
      "I": 43,
      "J": 44,
      "K": 45,
      "L": 46,
      "M": 47,
      "N": 48,
      "O": 49,
      "P": 50,
      "Q": 51,
      "R": 52,
      "S": 53,
      "T": 54,
      "U": 55,
      "V": 56,
      "W": 57,
      "X": 58,
      "Y": 59,
      "Z": 60,
      "[": 61,
      "\\": 62,
      "]": 63,
      "^": 64,
      "_": 65,
      "`": 66,
      "a": 67,
      "b": 68,
      "c": 69,
      "d": 70,
      "e": 71,
      "f": 72,
      "g": 73,
      "h": 74,
      "i": 75,
      "j": 76,
      "k": 77,
      "l": 78,
      "m": 79,
      "n": 80,
      "o": 81,
      "p": 82,
      "q": 83,
      "r": 84,
      "s": 85,
      "t": 86,
      "u": 87,
      "v": 88,
      "w": 89,
      "x": 90,
      "y": 91,
      "z": 92,
      "{": 93,
      "|": 94,
      "}": 95,
      "~": 96,
      "¡": 97,
      "¢": 98,
      "£": 99,
      "¤": 100,
      "¥": 101,
      "¦": 102,
      "§": 103,
      "¨": 104,
      "©": 105,
      "ª": 106,
      "«": 107,
      "¬": 108,
      "®": 109,
      "¯": 110,
      "°": 111,
      "±": 112,
      "²": 113,
      "³": 114,
      "´": 115,
      "µ": 116,
      "¶": 117,
      "·": 118,
      "¸": 119,
      "¹": 120,
      "º": 121,
      "»": 122,
      "¼": 123,
      "½": 124,
      "¾": 125,
      "¿": 126,
      "Â": 127,
      "Ã": 128,
      "Ä": 129,
      "Å": 130,
      "Æ": 131,
      "Ç": 132,
      "Ë": 133,
      "Ì": 134,
      "Î": 135,
      "Ï": 136,
      "Ð": 137,
      "Ñ": 138,
      "â": 139,
      "ã": 140,
      "ï": 141,
      "Ċ": 142,
      "Ġ": 143,
      "Ģ": 144,
      "ģ": 145,
      "Ĥ": 146,
      "ĥ": 147,
      "Ħ": 148,
      "ħ": 149,
      "Ĩ": 150,
      "ĩ": 151,
      "Ī": 152,
      "ī": 153,
      "Ĭ": 154,
      "ĭ": 155,
      "Į": 156,
      "į": 157,
      "İ": 158,
      "ı": 159,
      "Ĳ": 160,
      "ĳ": 161,
      "Ĵ": 162,
      "ĵ": 163,
      "Ķ": 164,
      "ķ": 165,
      "ĸ": 166,
      "Ĺ": 167,
      "ĺ": 168,
      "Ļ": 169,
      "ļ": 170,
      "Ľ": 171,
      "ľ": 172,
      "Ŀ": 173,
      "ŀ": 174,
      "Ł": 175,
      "ł": 176,
      "Ń": 177,
      "Ġt": 178,
      "an": 179,
      "Ġth": 180,
      "at": 181,
      "in": 182,
      "er": 183,
      "on": 184,
      "it": 185,
      "Ġa": 186,
      "Ġthe": 187,
      "Ġs": 188,
      "or": 189,
      "le": 190,
      "Ġc": 191,
      "is": 192,
      "re": 193,
      "ĠĠ": 194,
      "en": 195,
      "es": 196,
      "Ġo": 197,
      "al": 198,
      "Ġw": 199,
      "ion": 200,
      "Ġp": 201,
      "ing": 202,
      "Ġb": 203,
      "Ġ$": 204,
      "Ġf": 205,
      "Ġm": 206,
      "qu": 207,
      "ro": 208,
      "Ġan": 209,
      "Ġin": 210,
      "Ġd": 211,
      "ic": 212,
      "Ġof": 213,
      "Ġto": 214,
      "ar": 215,
      "Ġis": 216,
      "ou": 217,
      "as": 218,
      "ang": 219,
      "ed": 220,
      "Ġ\\": 221,
      "im": 222,
      "ct": 223,
      "angle": 224,
      "ent": 225,
      "um": 226,
      "om": 227,
      "Ġe": 228,
      "et": 229,
      "ut": 230,
      "Ġqu": 231,
      "Ġn": 232,
      "ĠĠĠĠ": 233,
      "ation": 234,
      "Ġand": 235,
      "ot": 236,
      "ate": 237,
      "ant": 238,
      "st": 239,
      "Ġg": 240,
      "ly": 241,
      "Ġh": 242,
      "Ġre": 243,
      "rangle": 244,
      "ve": 245,
      "Ġst": 246,
      "ĠI": 247,
      "ac": 248,
      "ig": 249,
      "Ġthat": 250,
      "Ġu": 251,
      "ow": 252,
      "il": 253,
      "ul": 254,
      "antum": 255,
      "ir": 256,
      "am": 257,
      "Ġbe": 258,
      "Ġon": 259,
      "ith": 260,
      "Ġfor": 261,
      "Ġl": 262,
      "se": 263,
      "Th": 264,
      "bit": 265,
      "Ġ=": 266,
      "ver": 267,
      "Ġ0": 268,
      "Ġwh": 269,
      "Ġpro": 270,
      "Ġ(": 271,
      "if": 272,
      "de": 273,
      "Ġy": 274,
      "âĶ": 275,
      "omp": 276,
      "per": 277,
      "ri": 278,
      "Ġ1": 279,
      "Ġquantum": 280,
      "ol": 281,
      "Ġyou": 282,
      "cu": 283,
      "Ġit": 284,
      "ure": 285,
      "Ġal": 286,
      "ab": 287,
      "th": 288,
      "ere": 289,
      "Ġcan": 290,
      "Ġex": 291,
      "si": 292,
      "ment": 293,
      "Ġas": 294,
      "Ġ$\\": 295,
      "mat": 296,
      "ch": 297,
      "ce": 298,
      "Ġthis": 299,
      "Ġcon": 300,
      "Ġqubit": 301,
      "âĶĢ": 302,
      "Ġwith": 303,
      "Ġme": 304,
      "Ġcomp": 305,
      "Ġwe": 306,
      "_{": 307,
      "Ġare": 308,
      "cuit": 309,
      "ircuit": 310,
      "ĠTh": 311,
      "ical": 312,
      "$$": 313,
      "ĠC": 314,
      "Ġstate": 315,
      "ter": 316,
      "pp": 317,
      "ity": 318,
      "ates": 319,
      "Ġ&": 320,
      "ĠS": 321,
      "ĠĠĠ": 322,
      "ay": 323,
      "âĶĢâĶĢ": 324,
      "ag": 325,
      "Ġde": 326,
      "for": 327,
      "ĠA": 328,
      "os": 329,
      "ĠH": 330,
      "Ġsu": 331,
      "end": 332,
      "un": 333,
      "ect": 334,
      "ld": 335,
      "ĠQ": 336,
      "ple": 337,
      "rac": 338,
      "ĠĠĠĠĠĠĠĠ": 339,
      "Ġnot": 340,
      "``": 341,
      "igh": 342,
      "Ġha": 343,
      "res": 344,
      "ph": 345,
      "Ġun": 346,
      "{\\": 347,
      "ĠW": 348,
      "ra": 349,
      "Ġse": 350,
      "ho": 351,
      "iz": 352,
      "Ġ|": 353,
      "Ġor": 354,
      "rom": 355,
      "rix": 356,
      "00": 357,
      "asure": 358,
      "Ġdo": 359,
      "and": 360,
      "ult": 361,
      "pl": 362,
      "der": 363,
      "ight": 364,
      "ble": 365,
      "ator": 366,
      "est": 367,
      "ist": 368,
      "Ġcircuit": 369,
      "$.": 370,
      "frac": 371,
      "em": 372,
      "Ġco": 373,
      "}\\": 374,
      "Ġcomput": 375,
      "Ġby": 376,
      "ur": 377,
      "Ġhave": 378,
      "ould": 379,
      "imes": 380,
      "ke": 381,
      "Ġus": 382,
      "el": 383,
      "ad": 384,
      "ĠB": 385,
      "ĠP": 386,
      "iv": 387,
      "Ġim": 388,
      "ill": 389,
      "math": 390,
      "Ġr": 391,
      "ction": 392,
      "ich": 393,
      "|\\": 394,
      "Ġmeasure": 395,
      "Ġ2": 396,
      "Ġoper": 397,
      "ial": 398,
      "ĊĠĠĠ": 399,
      "ror": 400,
      "Ġv": 401,
      "Ġmat": 402,
      "id": 403,
      "$,": 404,
      "psi": 405,
      "hat": 406,
      "eg": 407,
      "Ġ+": 408,
      "Ġif": 409,
      "pt": 410,
      "Ġqubits": 411,
      "ass": 412,
      "(\\": 413,
      "^{": 414,
      "og": 415,
      "'s": 416,
      "Ġcl": 417,
      "Ġtr": 418,
      "ary": 419,
      "ers": 420,
      "form": 421,
      "langle": 422,
      "ec": 423,
      "Ġwhich": 424,
      "Ġapp": 425,
      "error": 426,
      "--": 427,
      "ĠThe": 428,
      "abil": 429,
      "ase": 430,
      "rho": 431,
      "ine": 432,
      "ome": 433,
      "Ġsh": 434,
      "otimes": 435,
      "ition": 436,
      "ans": 437,
      "Ġsp": 438,
      "ive": 439,
      "ations": 440,
      "able": 441,
      "Ġsim": 442,
      "eta": 443,
      "Ġch": 444,
      "ain": 445,
      "Ġfrom": 446,
      "Ġq": 447,
      "Ġ-": 448,
      "ĠF": 449,
      "Ġgate": 450,
      "Ġres": 451,
      "qr": 452,
      ").": 453,
      "Ġerror": 454,
      "fer": 455,
      "ft": 456,
      "Ġle": 457,
      "isk": 458,
      "ort": 459,
      "ĠM": 460,
      "art": 461,
      "du": 462,
      "iskit": 463,
      "ess": 464,
      "ithm": 465,
      "uantum": 466,
      "Ġph": 467,
      "cal": 468,
      "us": 469,
      "ens": 470,
      "ex": 471,
      "ies": 472,
      "to": 473,
      "}{": 474,
      "gor": 475,
      "Ġone": 476,
      "ctor": 477,
      "wo": 478,
      "Ġk": 479,
      "}$": 480,
      "Ġall": 481,
      "gorithm": 482,
      "Ġbut": 483,
      "ĠN": 484,
      "qrt": 485,
      "Ġat": 486,
      "ard": 487,
      "sqrt": 488,
      "ĠWhat": 489,
      "od": 490,
      "ach": 491,
      "Ġout": 492,
      "ĠD": 493,
      "ĠT": 494,
      "ma": 495,
      "out": 496,
      "matrix": 497,
      "nt": 498,
      "```": 499,
      "Ġne": 500,
      "ust": 501,
      "Ġthere": 502,
      "Ġtwo": 503,
      "Ġmeasurement": 504,
      "sum": 505,
      "ĠE": 506,
      "Ġj": 507,
      "âĢ": 508,
      "Ġma": 509,
      "ps": 510,
      "ener": 511,
      "ame": 512,
      "Ġstates": 513,
      "ue": 514,
      "Ġab": 515,
      "assical": 516,
      "Ġcont": 517,
      "Ġany": 518,
      "right": 519,
      "Ġ\"": 520,
      "ore": 521,
      "Ġbas": 522,
      "Ġsy": 523,
      "ack": 524,
      "11": 525,
      "ff": 526,
      "Ġsome": 527,
      "Ġ$|": 528,
      "Ġalgorithm": 529,
      "),": 530,
      "Ġcor": 531,
      "erm": 532,
      "Ġ`": 533,
      "are": 534,
      "ample": 535,
      "Ġgates": 536,
      "ime": 537,
      "Ġhow": 538,
      "ĠQuantum": 539,
      "ence": 540,
      "ally": 541,
      "int": 542,
      "low": 543,
      "port": 544,
      "Ġthen": 545,
      "Ġwill": 546,
      "put": 547,
      "ber": 548,
      "ise": 549,
      "Ġnum": 550,
      "Ġent": 551,
      "âĶĢâĶĢâĶĢâĶĢ": 552,
      "Ġso": 553,
      "Ġuse": 554,
      "left": 555,
      "ated": 556,
      "ond": 557,
      "Ġcode": 558,
      "her": 559,
      "Ġen": 560,
      "Ġno": 561,
      "lo": 562,
      "'t": 563,
      "nd": 564,
      "ace": 565,
      "âŁ": 566,
      "The": 567,
      "ign": 568,
      "ĠR": 569,
      "Ġam": 570,
      "so": 571,
      "Ġ\\\\": 572,
      "Ġoperator": 573,
      "now": 574,
      "Ġclassical": 575,
      "Ġmatrix": 576,
      "Ġi": 577,
      "Ġwould": 578,
      "stem": 579,
      "ext": 580,
      "ice": 581,
      "Ġwhat": 582,
      "ĠG": 583,
      "vector": 584,
      "ike": 585,
      "blem": 586,
      "Ġprob": 587,
      "egin": 588,
      "ose": 589,
      "begin": 590,
      "Ġusing": 591,
      "Ġdif": 592,
      "vert": 593,
      "ork": 594,
      "Ġad": 595,
      "pi": 596,
      "ind": 597,
      "Ġresult": 598,
      "Ġget": 599,
      "qubit": 600,
      "âŁ©": 601,
      "Ġtrans": 602,
      "Ġexample": 603,
      "ĠIn": 604,
      "ite": 605,
      "}}": 606,
      "Ġgener": 607,
      "ther": 608,
      "ĠU": 609,
      "Ġ[": 610,
      "ger": 611,
      "Ġpos": 612,
      "Ġknow": 613,
      "pres": 614,
      "Ġdoes": 615,
      "=\\": 616,
      "Ġhas": 617,
      "Ġmo": 618,
      "led": 619,
      "Ġcom": 620,
      "Ġ3": 621,
      "Ġonly": 622,
      ")$": 623,
      "Ġproblem": 624,
      "phi": 625,
      "li": 626,
      "rol": 627,
      "ĊĠĠĠĠ": 628,
      "del": 629,
      "ance": 630,
      "theta": 631,
      "Ġlike": 632,
      "Ġsystem": 633,
      "ĠL": 634,
      "Ġprobabil": 635,
      "oo": 636,
      "Ġunit": 637,
      "Ġneed": 638,
      "ire": 639,
      "Ġdiffer": 640,
      "Ġper": 641,
      "Ġfa": 642,
      "au": 643,
      "gh": 644,
      "Ġbasis": 645,
      "ĠO": 646,
      "ĠX": 647,
      "str": 648,
      "Ġmore": 649,
      "bs": 650,
      "Ġpre": 651,
      "etw": 652,
      "mathcal": 653,
      "10": 654,
      "rou": 655,
      "Ġcorre": 656,
      "irst": 657,
      "ĠThis": 658,
      "Ġ'": 659,
      "vers": 660,
      "ution": 661,
      "our": 662,
      "Ġother": 663,
      "ollow": 664,
      "Ġar": 665,
      "Ġinter": 666,
      "estion": 667,
      "sible": 668,
      "Ġsimul": 669,
      "age": 670,
      "Ġro": 671,
      "Ġpo": 672,
      "Ġbit": 673,
      "Ġwhere": 674,
      "ĠY": 675,
      "Ġgiv": 676,
      "..": 677,
      "igma": 678,
      "Ġyour": 679,
      "Ġequ": 680,
      "ĠHow": 681,
      "formation": 682,
      "Ġfollow": 683,
      "Ġabout": 684,
      "Ġcal": 685,
      "Ġpart": 686,
      "Ġsuch": 687,
      "Ġway": 688,
      "}{\\": 689,
      "Ġdec": 690,
      "Ġval": 691,
      "rib": 692,
      "Ġfun": 693,
      "plement": 694,
      "sigma": 695,
      "Ġdef": 696,
      "Ġset": 697,
      "Ġunder": 698,
      "ys": 699,
      "()": 700,
      "Ġdes": 701,
      "Ġdist": 702,
      "ge": 703,
      "Ġpa": 704,
      "Ġnumber": 705,
      "],": 706,
      "Ġimport": 707,
      "Ġjust": 708,
      "ook": 709,
      "ob": 710,
      "Ġwhen": 711,
      "ĠZ": 712,
      "Ġquestion": 713,
      "\\\\": 714,
      "ie": 715,
      "pro": 716,
      "dag": 717,
      "ap": 718,
      "ĠĠĠĠĠĠĠĠĠĠĠĠĠĠĠĠ": 719,
      "Ġentangle": 720,
      "Ġthey": 721,
      "Ġimplement": 722,
      "ient": 723,
      "pmatrix": 724,
      "Ġev": 725,
      "circuit": 726,
      "cc": 727,
      "Ġqiskit": 728,
      "^\\": 729,
      "dagger": 730,
      "pha": 731,
      "Ġfirst": 732,
      "Ġalso": 733,
      "Ġtime": 734,
      "Ġcontrol": 735,
      "Ġwork": 736,
      "Ġsame": 737,
      "Ġprobability": 738,
      "alpha": 739,
      "get": 740,
      "----": 741,
      "rm": 742,
      "Ġeach": 743,
      "een": 744,
      "ann": 745,
      "Ġcase": 746,
      "Ġunitary": 747,
      "py": 748,
      "igen": 749,
      "very": 750,
      "Ġ4": 751,
      "Ġexp": 752,
      "etween": 753,
      "text": 754,
      "ots": 755,
      "Ġcomple": 756,
      "ous": 757,
      "duct": 758,
      "ization": 759,
      "Ġinto": 760,
      "wh": 761,
      "01": 762,
      "amb": 763,
      "Ġbetween": 764,
      "mathb": 765,
      "Ġbec": 766,
      "In": 767,
      "one": 768,
      ")\\": 769,
      "da": 770,
      "Ġfunction": 771,
      "__": 772,
      "ian": 773,
      "present": 774,
      "mal": 775,
      "ever": 776,
      "Ġthese": 777,
      "ause": 778,
      "Ġfind": 779,
      "Ġdifferent": 780,
      "ry": 781,
      "ingle": 782,
      "âķ": 783,
      "ambda": 784,
      "ari": 785,
      "ï¬": 786,
      "Ġ$|\\": 787,
      "ics": 788,
      "ister": 789,
      "Ġpar": 790,
      "Ġcomputation": 791,
      "ount": 792,
      "Ġthan": 793,
      "ĠIt": 794,
      "Ġopt": 795,
      "Ġwant": 796,
      "ast": 797,
      "osition": 798,
      "aul": 799,
      "Ġrepresent": 800,
      "ject": 801,
      "Ġeigen": 802,
      "Ġsol": 803,
      "ound": 804,
      "OT": 805,
      "Ġvector": 806,
      "+\\": 807,
      "Ġsee": 808,
      "ric": 809,
      "vi": 810,
      "from": 811,
      "stand": 812,
      "cl": 813,
      "ss": 814,
      "Ġlog": 815,
      "Ġwr": 816,
      "Ġx": 817,
      "Ġphase": 818,
      "act": 819,
      "Ġmy": 820,
      "Ġact": 821,
      "ackend": 822,
      "tain": 823,
      "hi": 824,
      "val": 825,
      "Ġpossible": 826,
      "Ġup": 827,
      "ink": 828,
      "con": 829,
      "ulti": 830,
      "Ġsingle": 831,
      "Ġdet": 832,
      "Ġshould": 833,
      "ize": 834,
      "ĠAl": 835,
      "des": 836,
      "Ġover": 837,
      "Ġinformation": 838,
      "ï¬ģ": 839,
      "auli": 840,
      "qc": 841,
      "ues": 842,
      "Ġgo": 843,
      "ces": 844,
      "sw": 845,
      "erv": 846,
      "ĠFor": 847,
      "par": 848,
      "Ġele": 849,
      "ĊĠĠĠĠĠĠĠ": 850,
      "NOT": 851,
      "ically": 852,
      "ne": 853,
      "Ġreg": 854,
      "ĠIf": 855,
      "ange": 856,
      "^{\\": 857,
      "}(": 858,
      "Ġint": 859,
      "Ġâ": 860,
      "Ġform": 861,
      "ak": 862,
      "abiliz": 863,
      "ffic": 864,
      "ds": 865,
      "ific": 866,
      "te": 867,
      "Ġman": 868,
      "ong": 869,
      "Ġperform": 870,
      "Ġsuper": 871,
      "Ġstr": 872,
      "cond": 873,
      "pe": 874,
      "])": 875,
      "ell": 876,
      "Ġapply": 877,
      "lambda": 878,
      "tr": 879,
      "ions": 880,
      "Ġunderstand": 881,
      "ata": 882,
      "stru": 883,
      "Ġused": 884,
      "Ġgiven": 885,
      "}_": 886,
      "ĠV": 887,
      "Ġcould": 888,
      "equ": 889,
      "âĢĻ": 890,
      "Ġwas": 891,
      "bmatrix": 892,
      "-\\": 893,
      "ating": 894,
      "Ġrun": 895,
      "Ġshow": 896,
      "ĊĠ": 897,
      "Ġcomputer": 898,
      "ll": 899,
      "))": 900,
      "Ġdefin": 901,
      ",\\": 902,
      "Ġfollowing": 903,
      "mathbb": 904,
      "Ġbecause": 905,
      "Ġinst": 906,
      "Ġline": 907,
      "ual": 908,
      "Ġoutput": 909,
      "',": 910,
      "Ġhere": 911,
      "Ġnon": 912,
      "ince": 913,
      "Ġpaper": 914,
      "Ġspec": 915,
      "Ġterm": 916,
      "Ġrequ": 917,
      "ilt": 918,
      "not": 919,
      "Ġansw": 920,
      "und": 921,
      "ci": 922,
      "Ġcomm": 923,
      "Ġcomputing": 924,
      "Ġpl": 925,
      "andom": 926,
      "pend": 927,
      "amet": 928,
      "annel": 929,
      "mathrm": 930,
      "Ġob": 931,
      "âķĲ": 932,
      "ree": 933,
      "Ġtheor": 934,
      "itial": 935,
      "omet": 936,
      "Ġproc": 937,
      "Ġappro": 938,
      "sider": 939,
      "ular": 940,
      "ram": 941,
      "ĠâĶ": 942,
      "Ġproduct": 943,
      "Ġmulti": 944,
      "oth": 945,
      "fficient": 946,
      "Ġstabiliz": 947,
      "Ġadd": 948,
      "Ġreal": 949,
      "ential": 950,
      "Ġmay": 951,
      "ĠQiskit": 952,
      "ning": 953,
      "Ġinput": 954,
      "beta": 955,
      "Ġdesc": 956,
      "Ġcorrect": 957,
      "):": 958,
      "the": 959,
      "Ġoperators": 960,
      "ile": 961,
      "xim": 962,
      "ib": 963,
      "Ġgeneral": 964,
      "12": 965,
      "co": 966,
      "pr": 967,
      "Ġphys": 968,
      "Ġoptim": 969,
      "ix": 970,
      "Ġ5": 971,
      "Ġoperation": 972,
      "Ġ{": 973,
      "Ġmet": 974,
      "'m": 975,
      "}|": 976,
      "ale": 977,
      "Ġrel": 978,
      "raph": 979,
      "Ġchannel": 980,
      "urn": 981,
      "Ġerrors": 982,
      "ead": 983,
      "âķĲâķĲ": 984,
      "ments": 985,
      "row": 986,
      "fore": 987,
      "Ġsecond": 988,
      "uring": 989,
      "Ġdis": 990,
      "Ġspace": 991,
      "Ġlook": 992,
      "fter": 993,
      "Ġexpl": 994,
      "Circuit": 995,
      "arch": 996,
      "ute": 997,
      "Ġsay": 998,
      "ough": 999,
      "ful": 1000,
      "state": 1001,
      "ative": 1002,
      "Ġnoise": 1003,
      "Ġ#": 1004,
      "cul": 1005,
      "me": 1006,
      "Ġ.": 1007,
      "_{\\": 1008,
      "Ġcircuits": 1009,
      "Ġlogical": 1010,
      "cd": 1011,
      "amilt": 1012,
      "amilton": 1013,
      "Ġits": 1014,
      "com": 1015,
      "lf": 1016,
      "ffect": 1017,
      "align": 1018,
      "plit": 1019,
      "Ġanswer": 1020,
      "lic": 1021,
      "ĪĴ": 1022,
      "comp": 1023,
      "big": 1024,
      "ĠPauli": 1025,
      "cre": 1026,
      "rough": 1027,
      "Ġthem": 1028,
      "ove": 1029,
      "Ġdon": 1030,
      "Ġcomplex": 1031,
      "ave": 1032,
      "Phi": 1033,
      "of": 1034,
      "ĊĠĠĠĠĠĠĠĠ": 1035,
      "âĶĢâĶĢâĶĢâĶĢâĶĢâĶĢâĶĢâĶĢ": 1036,
      "ding": 1037,
      "Ġcre": 1038,
      "Ġoperations": 1039,
      "hing": 1040,
      "ĠCl": 1041,
      "Ġvalue": 1042,
      "ten": 1043,
      "ep": 1044,
      "Ġte": 1045,
      "Ġthink": 1046,
      "Ġmany": 1047,
      "ket": 1048,
      "This": 1049,
      "ake": 1050,
      "ract": 1051,
      "ually": 1052,
      "Ġcalcul": 1053,
      "Ġtry": 1054,
      "ware": 1055,
      "resp": 1056,
      ".,": 1057,
      "ude": 1058,
      "Ġcol": 1059,
      "Ġwhy": 1060,
      "where": 1061,
      "position": 1062,
      "quantum": 1063,
      "Ġregister": 1064,
      "ving": 1065,
      "cill": 1066,
      "amiltonian": 1067,
      "Ġmetho": 1068,
      "ities": 1069,
      "Ġresults": 1070,
      "ĠSo": 1071,
      "Ġmodel": 1072,
      "ting": 1073,
      "respond": 1074,
      "ks": 1075,
      "ensity": 1076,
      "round": 1077,
      "Ġrandom": 1078,
      "ĠWe": 1079,
      "ized": 1080,
      "Ġrot": 1081,
      "If": 1082,
      "Ġprocess": 1083,
      "all": 1084,
      "ĠYou": 1085,
      "Ġdescrib": 1086,
      "}^": 1087,
      "onal": 1088,
      "ray": 1089,
      "imul": 1090,
      "},": 1091,
      "Ġboth": 1092,
      "BM": 1093,
      "Ġalgorithms": 1094,
      "':": 1095,
      "ĠWh": 1096,
      "Ġtheir": 1097,
      "les": 1098,
      "roup": 1099,
      "Ġcorrespond": 1100,
      "Ġentanglement": 1101,
      "Ġinitial": 1102,
      "}$.": 1103,
      "ĠĊ": 1104,
      "Ġpoint": 1105,
      "tt": 1106,
      "oton": 1107,
      "Ġparamet": 1108,
      "Ġacc": 1109,
      "Ġobs": 1110,
      "pect": 1111,
      "ote": 1112,
      "ify": 1113,
      "ip": 1114,
      "$$\\": 1115,
      "way": 1116,
      "ĠK": 1117,
      "Ġhard": 1118,
      "ables": 1119,
      "Tr": 1120,
      "ident": 1121,
      "}(\\": 1122,
      "}^{": 1123,
      "Ġcomputers": 1124,
      "Ġmeasurements": 1125,
      "Ġentangled": 1126,
      "Ġhel": 1127,
      "rices": 1128,
      "Ġlinear": 1129,
      "inal": 1130,
      "amard": 1131,
      "Ġmake": 1132,
      "Ġbeing": 1133,
      "Ġorder": 1134,
      "perator": 1135,
      "Ġconsider": 1136,
      "ict": 1137,
      "Ġpartic": 1138,
      "Ġ|\\": 1139,
      "enc": 1140,
      "ves": 1141,
      "eck": 1142,
      "ature": 1143,
      "Ġdata": 1144,
      "rary": 1145,
      "Ġenc": 1146,
      "itive": 1147,
      "cur": 1148,
      "irc": 1149,
      "Ġeigenval": 1150,
      "Ġabove": 1151,
      "uch": 1152,
      "Ġfe": 1153,
      "Ġret": 1154,
      "})": 1155,
      "Ġread": 1156,
      "Ġthrough": 1157,
      "Ġeven": 1158,
      "ĠCNOT": 1159,
      "app": 1160,
      "adamard": 1161,
      "Ġafter": 1162,
      "Ġpr": 1163,
      "Ġsuperposition": 1164,
      "Ġexper": 1165,
      "Ġmatrices": 1166,
      "result": 1167,
      "Ġke": 1168,
      "sin": 1169,
      "imens": 1170,
      "Ġvari": 1171,
      "ĠIs": 1172,
      "Ġrec": 1173,
      "ĠTo": 1174,
      "iag": 1175,
      "Ġvery": 1176,
      "ĠSt": 1177,
      "Ġseem": 1178,
      "//": 1179,
      "ensor": 1180,
      "Ġ$$": 1181,
      "Ġassum": 1182,
      "ĠBut": 1183,
      "99": 1184,
      "ĠâĢ": 1185,
      "^{-": 1186,
      "ents": 1187,
      "Ġsub": 1188,
      "For": 1189,
      "Ġlo": 1190,
      "col": 1191,
      "vel": 1192,
      "Ġterms": 1193,
      "Ġcontrolled": 1194,
      "race": 1195,
      "ĠIBM": 1196,
      "ĠHamiltonian": 1197,
      "How": 1198,
      "Ġstart": 1199,
      "Ġstabilizer": 1200,
      "Ġmean": 1201,
      "Ġexpect": 1202,
      "')": 1203,
      "line": 1204,
      "cos": 1205,
      "ĠBob": 1206,
      "(|": 1207,
      "Ġext": 1208,
      "eps": 1209,
      "estim": 1210,
      "Ġ6": 1211,
      "Quantum": 1212,
      "Ġinde": 1213,
      "Ġz": 1214,
      "dition": 1215,
      "Ġeas": 1216,
      "cise": 1217,
      "mo": 1218,
      "Ġmeans": 1219,
      "ng": 1220,
      "Ġdensity": 1221,
      "Ġexist": 1222,
      "Ġcodes": 1223,
      "ection": 1224,
      "Ġsomet": 1225,
      "Ġrequire": 1226,
      "ings": 1227,
      "arget": 1228,
      "pre": 1229,
      "ield": 1230,
      "Ġdecomp": 1231,
      "Ġ10": 1232,
      "Ġvers": 1233,
      "Ġobserv": 1234,
      "ub": 1235,
      "ĠHadamard": 1236,
      "ĠComp": 1237,
      "imit": 1238,
      "irq": 1239,
      "ide": 1240,
      "Ġour": 1241,
      "ormal": 1242,
      "}}\\": 1243,
      "Ġfactor": 1244,
      "Ġbound": 1245,
      "Ġnow": 1246,
      "Ġident": 1247,
      "Ġmight": 1248,
      "ta": 1249,
      "Ġsince": 1250,
      "ck": 1251,
      "Ġmost": 1252,
      "Ġmust": 1253,
      "backend": 1254,
      "Ġconstru": 1255,
      "Ġsystems": 1256,
      "qubits": 1257,
      "--------": 1258,
      "ĠAlice": 1259,
      "000": 1260,
      "Ġac": 1261,
      "Ġlar": 1262,
      "$-": 1263,
      "Ġcho": 1264,
      "Ġphysical": 1265,
      "...": 1266,
      "Ġphoton": 1267,
      "versal": 1268,
      "Ġsimulation": 1269,
      "qiskit": 1270,
      "ĠCh": 1271,
      "Ġwor": 1272,
      "Ġproject": 1273,
      "Ġproper": 1274,
      "ivale": 1275,
      "measure": 1276,
      "ply": 1277,
      "hor": 1278,
      "thon": 1279,
      "Ġty": 1280,
      "rover": 1281,
      "Ġbits": 1282,
      "Ġdeterm": 1283,
      "print": 1284,
      "Ġmod": 1285,
      "ĠHowever": 1286,
      "Ġestim": 1287,
      "iffor": 1288,
      "Ġexact": 1289,
      "imension": 1290,
      "ced": 1291,
      "Ġhigh": 1292,
      "bin": 1293,
      "Ġgroup": 1294,
      "Ġsolution": 1295,
      "Ġancill": 1296,
      "ases": 1297,
      "cept": 1298,
      "Ġequal": 1299,
      "âĶĢâĶ": 1300,
      "ved": 1301,
      "Ġsupp": 1302,
      "cdot": 1303,
      "Ġreturn": 1304,
      "gy": 1305,
      "gram": 1306,
      "Ġevery": 1307,
      "+|": 1308,
      "name": 1309,
      "Ġbu": 1310,
      "Ġdire": 1311,
      "Ġhelp": 1312,
      "ish": 1313,
      "acle": 1314,
      "Ġbeen": 1315,
      "Ġtra": 1316,
      "lear": 1317,
      "Ġlear": 1318,
      "ĠQuantumCircuit": 1319,
      "imulator": 1320,
      "gate": 1321,
      "==": 1322,
      "Ġproblems": 1323,
      "self": 1324,
      "Ġsimple": 1325,
      "Ġtake": 1326,
      "ilon": 1327,
      "ifford": 1328,
      "Ġamplit": 1329,
      "Ġconst": 1330,
      "ilar": 1331,
      "Ġsur": 1332,
      "Ġuni": 1333,
      "Ġadv": 1334,
      "AB": 1335,
      "Ġencod": 1336,
      "Ġdistrib": 1337,
      "://": 1338,
      "ways": 1339,
      "king": 1340,
      "Ġ:": 1341,
      "ty": 1342,
      "Ġbackend": 1343,
      "}$,": 1344,
      "Ġexperim": 1345,
      "Ġsubs": 1346,
      "Ġcorrection": 1347,
      "ron": 1348,
      "Ġobtain": 1349,
      "Ġmethod": 1350,
      "log": 1351,
      "Ġnp": 1352,
      "Ġsomething": 1353,
      "ires": 1354,
      "ttps": 1355,
      "face": 1356,
      "Ġdepend": 1357,
      "Ġlet": 1358,
      "So": 1359,
      "chan": 1360,
      "Ġallow": 1361,
      "ĠJ": 1362,
      "Ġstand": 1363,
      "02": 1364,
      "olog": 1365,
      "Ġfact": 1366,
      "_\\": 1367,
      "Ġ7": 1368,
      "Now": 1369,
      "operator": 1370,
      "'re": 1371,
      "asuring": 1372,
      "Ġequivale": 1373,
      "\",": 1374,
      "Ġcondition": 1375,
      "orm": 1376,
      "Ġcannot": 1377,
      "Ġarbit": 1378,
      "tag": 1379,
      "ero": 1380,
      "over": 1381,
      "Ġcomputational": 1382,
      "ĠThere": 1383,
      "chn": 1384,
      "uting": 1385,
      "Ġ$(": 1386,
      "ertain": 1387,
      "ud": 1388,
      "Ġapplic": 1389,
      "Ġpres": 1390,
      "Ġredu": 1391,
      "other": 1392,
      "Ġeffect": 1393,
      "Ġdiag": 1394,
      "Ġwell": 1395,
      "ower": 1396,
      "array": 1397,
      "Ġvalues": 1398,
      "Ġide": 1399,
      "cture": 1400,
      "Ġsign": 1401,
      "Ġind": 1402,
      "Ġpure": 1403,
      "Ġcheck": 1404,
      "Ġstill": 1405,
      "arrow": 1406,
      "ĠCon": 1407,
      "lvert": 1408,
      "Ġoracle": 1409,
      "ia": 1410,
      "ency": 1411,
      "Ġmuch": 1412,
      "ixed": 1413,
      "Ġwithout": 1414,
      "Psi": 1415,
      "Ġsmal": 1416,
      "ounts": 1417,
      "circ": 1418,
      "Ġtrying": 1419,
      "Ġtri": 1420,
      "Ġgives": 1421,
      "Ġwrit": 1422,
      "Ġtak": 1423,
      "up": 1424,
      "Ġ*": 1425,
      "ear": 1426,
      "Ġalways": 1427,
      "Ġtarget": 1428,
      "ages": 1429,
      "Ġend": 1430,
      "Ġag": 1431,
      "Ġright": 1432,
      "ega": 1433,
      "ĠGrover": 1434,
      "We": 1435,
      "Ġmin": 1436,
      "âĪĴ": 1437,
      "Ġtransform": 1438,
      "he": 1439,
      "Ġincl": 1440,
      "Ġgive": 1441,
      "Ġlimit": 1442,
      "ick": 1443,
      "Ġparticular": 1444,
      "times": 1445,
      "amma": 1446,
      "Ġrepresentation": 1447,
      "Ġ8": 1448,
      "ether": 1449,
      "Ġsc": 1450,
      "Ġsum": 1451,
      "press": 1452,
      "Ġï¬ģ": 1453,
      "alle": 1454,
      "Ġinterest": 1455,
      "ane": 1456,
      "('": 1457,
      "ory": 1458,
      "Ġuses": 1459,
      "ason": 1460,
      "ither": 1461,
      "Ġnew": 1462,
      "Ġinv": 1463,
      "Ġrefer": 1464,
      "Ġinstead": 1465,
      "Ġwrite": 1466,
      "|^": 1467,
      "sh": 1468,
      "Ġexec": 1469,
      "Ġgu": 1470,
      "ĠPro": 1471,
      "delity": 1472,
      "Ġdoesn": 1473,
      "Ġhardware": 1474,
      "time": 1475,
      "bers": 1476,
      "Ġapproach": 1477,
      "Ġarbitrary": 1478,
      "pace": 1479,
      "Ġrem": 1480,
      "Ġefficient": 1481,
      "eed": 1482,
      "num": 1483,
      "Ex": 1484,
      "read": 1485,
      "Ġdistance": 1486,
      "Ġsimulator": 1487,
      "which": 1488,
      "ĠĠĠĠĠĠĠ": 1489,
      "Ġtrue": 1490,
      "ention": 1491,
      "Ġprogram": 1492,
      "Ġstandard": 1493,
      "ption": 1494,
      "Ġmeasuring": 1495,
      "Ġseems": 1496,
      "Ġreason": 1497,
      "Ġdev": 1498,
      "raw": 1499,
      "Ġtest": 1500,
      "Ġtimes": 1501,
      "Ġmechan": 1502,
      "0000": 1503,
      "}_{": 1504,
      "Ġwhile": 1505,
      "Ġtrace": 1506,
      "Ġthree": 1507,
      "Ġclass": 1508,
      "Ġanal": 1509,
      "Ġequivalent": 1510,
      "ication": 1511,
      "verse": 1512,
      "olution": 1513,
      "Ġelements": 1514,
      "Ġpair": 1515,
      "____": 1516,
      "Ġmaxim": 1517,
      ")$.": 1518,
      "Ġfound": 1519,
      "ĠAs": 1520,
      "rent": 1521,
      "Ġspecific": 1522,
      "Ġdistribution": 1523,
      "Ġknown": 1524,
      "ines": 1525,
      "Ġanother": 1526,
      "Ġtechn": 1527,
      "ense": 1528,
      "Ġexpon": 1529,
      "Ġancilla": 1530,
      "mon": 1531,
      "Ġbefore": 1532,
      "def": 1533,
      "come": 1534,
      "ĠThen": 1535,
      "bas": 1536,
      "Ġconf": 1537,
      "upp": 1538,
      "ector": 1539,
      "Reg": 1540,
      "pos": 1541,
      "ource": 1542,
      "Ġoptimization": 1543,
      "ices": 1544,
      "gamma": 1545,
      "igure": 1546,
      "Ġeigenvalues": 1547,
      "Ġsmall": 1548,
      "requ": 1549,
      "Ġdefined": 1550,
      "rror": 1551,
      "op": 1552,
      "OR": 1553,
      "ĠClifford": 1554,
      "til": 1555,
      "ument": 1556,
      "ĠEx": 1557,
      "Ġexpress": 1558,
      "ĊĠĠĠĠĠĠĠĠĠĠĠ": 1559,
      "Ġcreate": 1560,
      "As": 1561,
      "ality": 1562,
      "Ïģ": 1563,
      "Ġwhether": 1564,
      "pling": 1565,
      "ven": 1566,
      "Ġhe": 1567,
      "Ġsearch": 1568,
      "energy": 1569,
      "lect": 1570,
      "Ġdep": 1571,
      "Ġsepar": 1572,
      "Ġpost": 1573,
      "Ġable": 1574,
      "ĠBell": 1575,
      "(\"": 1576,
      "Ġcur": 1577,
      "Ġkey": 1578,
      "Ġtensor": 1579,
      ")=": 1580,
      "ha": 1581,
      "âķĲâķĲâķĲâķĲ": 1582,
      "ctions": 1583,
      "ability": 1584,
      "ied": 1585,
      "tern": 1586,
      "ĠAn": 1587,
      "ĠDe": 1588,
      "'ve": 1589,
      "etter": 1590,
      "idelity": 1591,
      "Ġthose": 1592,
      "ĠQu": 1593,
      "cor": 1594,
      "omial": 1595,
      "Ġtheory": 1596,
      "Ġdefinition": 1597,
      "ress": 1598,
      "ĠUn": 1599,
      "mb": 1600,
      "Ġnumbers": 1601,
      "reg": 1602,
      "Ġqc": 1603,
      "It": 1604,
      "achine": 1605,
      "Wh": 1606,
      "Ġcombin": 1607,
      "inite": 1608,
      "Ġinteg": 1609,
      "istic": 1610,
      "ograph": 1611,
      "yn": 1612,
      "cx": 1613,
      "Ġmag": 1614,
      "ÏĪ": 1615,
      "Ġ,": 1616,
      "ercise": 1617,
      "Ġrange": 1618,
      "vid": 1619,
      "Ġvectors": 1620,
      "Ġtheorem": 1621,
      "epsilon": 1622,
      "udes": 1623,
      "Ġconstruct": 1624,
      "Ġdone": 1625,
      "Ġgood": 1626,
      "[-": 1627,
      "Ġconn": 1628,
      "Register": 1629,
      "008": 1630,
      "Ġhapp": 1631,
      "Ġmap": 1632,
      "FT": 1633,
      "old": 1634,
      "Ġsimilar": 1635,
      "trol": 1636,
      "Ġpract": 1637,
      "Ġexactly": 1638,
      "To": 1639,
      "Ġexperiment": 1640,
      "ropy": 1641,
      "Ġactually": 1642,
      "Ġapproxim": 1643,
      "red": 1644,
      "olar": 1645,
      "Ġcomplete": 1646,
      "ains": 1647,
      "velo": 1648,
      "rad": 1649,
      "Ġmultiple": 1650,
      "Ġeither": 1651,
      "13": 1652,
      "rightarrow": 1653,
      "Ġrotation": 1654,
      "##": 1655,
      "Ġlocal": 1656,
      "bar": 1657,
      "Ġcomplexity": 1658,
      "Âł": 1659,
      "Ġcorresponding": 1660,
      "16": 1661,
      "with": 1662,
      "tocol": 1663,
      "Ġlist": 1664,
      "lib": 1665,
      "lied": 1666,
      "Ġchange": 1667,
      "ared": 1668,
      "inary": 1669,
      "ably": 1670,
      "Ġ11": 1671,
      "Ġspin": 1672,
      "Ġfollows": 1673,
      "Ġparameters": 1674,
      "Ġtop": 1675,
      "lob": 1676,
      "Ġimpro": 1677,
      "etwork": 1678,
      "ĠâĪĴ": 1679,
      "ĊĠĠ": 1680,
      "Ġdecomposition": 1681,
      "Ġthough": 1682,
      "Ġoutcome": 1683,
      "ngth": 1684,
      "Ġcou": 1685,
      "ism": 1686,
      "part": 1687,
      "Ġleast": 1688,
      "Ġsw": 1689,
      "lyn": 1690,
      "}$$": 1691,
      "Ġhand": 1692,
      "Ġ9": 1693,
      "dots": 1694,
      "CNOT": 1695,
      "vec": 1696,
      "Ġstru": 1697,
      "Ġpat": 1698,
      "rier": 1699,
      "vious": 1700,
      "$\\": 1701,
      "Ġcertain": 1702,
      "herence": 1703,
      "Ġspeed": 1704,
      "Ġgraph": 1705,
      "pendent": 1706,
      "uppose": 1707,
      "loch": 1708,
      "Let": 1709,
      "ational": 1710,
      "lynomial": 1711,
      "ling": 1712,
      "ĊĠĠĠĠĠĠĠĠĠĠĠĠĠĠĠĠ": 1713,
      "Ġcompute": 1714,
      "Ġdeco": 1715,
      "What": 1716,
      "Ġeasi": 1717,
      "els": 1718,
      "als": 1719,
      "Ġbetter": 1720,
      "Ġfli": 1721,
      "Ġproof": 1722,
      "Ġlat": 1723,
      "hemat": 1724,
      "AP": 1725,
      "ese": 1726,
      "Ġback": 1727,
      "Ġpositive": 1728,
      "Ġworks": 1729,
      "Ġwritten": 1730,
      "ties": 1731,
      "rodu": 1732,
      "equation": 1733,
      "entially": 1734,
      "its": 1735,
      "phere": 1736,
      "Ġdifference": 1737,
      "([": 1738,
      "Is": 1739,
      "You": 1740,
      "Ġenergy": 1741,
      "Ġsure": 1742,
      "Ġelect": 1743,
      "ner": 1744,
      "bra": 1745,
      "Ġhttps": 1746,
      "ĠâĶľ": 1747,
      "ward": 1748,
      "Ġreally": 1749,
      "Ġatom": 1750,
      "aries": 1751,
      "Ġbelow": 1752,
      "Ġcurrent": 1753,
      "Ġav": 1754,
      "Ġstep": 1755,
      "Ġapplied": 1756,
      "Ġidentity": 1757,
      "ecess": 1758,
      "Ġbuil": 1759,
      "Ġprotocol": 1760,
      "&=": 1761,
      "Ġbased": 1762,
      "Ġprep": 1763,
      "ĠPh": 1764,
      "Ġlarge": 1765,
      "sing": 1766,
      "Ġprovid": 1767,
      "Ġlevel": 1768,
      "vider": 1769,
      "Ġdirect": 1770,
      "Ġsurface": 1771,
      "met": 1772,
      "15": 1773,
      "bert": 1774,
      "gg": 1775,
      "ibm": 1776,
      "net": 1777,
      "quad": 1778,
      "Ġang": 1779,
      "chie": 1780,
      "ately": 1781,
      "Ġet": 1782,
      "Ġsqu": 1783,
      "no": 1784,
      "omega": 1785,
      "`.": 1786,
      "ij": 1787,
      "Ġsolve": 1788,
      "be": 1789,
      "Ġsat": 1790,
      "Ġatt": 1791,
      "Ġclear": 1792,
      "\")": 1793,
      "Ġadvant": 1794,
      "ather": 1795,
      "Ġwere": 1796,
      "Ġapplying": 1797,
      "(-": 1798,
      ")|": 1799,
      "Ġ/": 1800,
      "Ġjob": 1801,
      "Ġrespect": 1802,
      "run": 1803,
      "Ġachie": 1804,
      "Ġdescribed": 1805,
      "own": 1806,
      "delta": 1807,
      "Ġimportant": 1808,
      "ography": 1809,
      "Ġmeasured": 1810,
      "Ġful": 1811,
      "mu": 1812,
      "Ġoc": 1813,
      "Ġagain": 1814,
      "Ġfield": 1815,
      "Ġnormal": 1816,
      "ivity": 1817,
      "Ġversion": 1818,
      "Ġminim": 1819,
      "ark": 1820,
      "Ġcall": 1821,
      "ences": 1822,
      "import": 1823,
      "ĠLet": 1824,
      "velop": 1825,
      "14": 1826,
      "Ġdoing": 1827,
      "oli": 1828,
      "Ġprodu": 1829,
      "Ġlearning": 1830,
      "ank": 1831,
      "Ġlast": 1832,
      "np": 1833,
      "simulator": 1834,
      "Ġnecess": 1835,
      "Ġ$\\{": 1836,
      "ĠShor": 1837,
      "Ġdesign": 1838,
      "mathbf": 1839,
      "opt": 1840,
      "thog": 1841,
      "ndrom": 1842,
      "Ġfidelity": 1843,
      "ility": 1844,
      "However": 1845,
      "Ġ)": 1846,
      "Con": 1847,
      "pm": 1848,
      "Ġsize": 1849,
      "ification": 1850,
      "Ġtyp": 1851,
      "less": 1852,
      "reat": 1853,
      "ĊĊĠĠĠ": 1854,
      "Ġfault": 1855,
      "thogonal": 1856,
      "25": 1857,
      "];": 1858,
      "ole": 1859,
      "Ġsa": 1860,
      "ert": 1861,
      "code": 1862,
      "operatorname": 1863,
      "lobal": 1864,
      "ev": 1865,
      "ystem": 1866,
      "Ġuseful": 1867,
      "Ġdefine": 1868,
      "pen": 1869,
      "ready": 1870,
      "ilbert": 1871,
      "Ġaut": 1872,
      "org": 1873,
      "Ġorig": 1874,
      "leq": 1875,
      "Ġwon": 1876,
      "ĠTr": 1877,
      "Ġcommun": 1878,
      "Ġpolynomial": 1879,
      "leport": 1880,
      "Ġnote": 1881,
      ".$$": 1882,
      ")}": 1883,
      "ĠThat": 1884,
      "ils": 1885,
      "Ġmechanics": 1886,
      "osed": 1887,
      "Ġequation": 1888,
      "Ġsatis": 1889,
      "search": 1890,
      "Ġsequ": 1891,
      "iew": 1892,
      "Ġentropy": 1893,
      "Ġsimply": 1894,
      "Ġamplitude": 1895,
      "thing": 1896,
      "Ġimplementation": 1897,
      "Ġcirq": 1898,
      "Ġconnect": 1899,
      "ources": 1900,
      "Ġdimension": 1901,
      "Ġstructure": 1902,
      "Ġcalculate": 1903,
      "ee": 1904,
      "Ġcost": 1905,
      "ĠWhy": 1906,
      "**": 1907,
      "ness": 1908,
      "Ġdeta": 1909,
      "Ġalready": 1910,
      "Ġelement": 1911,
      "oint": 1912,
      "aus": 1913,
      "Ġmachine": 1914,
      "Ġdiagonal": 1915,
      "Ġarg": 1916,
      "Ġfrequ": 1917,
      ")$,": 1918,
      "Pro": 1919,
      "corre": 1920,
      "Ġprobabilities": 1921,
      "Ġaffect": 1922,
      "man": 1923,
      "Ġchang": 1924,
      "Ġexplain": 1925,
      "itary": 1926,
      "Ġstim": 1927,
      "Ġsend": 1928,
      "Ġnetwork": 1929,
      "\\!": 1930,
      "ĠÎ": 1931,
      "$?": 1932,
      "Ġincre": 1933,
      "ĠHilbert": 1934,
      "ators": 1935,
      "izing": 1936,
      ")^": 1937,
      "Ġidea": 1938,
      "Ġthus": 1939,
      "Ġcontin": 1940,
      "Ġuniversal": 1941,
      "Ġaddition": 1942,
      "utation": 1943,
      "map": 1944,
      "Ġcalled": 1945,
      "Ġrequires": 1946,
      "Ġcour": 1947,
      "Ġsimulate": 1948,
      "Ġoccur": 1949,
      "ml": 1950,
      "ÂłÂł": 1951,
      "Ġ12": 1952,
      "aces": 1953,
      "pler": 1954,
      "fo": 1955,
      "pped": 1956,
      "Ġenables": 1957,
      "Ġunderstanding": 1958,
      "Ġel": 1959,
      "trans": 1960,
      "Ġpul": 1961,
      "aster": 1962,
      "atic": 1963,
      "ift": 1964,
      "Ġneeded": 1965,
      "Ġpy": 1966,
      "Ġself": 1967,
      "ffoli": 1968,
      "stim": 1969,
      "abel": 1970,
      "var": 1971,
      "Ġassume": 1972,
      "Ġdevelop": 1973,
      "Ġmain": 1974,
      "rypt": 1975,
      "Ġcount": 1976,
      "Ġconstant": 1977,
      "Ġlong": 1978,
      "Ġsense": 1979,
      "ĠBloch": 1980,
      "Al": 1981,
      "EC": 1982,
      "Ġsatisf": 1983,
      "Ġsphere": 1984,
      "Qu": 1985,
      "efficient": 1986,
      "plus": 1987,
      "Ġdid": 1988,
      "Ġzero": 1989,
      "But": 1990,
      "There": 1991,
      "exp": 1992,
      "\".": 1993,
      "001": 1994,
      "tilde": 1995,
      "Ġsyndrom": 1996,
      "Ġrate": 1997,
      "equiv": 1998,
      "itt": 1999,
      "Ġchar": 2000,
      "Ġproperties": 2001,
      "Ġlooking": 2002,
      "oes": 2003,
      "ration": 2004,
      "ors": 2005,
      "lock": 2006,
      "Ġstabilizers": 2007,
      "Ġglobal": 2008,
      ")),": 2009,
      "ively": 2010,
      "kes": 2011,
      "ern": 2012,
      "Ġden": 2013,
      "comes": 2014,
      "ision": 2015,
      "ĠThey": 2016,
      "Note": 2017,
      "mid": 2018,
      "Ġcoll": 2019,
      "ail": 2020,
      "counts": 2021,
      "Ġstud": 2022,
      "ĠCan": 2023,
      "Ġencoding": 2024,
      "oplus": 2025,
      "vir": 2026,
      "Ġsample": 2027,
      "ermit": 2028,
      "QE": 2029,
      "pping": 2030,
      "Ġparameter": 2031,
      "que": 2032,
      "Ġresearch": 2033,
      "sto": 2034,
      "ĠAer": 2035,
      "Ġteleport": 2036,
      "Ġmatter": 2037,
      "comm": 2038,
      "My": 2039,
      "Ġ}": 2040,
      "overline": 2041,
      "ross": 2042,
      "Ġnotation": 2043,
      "back": 2044,
      "book": 2045,
      "'ll": 2046,
      "su": 2047,
      "Ġsch": 2048,
      "Ġaround": 2049,
      "âĶĢâĶĢâĶĢâĶ": 2050,
      "Ġintrodu": 2051,
      "Ġformul": 2052,
      "ĠWhen": 2053,
      "pec": 2054,
      "Ġâī": 2055,
      "Ġoff": 2056,
      "ivid": 2057,
      "Ġfew": 2058,
      "erant": 2059,
      "Ġmixed": 2060,
      "sib": 2061,
      "Ġobservable": 2062,
      "ord": 2063,
      "Ġtoo": 2064,
      "ĠâĶĤ": 2065,
      "viron": 2066,
      "Ġrather": 2067,
      "append": 2068,
      "Ġcap": 2069,
      "Ġleft": 2070,
      "Ġadvantage": 2071,
      "Error": 2072,
      "cuss": 2073,
      "Ġindependent": 2074,
      "ermitian": 2075,
      "Ġoutcomes": 2076,
      "20": 2077,
      "ax": 2078,
      "Ġdepth": 2079,
      "Ġobject": 2080,
      "Ġbinary": 2081,
      "Ġless": 2082,
      "Ġevolution": 2083,
      "WAP": 2084,
      "Ġtell": 2085,
      "Ġlink": 2086,
      "ef": 2087,
      "ox": 2088,
      "Ġcourse": 2089,
      "Big": 2090,
      "Ġfour": 2091,
      "Ġoften": 2092,
      "Ġinstance": 2093,
      "Ġorthogonal": 2094,
      "Ġmakes": 2095,
      "Ġwrong": 2096,
      "inci": 2097,
      "Ġpower": 2098,
      "Ġfar": 2099,
      "Ġoriginal": 2100,
      "Ġmultipl": 2101,
      "Ġver": 2102,
      "Ġmention": 2103,
      "Ġdevice": 2104,
      "Ġeigenvalue": 2105,
      "Ġpur": 2106,
      "Ġbest": 2107,
      "ching": 2108,
      "Ġweight": 2109,
      "].": 2110,
      "ynam": 2111,
      ")=\\": 2112,
      "tal": 2113,
      "apter": 2114,
      "Ġmis": 2115,
      "Ġ&=": 2116,
      "Ġeasy": 2117,
      "Ġem": 2118,
      "Ġ(\\": 2119,
      "Ġshots": 2120,
      "23": 2121,
      "sist": 2122,
      "local": 2123,
      "Ġmathemat": 2124,
      "ĠClassical": 2125,
      "`,": 2126,
      "Ġiss": 2127,
      "98": 2128,
      "pret": 2129,
      "ĠQA": 2130,
      "Ġdetermin": 2131,
      "24": 2132,
      "Ġaccess": 2133,
      "Ġ('": 2134,
      "ciated": 2135,
      "Ġquant": 2136,
      "Ġrequired": 2137,
      "Ġenough": 2138,
      "pile": 2139,
      "âŁ©,": 2140,
      "ĠÏ": 2141,
      "wise": 2142,
      "ccess": 2143,
      "tol": 2144,
      "Here": 2145,
      "Ġsupport": 2146,
      "Ġapplications": 2147,
      "Ġeigenvector": 2148,
      "Ġexpectation": 2149,
      "Gate": 2150,
      "St": 2151,
      "Ġsym": 2152,
      "Ġcorrel": 2153,
      "Ġfinal": 2154,
      "etime": 2155,
      "ĠMe": 2156,
      "ĠNo": 2157,
      "ified": 2158,
      "vide": 2159,
      "/\\": 2160,
      "Ġprove": 2161,
      "ming": 2162,
      "Ġbook": 2163,
      "control": 2164,
      "Ġdiscuss": 2165,
      "Ġground": 2166,
      "}=": 2167,
      "17": 2168,
      "rid": 2169,
      "Ġtype": 2170,
      "Ġiter": 2171,
      "aps": 2172,
      "Ġshown": 2173,
      "allel": 2174,
      "ĠSch": 2175,
      "Ġcases": 2176,
      "Ġimplemented": 2177,
      "ology": 2178,
      "asm": 2179,
      "ĠĠĠĠĠĠĠĠĠĠĠĠĠĠĠĠĠĠĠĠĠĠĠĠĠĠĠĠĠĠĠĠ": 2180,
      "vironment": 2181,
      "bits": 2182,
      "ĠApp": 2183,
      "\\|": 2184,
      "\\}$": 2185,
      "]]": 2186,
      "dimension": 2187,
      "Ġvia": 2188,
      "An": 2189,
      "Ġmem": 2190,
      "ĠThus": 2191,
      "vial": 2192,
      "icit": 2193,
      "111": 2194,
      "resh": 2195,
      "}=\\": 2196,
      "lease": 2197,
      "Ġestimation": 2198,
      "how": 2199,
      "fect": 2200,
      "sive": 2201,
      "Ġcontext": 2202,
      "Exercise": 2203,
      "='": 2204,
      "Pauli": 2205,
      "rame": 2206,
      "lie": 2207,
      "dict": 2208,
      "Ġinvol": 2209,
      "data": 2210,
      "Ġthings": 2211,
      "Ġtransformation": 2212,
      "iels": 2213,
      "alk": 2214,
      "we": 2215,
      "ral": 2216,
      "Ġturn": 2217,
      "ired": 2218,
      "umn": 2219,
      "ĠAnd": 2220,
      "Ġgoing": 2221,
      "Pi": 2222,
      "Ġprovide": 2223,
      "Ġess": 2224,
      "âŁ¨": 2225,
      "olds": 2226,
      "Ġhad": 2227,
      "iven": 2228,
      "Ġdiff": 2229,
      "Ġrunning": 2230,
      "Ġhowever": 2231,
      "Ġrelated": 2232,
      "cdots": 2233,
      "Ġ16": 2234,
      "Ġdat": 2235,
      "oc": 2236,
      "Ġlay": 2237,
      "18": 2238,
      "Ġrepe": 2239,
      "atz": 2240,
      "-|": 2241,
      "rot": 2242,
      "info": 2243,
      "ĠĠĠĠĠĠĠĠĠĠĠĠ": 2244,
      "ural": 2245,
      "Ġmethods": 2246,
      "Ġfull": 2247,
      "Ġexecute": 2248,
      "ZZ": 2249,
      "Ġdown": 2250,
      ".)": 2251,
      "Ġthing": 2252,
      "ols": 2253,
      "arily": 2254,
      "Ġstring": 2255,
      "ott": 2256,
      "Ġconvert": 2257,
      "19": 2258,
      "Ġtakes": 2259,
      "Ġsyndrome": 2260,
      "ĠNote": 2261,
      "uang": 2262,
      "Ġinequ": 2263,
      "ird": 2264,
      "Ġinterpret": 2265,
      "conduct": 2266,
      "\"\"": 2267,
      "Ġhaving": 2268,
      "Ġed": 2269,
      "Ġmeasures": 2270,
      "Ġpage": 2271,
      "----------------": 2272,
      "[\\": 2273,
      "ĠHere": 2274,
      "().": 2275,
      "VM": 2276,
      "uc": 2277,
      "Ġcompon": 2278,
      "Ġask": 2279,
      "$)": 2280,
      "Ġscal": 2281,
      "alf": 2282,
      "ourier": 2283,
      "ĠToffoli": 2284,
      "Ġcr": 2285,
      "Ġpass": 2286,
      "ï¬ģc": 2287,
      "dfrac": 2288,
      "Ġdirectly": 2289,
      "ingu": 2290,
      "Ġdetector": 2291,
      "ielsen": 2292,
      "tic": 2293,
      "07": 2294,
      "ĠQFT": 2295,
      "Ġgetting": 2296,
      "Ġelectron": 2297,
      "Ġcoefficient": 2298,
      "Ġname": 2299,
      "ĠVQE": 2300,
      "Ġintera": 2301,
      "Ġworking": 2302,
      "dimensional": 2303,
      "Ġax": 2304,
      "Ġproced": 2305,
      "{|": 2306,
      "Ġdescribe": 2307,
      "ference": 2308,
      "ĠYes": 2309,
      "Ġamplitudes": 2310,
      "ik": 2311,
      "iter": 2312,
      "Ġimpl": 2313,
      "Ġcolumn": 2314,
      "Ġconstra": 2315,
      "isual": 2316,
      "Ġdeg": 2317,
      "22": 2318,
      "Ġsens": 2319,
      "Ġapplication": 2320,
      "Ġrepl": 2321,
      "Ġsugg": 2322,
      "âĢĵ": 2323,
      "Ġexists": 2324,
      "II": 2325,
      "alu": 2326,
      "Ġprocedure": 2327,
      "Ġbuild": 2328,
      "sch": 2329,
      "Ġmade": 2330,
      "av": 2331,
      "Ġprint": 2332,
      "min": 2333,
      "&\\": 2334,
      "draw": 2335,
      "Ġshows": 2336,
      "level": 2337,
      "^*": 2338,
      "isy": 2339,
      "ape": 2340,
      "ailable": 2341,
      "conducting": 2342,
      "unitary": 2343,
      "gebra": 2344,
      "idd": 2345,
      "usion": 2346,
      "====": 2347,
      "Ġwave": 2348,
      "raus": 2349,
      "Ġphysics": 2350,
      "ament": 2351,
      "aim": 2352,
      "ĠMat": 2353,
      "Ġtechni": 2354,
      "97": 2355,
      "Ġaction": 2356,
      "33": 2357,
      "Ġevalu": 2358,
      "*}": 2359,
      "Ġder": 2360,
      "inciple": 2361,
      "OA": 2362,
      "job": 2363,
      "tolerant": 2364,
      "Ġ\\{": 2365,
      "Ġref": 2366,
      "Ġchoice": 2367,
      "Ġtried": 2368,
      "100": 2369,
      "Cl": 2370,
      "Ġefficiently": 2371,
      "edi": 2372,
      "Ġkind": 2373,
      "Ġenvironment": 2374,
      ")^{": 2375,
      "Ġtotal": 2376,
      "ĠCircuit": 2377,
      "Ġquestions": 2378,
      "Ġtas": 2379,
      "Ġinf": 2380,
      "acter": 2381,
      "varphi": 2382,
      "ible": 2383,
      "versible": 2384,
      "ĠChuang": 2385,
      "Ġwonder": 2386,
      "mod": 2387,
      "ĠNielsen": 2388,
      "Ġfunctions": 2389,
      "Ġdepends": 2390,
      "Ġquite": 2391,
      "Ġcommon": 2392,
      "Ġrelative": 2393,
      "55": 2394,
      "ost": 2395,
      "}.": 2396,
      "Ġsam": 2397,
      "basis": 2398,
      "Ġlearn": 2399,
      "Ġpartial": 2400,
      "'d": 2401,
      "Ġdemon": 2402,
      "arg": 2403,
      "Ġ13": 2404,
      "QP": 2405,
      "oss": 2406,
      "XX": 2407,
      "Ġinputs": 2408,
      "Ġangle": 2409,
      "Ġexponential": 2410,
      "Ġteleportation": 2411,
      "ĠOne": 2412,
      "Ġfrequency": 2413,
      "Ġsimpl": 2414,
      "iffer": 2415,
      "Ġcontinu": 2416,
      "utor": 2417,
      "maths": 2418,
      "det": 2419,
      "inally": 2420,
      "Ġgreat": 2421,
      "ĠFourier": 2422,
      "ently": 2423,
      "Ġput": 2424,
      "ĠRe": 2425,
      "Ġeasily": 2426,
      "Ġchannels": 2427,
      "}|\\": 2428,
      "iform": 2429,
      "provider": 2430,
      "âĶĢâĶĢâĶĢâĶĢâĶĢâĶĢâĶĢâĶĢâĶĢâĶĢâĶĢâĶĢâĶĢâĶĢâĶĢâĶĢ": 2431,
      "Ġallows": 2432,
      "ears": 2433,
      ");": 2434,
      "IT": 2435,
      "work": 2436,
      "Suppose": 2437,
      "plot": 2438,
      "struction": 2439,
      "Ġpractical": 2440,
      "Ġprepar": 2441,
      "Ġchoose": 2442,
      "ler": 2443,
      "Ġtext": 2444,
      "pose": 2445,
      "ĠSince": 2446,
      "urther": 2447,
      "Ġ>": 2448,
      "âĶ¤": 2449,
      "Ġsuccess": 2450,
      "ĠMore": 2451,
      "oding": 2452,
      "Ġdue": 2453,
      "ĠNow": 2454,
      "ĠThese": 2455,
      "ams": 2456,
      "Ġneeds": 2457,
      "Ġavailable": 2458,
      "like": 2459,
      "Then": 2460,
      "Ġfinding": 2461,
      "iod": 2462,
      "Ġreading": 2463,
      "Ġins": 2464,
      "Ġinclude": 2465,
      "âĶĢâĶĢâĶĢ": 2466,
      "ĠPy": 2467,
      "Ġ->": 2468,
      ")$$": 2469,
      "Ġcrypt": 2470,
      "Ġfaster": 2471,
      "ries": 2472,
      "most": 2473,
      "inguish": 2474,
      "&=\\": 2475,
      "utorial": 2476,
      "Ġguess": 2477,
      "Ġsquare": 2478,
      "Ġ14": 2479,
      "Ġbasic": 2480,
      "ackages": 2481,
      "Ġgenerate": 2482,
      "Ġdemonstr": 2483,
      "Mat": 2484,
      "ording": 2485,
      "ĠQuantumRegister": 2486,
      "Ġproperty": 2487,
      "Ġconsist": 2488,
      "itions": 2489,
      "ittle": 2490,
      "dit": 2491,
      "ĠQM": 2492,
      "Ġcompletely": 2493,
      "ĠHermitian": 2494,
      "Ġprecise": 2495,
      "Ġphotons": 2496,
      "ault": 2497,
      "reak": 2498,
      "Ġconv": 2499,
      "Ġimprove": 2500,
      "Ġconcept": 2501,
      "Ġ-\\": 2502,
      "nce": 2503,
      "vant": 2504,
      "Ġnorm": 2505,
      "Ġass": 2506,
      "Ġdoc": 2507,
      "Ġdetermine": 2508,
      "64": 2509,
      "ĠState": 2510,
      "sim": 2511,
      "crete": 2512,
      "Ġsubspace": 2513,
      "ins": 2514,
      "Ġresources": 2515,
      "Ġtherefore": 2516,
      "ï¬ģn": 2517,
      "ĠKraus": 2518,
      "Ġtoget": 2519,
      "Ġisn": 2520,
      "gorithms": 2521,
      "Ġtogether": 2522,
      "lection": 2523,
      "that": 2524,
      "Ġindivid": 2525,
      "ĠSim": 2526,
      "Ġexamples": 2527,
      "Ġinterested": 2528,
      "Ġseen": 2529,
      "Ġimag": 2530,
      "ysis": 2531,
      "statevector": 2532,
      "Ġcommunication": 2533,
      "max": 2534,
      "Ġcontain": 2535,
      "Ġvalid": 2536,
      "And": 2537,
      "Simulator": 2538,
      "Ġpot": 2539,
      "Ġprevious": 2540,
      "Ġetc": 2541,
      "ule": 2542,
      "Ġasso": 2543,
      "head": 2544,
      "ze": 2545,
      "Ġissue": 2546,
      "ldots": 2547,
      "CC": 2548,
      "Ġways": 2549,
      "Ġexpected": 2550,
      "Ġmemory": 2551,
      "ĠAd": 2552,
      "Ġ?": 2553,
      "âĢ²": 2554,
      "Ġlength": 2555,
      "Ġsaid": 2556,
      "Ġprepare": 2557,
      "ifferent": 2558,
      "though": 2559,
      "based": 2560,
      "Ġcharacter": 2561,
      "izes": 2562,
      "Ġbecom": 2563,
      "Ġdescri": 2564,
      "mbol": 2565,
      "Ġprobably": 2566,
      "Ġparallel": 2567,
      "Ġspecial": 2568,
      "Ġcare": 2569,
      "Ġprinciple": 2570,
      "Ġpresent": 2571,
      "erial": 2572,
      "Ġsteps": 2573,
      "ures": 2574,
      "izer": 2575,
      "Ġacting": 2576,
      "Ġneg": 2577,
      "Ġyield": 2578,
      "âĢĿ": 2579,
      "Ġextra": 2580,
      "ons": 2581,
      "Ġfund": 2582,
      "Ġwords": 2583,
      "32": 2584,
      "Ġfigure": 2585,
      "Ġinequality": 2586,
      "know": 2587,
      "Ġgenerally": 2588,
      "fun": 2589,
      "Ġben": 2590,
      "Ġmeaning": 2591,
      "Ġ15": 2592,
      "ĠQAOA": 2593,
      "Ġcorresponds": 2594,
      "}^{\\": 2595,
      "ised": 2596,
      "Ġbeg": 2597,
      "Ġexplicit": 2598,
      "Ġtable": 2599,
      "Ġlight": 2600,
      "Ġpolar": 2601,
      "iler": 2602,
      "Ġperm": 2603,
      "Ġhalf": 2604,
      "DE": 2605,
      "inst": 2606,
      "ECT": 2607,
      "67": 2608,
      "Ġ_": 2609,
      "side": 2610,
      "Ġrow": 2611,
      "Ġdesired": 2612,
      "Ġsuggest": 2613,
      "anks": 2614,
      "Ġitself": 2615,
      "Ġgenerators": 2616,
      "Ġthird": 2617,
      "ously": 2618,
      "Ġbl": 2619,
      "reshold": 2620,
      "Ġtransversal": 2621,
      "Ġtranspile": 2622,
      "Ġprovides": 2623,
      "Ġsequence": 2624,
      "Ġwithin": 2625,
      "thonormal": 2626,
      "light": 2627,
      "sol": 2628,
      "ience": 2629,
      "Ġfundament": 2630,
      "84": 2631,
      "Del": 2632,
      "Ġdetect": 2633,
      "Ġrotations": 2634,
      "ives": 2635,
      "asing": 2636,
      "uted": 2637,
      "states": 2638,
      "Ġperformed": 2639,
      "Ġencoded": 2640,
      "Ġopen": 2641,
      "Ġblock": 2642,
      "Ġinverse": 2643,
      "AN": 2644,
      "gates": 2645,
      "Ġtrac": 2646,
      "Ġmess": 2647,
      "Ġclaim": 2648,
      "Ġlarger": 2649,
      "umentation": 2650,
      "Ġhappens": 2651,
      "Ġstat": 2652,
      "Ġuniform": 2653,
      "Ġunitaries": 2654,
      "Ġside": 2655,
      "Ġdynam": 2656,
      "ĠIm": 2657,
      "Ġreference": 2658,
      "OVM": 2659,
      "lu": 2660,
      "Ġnecessary": 2661,
      "ances": 2662,
      "Ġtem": 2663,
      "Ġindex": 2664,
      "ER": 2665,
      "\\{": 2666,
      "Ġquer": 2667,
      "Ġpath": 2668,
      "Ġbecomes": 2669,
      "|$": 2670,
      "Ġpe": 2671,
      "Ġfixed": 2672,
      "Ġchalle": 2673,
      "Ġarray": 2674,
      "05": 2675,
      "cirq": 2676,
      "Ġmentioned": 2677,
      "=|": 2678,
      "Ġsource": 2679,
      "Ġsays": 2680,
      "set": 2681,
      "Ġelse": 2682,
      "03": 2683,
      "ju": 2684,
      "Ġinteresting": 2685,
      "Lambda": 2686,
      "Ġmaximally": 2687,
      "Ġconstraint": 2688,
      "Ġlead": 2689,
      "Ġintu": 2690,
      "ĠComputing": 2691,
      "Ġflip": 2692,
      "by": 2693,
      "Ġsection": 2694,
      "Ġclose": 2695,
      "Ġcirc": 2696,
      "Ġcomes": 2697,
      "Ġscale": 2698,
      "Delta": 2699,
      "202": 2700,
      "Ġinner": 2701,
      "âŁ©.": 2702,
      "comple": 2703,
      "Ġonce": 2704,
      "Ġparity": 2705,
      "Ġexpression": 2706,
      "Ġfinite": 2707,
      "Ġsomeone": 2708,
      "Ġoutputs": 2709,
      "Ġfurther": 2710,
      "Ġmaps": 2711,
      "Ġsolutions": 2712,
      "mathsf": 2713,
      "mit": 2714,
      "Ġhy": 2715,
      "Ġlow": 2716,
      "Ġrepresented": 2717,
      "âķĲâķĲâķĲâķĲâķĲâķĲâķĲâķĲ": 2718,
      "xiv": 2719,
      "Ġorthonormal": 2720,
      "Ġnumpy": 2721,
      "ĠâĢľ": 2722,
      "angu": 2723,
      "Ġlot": 2724,
      "Ġalgebra": 2725,
      "Ġcombination": 2726,
      "count": 2727,
      "ining": 2728,
      "aling": 2729,
      "Ġshift": 2730,
      "96": 2731,
      "ier": 2732,
      "Ġbelie": 2733,
      "Ġhappen": 2734,
      "Ġthought": 2735,
      "anced": 2736,
      "erve": 2737,
      "utsch": 2738,
      "Ġ==": 2739,
      "UB": 2740,
      "chi": 2741,
      "Ġsymmet": 2742,
      "obs": 2743,
      "}}{": 2744,
      "04": 2745,
      "Ġnext": 2746,
      "Ġcontains": 2747,
      "\\!\\": 2748,
      "known": 2749,
      ".+": 2750,
      "cr": 2751,
      "ses": 2752,
      "Ġfam": 2753,
      "Ġframe": 2754,
      "Ġanything": 2755,
      "Ġformula": 2756,
      "Ġgot": 2757,
      "Ġdetails": 2758,
      "color": 2759,
      "lies": 2760,
      "ym": 2761,
      "Ġlittle": 2762,
      "}\\\\": 2763,
      "Ġargument": 2764,
      "Ġperfect": 2765,
      "Ġbeha": 2766,
      "Ġcalculation": 2767,
      "netic": 2768,
      "Ġclassically": 2769,
      "Ġauthor": 2770,
      "any": 2771,
      "Ġnat": 2772,
      "Ġnothing": 2773,
      "Ġpulse": 2774,
      "medi": 2775,
      "Ġachieve": 2776,
      "ising": 2777,
      "Ġnoisy": 2778,
      "Ġoptimal": 2779,
      "\\,": 2780,
      "see": 2781,
      "cess": 2782,
      "icro": 2783,
      "Ġactual": 2784,
      "Ġaver": 2785,
      "Ġpossib": 2786,
      "classical": 2787,
      "Ġsignific": 2788,
      "ĠCX": 2789,
      "aer": 2790,
      "satz": 2791,
      "zero": 2792,
      "Ġcoherence": 2793,
      "ĠDifferent": 2794,
      "geq": 2795,
      "Ġobservables": 2796,
      "alse": 2797,
      "bigg": 2798,
      "Ġmodels": 2799,
      "Ġfeature": 2800,
      "lish": 2801,
      "ru": 2802,
      "---": 2803,
      "ibmq": 2804,
      "Ġversus": 2805,
      "Ġconc": 2806,
      "Ġconstruction": 2807,
      "Ġpairs": 2808,
      "ides": 2809,
      "Ġsuperconducting": 2810,
      "ĠIBMQ": 2811,
      "packages": 2812,
      "Ġlooks": 2813,
      "ope": 2814,
      "utes": 2815,
      "Ġentire": 2816,
      "âĸ": 2817,
      "Ġpub": 2818,
      "Ġperiod": 2819,
      "Ġatoms": 2820,
      "Ġdescription": 2821,
      "Ġsever": 2822,
      "ĠOr": 2823,
      "Ġkeep": 2824,
      "ological": 2825,
      "=[": 2826,
      "ceed": 2827,
      "Ġspect": 2828,
      "ibration": 2829,
      "Ġstudy": 2830,
      "Ġcoefficients": 2831,
      "CH": 2832,
      "Ġ...": 2833,
      "arxiv": 2834,
      "Ġacts": 2835,
      "ĠNP": 2836,
      "}}$": 2837,
      "Ġlower": 2838,
      "ĠGo": 2839,
      "neq": 2840,
      "06": 2841,
      "ĠPOVM": 2842,
      "ody": 2843,
      "Ġindic": 2844,
      "When": 2845,
      "ople": 2846,
      "curity": 2847,
      "ĬĹ": 2848,
      "Ġstor": 2849,
      "ogle": 2850,
      "Ġindividual": 2851,
      "ined": 2852,
      "Ġcome": 2853,
      "Ġ$[": 2854,
      "optim": 2855,
      "Ġonto": 2856,
      "ands": 2857,
      "measurement": 2858,
      "Ġones": 2859,
      "Ġresource": 2860,
      "Ġanyone": 2861,
      "mar": 2862,
      "Ġreversible": 2863,
      "correct": 2864,
      "ĠMeasure": 2865,
      "$:": 2866,
      "Ġhigher": 2867,
      "nter": 2868,
      "random": 2869,
      "lying": 2870,
      "Ġanalysis": 2871,
      "https": 2872,
      "True": 2873,
      "initial": 2874,
      "ov": 2875,
      "Ġlikely": 2876,
      "HL": 2877,
      "Ġdecoder": 2878,
      "Ġassociated": 2879,
      "Ġregard": 2880,
      "yc": 2881,
      "anc": 2882,
      "Ġanalog": 2883,
      "Ġ00": 2884,
      "ledge": 2885,
      "ifically": 2886,
      "Ġbases": 2887,
      "Ġdevices": 2888,
      "oid": 2889,
      "Ġdiagram": 2890,
      "Ġseveral": 2891,
      "Ġalong": 2892,
      "Ġlogic": 2893,
      ",)),": 2894,
      "SS": 2895,
      "####": 2896,
      "Ġdraw": 2897,
      "ets": 2898,
      "110": 2899,
      "Ġdirection": 2900,
      "Ġstatement": 2901,
      "Ġenable": 2902,
      "Ġadj": 2903,
      "range": 2904,
      "Ġbegin": 2905,
      "ili": 2906,
      "Ġremain": 2907,
      "site": 2908,
      "Ġlangu": 2909,
      "ecause": 2910,
      "Ġsatisfy": 2911,
      "Ġvariables": 2912,
      "apt": 2913,
      "Ġbr": 2914,
      "Ġbreak": 2915,
      "Ġmultiplication": 2916,
      "Ġsampling": 2917,
      "$).": 2918,
      "ĠBy": 2919,
      "Ġmaking": 2920,
      "herent": 2921,
      "âŁ©=": 2922,
      ")/": 2923,
      "pd": 2924,
      "tice": 2925,
      "tau": 2926,
      "ĠSh": 2927,
      "qasm": 2928,
      "Ġthreshold": 2929,
      "levant": 2930,
      "Ġ($": 2931,
      "curac": 2932,
      "Ġusually": 2933,
      "}}|": 2934,
      "Ġestimate": 2935,
      "cision": 2936,
      "Ġmaximum": 2937,
      "._": 2938,
      "ĊĊĠ": 2939,
      "abs": 2940,
      "Ġinteger": 2941,
      "partial": 2942,
      "Ġbig": 2943,
      "Ġmagic": 2944,
      "Î¸": 2945,
      "Ġdistinguish": 2946,
      "Ġchanges": 2947,
      "Ġartic": 2948,
      "Ġschem": 2949,
      "curacy": 2950,
      "ĠSuppose": 2951,
      "Ġperforming": 2952,
      "fully": 2953,
      ")]": 2954,
      "aw": 2955,
      "ĠNe": 2956,
      "Ġmole": 2957,
      "Ġconfus": 2958,
      ")(": 2959,
      "âĪ": 2960,
      "Ġreduce": 2961,
      "Ġspeedup": 2962,
      "mapsto": 2963,
      "ĠĠĠĠĠĠ": 2964,
      "Ġsufficient": 2965,
      "Ġunique": 2966,
      "Ġdetection": 2967,
      ")?": 2968,
      "ĠDoes": 2969,
      "Ġear": 2970,
      "sp": 2971,
      "Ġsuppose": 2972,
      "Ġeigenvectors": 2973,
      "ilation": 2974,
      "Ġ(|": 2975,
      "Ġapplies": 2976,
      "fty": 2977,
      "Ġtutorial": 2978,
      "Ġpapers": 2979,
      "radient": 2980,
      "Ġwhole": 2981,
      "35": 2982,
      "pri": 2983,
      "model": 2984,
      "Ġion": 2985,
      "infty": 2986,
      "Ġfo": 2987,
      "Ġseparable": 2988,
      "Ġencode": 2989,
      "lean": 2990,
      "cience": 2991,
      "Ġindeed": 2992,
      "Ġpeople": 2993,
      "ĠÂ": 2994,
      "ĠError": 2995,
      "rst": 2996,
      "sem": 2997,
      "Ġ{\\": 2998,
      "Ġwhose": 2999,
      "Ġ100": 3000,
      "Ġpredict": 3001,
      "Ġregisters": 3002,
      "34": 3003,
      "Ġsets": 3004,
      "Ġrep": 3005,
      "thers": 3006,
      "Ġtaking": 3007,
      "Ġcompar": 3008,
      "Ġplot": 3009,
      "ameter": 3010,
      "ĠDeutsch": 3011,
      "Ġadditional": 3012,
      "Ġresulting": 3013,
      "ĠOpt": 3014,
      "Ġperformance": 3015,
      "wr": 3016,
      "ĊĠĠĠĠĠĠĠĠĠĠĠĠĠĠĠ": 3017,
      "haps": 3018,
      "perature": 3019,
      "^^": 3020,
      "acy": 3021,
      "onger": 3022,
      "Ġpers": 3023,
      "ampler": 3024,
      "idden": 3025,
      "Ġow": 3026,
      "Ġhis": 3027,
      "Ġbehavi": 3028,
      "icult": 3029,
      "igation": 3030,
      "Ġknowledge": 3031,
      "Ġworld": 3032,
      "ĠTrans": 3033,
      "State": 3034,
      "osite": 3035,
      "ftware": 3036,
      "psilon": 3037,
      "Ġcounts": 3038,
      "oper": 3039,
      "Ġ\\,": 3040,
      "sequ": 3041,
      "ĠHHL": 3042,
      "}(|": 3043,
      "Ġvariable": 3044,
      "Ġacross": 3045,
      "ĠPhys": 3046,
      "Ġoverhead": 3047,
      "HZ": 3048,
      "Ġproducts": 3049,
      "aves": 3050,
      "qreg": 3051,
      "Ġmath": 3052,
      "Ġappre": 3053,
      "Ġown": 3054,
      "ĠÏģ": 3055,
      "Ġlabel": 3056,
      "Ġduring": 3057,
      "101": 3058,
      "Ġfundamental": 3059,
      "Ġstatevector": 3060,
      "Ġdri": 3061,
      "LA": 3062,
      "ĠCho": 3063,
      "ĠOn": 3064,
      "Ġplay": 3065,
      "Ġsubsystem": 3066,
      "view": 3067,
      "})$": 3068,
      "Qubit": 3069,
      "ode": 3070,
      "Ġothers": 3071,
      "ĠĠĠĠĠ": 3072,
      "Ġsem": 3073,
      "âĢĶ": 3074,
      "Ġdifficult": 3075,
      "Ġsignificant": 3076,
      "ustom": 3077,
      "python": 3078,
      "Ġminimum": 3079,
      "Op": 3080,
      "Ġtw": 3081,
      "Ġlib": 3082,
      "odes": 3083,
      "Ġdevelopment": 3084,
      "Ġpotential": 3085,
      "Ġvert": 3086,
      "qua": 3087,
      "ased": 3088,
      "CX": 3089,
      "IS": 3090,
      "Ġansatz": 3091,
      "^{(": 3092,
      "ĠPar": 3093,
      "lay": 3094,
      "iled": 3095,
      "ock": 3096,
      "under": 3097,
      "________": 3098,
      "semble": 3099,
      "Ġtom": 3100,
      "Ġmatch": 3101,
      "ĠFirst": 3102,
      "Ġnever": 3103,
      "Ġampl": 3104,
      "ĠâĶľâĶ¤": 3105,
      "21": 3106,
      "One": 3107,
      "osen": 3108,
      "Ġstrings": 3109,
      "Ġexperiments": 3110,
      "Ġcomponents": 3111,
      "Ġsensing": 3112,
      "75": 3113,
      "Xiv": 3114,
      "}[": 3115,
      "ques": 3116,
      "prob": 3117,
      "Ġbelieve": 3118,
      "]$": 3119,
      "mega": 3120,
      "Ġreduced": 3121,
      "Ġproduce": 3122,
      "ges": 3123,
      "Ġmot": 3124,
      "Ġdeï¬ģn": 3125,
      "empt": 3126,
      "ÂłÂłÂłÂł": 3127,
      "edia": 3128,
      "Ġher": 3129,
      "()`": 3130,
      "ECTOR": 3131,
      "TECTOR": 3132,
      "Ġser": 3133,
      "Ġaccuracy": 3134,
      "Ġpreserv": 3135,
      "Ġpractice": 3136,
      "Ġcurrently": 3137,
      "Ġmathematical": 3138,
      "Ġsort": 3139,
      "Ġ24": 3140,
      "Ġstrate": 3141,
      "SA": 3142,
      "list": 3143,
      "Ġmom": 3144,
      "Ġyet": 3145,
      "Ġchapter": 3146,
      "}}(|": 3147,
      "Ġobtained": 3148,
      "Ġfile": 3149,
      "Ġhence": 3150,
      "Omega": 3151,
      "qquad": 3152,
      "Ġfree": 3153,
      "Ġloss": 3154,
      "Ġextend": 3155,
      "shots": 3156,
      "Ġdecoherence": 3157,
      "cit": 3158,
      "ÏĢ": 3159,
      "Ġcar": 3160,
      "ĠSWAP": 3161,
      "ĠAt": 3162,
      "Ġï¬ģrst": 3163,
      "Ġderiv": 3164,
      "Ġdou": 3165,
      "new": 3166,
      "Ġrelations": 3167,
      "Ġpri": 3168,
      "osing": 3169,
      "linear": 3170,
      "Ġconditions": 3171,
      "midt": 3172,
      "Ġ$-": 3173,
      "ĠMy": 3174,
      "cover": 3175,
      "Ġpoints": 3176,
      "value": 3177,
      "Ġra": 3178,
      "Ġamount": 3179,
      "dd": 3180,
      "uding": 3181,
      "Ġformal": 3182,
      "Ġpreparation": 3183,
      "Ġshe": 3184,
      "Ġcoupling": 3185,
      "tri": 3186,
      "Ġ{'": 3187,
      "Ġfix": 3188,
      "play": 3189,
      "hile": 3190,
      "Ġanswers": 3191,
      "Ġimplementing": 3192,
      "Ġverify": 3193,
      "95": 3194,
      "Ġapproximation": 3195,
      "ymbol": 3196,
      "output": 3197,
      "Ġnear": 3198,
      "Ġ$$\\": 3199,
      "ially": 3200,
      "Ġmultiply": 3201,
      "Ġexplan": 3202,
      "Ġlattice": 3203,
      "KD": 3204,
      "atch": 3205,
      "Ġsecurity": 3206,
      "Ġstarting": 3207,
      "Ġtrivial": 3208,
      "Ġtomography": 3209,
      "Ġpict": 3210,
      "Ġbeh": 3211,
      "Thus": 3212,
      "Ġconju": 3213,
      "Ġextract": 3214,
      "Ġwondering": 3215,
      "algorithms": 3216,
      "Ġmapping": 3217,
      "Ġsetting": 3218,
      "cret": 3219,
      "Ġdenot": 3220,
      "Ġ@": 3221,
      "itect": 3222,
      "Ġoptical": 3223,
      "ĠâĢĵ": 3224,
      "Ġinteraction": 3225,
      "Ġcaus": 3226,
      "uture": 3227,
      "igens": 3228,
      "Ġyes": 3229,
      "Ġinterference": 3230,
      "Ġcapac": 3231,
      "Can": 3232,
      "ervice": 3233,
      "ĠâĶĶ": 3234,
      "Ġconvention": 3235,
      "Ġprot": 3236,
      "ĠSu": 3237,
      "Ġview": 3238,
      "Ġmaterial": 3239,
      "ĠNot": 3240,
      "Ġprogramming": 3241,
      "Ġions": 3242,
      "ifies": 3243,
      "ters": 3244,
      "Ġplace": 3245,
      "Ġexcept": 3246,
      "ĠAny": 3247,
      "Ġswap": 3248,
      "Ġprovided": 3249,
      "Consider": 3250,
      "dat": 3251,
      "Ġ--": 3252,
      "anglement": 3253,
      "emist": 3254,
      "ultane": 3255,
      "Ġdocumentation": 3256,
      "PU": 3257,
      "fort": 3258,
      "ĠWith": 3259,
      "Ġrelation": 3260,
      "Ġaverage": 3261,
      "'\\": 3262,
      "Ġtheoret": 3263,
      "94": 3264,
      "ĠAlgorithm": 3265,
      "group": 3266,
      "Ġprecision": 3267,
      "Ġrepresents": 3268,
      "Ġaccording": 3269,
      "Ġimplies": 3270,
      "Ġgenerated": 3271,
      "Ġprocessing": 3272,
      "App": 3273,
      "but": 3274,
      "dev": 3275,
      "controlled": 3276,
      "27": 3277,
      "go": 3278,
      "Ch": 3279,
      "jor": 3280,
      "Ġhelps": 3281,
      "adr": 3282,
      "ĠTherefore": 3283,
      "bf": 3284,
      "ĠË": 3285,
      "Ġsplit": 3286,
      "Ġfail": 3287,
      "version": 3288,
      "Ġnecessarily": 3289,
      "08": 3290,
      "Ġcent": 3291,
      "}-": 3292,
      "strict": 3293,
      "cing": 3294,
      "ering": 3295,
      "ĠQC": 3296,
      "Ġopp": 3297,
      "forward": 3298,
      "Ġavoid": 3299,
      "emistry": 3300,
      ")|\\": 3301,
      "Ġanne": 3302,
      "Ġconcl": 3303,
      "ĠĠĠĠĠĠĠĠĠ": 3304,
      "Ġunc": 3305,
      "ĠRes": 3306,
      "Ġcommute": 3307,
      "Ġaccount": 3308,
      "Ġfocu": 3309,
      "Ġer": 3310,
      "term": 3311,
      "Ġrates": 3312,
      "Ġtechniques": 3313,
      "apse": 3314,
      "Ġ50": 3315,
      "vare": 3316,
      "input": 3317,
      "ises": 3318,
      "Ġ201": 3319,
      "Ġposition": 3320,
      "noise": 3321,
      "Ġens": 3322,
      "chitect": 3323,
      "ĠAlso": 3324,
      "Ġsit": 3325,
      "Ġshort": 3326,
      "ĠEnt": 3327,
      "Ġdistin": 3328,
      "Ġstatist": 3329,
      "Ġtemperature": 3330,
      "varepsilon": 3331,
      "dist": 3332,
      "Ġgrow": 3333,
      "Ġprom": 3334,
      "raction": 3335,
      "Ġcontinuous": 3336,
      "Ġobvious": 3337,
      "ipart": 3338,
      "ĠQubit": 3339,
      "ny": 3340,
      "ti": 3341,
      "Ġreach": 3342,
      "ĠInt": 3343,
      "ĠDE": 3344,
      "string": 3345,
      "Str": 3346,
      "}^\\": 3347,
      "possible": 3348,
      "subs": 3349,
      "ĠCom": 3350,
      "Ġdecoding": 3351,
      "Ġmodul": 3352,
      "SWAP": 3353,
      "Ġrece": 3354,
      "Ġeng": 3355,
      "ternative": 3356,
      "Ġarticle": 3357,
      "IZ": 3358,
      "fig": 3359,
      "mpl": 3360,
      "orem": 3361,
      "ometry": 3362,
      "Ġappropri": 3363,
      "Ġprecisely": 3364,
      "28": 3365,
      "this": 3366,
      "Ġ20": 3367,
      "Ġvi": 3368,
      "âŁ©âŁ¨": 3369,
      "())": 3370,
      "Ġapproximate": 3371,
      "Ġessentially": 3372,
      "26": 3373,
      "CZ": 3374,
      "HS": 3375,
      "QC": 3376,
      "Ġbox": 3377,
      "iss": 3378,
      "Ġrank": 3379,
      "ĊĠĠĠĠĠ": 3380,
      "amp": 3381,
      "Ġrule": 3382,
      "Ġsoftware": 3383,
      "Ġexponentially": 3384,
      "Since": 3385,
      "Ġbott": 3386,
      "ĠSte": 3387,
      "Ġqml": 3388,
      "PE": 3389,
      "perp": 3390,
      "Ġcorrectly": 3391,
      "Ġaxis": 3392,
      "36": 3393,
      "ians": 3394,
      "ï¬Ĥ": 3395,
      "Ġprojective": 3396,
      "Ġtask": 3397,
      "\":": 3398,
      "diag": 3399,
      "Ġtypes": 3400,
      "ĠPython": 3401,
      "Ġir": 3402,
      "oring": 3403,
      "Ġ(-": 3404,
      "ĠTuring": 3405,
      "SM": 3406,
      "io": 3407,
      "oning": 3408,
      "uration": 3409,
      "ĠConsider": 3410,
      "Ġrepeat": 3411,
      "ogram": 3412,
      ",$$": 3413,
      "Ġ$|+\\": 3414,
      "Ġdecompose": 3415,
      "ĠFrom": 3416,
      "struct": 3417,
      "Ġeffects": 3418,
      "Ġeasier": 3419,
      "args": 3420,
      "Ġfast": 3421,
      "âĶĮ": 3422,
      "Ġphases": 3423,
      "Ġeigenstate": 3424,
      "Ġgoal": 3425,
      "ffici": 3426,
      "prime": 3427,
      "ikip": 3428,
      "Ġtextbook": 3429,
      "Ġlanguage": 3430,
      "Ġpicture": 3431,
      "\\}^": 3432,
      "Ġbecome": 3433,
      "appro": 3434,
      "Ġmoment": 3435,
      "$^": 3436,
      "inter": 3437,
      "Ġmit": 3438,
      "Ġrest": 3439,
      "decomp": 3440,
      "Ġrole": 3441,
      "ikipedia": 3442,
      "gener": 3443,
      "pies": 3444,
      "Ġrelevant": 3445,
      "Ġrestrict": 3446,
      "ĠAre": 3447,
      "Ġspaces": 3448,
      "Ġsimultane": 3449,
      "ĊĠĠĠĠĊĠĠĠ": 3450,
      "Ġcalibration": 3451,
      "ĠâĢĶ": 3452,
      "Ġlimits": 3453,
      "=(": 3454,
      "|)": 3455,
      "Ġreadout": 3456,
      "Ġmissing": 3457,
      "Ġmessage": 3458,
      "Un": 3459,
      "Ġlater": 3460,
      "Ġrespectively": 3461,
      "Ġdenote": 3462,
      "'$": 3463,
      "Ġindu": 3464,
      "Ġ18": 3465,
      "Ġpattern": 3466,
      "function": 3467,
      "Ġbi": 3468,
      "fli": 3469,
      "Ġentries": 3470,
      "tty": 3471,
      "Ġconsidered": 3472,
      "Ġdetermines": 3473,
      "On": 3474,
      "Ġge": 3475,
      "ulate": 3476,
      "Ġloo": 3477,
      "ĠEach": 3478,
      "Ġapproaches": 3479,
      "Ġnetworks": 3480,
      "From": 3481,
      "istogram": 3482,
      "=\"": 3483,
      "Ġexcit": 3484,
      "ĠSee": 3485,
      "Ġupon": 3486,
      "Ġcryptography": 3487,
      "Ġchalleng": 3488,
      "Ġrepet": 3489,
      ":\\": 3490,
      "actor": 3491,
      "target": 3492,
      "Ġgets": 3493,
      "circuits": 3494,
      "50": 3495,
      "change": 3496,
      "Ġspecify": 3497,
      "Ġ$.": 3498,
      "['": 3499,
      "piler": 3500,
      "ÂŃ": 3501,
      "Ġhope": 3502,
      "Ġreve": 3503,
      "oser": 3504,
      "ĠEstim": 3505,
      "Ġfactors": 3506,
      "âĶĢâĶĢâĶĢâĶĺ": 3507,
      "Ġcoding": 3508,
      "Ġevol": 3509,
      "Ġinstall": 3510,
      "Ġreplace": 3511,
      "fficiency": 3512,
      "dis": 3513,
      "add": 3514,
      "reed": 3515,
      "Ġdistill": 3516,
      "Ġadding": 3517,
      "ĠStim": 3518,
      "ĠGoogle": 3519,
      "Ġvisual": 3520,
      "ĠInformation": 3521,
      "Ġattempt": 3522,
      "Given": 3523,
      "label": 3524,
      "ĠHe": 3525,
      "ilarly": 3526,
      "fe": 3527,
      "Ġarchitect": 3528,
      "ĠChoi": 3529,
      "esis": 3530,
      "ĠMulti": 3531,
      "berg": 3532,
      "roups": 3533,
      "Ġcollapse": 3534,
      "Ġquick": 3535,
      "cule": 3536,
      "âŁ©+": 3537,
      "Ġupd": 3538,
      "Ġoverall": 3539,
      "Ġbuilt": 3540,
      "Ġnegative": 3541,
      "Ġmix": 3542,
      "Ġcoin": 3543,
      "hip": 3544,
      "Ġnatural": 3545,
      "Ġincludes": 3546,
      "010": 3547,
      "Ġmon": 3548,
      "Ġstra": 3549,
      "load": 3550,
      "ĠâĶĮ": 3551,
      "sa": 3552,
      "|+\\": 3553,
      "length": 3554,
      "Ġwires": 3555,
      "Ġuntil": 3556,
      "ists": 3557,
      "Ġequations": 3558,
      "Ġreturns": 3559,
      "Ġeverything": 3560,
      "eq": 3561,
      "ey": 3562,
      "}+\\": 3563,
      "ĠHa": 3564,
      "Ġâī¤": 3565,
      ")`": 3566,
      "Ġcustom": 3567,
      "arant": 3568,
      "soft": 3569,
      "Ġdiscrete": 3570,
      "Ġimproves": 3571,
      "Ġaffects": 3572,
      "bolds": 3573,
      "atform": 3574,
      "Ġgradient": 3575,
      "Ġchosen": 3576,
      "Ġroot": 3577,
      "Ġconditional": 3578,
      "Ġmagnetic": 3579,
      "Ġscaling": 3580,
      "Ġassign": 3581,
      "boldsymbol": 3582,
      "body": 3583,
      "edu": 3584,
      "ĠâĢĺ": 3585,
      "Ġexecution": 3586,
      "Ġhidden": 3587,
      "Ġvarious": 3588,
      "Re": 3589,
      "iH": 3590,
      "Ġpi": 3591,
      "Ġplease": 3592,
      "Ġfuture": 3593,
      "oud": 3594,
      "Ġscen": 3595,
      "icrosoft": 3596,
      "iab": 3597,
      "etic": 3598,
      "ĠBQP": 3599,
      "Ġcouple": 3600,
      "011": 3601,
      "Ġlab": 3602,
      "Ġframework": 3603,
      "Ġauthors": 3604,
      "tz": 3605,
      "ros": 3606,
      "Ġdest": 3607,
      "Ġcompare": 3608,
      "ĠQKD": 3609,
      "correction": 3610,
      "Ġunknown": 3611,
      "nother": 3612,
      "olarizing": 3613,
      "Ġexplicitly": 3614,
      "PP": 3615,
      "cel": 3616,
      "Ġquery": 3617,
      "45": 3618,
      "Ġcopy": 3619,
      "Ġparticles": 3620,
      "type": 3621,
      "More": 3622,
      "isation": 3623,
      "rel": 3624,
      "Ġbal": 3625,
      "Ġpropos": 3626,
      ")}\\": 3627,
      "complete": 3628,
      ")\\\\": 3629,
      "-$": 3630,
      "38": 3631,
      "NE": 3632,
      "Ġnice": 3633,
      "Ġpretty": 3634,
      "Ġaddress": 3635,
      "Ġrecent": 3636,
      "subset": 3637,
      "init": 3638,
      "lex": 3639,
      "$$|\\": 3640,
      "Ġguarant": 3641,
      "Ġswit": 3642,
      "Ġcorrelations": 3643,
      "Ġdom": 3644,
      "unds": 3645,
      "Ġwriting": 3646,
      "Ġincrease": 3647,
      "]:": 3648,
      "wor": 3649,
      "Ġbehavior": 3650,
      "Ġexplanation": 3651,
      "''": 3652,
      "Wave": 3653,
      "size": 3654,
      "Ġshare": 3655,
      "Ġmax": 3656,
      "ĠClassicalRegister": 3657,
      "trivial": 3658,
      "sc": 3659,
      "Ġsolving": 3660,
      "ï¬ģcient": 3661,
      "CO": 3662,
      "Ġstraight": 3663,
      "dim": 3664,
      "urface": 3665,
      "Ġotherwise": 3666,
      "QuantumCircuit": 3667,
      "pon": 3668,
      "len": 3669,
      "Ġef": 3670,
      "ĠSimul": 3671,
      "ĠFigure": 3672,
      "ĠEn": 3673,
      "âķĳ": 3674,
      "Ġlimited": 3675,
      "register": 3676,
      "ĠQML": 3677,
      "Ġconstraints": 3678,
      "Ġscenari": 3679,
      ")+": 3680,
      "77": 3681,
      "inde": 3682,
      "Ġwho": 3683,
      "ĠSection": 3684,
      "process": 3685,
      "Ġfactoring": 3686,
      "rotter": 3687,
      "Ġblack": 3688,
      "Ġdynamics": 3689,
      "ade": 3690,
      "orph": 3691,
      "Ġsimulated": 3692,
      "ribute": 3693,
      "ground": 3694,
      "Ġhar": 3695,
      "phase": 3696,
      "Ġimage": 3697,
      "datetime": 3698,
      "With": 3699,
      "sian": 3700,
      "ĠUse": 3701,
      "Ġstrong": 3702,
      "Ġanaly": 3703,
      "Ġangles": 3704,
      "Ġinterpretation": 3705,
      "late": 3706,
      "nal": 3707,
      "Ġslight": 3708,
      "ional": 3709,
      "Ġinteract": 3710,
      "ĠOptim": 3711,
      "Ġappropriate": 3712,
      "Ġtools": 3713,
      "Ġdepending": 3714,
      "ernel": 3715,
      "ordin": 3716,
      "Ġassuming": 3717,
      "Ġprepared": 3718,
      "rvert": 3719,
      "Ġasking": 3720,
      "comput": 3721,
      "Ġconfused": 3722,
      "ager": 3723,
      "ĠâĪ": 3724,
      "Ġloc": 3725,
      "IC": 3726,
      "QA": 3727,
      "ares": 3728,
      "ken": 3729,
      "|_": 3730,
      "Ġcos": 3731,
      "imin": 3732,
      "perim": 3733,
      "aking": 3734,
      "Ġcapacity": 3735,
      "results": 3736,
      "Ġprotocols": 3737,
      "Ġagainst": 3738,
      "iabatic": 3739,
      "tfrac": 3740,
      "Ġ]": 3741,
      "cure": 3742,
      "loc": 3743,
      "ĠInst": 3744,
      "Ġboundary": 3745,
      "Ġlayer": 3746,
      "Ġintuition": 3747,
      "First": 3748,
      "test": 3749,
      "Ġcyc": 3750,
      "Ġoccurs": 3751,
      "That": 3752,
      "Ġprovider": 3753,
      "Ġfeed": 3754,
      "pdf": 3755,
      "oy": 3756,
      "Ġid": 3757,
      "Ġimpossible": 3758,
      "prem": 3759,
      "Ġturns": 3760,
      "93": 3761,
      "ĠGate": 3762,
      "Ġautom": 3763,
      "}+": 3764,
      "Ġreduces": 3765,
      "========": 3766,
      "Ġengine": 3767,
      "rate": 3768,
      "Ġign": 3769,
      "icity": 3770,
      "ĠCirq": 3771,
      "ĠPer": 3772,
      "Ġappears": 3773,
      "Ġtaken": 3774,
      "Ġtechnology": 3775,
      "PR": 3776,
      "Ġmark": 3777,
      "Thanks": 3778,
      "âŁ©|": 3779,
      "Ġcreated": 3780,
      "Why": 3781,
      "Also": 3782,
      "aqua": 3783,
      "Ġefficiency": 3784,
      "Ġlonger": 3785,
      "Ġcomplic": 3786,
      "ĠHence": 3787,
      "ĠNone": 3788,
      "ĠDo": 3789,
      "Ġround": 3790,
      "Ġupper": 3791,
      "Ġprojector": 3792,
      "po": 3793,
      "Ġscience": 3794,
      "Ġstore": 3795,
      "Ġill": 3796,
      "enny": 3797,
      "uth": 3798,
      "Ġeigenstates": 3799,
      "Ġspecifically": 3800,
      "âĶĢâĶĲ": 3801,
      "Comp": 3802,
      "point": 3803,
      "ĠCSS": 3804,
      "Ġmaybe": 3805,
      "Ġvariational": 3806,
      "Ġbehind": 3807,
      ".\"": 3808,
      "Ġquadr": 3809,
      "ĠGHZ": 3810,
      "ĠOperator": 3811,
      "ĠComput": 3812,
      "Ġconnectivity": 3813,
      "Ġpulses": 3814,
      "Ġcollaps": 3815,
      "Ġfocus": 3816,
      "ht": 3817,
      "deed": 3818,
      "encies": 3819,
      "ring": 3820,
      "Î±": 3821,
      "âĶĶ": 3822,
      "son": 3823,
      "Ġhold": 3824,
      "Ġholds": 3825,
      "Ġreset": 3826,
      "ameters": 3827,
      "ĠSchmidt": 3828,
      "Ġdatetime": 3829,
      "Ġpublic": 3830,
      "reedom": 3831,
      "tra": 3832,
      "second": 3833,
      "ĠNOT": 3834,
      "values": 3835,
      "ĠPhase": 3836,
      "AM": 3837,
      "gress": 3838,
      "Ġlines": 3839,
      "Ġlevels": 3840,
      "aussian": 3841,
      "Ġdetectors": 3842,
      "Ġuncertain": 3843,
      "Ph": 3844,
      "ily": 3845,
      "})\\": 3846,
      "amiltonians": 3847,
      "Ġaccept": 3848,
      "Ġtypically": 3849,
      "stood": 3850,
      "Ġpermutation": 3851,
      "Ġsitu": 3852,
      "66": 3853,
      "bu": 3854,
      "Ġinvert": 3855,
      "Ġcalculations": 3856,
      "Ġ~": 3857,
      "chang": 3858,
      "ĠUsing": 3859,
      "ames": 3860,
      "Ġ01": 3861,
      "Ġgiving": 3862,
      "standing": 3863,
      "Ġsmaller": 3864,
      "wards": 3865,
      "Any": 3866,
      "ĠĠĊĠĠĠ": 3867,
      "Ġselect": 3868,
      "Ġextre": 3869,
      "bl": 3870,
      "ein": 3871,
      "pass": 3872,
      "ĠHigh": 3873,
      "Ġbottom": 3874,
      "Int": 3875,
      "Ġbipart": 3876,
      "Ġfil": 3877,
      "Ġmove": 3878,
      "ED": 3879,
      "PT": 3880,
      "brid": 3881,
      "pag": 3882,
      "Ġtherm": 3883,
      "Ġfreedom": 3884,
      "ĠAfter": 3885,
      "rav": 3886,
      "ĠBas": 3887,
      "problem": 3888,
      "Ġsometimes": 3889,
      "ĠStatevector": 3890,
      "Ġslow": 3891,
      "ĠEve": 3892,
      "Ġgoes": 3893,
      "39": 3894,
      "Ġlas": 3895,
      "ember": 3896,
      "Ġincluding": 3897,
      "Ġsamples": 3898,
      "Ġtells": 3899,
      "Ġinfinite": 3900,
      "String": 3901,
      "AU": 3902,
      "ithub": 3903,
      "Ġassumption": 3904,
      "DS": 3905,
      "Ġsk": 3906,
      "Ġinstruction": 3907,
      "Ġrepresenting": 3908,
      "Ġperforms": 3909,
      "computing": 3910,
      "Ġseparate": 3911,
      "Ġcomment": 3912,
      "Ġcreates": 3913,
      "Ġmitigation": 3914,
      "ader": 3915,
      "Ïķ": 3916,
      "iting": 3917,
      "ĠAr": 3918,
      "Ġappear": 3919,
      "\\|_": 3920,
      "Ġbra": 3921,
      "therm": 3922,
      "ĠSome": 3923,
      "1111": 3924,
      "Ġthinking": 3925,
      "Ġyields": 3926,
      "Ġtrick": 3927,
      ",|": 3928,
      "Im": 3929,
      "Qiskit": 3930,
      "Ġpack": 3931,
      "Ġpick": 3932,
      "Ġbench": 3933,
      "Ġsymmetric": 3934,
      "Ġviol": 3935,
      "yd": 3936,
      "Ġruns": 3937,
      "Clifford": 3938,
      "PO": 3939,
      "Ġes": 3940,
      "ita": 3941,
      "Ġflu": 3942,
      "Ġdig": 3943,
      "ableau": 3944,
      "oolean": 3945,
      "params": 3946,
      "abilizer": 3947,
      "Ġclearly": 3948,
      "âĸł": 3949,
      "Aer": 3950,
      "odel": 3951,
      "Ġtz": 3952,
      "ume": 3953,
      "âĢł": 3954,
      "Ġsimulating": 3955,
      "Ġdescribes": 3956,
      "Ġparticle": 3957,
      "imensions": 3958,
      "Ġphotonic": 3959,
      "((": 3960,
      "LI": 3961,
      "QFT": 3962,
      "}_{\\": 3963,
      "$$|": 3964,
      "Ġbasically": 3965,
      "Ġfollowed": 3966,
      "ĠAll": 3967,
      "Ġplatform": 3968,
      "Ġadvance": 3969,
      "Ġirre": 3970,
      "85": 3971,
      "Ġrad": 3972,
      "reset": 3973,
      "Ġcopies": 3974,
      "urb": 3975,
      "tzlocal": 3976,
      "Ġtzinfo": 3977,
      "Me": 3978,
      "Ġcause": 3979,
      "angling": 3980,
      "Ġcomputations": 3981,
      "Ġvol": 3982,
      "Ġlibrary": 3983,
      "Vert": 3984,
      "ux": 3985,
      "Ġtalk": 3986,
      "Ġinteractions": 3987,
      "Ġstrategy": 3988,
      "By": 3989,
      "Ġsent": 3990,
      "Ġ17": 3991,
      "library": 3992,
      "Figure": 3993,
      "SP": 3994,
      "yond": 3995,
      "Ĭķ": 3996,
      "Ġodd": 3997,
      "Ġbro": 3998,
      "dep": 3999,
      "ĠHamiltonians": 4000,
      "ptions": 4001,
      "inear": 4002,
      "Ġimplements": 4003,
      "Ġexpressed": 4004,
      "instance": 4005,
      "Ġdistinct": 4006,
      "Ġsensor": 4007,
      "Ġsecret": 4008,
      "trolled": 4009,
      "mediate": 4010,
      "44": 4011,
      "omorph": 4012,
      "expect": 4013,
      "Ġequality": 4014,
      "Ġtim": 4015,
      "Ġstabil": 4016,
      "barrier": 4017,
      "Ġiteration": 4018,
      "(|\\": 4019,
      "Ġbar": 4020,
      "ĠGiven": 4021,
      "Ġcreating": 4022,
      "Ġprocessor": 4023,
      "Ġstarted": 4024,
      "Ġscheme": 4025,
      "html": 4026,
      "itaev": 4027,
      "ĠâĬĹ": 4028,
      "Ġtheoretical": 4029,
      "Ġdistillation": 4030,
      "premacy": 4031,
      "what": 4032,
      "quant": 4033,
      "Ġcoherent": 4034,
      "ĠDec": 4035,
      "Ġprim": 4036,
      "Ġevaluate": 4037,
      "Ġtasks": 4038,
      "\"),": 4039,
      "Ġusual": 4040,
      "Ġperhaps": 4041,
      "pecially": 4042,
      "Ġimagine": 4043,
      "Ġannealing": 4044,
      "Ġfin": 4045,
      "ĠCZ": 4046,
      "solute": 4047,
      "lished": 4048,
      "Ġformalism": 4049,
      "AC": 4050,
      "Does": 4051,
      "Ġmind": 4052,
      "Ġstre": 4053,
      "Ġbeyond": 4054,
      "Ġparts": 4055,
      "Ġmanip": 4056,
      "ĠâĶ¤": 4057,
      "aligned": 4058,
      "mbed": 4059,
      "Ġdetail": 4060,
      "Ġtechnique": 4061,
      "Ġstraightforward": 4062,
      ")}$": 4063,
      "At": 4064,
      "Ġ+\\": 4065,
      "ĠTwo": 4066,
      "piled": 4067,
      "ĠEq": 4068,
      "Ġexperimental": 4069,
      "Ġbuilding": 4070,
      "Ġrepeated": 4071,
      "flow": 4072,
      "oz": 4073,
      "},\\": 4074,
      "itivity": 4075,
      "rees": 4076,
      "Ġstated": 4077,
      "Ġbounds": 4078,
      "Ġcomponent": 4079,
      "Ġappreciated": 4080,
      "ND": 4081,
      "ops": 4082,
      "Ġ^": 4083,
      "abilities": 4084,
      "using": 4085,
      "Ġmode": 4086,
      "Ġconsidering": 4087,
      "iction": 4088,
      "Ġslightly": 4089,
      "Ġessential": 4090,
      "flip": 4091,
      "Not": 4092,
      "ath": 4093,
      "Ġred": 4094,
      "Ġcoordin": 4095,
      "urtherm": 4096,
      "onda": 4097,
      "Ġdidn": 4098,
      "Ġcomparis": 4099,
      "urthermore": 4100,
      "]])": 4101,
      "Ġrewr": 4102,
      "Ġyears": 4103,
      "Ġ199": 4104,
      "ĠDef": 4105,
      "LAR": 4106,
      "Ġcomplicated": 4107,
      "Sch": 4108,
      "scill": 4109,
      "Ġdimensions": 4110,
      "Ġsuit": 4111,
      "Ġsolved": 4112,
      "IZE": 4113,
      "ĨĴ": 4114,
      "ĠOpen": 4115,
      "Ġideas": 4116,
      "Ġconve": 4117,
      "ĠGener": 4118,
      "obj": 4119,
      "Ġtopological": 4120,
      "Ġbenef": 4121,
      "Py": 4122,
      "Ġconven": 4123,
      "pher": 4124,
      "Ġnumer": 4125,
      "Ġrounds": 4126,
      "Ġsubgroup": 4127,
      "Ġprojection": 4128,
      "Ġmodular": 4129,
      "Ġallowed": 4130,
      "Ġsimulators": 4131,
      "Ġsequences": 4132,
      "ĠApply": 4133,
      "az": 4134,
      "qe": 4135,
      "Ġtransition": 4136,
      "Ġexpand": 4137,
      "Ġideal": 4138,
      "Ġsends": 4139,
      "Ġdeterministic": 4140,
      "ĠMeasurement": 4141,
      "POLAR": 4142,
      "POLARIZE": 4143,
      "ĠSe": 4144,
      "Ġsimultaneously": 4145,
      "Ġmach": 4146,
      "icon": 4147,
      "ications": 4148,
      "Ġgroups": 4149,
      "Ġliter": 4150,
      "then": 4151,
      "Ġtransfer": 4152,
      "ĊĠĠĠĠĠĠ": 4153,
      "Ġhelpful": 4154,
      "Operator": 4155,
      "iation": 4156,
      "space": 4157,
      "Ġreli": 4158,
      "Ġsimulations": 4159,
      "Ġunderstood": 4160,
      "Ġtrap": 4161,
      "Ġsubset": 4162,
      "âĶĢâĶĢâĶĢâĶĲ": 4163,
      "Ġspectral": 4164,
      "IBM": 4165,
      "ocal": 4166,
      "Ġtal": 4167,
      "09": 4168,
      "Ġâķĳ": 4169,
      "order": 4170,
      "cilla": 4171,
      "Ġclasses": 4172,
      "Ġattack": 4173,
      "ĠHaar": 4174,
      "Ġremo": 4175,
      "Ġprobabilistic": 4176,
      "Ġexponent": 4177,
      "Ġdepolarizing": 4178,
      "Matrix": 4179,
      "57": 4180,
      "my": 4181,
      "lement": 4182,
      "Ġwish": 4183,
      "Ġabsolute": 4184,
      "commend": 4185,
      "']": 4186,
      ">$": 4187,
      "doc": 4188,
      "ww": 4189,
      "xi": 4190,
      "ĠNum": 4191,
      "âĶĢâĶĢâĶĢâĶĢâĶĢâĶĢâĶĢâĶĢâĶĢâĶĢâĶĢâĶĢ": 4192,
      "ĠUnder": 4193,
      "bine": 4194,
      "Ġmist": 4195,
      "Ġexercise": 4196,
      "Ġ[[": 4197,
      "lier": 4198,
      "Ġprev": 4199,
      "Ġwanted": 4200,
      "Ġsaying": 4201,
      "Ġinitialize": 4202,
      "Ġrequirements": 4203,
      "Ġreferences": 4204,
      "Ġpython": 4205,
      "Ġprotect": 4206,
      "\\}$.": 4207,
      "can": 4208,
      "ĠInter": 4209,
      "Ġintegers": 4210,
      "Ġcounter": 4211,
      "PauliString": 4212,
      "Ġpolarization": 4213,
      "ĠParameter": 4214,
      "&&": 4215,
      "sv": 4216,
      "real": 4217,
      "Ġcompared": 4218,
      "ryption": 4219,
      "Ġachieved": 4220,
      "ĠTrue": 4221,
      "Ġrecommend": 4222,
      "ĠCre": 4223,
      "ĠBoth": 4224,
      "ĠEqu": 4225,
      "Ġdegree": 4226,
      "eigen": 4227,
      "rated": 4228,
      "Ġremains": 4229,
      "Ġexplained": 4230,
      "avity": 4231,
      "IN": 4232,
      "off": 4233,
      "ype": 4234,
      "Ġdi": 4235,
      "Ġrecon": 4236,
      "Ġprogress": 4237,
      "ĠQUB": 4238,
      "Ġasked": 4239,
      "ĠMoreover": 4240,
      "iliar": 4241,
      "amping": 4242,
      "Ġswitch": 4243,
      "parameters": 4244,
      "Ġcorrecting": 4245,
      "eld": 4246,
      "Ġ19": 4247,
      "Ġmajor": 4248,
      "Ġdefault": 4249,
      "Ġdistributions": 4250,
      "Ġfields": 4251,
      "Ġseries": 4252,
      "Ġï¬Ĥ": 4253,
      "Ġsources": 4254,
      "ulse": 4255,
      "Ġensemble": 4256,
      "covery": 4257,
      "Ġdescribing": 4258,
      "ĠProblem": 4259,
      "&-": 4260,
      "Finally": 4261,
      "{'": 4262,
      "Ġoscill": 4263,
      "ĠTe": 4264,
      "Ġabst": 4265,
      "...,": 4266,
      "Ġadded": 4267,
      "Ġflips": 4268,
      "ission": 4269,
      ">>": 4270,
      "ging": 4271,
      "ays": 4272,
      "unately": 4273,
      "Ġimp": 4274,
      "Ġidentify": 4275,
      "ĠĠĠĠĠĠĠĠĠĠĠĠĠ": 4276,
      "ĠEntanglement": 4277,
      "NEL": 4278,
      "AULI": 4279,
      "finite": 4280,
      "Ġnotes": 4281,
      "Ġ202": 4282,
      "Ġproduces": 4283,
      "ANNEL": 4284,
      "CHANNEL": 4285,
      "ozsa": 4286,
      "After": 4287,
      "oh": 4288,
      "Ġsecure": 4289,
      "Ġgenerator": 4290,
      "ariant": 4291,
      "aulis": 4292,
      "Ġfully": 4293,
      "Ġextreme": 4294,
      ".\\": 4295,
      "65": 4296,
      "Run": 4297,
      "}.$$": 4298,
      "Ġquality": 4299,
      "aced": 4300,
      "dule": 4301,
      "ĠComputation": 4302,
      "Ġquantity": 4303,
      "(),": 4304,
      "Ġ$+": 4305,
      "Ġqr": 4306,
      "Ġ42": 4307,
      "SE": 4308,
      "Ġ$(\\": 4309,
      "Ġvs": 4310,
      "ĠTra": 4311,
      "$|": 4312,
      "37": 4313,
      "flo": 4314,
      "use": 4315,
      "abase": 4316,
      "Ġreson": 4317,
      "Ġphysically": 4318,
      "ICK": 4319,
      "ts": 4320,
      "xy": 4321,
      "ĠCor": 4322,
      "Ġ\"\"\"": 4323,
      "Ġsyn": 4324,
      "number": 4325,
      "Ġcertainly": 4326,
      "([[": 4327,
      "Ġdiscussion": 4328,
      "Ġtrack": 4329,
      "gies": 4330,
      "Î²": 4331,
      "ital": 4332,
      "angled": 4333,
      "Ġshared": 4334,
      "ermion": 4335,
      "config": 4336,
      "Ġcalculated": 4337,
      "Ġcarry": 4338,
      "ĠSuper": 4339,
      "$),": 4340,
      "Ġclock": 4341,
      "textrm": 4342,
      "Ġbackends": 4343,
      "providers": 4344,
      "Ġmotiv": 4345,
      "COOR": 4346,
      ",-": 4347,
      "Ġop": 4348,
      "Ġcomputed": 4349,
      "Ġload": 4350,
      "Ġuncertainty": 4351,
      "COORDS": 4352,
      "Sim": 4353,
      "Ġreview": 4354,
      "ĠQPE": 4355,
      "Ġlecture": 4356,
      "ession": 4357,
      "Ġcomments": 4358,
      "Ġdiscussed": 4359,
      "Ġperspect": 4360,
      "atically": 4361,
      "ored": 4362,
      "rop": 4363,
      "oupling": 4364,
      "imum": 4365,
      "ulation": 4366,
      "ĠIsing": 4367,
      "Ġaccur": 4368,
      "Ġmaintain": 4369,
      "approx": 4370,
      "29": 4371,
      "88": 4372,
      "cent": 4373,
      "ool": 4374,
      "Ġalmost": 4375,
      "Ġoptimizer": 4376,
      "Ġprojectors": 4377,
      "Ġinvest": 4378,
      "Ġlinked": 4379,
      "DETECTOR": 4380,
      "2023": 4381,
      "ĠAP": 4382,
      "9999": 4383,
      "Ġtrapped": 4384,
      "long": 4385,
      "rl": 4386,
      "rast": 4387,
      "Ġstu": 4388,
      "Ġ25": 4389,
      "Ġsimpler": 4390,
      "Ġtransm": 4391,
      "produ": 4392,
      "Ġtraining": 4393,
      "ON": 4394,
      "more": 4395,
      "neg": 4396,
      "env": 4397,
      "Ġfine": 4398,
      "Ġmill": 4399,
      "Ġlaw": 4400,
      "Ġpropag": 4401,
      "Ġarea": 4402,
      "Ġclar": 4403,
      "Ġtransformations": 4404,
      "axis": 4405,
      "Ġillust": 4406,
      "Ġdual": 4407,
      "ash": 4408,
      "eez": 4409,
      "Ġaware": 4410,
      "Ġaux": 4411,
      "Ġcross": 4412,
      "ript": 4413,
      "Ġalthough": 4414,
      "structions": 4415,
      "Ġshowing": 4416,
      "AT": 4417,
      "Res": 4418,
      "por": 4419,
      "yle": 4420,
      "aring": 4421,
      "thesis": 4422,
      "Ġchemistry": 4423,
      "ermin": 4424,
      "Ġedge": 4425,
      "Ġearlier": 4426,
      "locks": 4427,
      "ĠInstead": 4428,
      "Ġmachines": 4429,
      "uri": 4430,
      "Ġwa": 4431,
      "Ġidentical": 4432,
      "{-": 4433,
      "Ġconjugate": 4434,
      "Edit": 4435,
      "HT": 4436,
      "ĠAm": 4437,
      "ĠMa": 4438,
      "Ġjoint": 4439,
      "command": 4440,
      "Ġintroduce": 4441,
      "Ġcolumns": 4442,
      "Ġcomparison": 4443,
      "day": 4444,
      "Ġinside": 4445,
      "ribution": 4446,
      "Ġscalar": 4447,
      "ĠRun": 4448,
      "parse": 4449,
      "Ġtests": 4450,
      "itted": 4451,
      "Ġinvolves": 4452,
      "Ġprior": 4453,
      "ĠMultiple": 4454,
      "Another": 4455,
      "Ġaway": 4456,
      "plotlib": 4457,
      "Ġdouble": 4458,
      "Ġarchitecture": 4459,
      "{(": 4460,
      "Ġability": 4461,
      "Ġadder": 4462,
      "ï¬ģne": 4463,
      "Ġnotebook": 4464,
      "Ġâī¡": 4465,
      "Ġrelationship": 4466,
      "Ġscenario": 4467,
      "lane": 4468,
      "ni": 4469,
      "tin": 4470,
      "ani": 4471,
      "olver": 4472,
      "Ġimply": 4473,
      "Ġkernel": 4474,
      "....": 4475,
      "Ġconstructed": 4476,
      "BC": 4477,
      "pauli": 4478,
      "Ġnature": 4479,
      "Ġprefer": 4480,
      "âķ«": 4481,
      "ĠÎ¸": 4482,
      "Alice": 4483,
      "Ġfamiliar": 4484,
      "Ġmaterials": 4485,
      "Ġproposed": 4486,
      "github": 4487,
      "|+": 4488,
      "icrow": 4489,
      "âĶĺ": 4490,
      "Ġshot": 4491,
      "erving": 4492,
      "Ġï¬ģeld": 4493,
      "Ġquickly": 4494,
      "Ġpackage": 4495,
      "68": 4496,
      "Pr": 4497,
      "QUB": 4498,
      "Ġoffer": 4499,
      "Ġtoler": 4500,
      "ĠGaussian": 4501,
      "Ġperfectly": 4502,
      "Using": 4503,
      "ensive": 4504,
      "Ġeigens": 4505,
      "ĠShow": 4506,
      "ĠĠĠĠĠĠĠĠĠĠĠ": 4507,
      "}\\,": 4508,
      "econd": 4509,
      "Ġket": 4510,
      "Ġremove": 4511,
      "Ġstored": 4512,
      "Ġbalanced": 4513,
      "]),": 4514,
      "brace": 4515,
      "eros": 4516,
      "omen": 4517,
      "sel": 4518,
      "Ġ$\\{\\": 4519,
      "place": 4520,
      "ĠCNOTs": 4521,
      "Ġsubject": 4522,
      "ression": 4523,
      "Ġcounting": 4524,
      "Ġiterations": 4525,
      "Ġlaser": 4526,
      "Ġsupremacy": 4527,
      "ĠWhile": 4528,
      "Ġimplementations": 4529,
      "Ġï¬ģnd": 4530,
      "Ġchanging": 4531,
      "Ġremaining": 4532,
      "SU": 4533,
      "sub": 4534,
      "Ġmut": 4535,
      "matching": 4536,
      "ĠPAULI": 4537,
      "ĠNIS": 4538,
      "Ġtranspose": 4539,
      "Ġconfig": 4540,
      "Ġchanged": 4541,
      "Ġmarked": 4542,
      "spec": 4543,
      "wires": 4544,
      "erc": 4545,
      "Ġdiv": 4546,
      "acing": 4547,
      "These": 4548,
      "Ġpaul": 4549,
      "Ġdefinite": 4550,
      "apping": 4551,
      "Ġprime": 4552,
      "Ġpurpose": 4553,
      "isualization": 4554,
      "Ġcontaining": 4555,
      "newcommand": 4556,
      "Ġcycle": 4557,
      "Ġembed": 4558,
      "Ġchain": 4559,
      "Ġmodes": 4560,
      "Ġbipartite": 4561,
      "Ad": 4562,
      "Ġwalk": 4563,
      "Inst": 4564,
      "Ġfeel": 4565,
      "Ġconnection": 4566,
      "Ġnormalized": 4567,
      "Ġ$\\{|": 4568,
      "Ġsituation": 4569,
      "do": 4570,
      "such": 4571,
      "lest": 4572,
      "Ġ=\\": 4573,
      "ĠDist": 4574,
      "Ġindices": 4575,
      "ĠUni": 4576,
      "Ġinsight": 4577,
      "Ġespecially": 4578,
      "Ġconvex": 4579,
      ")-": 4580,
      "53": 4581,
      "}]": 4582,
      "âĬĹ": 4583,
      "ĠMany": 4584,
      "rict": 4585,
      "qml": 4586,
      "Ġanti": 4587,
      "Ġconver": 4588,
      "ĠWikipedia": 4589,
      "Ġjobs": 4590,
      "âĢ¢": 4591,
      "ometric": 4592,
      "Ġversions": 4593,
      "initialize": 4594,
      "Ġmodulo": 4595,
      "Ġchallenges": 4596,
      "Ġquadratic": 4597,
      "nill": 4598,
      "Ġtun": 4599,
      "icles": 4600,
      "Ġcomposite": 4601,
      "ĠQEC": 4602,
      "Ġedges": 4603,
      "Ġrepetition": 4604,
      "False": 4605,
      "nge": 4606,
      "two": 4607,
      "ren": 4608,
      "Ġfi": 4609,
      "Ġoverl": 4610,
      "ĠĊĠĠĠ": 4611,
      "atus": 4612,
      "account": 4613,
      "cho": 4614,
      "emory": 4615,
      "Ġclust": 4616,
      ").$$": 4617,
      "call": 4618,
      "Ġpop": 4619,
      "prod": 4620,
      "Ġagree": 4621,
      "Ġsatisfies": 4622,
      "--------------------------------": 4623,
      "cular": 4624,
      "Ïĥ": 4625,
      "Ġ${\\": 4626,
      "Ġdamping": 4627,
      "matic": 4628,
      "Ġentangling": 4629,
      "ibility": 4630,
      "Where": 4631,
      "down": 4632,
      "ĠSpec": 4633,
      "errors": 4634,
      "Ġfair": 4635,
      "Ġdenotes": 4636,
      "Ġrough": 4637,
      "itor": 4638,
      "Ġport": 4639,
      "Ġtool": 4640,
      "arXiv": 4641,
      "Ġcancel": 4642,
      "Ġru": 4643,
      "Ġevent": 4644,
      "Ġsuperpositions": 4645,
      "Ġ**": 4646,
      "Ġregarding": 4647,
      "ĠQUBO": 4648,
      "707": 4649,
      "Vector": 4650,
      "free": 4651,
      "arithm": 4652,
      "Ġformat": 4653,
      "ĠThanks": 4654,
      "ĠTheorem": 4655,
      "Ġgeneralized": 4656,
      "Ġprocesses": 4657,
      "Ġdecomposed": 4658,
      "Ġmechanism": 4659,
      "Ġlayers": 4660,
      "gest": 4661,
      "sample": 4662,
      "Ġtruth": 4663,
      "ĠEPR": 4664,
      "Ġrepresentations": 4665,
      "âĶĢâĶ¤": 4666,
      "Question": 4667,
      "ĠSteane": 4668,
      ")^{\\": 4669,
      ")/\\": 4670,
      "_+": 4671,
      "wid": 4672,
      "Ġ//": 4673,
      "itude": 4674,
      "ctive": 4675,
      "ilities": 4676,
      "irk": 4677,
      "ĠAND": 4678,
      "ĠPre": 4679,
      "Ġinitially": 4680,
      "Ġsupposed": 4681,
      "Ġdatabase": 4682,
      "^^^^": 4683,
      "QASM": 4684,
      "rie": 4685,
      "ighb": 4686,
      "ĠIndeed": 4687,
      "Ġbounded": 4688,
      "ĠAerSimulator": 4689,
      "Ġloop": 4690,
      "QUBIT": 4691,
      "Ġgame": 4692,
      "ems": 4693,
      "Ġ21": 4694,
      "ĠOf": 4695,
      "Ġcontrols": 4696,
      "Ġoption": 4697,
      "ciate": 4698,
      "Ġancillary": 4699,
      "Ġintroduced": 4700,
      "30": 4701,
      "oson": 4702,
      "ĠarXiv": 4703,
      "Ġeffectively": 4704,
      "ĠSimilarly": 4705,
      "multi": 4706,
      "mark": 4707,
      "ery": 4708,
      "Ġrecover": 4709,
      "aconda": 4710,
      "ĠCal": 4711,
      "Ġchance": 4712,
      "ĠFile": 4713,
      "Ġrealize": 4714,
      "Ġcombinations": 4715,
      "Ġlatter": 4716,
      "Ġconnected": 4717,
      "Ġdetermined": 4718,
      "weight": 4719,
      "Ġintuitive": 4720,
      "icate": 4721,
      "amond": 4722,
      "ĠSol": 4723,
      "ploy": 4724,
      "Ġadiabatic": 4725,
      "Ġobserve": 4726,
      "operators": 4727,
      "Ġfrequencies": 4728,
      "Ġcorrelated": 4729,
      "icrowave": 4730,
      "ups": 4731,
      "ancilla": 4732,
      "ounter": 4733,
      "umann": 4734,
      "uments": 4735,
      "iff": 4736,
      "Ġcover": 4737,
      "ĠPaulis": 4738,
      "Ġ22": 4739,
      "ĠMay": 4740,
      "ĠMicrosoft": 4741,
      "Ġgeneric": 4742,
      "Ġoptions": 4743,
      "Ġtypical": 4744,
      "Ġdimensional": 4745,
      "Ġfeatures": 4746,
      ")*": 4747,
      "Ġunderlying": 4748,
      "plitude": 4749,
      "Ġconcern": 4750,
      "changed": 4751,
      "sl": 4752,
      "Ġcat": 4753,
      "enomen": 4754,
      "ump": 4755,
      "Ġalternative": 4756,
      "hod": 4757,
      "Ġmatching": 4758,
      "inding": 4759,
      "Ġnormalization": 4760,
      "Ġelementary": 4761,
      "Ġgreater": 4762,
      "Are": 4763,
      "Jozsa": 4764,
      "umer": 4765,
      "Ġnotice": 4766,
      "key": 4767,
      "Ġrandomly": 4768,
      "Ġencryption": 4769,
      "Ġfeedback": 4770,
      "[[": 4771,
      "kin": 4772,
      "you": 4773,
      "Ġcame": 4774,
      "imal": 4775,
      "Ġnotion": 4776,
      "ĠBB": 4777,
      "Ġcloud": 4778,
      "ĠYour": 4779,
      "Ġtesting": 4780,
      "Ġsched": 4781,
      "ierarch": 4782,
      "Ġcauses": 4783,
      "selves": 4784,
      "[:": 4785,
      "norm": 4786,
      "vable": 4787,
      "Ġnuc": 4788,
      "Ġnodes": 4789,
      "perience": 4790,
      "Ġdeep": 4791,
      "ĠRec": 4792,
      "Ġexperience": 4793,
      "Ġdistributed": 4794,
      "Ġadvantages": 4795,
      "periment": 4796,
      "Ġsensors": 4797,
      "Ġperspective": 4798,
      "\\|\\": 4799,
      "vari": 4800,
      "zz": 4801,
      "Ġmeant": 4802,
      "unction": 4803,
      "Ġhaven": 4804,
      "Ġ[]": 4805,
      "cloning": 4806,
      "Ġsmallest": 4807,
      "Ġprograms": 4808,
      "ĠNoise": 4809,
      "iddle": 4810,
      "device": 4811,
      ":=": 4812,
      "Or": 4813,
      "ST": 4814,
      "ips": 4815,
      "paces": 4816,
      "abor": 4817,
      "ĠPr": 4818,
      "-->": 4819,
      "swap": 4820,
      "Ġcolor": 4821,
      "âķĲâķĲâķĲâķĲâķĲâķĲâķĲâķĲâķĲâķĲâķĲâķĲâķĲâķĲâķĲâķĲ": 4822,
      "dits": 4823,
      "visualization": 4824,
      "ild": 4825,
      "Ġcool": 4826,
      "Ġentry": 4827,
      "Ġrandomness": 4828,
      "ĠSimon": 4829,
      "Ġqueries": 4830,
      "Ġentirely": 4831,
      "91": 4832,
      "ii": 4833,
      "ĥĹ": 4834,
      "ĠâĢł": 4835,
      "ĠQubits": 4836,
      "ĠMathemat": 4837,
      "Ġtalking": 4838,
      "}[\\": 4839,
      "ited": 4840,
      "Ġinstructions": 4841,
      "phasing": 4842,
      "logical": 4843,
      "Ġscient": 4844,
      "Ġsumm": 4845,
      "Ġhandle": 4846,
      "Ġcorrelation": 4847,
      "########": 4848,
      "probability": 4849,
      "MR": 4850,
      "histogram": 4851,
      "selection": 4852,
      "Ġweak": 4853,
      "Ġlen": 4854,
      "Ġabs": 4855,
      "Ġsomehow": 4856,
      "ĠRSA": 4857,
      "Ġtransl": 4858,
      "Ġsignal": 4859,
      "Ġconsists": 4860,
      "mediately": 4861,
      "Ġthermal": 4862,
      "let": 4863,
      "Ġnative": 4864,
      "ardware": 4865,
      "Ġcalculating": 4866,
      "ifying": 4867,
      "Ġlinearly": 4868,
      "Ġmathematically": 4869,
      "Ġderive": 4870,
      "Ġconcepts": 4871,
      "fortunately": 4872,
      "ĠAPI": 4873,
      "49": 4874,
      "OB": 4875,
      "Ġ%": 4876,
      "ret": 4877,
      "urally": 4878,
      "ĠPl": 4879,
      "Ġchip": 4880,
      "Ġsubst": 4881,
      "Ġ:=": 4882,
      "Ġreasonable": 4883,
      "Ġelectrons": 4884,
      "Ġscales": 4885,
      "ĠNeumann": 4886,
      "|$.": 4887,
      "Ġadapt": 4888,
      "Ġtransitions": 4889,
      "****": 4890,
      "Ġpowerful": 4891,
      "Ġbeginning": 4892,
      "Ġdrive": 4893,
      "ĠNISQ": 4894,
      "Ġpauli": 4895,
      "PS": 4896,
      "Sh": 4897,
      "tensor": 4898,
      "Ġcapt": 4899,
      "aged": 4900,
      "phys": 4901,
      "Ġnode": 4902,
      "pyter": 4903,
      "Ġactive": 4904,
      "meas": 4905,
      "Ġengineering": 4906,
      "ki": 4907,
      "normal": 4908,
      "Ġreverse": 4909,
      "ĠFe": 4910,
      "exec": 4911,
      "}}{\\": 4912,
      "preserving": 4913,
      "class": 4914,
      "Ġcombined": 4915,
      "Ġcriter": 4916,
      "Ġamplification": 4917,
      "ansatz": 4918,
      "Ġphenomen": 4919,
      "ĠTensor": 4920,
      "anner": 4921,
      "lectron": 4922,
      "Ġadjac": 4923,
      "decompose": 4924,
      "ierarchy": 4925,
      "file": 4926,
      "nature": 4927,
      "spect": 4928,
      "Ġmar": 4929,
      "Ġmiddle": 4930,
      "Ġasym": 4931,
      "ĠBecause": 4932,
      "idence": 4933,
      "\"\"\"": 4934,
      "Ġstabilis": 4935,
      "=|\\": 4936,
      "^+": 4937,
      "vdots": 4938,
      "}&": 4939,
      "ĊĊĠĠĠĠĠĠĠ": 4940,
      "Ġbase": 4941,
      "Ġflow": 4942,
      "atever": 4943,
      "Ġseed": 4944,
      "Ġspann": 4945,
      "Ġtransforms": 4946,
      "runtime": 4947,
      "ÂłÂłÂłÂłÂłÂłÂłÂł": 4948,
      "Ġconclude": 4949,
      "Ġbenchmar": 4950,
      "No": 4951,
      "Ġever": 4952,
      "rive": 4953,
      "ĠCode": 4954,
      "ĠXOR": 4955,
      "Ġdecay": 4956,
      "annon": 4957,
      "roduction": 4958,
      "Ġmatters": 4959,
      "Ġinvolved": 4960,
      "Ġleads": 4961,
      "Ġpossibility": 4962,
      "48": 4963,
      "Kitaev": 4964,
      "^+\\": 4965,
      "factor": 4966,
      "system": 4967,
      "Ġbad": 4968,
      "Ġqudit": 4969,
      "iring": 4970,
      "Thank": 4971,
      "Ġspecified": 4972,
      "Ġbackground": 4973,
      "Ġdegrees": 4974,
      "ĠSimulation": 4975,
      "index": 4976,
      "processing": 4977,
      "Ġaccurate": 4978,
      "Ġ<": 4979,
      "Ġmer": 4980,
      "Ġ\\|": 4981,
      "forall": 4982,
      "ĠRev": 4983,
      "teness": 4984,
      "Ġinvariant": 4985,
      "Ġreasoning": 4986,
      "Ġspins": 4987,
      "sx": 4988,
      "Ġtreat": 4989,
      "Ġgrav": 4990,
      "bitals": 4991,
      "izations": 4992,
      "gery": 4993,
      "design": 4994,
      "Ġplt": 4995,
      "Ġinitialization": 4996,
      "Ġassumptions": 4997,
      "ĠChapter": 4998,
      "Ġhighly": 4999,
      "Ġequivalence": 5000,
      "Ġflipped": 5001,
      "Ġincreases": 5002,
      "Ġissues": 5003,
      "ĠÏĥ": 5004,
      "Ġchallenge": 5005,
      "rz": 5006,
      "Ġreprodu": 5007,
      "Ġdeal": 5008,
      "Ġimmediately": 5009,
      "ĠNon": 5010,
      "Ġintermediate": 5011,
      "ĠZZ": 5012,
      ",\\,\\": 5013,
      "Ġrows": 5014,
      "operation": 5015,
      "Ġconvenient": 5016,
      "ĠĠĊ": 5017,
      "Ġ&\\": 5018,
      "ĠSU": 5019,
      "Ġdem": 5020,
      "format": 5021,
      "elian": 5022,
      "Ġbitstring": 5023,
      "product": 5024,
      "ĊĠĠĠĠĠĠĠĠĠĠĠĠĠĠĠĠĠĠĠĠĠĠĠĠĠĠĠĠĠĠĠĠ": 5025,
      "Ġvolume": 5026,
      "Ġcoordinates": 5027,
      "1000": 5028,
      "\\}$,": 5029,
      "]`": 5030,
      "tim": 5031,
      "Ġ1000": 5032,
      "Ġenumer": 5033,
      "Ġemer": 5034,
      "SD": 5035,
      "While": 5036,
      "Ġisomorph": 5037,
      "pers": 5038,
      "plt": 5039,
      "Ġspe": 5040,
      "Ġevents": 5041,
      "Ġmetric": 5042,
      "Ġrequirement": 5043,
      "requency": 5044,
      "Ġsimilarly": 5045,
      "Ġstatistics": 5046,
      "Ġfl": 5047,
      "arning": 5048,
      "andard": 5049,
      "],[": 5050,
      "ccording": 5051,
      "Ġoptimize": 5052,
      "Ġaccum": 5053,
      "Ġobtaining": 5054,
      "transpiler": 5055,
      "Ġdoub": 5056,
      "Ġensure": 5057,
      "latex": 5058,
      "Ġliterature": 5059,
      "CU": 5060,
      "Ġ\\;": 5061,
      "Ġcompilation": 5062,
      "ĠGates": 5063,
      "Ġexplains": 5064,
      "Ġincreasing": 5065,
      "Ġlinks": 5066,
      "++": 5067,
      "save": 5068,
      "|+|": 5069,
      "Ġstrict": 5070,
      "ogn": 5071,
      "Ġexplo": 5072,
      "Ġdesigned": 5073,
      "observ": 5074,
      "Ġopposite": 5075,
      "rec": 5076,
      "oses": 5077,
      "ended": 5078,
      "ĠDis": 5079,
      "Ġparties": 5080,
      "Ġstarts": 5081,
      "92": 5082,
      "iï¬ģc": 5083,
      "Ġcut": 5084,
      "Ġcry": 5085,
      "oll": 5086,
      "Ġvary": 5087,
      "arent": 5088,
      "Ġcombine": 5089,
      "}_\\": 5090,
      "Ġruntime": 5091,
      "Ġequals": 5092,
      "Ġexecuted": 5093,
      "00000000": 5094,
      "Ġtopic": 5095,
      "AND": 5096,
      "Ġdeï¬ģned": 5097,
      "ĠDETECTOR": 5098,
      "Ġabstract": 5099,
      "dent": 5100,
      "sampler": 5101,
      "Ġut": 5102,
      "Ġdisc": 5103,
      "Ġrotate": 5104,
      "ABC": 5105,
      "ologies": 5106,
      "open": 5107,
      "ĠExercise": 5108,
      "ennylane": 5109,
      "Ġtolerance": 5110,
      "because": 5111,
      "Ġstage": 5112,
      "there": 5113,
      "ĠStr": 5114,
      "aging": 5115,
      "ĠFalse": 5116,
      "jection": 5117,
      "Ġregular": 5118,
      "Ġparticularly": 5119,
      "Ġdestro": 5120,
      "entangled": 5121,
      "iling": 5122,
      "Ġclosed": 5123,
      "ĠLog": 5124,
      "jective": 5125,
      "ĠâĬķ": 5126,
      "Ġplus": 5127,
      "ĠReal": 5128,
      "Ġpaths": 5129,
      "Ġindicates": 5130,
      "Ġmolecule": 5131,
      "Ġcluster": 5132,
      "201": 5133,
      "De": 5134,
      "aving": 5135,
      "hand": 5136,
      "kl": 5137,
      "dependent": 5138,
      "Ġmeas": 5139,
      "}}(\\": 5140,
      "Ġcollect": 5141,
      "Ġprocessors": 5142,
      "Ġobservation": 5143,
      "Ġsimplest": 5144,
      "manager": 5145,
      "Ġdeveloped": 5146,
      "Ġschemes": 5147,
      "Ġimpact": 5148,
      "]\\": 5149,
      "ull": 5150,
      "irac": 5151,
      "Ġ27": 5152,
      "Ġtransp": 5153,
      "Ġretrie": 5154,
      "Ġeffective": 5155,
      "Ġhybrid": 5156,
      "Ġreveals": 5157,
      "Ġfilter": 5158,
      "Model": 5159,
      "vqe": 5160,
      "Ġgap": 5161,
      "Ġalone": 5162,
      "agnetic": 5163,
      "Ġ200": 5164,
      "sume": 5165,
      "Ġ35": 5166,
      "Ġdifferences": 5167,
      "Ġacces": 5168,
      "Ġrecently": 5169,
      "Ġexisting": 5170,
      "idefinite": 5171,
      "Ġpreserve": 5172,
      "Ġreasons": 5173,
      "Ġmagn": 5174,
      "Ġcharge": 5175,
      "ĠÂ·": 5176,
      "47": 5177,
      "here": 5178,
      "atial": 5179,
      "Ġyourself": 5180,
      "ĠĠĠĠĠĠĠĠĠĠĠĠĠĠĠĠĠĠĠĠĠĠĠĠĠĠĠĠĠĠĠĠĠĠĠĠĠĠĠĠĠĠĠĠĠĠĠĠĠĠĠĠĠĠĠĠĠĠĠĠĠĠĠĠ": 5181,
      "87": 5182,
      "Rec": 5183,
      "||": 5184,
      "Ġonline": 5185,
      "olve": 5186,
      "Ġneural": 5187,
      "Ġmodule": 5188,
      "Ġcommand": 5189,
      "Ġcommuting": 5190,
      "âĶĢâĶĢâĶĢâĶĢâĶĢâĶĢâĶĢâĶĢâĶĢâĶĢ": 5191,
      "ecker": 5192,
      "Ġsatisfying": 5193,
      "All": 5194,
      "aut": 5195,
      "Ġold": 5196,
      "ingular": 5197,
      "Ġfraction": 5198,
      "Ġqutr": 5199,
      "ĠBe": 5200,
      "ĠBen": 5201,
      "ĠNV": 5202,
      "ĠLinear": 5203,
      "():": 5204,
      "Ġâĸ": 5205,
      "ĠWhere": 5206,
      "sibility": 5207,
      "Ġindependently": 5208,
      "Ġobjects": 5209,
      "Ġtableau": 5210,
      "ĠTransform": 5211,
      "ĠComm": 5212,
      "Ġstrength": 5213,
      "iï¬ģ": 5214,
      "limit": 5215,
      "alue": 5216,
      "Ġincorrect": 5217,
      "ilicon": 5218,
      "Ġ|+": 5219,
      "ĠEven": 5220,
      "Ġib": 5221,
      "Ġfails": 5222,
      "ourne": 5223,
      "cccc": 5224,
      "Ġdefining": 5225,
      "Ġstudying": 5226,
      "Ġdomain": 5227,
      "ĠCreate": 5228,
      "86": 5229,
      "ROR": 5230,
      "action": 5231,
      "box": 5232,
      "Â·": 5233,
      "Ġamong": 5234,
      "Ġdecre": 5235,
      "Ġexpans": 5236,
      "Ġsubt": 5237,
      "Ġpreparing": 5238,
      "diagonal": 5239,
      "Ġrewrite": 5240,
      "~~": 5241,
      "oms": 5242,
      "Ġproport": 5243,
      "Ġproved": 5244,
      "ifier": 5245,
      "photon": 5246,
      "Ġsymbol": 5247,
      "Ġadds": 5248,
      "ĠOther": 5249,
      "Ġdeï¬ģnition": 5250,
      "43": 5251,
      "main": 5252,
      "ture": 5253,
      "Ġtor": 5254,
      "utput": 5255,
      "utral": 5256,
      "igor": 5257,
      "Ġcomposed": 5258,
      "Ġ|+\\": 5259,
      "Ġqreg": 5260,
      "Ġwouldn": 5261,
      "ĠAlgorithms": 5262,
      "Ġdisplay": 5263,
      "computation": 5264,
      "Trans": 5265,
      "Ġcontinue": 5266,
      "Ġrules": 5267,
      ")(\\": 5268,
      "DR": 5269,
      "hot": 5270,
      "rum": 5271,
      "volution": 5272,
      "}-\\": 5273,
      "Ġaren": 5274,
      "Ġleave": 5275,
      "ĠLear": 5276,
      "strings": 5277,
      "Ġatomic": 5278,
      "ottes": 5279,
      "ancy": 5280,
      "Of": 5281,
      "uum": 5282,
      "Ġhierarchy": 5283,
      "ĠCo": 5284,
      "Ġdephasing": 5285,
      "Ġknowing": 5286,
      "Ġassumed": 5287,
      "ĠControlled": 5288,
      "Ġweights": 5289,
      "ĠâĶĶâĶĢâĶĢâĶĢâĶĺ": 5290,
      "ĠEstimator": 5291,
      "depth": 5292,
      "NP": 5293,
      "Ġwide": 5294,
      "rout": 5295,
      "atest": 5296,
      "compute": 5297,
      "Ġsurpr": 5298,
      "Ġconfusion": 5299,
      "Measure": 5300,
      "Runtime": 5301,
      "Ġoverlap": 5302,
      "Bas": 5303,
      "cz": 5304,
      "surface": 5305,
      "ishing": 5306,
      "Ġdot": 5307,
      "cules": 5308,
      "istory": 5309,
      "Ġouter": 5310,
      "ĠDet": 5311,
      "Ġcontrad": 5312,
      "pip": 5313,
      "ĠVari": 5314,
      "Ġlargest": 5315,
      "Ġestimates": 5316,
      "Ġuniformly": 5317,
      "Ġearly": 5318,
      "Ġmultiplying": 5319,
      "Hz": 5320,
      "Tableau": 5321,
      "non": 5322,
      "Ġ!": 5323,
      "Ġhor": 5324,
      "igner": 5325,
      "ĠZX": 5326,
      ")))": 5327,
      "Ġworth": 5328,
      "Ġencodes": 5329,
      "Ġchecking": 5330,
      "Ġdefinitions": 5331,
      "Ġfewer": 5332,
      "'.": 5333,
      "ativity": 5334,
      "istics": 5335,
      "Ġoutside": 5336,
      "Ġordering": 5337,
      "ĠStandard": 5338,
      "Ġword": 5339,
      "Ġtrade": 5340,
      "uded": 5341,
      "Ġrefers": 5342,
      "Ġnaturally": 5343,
      "ï¬ģciently": 5344,
      "ottesman": 5345,
      "acles": 5346,
      "Ġproceed": 5347,
      "racle": 5348,
      "suming": 5349,
      "irect": 5350,
      "Ġinstant": 5351,
      "uality": 5352,
      "ĠWhich": 5353,
      "ĠExperience": 5354,
      "Ġimprovement": 5355,
      "Ġstatistical": 5356,
      "display": 5357,
      "Ġaccessible": 5358,
      "(-\\": 5359,
      "eep": 5360,
      "och": 5361,
      "qs": 5362,
      "Ġcell": 5363,
      "algorithm": 5364,
      "Ġhead": 5365,
      "Ġcons": 5366,
      "izon": 5367,
      "rouble": 5368,
      "Ġlost": 5369,
      "Ġreduction": 5370,
      "Ġpatterns": 5371,
      "ydberg": 5372,
      "negative": 5373,
      "$'": 5374,
      "incl": 5375,
      "perfect": 5376,
      "through": 5377,
      "ĠML": 5378,
      "ĠCheck": 5379,
      "poses": 5380,
      "APT": 5381,
      "ĠImplement": 5382,
      "Ġsymmetry": 5383,
      "HSH": 5384,
      "Ġharder": 5385,
      "ĠUnderstanding": 5386,
      ")}{": 5387,
      "cape": 5388,
      "itical": 5389,
      "oracle": 5390,
      "Ġblocks": 5391,
      "Ġbelong": 5392,
      "Classical": 5393,
      "Ġrelatively": 5394,
      "Ġpromise": 5395,
      "IBMQ": 5396,
      "Ste": 5397,
      "final": 5398,
      "Ġgain": 5399,
      "Ġiff": 5400,
      "versity": 5401,
      "Ġfinds": 5402,
      "Ġproperly": 5403,
      "Ġsearching": 5404,
      "Ġsimplify": 5405,
      "!!": 5406,
      "ION": 5407,
      "dense": 5408,
      "Ġest": 5409,
      "ĠâŁ¨": 5410,
      "erl": 5411,
      "Ġball": 5412,
      "Ġ$,": 5413,
      "rote": 5414,
      "stein": 5415,
      "perties": 5416,
      "Ġexchange": 5417,
      "Ġappend": 5418,
      "ĠTheory": 5419,
      "Ġ$|-\\": 5420,
      "Ġsupports": 5421,
      "Ġfamily": 5422,
      "BQP": 5423,
      "bust": 5424,
      "|-\\": 5425,
      "Ġfit": 5426,
      "Ġmanner": 5427,
      "agine": 5428,
      "Ġancillas": 5429,
      "Ġdemonstrated": 5430,
      "Statevector": 5431,
      "'}": 5432,
      "))$": 5433,
      ")^\\": 5434,
      "Hadamard": 5435,
      "cated": 5436,
      "ded": 5437,
      "rank": 5438,
      "Â°": 5439,
      "ones": 5440,
      "Ġsite": 5441,
      "orn": 5442,
      "Ġwrote": 5443,
      "Ġwhatever": 5444,
      "ecks": 5445,
      "ĠTrotter": 5446,
      "ĠInitial": 5447,
      "Ġremember": 5448,
      "ĠMatrix": 5449,
      "sequently": 5450,
      "Ġtwice": 5451,
      "40": 5452,
      "Dec": 5453,
      "hbar": 5454,
      "kron": 5455,
      "rand": 5456,
      "sis": 5457,
      "aten": 5458,
      "celer": 5459,
      "ĠReg": 5460,
      "Ġgeneration": 5461,
      "Ġrealized": 5462,
      "Ġsurgery": 5463,
      "ĠÎ±": 5464,
      "Ġsuggests": 5465,
      "]=": 5466,
      "eval": 5467,
      "ln": 5468,
      "rx": 5469,
      "Ġmicrowave": 5470,
      "irm": 5471,
      "ĠCHSH": 5472,
      "ĠRydberg": 5473,
      "Ġinitialized": 5474,
      "Ġrecogn": 5475,
      "Ġobserved": 5476,
      "Therefore": 5477,
      "Ġmistake": 5478,
      "31": 5479,
      ">\\": 5480,
      "raries": 5481,
      "rarily": 5482,
      "sign": 5483,
      "|.": 5484,
      "inc": 5485,
      "Ġdr": 5486,
      "omm": 5487,
      "Ġunchanged": 5488,
      "ptot": 5489,
      "Ġrespon": 5490,
      "Ġgenerates": 5491,
      "Ġcomplement": 5492,
      "ĠJust": 5493,
      "Ġminimize": 5494,
      "Ġsending": 5495,
      "super": 5496,
      "Ġpresented": 5497,
      "complex": 5498,
      "Ġpossibilities": 5499,
      "world": 5500,
      "Ġautomatically": 5501,
      "Ġextremely": 5502,
      "tinu": 5503,
      "Ġâĸĳ": 5504,
      "42": 5505,
      "Type": 5506,
      "Ġtrouble": 5507,
      "Ġbeam": 5508,
      "perform": 5509,
      "ceil": 5510,
      "ithmetic": 5511,
      "Ġcommut": 5512,
      "ĠUnitary": 5513,
      "Ġminimal": 5514,
      "iliary": 5515,
      "Result": 5516,
      "BB": 5517,
      "XY": 5518,
      "ĠSingle": 5519,
      "0001": 5520,
      "ĠPart": 5521,
      "Ġqasm": 5522,
      "Ġleak": 5523,
      "ĠÏµ": 5524,
      "ucial": 5525,
      "Ġsampler": 5526,
      "Ġibm": 5527,
      "46": 5528,
      "56": 5529,
      "ao": 5530,
      "ious": 5531,
      "Ġsound": 5532,
      "ows": 5533,
      "Ġcomputes": 5534,
      "Ġ+=": 5535,
      "Ġinterfer": 5536,
      "Ġsetup": 5537,
      "const": 5538,
      "Ġmanage": 5539,
      "Ġnonlinear": 5540,
      "Ġestimator": 5541,
      "Ġsupported": 5542,
      "Ġsensitivity": 5543,
      "Ġwavefunction": 5544,
      "ERROR": 5545,
      "Ġpossibly": 5546,
      "ĠShannon": 5547,
      "EDIT": 5548,
      "ĠDefine": 5549,
      "LE": 5550,
      "ns": 5551,
      "nu": 5552,
      "instruction": 5553,
      "Ġsave": 5554,
      "stry": 5555,
      "Ġplan": 5556,
      "Ġchoosing": 5557,
      "ivalent": 5558,
      "Ġguide": 5559,
      "Ġarguments": 5560,
      "Ġparameterized": 5561,
      "Ġinvolve": 5562,
      "?)": 5563,
      "AR": 5564,
      "Us": 5565,
      "api": 5566,
      "gs": 5567,
      "joint": 5568,
      "split": 5569,
      "|$,": 5570,
      "Ġantic": 5571,
      "Ġnor": 5572,
      "irani": 5573,
      "riers": 5574,
      "Ġsomewhat": 5575,
      "]);": 5576,
      "ĊĠĠĠĠĠĠĠĠĠ": 5577,
      "Ġmodify": 5578,
      "Ġsignals": 5579,
      "Ġsyndromes": 5580,
      "Ġimaginary": 5581,
      "azirani": 5582,
      "->": 5583,
      "LS": 5584,
      "\\;": 5585,
      "anaconda": 5586,
      "itness": 5587,
      "Ġthesis": 5588,
      "Ġsingular": 5589,
      "impl": 5590,
      "Ġconcrete": 5591,
      "ĠĠĠĠĠĠĠĠĠĠ": 5592,
      "Ġ|-\\": 5593,
      "iding": 5594,
      "ĠMin": 5595,
      "Ġdecision": 5596,
      "ccx": 5597,
      "Ġdiscover": 5598,
      "},$$": 5599,
      "ĠQuirk": 5600,
      "Ġsemidefinite": 5601,
      "gu": 5602,
      "anies": 5603,
      "Ġsin": 5604,
      "Ġnames": 5605,
      "bigl": 5606,
      "Ġadjust": 5607,
      "spin": 5608,
      "Ġpreserves": 5609,
      "expectation": 5610,
      "Ġexpansion": 5611,
      ")}|": 5612,
      "CP": 5613,
      "cut": 5614,
      "dot": 5615,
      "hamiltonian": 5616,
      "trace": 5617,
      "Ġcavity": 5618,
      "arp": 5619,
      "Ġexceed": 5620,
      "elow": 5621,
      "Ġrigor": 5622,
      "astic": 5623,
      "bigr": 5624,
      "Ġchoices": 5625,
      "Ġphotonics": 5626,
      "transpile": 5627,
      "Ġhappening": 5628,
      "Ġappreciate": 5629,
      "Apply": 5630,
      "even": 5631,
      "squ": 5632,
      "ĠBu": 5633,
      "ension": 5634,
      "Ġkick": 5635,
      "Ġwhereas": 5636,
      "âĶĢâĶ´": 5637,
      "ĊĠĠĠĠĠĠĠĠĠĠĠĠĠĠĠĠĠĠĠ": 5638,
      "method": 5639,
      "Ġanalogous": 5640,
      "Ġvertices": 5641,
      "eb": 5642,
      "isen": 5643,
      "Ġuser": 5644,
      "ogen": 5645,
      "ĠMon": 5646,
      "Ġlogarithm": 5647,
      "Ġcommutes": 5648,
      "})$.": 5649,
      "ĠChar": 5650,
      "ovay": 5651,
      "Ġfailure": 5652,
      "rosst": 5653,
      "Ġcollapses": 5654,
      "Ġroughly": 5655,
      "89": 5656,
      "][": 5657,
      "tion": 5658,
      "word": 5659,
      "urrent": 5660,
      "ĠFurthermore": 5661,
      "ĠGet": 5662,
      "Ġwants": 5663,
      "abilizers": 5664,
      "Ġdefines": 5665,
      "Ġinstances": 5666,
      "Ġrealistic": 5667,
      "Ġarbitrarily": 5668,
      "Ġï¬ģdelity": 5669,
      "ternal": 5670,
      "ographic": 5671,
      "Ġdatas": 5672,
      "Ġdegener": 5673,
      "CHAPT": 5674,
      "Ġconjug": 5675,
      "Ġdenoted": 5676,
      "Ġbenefit": 5677,
      "float": 5678,
      "rosstalk": 5679,
      "CHAPTER": 5680,
      "upyter": 5681,
      "Ïµ": 5682,
      "Ġcuri": 5683,
      "Ġtol": 5684,
      "Ġtowards": 5685,
      "amming": 5686,
      "Ġvide": 5687,
      "ube": 5688,
      "Ġobjective": 5689,
      "Ġindicate": 5690,
      "Ġpriv": 5691,
      "Ġupdate": 5692,
      "Ġbroad": 5693,
      "ĠCorre": 5694,
      "Ġestab": 5695,
      ")(|": 5696,
      "Next": 5697,
      "None": 5698,
      "Show": 5699,
      "zed": 5700,
      "orthogonal": 5701,
      "phas": 5702,
      "Ġunlike": 5703,
      "oney": 5704,
      "dinger": 5705,
      "Ġexistence": 5706,
      "ĠPhysics": 5707,
      "Ġvertical": 5708,
      "ĠBasic": 5709,
      "since": 5710,
      "wargs": 5711,
      "inverse": 5712,
      "irt": 5713,
      "ches": 5714,
      "ĠPlease": 5715,
      "Ġneighb": 5716,
      "ĠâĨĴ": 5717,
      "pring": 5718,
      "ronecker": 5719,
      "Ġoccurred": 5720,
      "Ġassert": 5721,
      "avesd": 5722,
      "Ġlocation": 5723,
      "Ġmagnitude": 5724,
      "RE": 5725,
      "mic": 5726,
      "ask": 5727,
      "force": 5728,
      "izers": 5729,
      "ills": 5730,
      "Ġanyons": 5731,
      "Ġtransmon": 5732,
      "Ġ32": 5733,
      "Ġplane": 5734,
      "Ġcorrected": 5735,
      "Which": 5736,
      "ĠPhoton": 5737,
      "Ġâī¥": 5738,
      "detector": 5739,
      "Ġderived": 5740,
      "PTP": 5741,
      "memory": 5742,
      "{+": 5743,
      "reen": 5744,
      "seud": 5745,
      "Ġoperate": 5746,
      "Ġ+|": 5747,
      "ĠRandom": 5748,
      "Ġroom": 5749,
      "while": 5750,
      "Ġforms": 5751,
      "ront": 5752,
      "shot": 5753,
      "Ġguides": 5754,
      "ĠProb": 5755,
      "Ġseparately": 5756,
      "igensolver": 5757,
      "ĠËĨ": 5758,
      "Ġï¬Ĥip": 5759,
      "SC": 5760,
      "Su": 5761,
      "cases": 5762,
      "graph": 5763,
      "Ġwire": 5764,
      "ety": 5765,
      "Ġ000": 5766,
      "Ġaspect": 5767,
      "ived": 5768,
      "Ġrobust": 5769,
      "Ġrotated": 5770,
      "Ġpotentially": 5771,
      "2021": 5772,
      "Ġreconstruct": 5773,
      "erministic": 5774,
      "NN": 5775,
      "Service": 5776,
      "eff": 5777,
      "ium": 5778,
      "Ġflo": 5779,
      "Ġisol": 5780,
      "ctu": 5781,
      "Ġhistogram": 5782,
      "Ġoracles": 5783,
      "Proof": 5784,
      "Ġmolecular": 5785,
      "Ġraise": 5786,
      "ĠOptimization": 5787,
      "Ġcooling": 5788,
      ",...,": 5789,
      "Ar": 5790,
      "ai": 5791,
      "date": 5792,
      "gain": 5793,
      "lab": 5794,
      "pite": 5795,
      "Ïī": 5796,
      "Ġqudits": 5797,
      "Ġlif": 5798,
      "âĶľ": 5799,
      "ĠAb": 5800,
      "urning": 5801,
      "ĠBern": 5802,
      "ĠFinally": 5803,
      "called": 5804,
      "Ġmapped": 5805,
      "ĠGottesman": 5806,
      "pired": 5807,
      "Ġrouting": 5808,
      "copy": 5809,
      "Ġkeys": 5810,
      "mole": 5811,
      "Ġtargets": 5812,
      "options": 5813,
      "Problem": 5814,
      "transpiled": 5815,
      "ermionic": 5816,
      "Ġembedding": 5817,
      "Ġspanned": 5818,
      "::": 5819,
      "]],": 5820,
      "bound": 5821,
      "fl": 5822,
      "gen": 5823,
      "ltim": 5824,
      "Ġwitness": 5825,
      "arse": 5826,
      "otal": 5827,
      "channel": 5828,
      "ĠSc": 5829,
      "Ġsuspect": 5830,
      "Ġvon": 5831,
      "}$?": 5832,
      "ĠNetwork": 5833,
      "Ġsuitable": 5834,
      "RuntimeService": 5835,
      "mn": 5836,
      "vo": 5837,
      "Ġservice": 5838,
      "Ġdivid": 5839,
      "icle": 5840,
      "unity": 5841,
      "Ġunless": 5842,
      "Ġvalu": 5843,
      "Ġmagnet": 5844,
      "ĠDEPOLARIZE": 5845,
      "iHt": 5846,
      "scale": 5847,
      "ĠComputer": 5848,
      "Ġspeaking": 5849,
      "isenberg": 5850,
      "90": 5851,
      "fidelity": 5852,
      "entropy": 5853,
      "Ġlies": 5854,
      "Ġ111": 5855,
      "abric": 5856,
      "ĠNature": 5857,
      "Ġthemselves": 5858,
      "learly": 5859,
      "metric": 5860,
      "node": 5861,
      "ĠQASM": 5862,
      "Ġconsistent": 5863,
      "crimin": 5864,
      "Ġpreserving": 5865,
      "Ġtiming": 5866,
      "Ġauxiliary": 5867,
      "uitive": 5868,
      "ater": 5869,
      "Ġdeï¬ģne": 5870,
      "unch": 5871,
      "ductor": 5872,
      "mall": 5873,
      "Ġsubrout": 5874,
      "Ġacceler": 5875,
      "Ġintegration": 5876,
      "PauliOp": 5877,
      "Ġcenter": 5878,
      "Ġignore": 5879,
      "Instance": 5880,
      "Ġtolerant": 5881,
      "Hence": 5882,
      "ilde": 5883,
      "Ġforce": 5884,
      "Ġlands": 5885,
      "ĠAI": 5886,
      "Ġmatplotlib": 5887,
      "Ġgenerating": 5888,
      "ĠLie": 5889,
      "Ġmyself": 5890,
      "ditional": 5891,
      "ĠComplex": 5892,
      "Ġworst": 5893,
      "Ġstrugg": 5894,
      "Ġinvolving": 5895,
      "Ġevolve": 5896,
      "âĶĢâĶ´âĶĢâĶĲ": 5897,
      "Gener": 5898,
      "air": 5899,
      "stabilizer": 5900,
      "Ġbeams": 5901,
      "âĶĤ": 5902,
      "Ġaltern": 5903,
      "Ġconsequ": 5904,
      "Ġconversion": 5905,
      "unit": 5906,
      "ĠOR": 5907,
      "Ġarithmetic": 5908,
      "ĠAppro": 5909,
      "Ġsimplicity": 5910,
      "Ġconsisting": 5911,
      "Ġbran": 5912,
      "Ġplatforms": 5913,
      "Ġstuck": 5914,
      "$;": 5915,
      "Def": 5916,
      "]{\\": 5917,
      "naps": 5918,
      "Ġfinally": 5919,
      "Ġmicro": 5920,
      "ctrl": 5921,
      "amed": 5922,
      "esting": 5923,
      "arding": 5924,
      "Ġdecide": 5925,
      "Ġincluded": 5926,
      "Ġsaw": 5927,
      "Ġdemonstrate": 5928,
      "ĠQMA": 5929,
      "Ġleading": 5930,
      "Ġ$[[": 5931,
      "correcting": 5932,
      "Ġsubsystems": 5933,
      "density": 5934,
      "Ġ],": 5935,
      "alities": 5936,
      "Ġtoday": 5937,
      "rief": 5938,
      "ĠSampler": 5939,
      "Ġshor": 5940,
      "âĢĥ": 5941,
      "Ġknows": 5942,
      "ĠLe": 5943,
      "Ġrelax": 5944,
      "Ġexplore": 5945,
      "lications": 5946,
      "ractical": 5947,
      "Ġboundaries": 5948,
      "Example": 5949,
      "Ġcalls": 5950,
      "Ġlayout": 5951,
      "Ġreflect": 5952,
      "âĶĶâĶĢâĶĢâĶĢâĶĺ": 5953,
      "Ġhorizon": 5954,
      "'),": 5955,
      "XZ": 5956,
      "Ġ__": 5957,
      "Ġtheta": 5958,
      "style": 5959,
      "Ġ$\\|": 5960,
      "Ġmolecules": 5961,
      "Ġsemi": 5962,
      "Map": 5963,
      "Per": 5964,
      "base": 5965,
      "mer": 5966,
      "post": 5967,
      "ycl": 5968,
      "ÃĹ": 5969,
      "Ġdepre": 5970,
      "Ġnotic": 5971,
      "Ġleaves": 5972,
      "ĠUs": 5973,
      "Ġexpensive": 5974,
      "structure": 5975,
      "Ġnoiseless": 5976,
      "apply": 5977,
      "Ġprojects": 5978,
      "Ġtrain": 5979,
      "ynman": 5980,
      "esearch": 5981,
      "Chapter": 5982,
      "subseteq": 5983,
      "Ġeffort": 5984,
      "Ġprevent": 5985,
      "QM": 5986,
      "ats": 5987,
      "ords": 5988,
      "lent": 5989,
      "lete": 5990,
      "terra": 5991,
      "ĠBoolean": 5992,
      "Ġdefect": 5993,
      "Ġ1024": 5994,
      "Ġminus": 5995,
      "defined": 5996,
      "ĊĠĠĊĠ": 5997,
      "âĶĢâĶĢâĶĢâĶ¤": 5998,
      "Ġcareful": 5999,
      "Ġspectrum": 6000,
      "Ġdiagrams": 6001,
      "Ġmixture": 6002,
      "Ġasymptot": 6003,
      "xx": 6004,
      "yp": 6005,
      "Ġthous": 6006,
      "Ġsl": 6007,
      "Ġdim": 6008,
      "step": 6009,
      "seed": 6010,
      "river": 6011,
      "check": 6012,
      "ĠMark": 6013,
      "ĠMost": 6014,
      "oded": 6015,
      "ĠTICK": 6016,
      "ĠRY": 6017,
      "Ġworked": 6018,
      "Ġcouldn": 6019,
      "olevo": 6020,
      "ramework": 6021,
      "Ġexcited": 6022,
      "Ġdigital": 6023,
      "execute": 6024,
      "=-": 6025,
      "Ent": 6026,
      "say": 6027,
      "atter": 6028,
      "ĠBra": 6029,
      "ours": 6030,
      "ollowing": 6031,
      "Ġinterface": 6032,
      "Ġequally": 6033,
      "Ġdecode": 6034,
      "Ġcapability": 6035,
      "layout": 6036,
      "ternatively": 6037,
      "poly": 6038,
      "har": 6039,
      "alks": 6040,
      "Ġgl": 6041,
      "Ġhamiltonian": 6042,
      "ĠSuch": 6043,
      "}}$.": 6044,
      ")\\,": 6045,
      "Ġencounter": 6046,
      "Ġrecord": 6047,
      "Ġlimitations": 6048,
      "Ġhyper": 6049,
      "Ġgeometric": 6050,
      "parsePauliOp": 6051,
      ":=\\": 6052,
      "Please": 6053,
      "ged": 6054,
      "simul": 6055,
      "utations": 6056,
      "Ġreport": 6057,
      "âĶ¼": 6058,
      "Ġcompanies": 6059,
      "ĠCould": 6060,
      "ĠĠĠĠĠĠĠĠĠĠĠĠĠĠĠ": 6061,
      "top": 6062,
      "Ġcoming": 6063,
      "imitives": 6064,
      "Ġreturned": 6065,
      "Ġmechanical": 6066,
      "Ġexpressions": 6067,
      "redkin": 6068,
      "Ġpurposes": 6069,
      "âĶĢâĶĢâĶĢâĶĢâĶĢâĶĢâĶĢâĶĢâĶĢâĶĢâĶĢâĶĢâĶĢâĶĢâĶĢâĶĢâĶĢâĶĢâĶĢâĶĢâĶĢâĶĢâĶĢâĶĢâĶĢâĶĢâĶĢâĶĢâĶĢâĶĢâĶĢâĶĢ": 6070,
      "Ġregardless": 6071,
      "Ġcomparing": 6072,
      "Ġensures": 6073,
      "Ġobviously": 6074,
      "ĠHeisenberg": 6075,
      "ĠHigher": 6076,
      "Ġmutual": 6077,
      "ius": 6078,
      "Ġisometry": 6079,
      "Ġeavesd": 6080,
      "Ġgr": 6081,
      "uling": 6082,
      "Ġproven": 6083,
      "Ġsomewhere": 6084,
      "Ġ[-": 6085,
      "Ġparad": 6086,
      "ĠVer": 6087,
      "ĠStart": 6088,
      "Ġdetailed": 6089,
      "Ġelimin": 6090,
      "Ġclaims": 6091,
      "$|\\": 6092,
      "62": 6093,
      "73": 6094,
      "Backend": 6095,
      "DK": 6096,
      "Local": 6097,
      "`:": 6098,
      "Ġ($\\": 6099,
      "ĠHardware": 6100,
      "Ġsuc": 6101,
      "uni": 6102,
      "ĠMachine": 6103,
      "Ġenh": 6104,
      "Ġ30": 6105,
      "when": 6106,
      "Ġexplor": 6107,
      "Ġcommunity": 6108,
      "Ġconnects": 6109,
      "rotated": 6110,
      "ĠSolovay": 6111,
      "Ġproportional": 6112,
      "80": 6113,
      "Shor": 6114,
      "qft": 6115,
      "alled": 6116,
      "ĠCP": 6117,
      "Ġchecks": 6118,
      "Ġinternal": 6119,
      "ifications": 6120,
      "Ġshowed": 6121,
      "}|^": 6122,
      "bigotimes": 6123,
      "Ġproofs": 6124,
      "ĠÏĢ": 6125,
      "Ġelectronic": 6126,
      "Ġdecoders": 6127,
      "Ġchallenging": 6128,
      "Ġbenchmarking": 6129,
      "Ġcurious": 6130,
      "'],": 6131,
      "76": 6132,
      "Am": 6133,
      "See": 6134,
      "sy": 6135,
      "tes": 6136,
      "|,": 6137,
      "ste": 6138,
      "Ġhint": 6139,
      "Ġprof": 6140,
      "used": 6141,
      "They": 6142,
      "estions": 6143,
      "()))": 6144,
      "note": 6145,
      "ĠQiskitRuntimeService": 6146,
      "Ġreferred": 6147,
      "Ġgraphs": 6148,
      "Ġdiffusion": 6149,
      "return": 6150,
      "Ġsucceed": 6151,
      "ok": 6152,
      "pare": 6153,
      "âī": 6154,
      "âĶĲ": 6155,
      "ĠSw": 6156,
      "Ġvac": 6157,
      "Ġvice": 6158,
      "),$$": 6159,
      "Ġart": 6160,
      "]):": 6161,
      "creg": 6162,
      "Ġsubspaces": 6163,
      "Ġconfirm": 6164,
      "Ġintroduction": 6165,
      "Ġformulation": 6166,
      "Ġoffers": 6167,
      "Ġcritical": 6168,
      "ĠCircuits": 6169,
      "Ġhyp": 6170,
      "optimization": 6171,
      "ĠEstimation": 6172,
      "words": 6173,
      "Similarly": 6174,
      "Ġeigenspace": 6175,
      "ĠLearning": 6176,
      "200": 6177,
      "Sigma": 6178,
      "dt": 6179,
      "hard": 6180,
      "ug": 6181,
      "Ġaim": 6182,
      "rous": 6183,
      "Ġvan": 6184,
      "Ġdistances": 6185,
      "valid": 6186,
      "Ġaccomp": 6187,
      "backends": 6188,
      "Ġrespective": 6189,
      "Ġproduced": 6190,
      "Ġcapabilities": 6191,
      "]]$": 6192,
      "AG": 6193,
      "Man": 6194,
      "Opt": 6195,
      "Par": 6196,
      "RZ": 6197,
      "Ry": 6198,
      "hline": 6199,
      "kwargs": 6200,
      "iness": 6201,
      "Ġgave": 6202,
      "Ġcompat": 6203,
      "ĠSurface": 6204,
      "istor": 6205,
      "Ġcloning": 6206,
      "Ġcontrast": 6207,
      "ĠRem": 6208,
      "Ġtransmit": 6209,
      "Ġdisturb": 6210,
      "}^{(": 6211,
      "shape": 6212,
      "Ġconstructing": 6213,
      "Ġdeterminant": 6214,
      "Ġnamely": 6215,
      "iki": 6216,
      "Ġsuggested": 6217,
      "optimizer": 6218,
      "ĠPhysical": 6219,
      "Ġsignificantly": 6220,
      "documentation": 6221,
      "ĠTechn": 6222,
      "Ġtransmission": 6223,
      "Ġnuclear": 6224,
      "'_": 6225,
      ")âĶĢâĶĢâĶĢ": 6226,
      "Bob": 6227,
      "YY": 6228,
      "bb": 6229,
      "ners": 6230,
      "tools": 6231,
      "auge": 6232,
      "Ġcompleteness": 6233,
      "','": 6234,
      "Ġgeneralization": 6235,
      "Ġsubmit": 6236,
      "particles": 6237,
      "Ġsatisfied": 6238,
      "Ġfourth": 6239,
      "Ġemphas": 6240,
      "Ġlibraries": 6241,
      "================": 6242,
      "Phase": 6243,
      "VQE": 6244,
      "case": 6245,
      "jk": 6246,
      "atives": 6247,
      "select": 6248,
      "ĠSet": 6249,
      "ĠHamming": 6250,
      "dern": 6251,
      "example": 6252,
      "âŁ©$": 6253,
      ")$?": 6254,
      "Ġseeing": 6255,
      "Ġsummar": 6256,
      "Ġstudied": 6257,
      "Ġinsert": 6258,
      "educe": 6259,
      "Ġdomin": 6260,
      "Ġfairly": 6261,
      "Ġdestroy": 6262,
      "\"?": 6263,
      "HH": 6264,
      "hd": 6265,
      "ÏĨ": 6266,
      "Ġneutral": 6267,
      "ĊĠĠĠĠĠĠĠĠĠĠĠĠĠ": 6268,
      "Ġpointed": 6269,
      "}^{-": 6270,
      "rotation": 6271,
      "Ġreplaced": 6272,
      "Ġevaluation": 6273,
      "Ġextraction": 6274,
      "Ġderivation": 6275,
      "feature": 6276,
      "Ġguarantee": 6277,
      "Ġreliable": 6278,
      "Ġexponentiation": 6279,
      "www": 6280,
      "63": 6281,
      "File": 6282,
      "Ġ99": 6283,
      "onical": 6284,
      "eng": 6285,
      "Ġpseud": 6286,
      "Ġboolean": 6287,
      "Ġna": 6288,
      "Ġforward": 6289,
      "Theta": 6290,
      "ĠAB": 6291,
      "Ġtermin": 6292,
      "Ġdiscrimin": 6293,
      "Ġdependent": 6294,
      "Ġchecked": 6295,
      "Ġintegr": 6296,
      "partite": 6297,
      "Ġsquared": 6298,
      "Ġmiss": 6299,
      "Ġsuccessfully": 6300,
      "Ġerasure": 6301,
      "Ġinvertible": 6302,
      "ĠEquation": 6303,
      "ohn": 6304,
      "Ġretrieve": 6305,
      ")_{": 6306,
      "+|\\": 6307,
      "SECT": 6308,
      "_-": 6309,
      "after": 6310,
      "cnot": 6311,
      "gence": 6312,
      "nect": 6313,
      "single": 6314,
      "Ġusage": 6315,
      "ĠPres": 6316,
      "Ġtranspiler": 6317,
      "Ġinterf": 6318,
      "ĊĠĠĠĠĠĠĠĠĠĠĠĠĠĠĠĠĠĠĠĠĠĠ": 6319,
      "Ġmathematics": 6320,
      "Ġpreviously": 6321,
      "ĠResult": 6322,
      "Ġgrows": 6323,
      "Ġfiber": 6324,
      "Ġanticomm": 6325,
      "SECTION": 6326,
      "ES": 6327,
      "Estim": 6328,
      "Pre": 6329,
      "Sampler": 6330,
      "ted": 6331,
      "Ġsuf": 6332,
      "ĠQR": 6333,
      "Ġuns": 6334,
      "Ġusers": 6335,
      "ĠFake": 6336,
      "convert": 6337,
      "Ġreality": 6338,
      "mode": 6339,
      "Ġallowing": 6340,
      "Ġprepares": 6341,
      "Ġpurity": 6342,
      "Ġpermutations": 6343,
      "distance": 6344,
      "Ġremoved": 6345,
      "Ġstrictly": 6346,
      "implies": 6347,
      "\\}": 6348,
      "Ġtre": 6349,
      "Ġthrow": 6350,
      "itter": 6351,
      "ref": 6352,
      "Ġhund": 6353,
      "ĠII": 6354,
      "ĠDirac": 6355,
      "Theorem": 6356,
      "Ġ['": 6357,
      "theless": 6358,
      "Ġcollection": 6359,
      "Ġtechnical": 6360,
      "ĠDepend": 6361,
      "âĪļ": 6362,
      "Ġrepetitions": 6363,
      "Ġlabels": 6364,
      "Ġsynthesis": 6365,
      "Ġvaluable": 6366,
      ")+\\": 6367,
      "*(": 6368,
      "^-": 6369,
      "mitted": 6370,
      "aratus": 6371,
      "omography": 6372,
      "igate": 6373,
      "Ġlack": 6374,
      "Ġcomposition": 6375,
      "_{-": 6376,
      "romagnetic": 6377,
      "Ġrat": 6378,
      "^{-\\": 6379,
      "Ġspatial": 6380,
      "}}(": 6381,
      "ï¬ģcult": 6382,
      "Ġcontinued": 6383,
      "Ġdetected": 6384,
      "train": 6385,
      "Ġnumerical": 6386,
      "Do": 6387,
      "bourne": 6388,
      "Ì¸": 6389,
      "Ġ_{": 6390,
      "atrous": 6391,
      "Ġsilicon": 6392,
      "Ġfront": 6393,
      "entions": 6394,
      "ĠIdent": 6395,
      "ĠHolevo": 6396,
      "emma": 6397,
      "Ġrisk": 6398,
      "idx": 6399,
      "binom": 6400,
      "olarization": 6401,
      "Ġadjoint": 6402,
      "ĠâĪĪ": 6403,
      "Ġfluctu": 6404,
      "Ġprimitive": 6405,
      "ĠMajor": 6406,
      "Lane": 6407,
      "eper": 6408,
      "just": 6409,
      "kill": 6410,
      "lim": 6411,
      "err": 6412,
      "ica": 6413,
      "Ġquas": 6414,
      "ĠSP": 6415,
      "ĠTime": 6416,
      "Ġmoving": 6417,
      "identity": 6418,
      "ditionally": 6419,
      "Ġverification": 6420,
      "Ġprinciples": 6421,
      "Ġpublished": 6422,
      "pdate": 6423,
      "ennyLane": 6424,
      "ĠFeynman": 6425,
      "Ġgravity": 6426,
      "Data": 6427,
      "bi": 6428,
      "first": 6429,
      "information": 6430,
      "Ġcrosstalk": 6431,
      "esian": 6432,
      "start": 6433,
      "Ġbell": 6434,
      "Ġ(\"": 6435,
      "ĠCPTP": 6436,
      "ĠBorn": 6437,
      "Ġshape": 6438,
      "Ġpositions": 6439,
      "Ġadvanced": 6440,
      "Ġgreatly": 6441,
      "Ġimaging": 6442,
      "Ġcarefully": 6443,
      "Ġconclusion": 6444,
      "Ġfinish": 6445,
      "Ġattacks": 6446,
      "envs": 6447,
      "Ġstabiliser": 6448,
      "Ġleakage": 6449,
      "Ġkickback": 6450,
      "Ġnoticed": 6451,
      ")).": 6452,
      ",\"": 6453,
      "74": 6454,
      "Ġsides": 6455,
      "Ġwebs": 6456,
      "ĠWD": 6457,
      "elbourne": 6458,
      "ĠLocal": 6459,
      "show": 6460,
      "ĠProgram": 6461,
      "default": 6462,
      "ordan": 6463,
      "DEPOLARIZE": 6464,
      "Ġconcaten": 6465,
      "Ġmatches": 6466,
      "Ġstrategies": 6467,
      "Ġdrift": 6468,
      "58": 6469,
      "60": 6470,
      "RX": 6471,
      "did": 6472,
      "page": 6473,
      "aly": 6474,
      "asible": 6475,
      "Ġhu": 6476,
      "endian": 6477,
      "Ġoptimized": 6478,
      "Ġtechnologies": 6479,
      "Ġapproximately": 6480,
      "Ġswapping": 6481,
      "Ġsqueez": 6482,
      "expon": 6483,
      "Ġcapable": 6484,
      "Ġquantities": 6485,
      "Ġimplicit": 6486,
      "--->": 6487,
      "width": 6488,
      "Ġsubstit": 6489,
      "sym": 6490,
      "Ġclean": 6491,
      "redu": 6492,
      "Ġdiction": 6493,
      "Ġque": 6494,
      "ĠSub": 6495,
      "ĠAc": 6496,
      "Ġleaving": 6497,
      "dual": 6498,
      "ĠTrace": 6499,
      "ĠRZ": 6500,
      "ĠResearch": 6501,
      "Ġhash": 6502,
      "Ġgeneralize": 6503,
      "compose": 6504,
      "Ġdirections": 6505,
      "gging": 6506,
      "Ġattribute": 6507,
      "Ġaffected": 6508,
      "Ġconfusing": 6509,
      "!)": 6510,
      "69": 6511,
      "78": 6512,
      "DP": 6513,
      "has": 6514,
      "tally": 6515,
      "Ġtend": 6516,
      "Ġbrief": 6517,
      "etti": 6518,
      "ampling": 6519,
      "ĠSp": 6520,
      "istinguish": 6521,
      "Ġvirt": 6522,
      "Ġspread": 6523,
      "Ġsparse": 6524,
      "ĠDes": 6525,
      "ĠEvery": 6526,
      "Ġinternet": 6527,
      "properties": 6528,
      "Ġmostly": 6529,
      "âĶĢâĶĺ": 6530,
      "Ġuniverse": 6531,
      "Ġtransformed": 6532,
      "ocks": 6533,
      "Phys": 6534,
      "Ġadjacent": 6535,
      "Step": 6536,
      "square": 6537,
      "54": 6538,
      "LU": 6539,
      "gra": 6540,
      "pulse": 6541,
      "zeros": 6542,
      "âĨĴ": 6543,
      "ites": 6544,
      "eter": 6545,
      "Ġrevers": 6546,
      "0011": 6547,
      "Ġimperfect": 6548,
      "Ġspan": 6549,
      "Ġkets": 6550,
      "Ġ[(": 6551,
      "program": 6552,
      "Input": 6553,
      "valu": 6554,
      "Ġworse": 6555,
      "Ġlets": 6556,
      "Ġ90": 6557,
      "Ġconverted": 6558,
      "Ġstatus": 6559,
      "âĸĳ": 6560,
      "Ġconventional": 6561,
      "center": 6562,
      "Ġdefinitely": 6563,
      "frequency": 6564,
      "rig": 6565,
      "zeta": 6566,
      "Ġgen": 6567,
      "Ġrecall": 6568,
      "ĠIon": 6569,
      "uler": 6570,
      "ĠPost": 6571,
      "arest": 6572,
      "Ġtranspiled": 6573,
      "ĠOracle": 6574,
      "cope": 6575,
      "mooth": 6576,
      "Ġlocally": 6577,
      "ĠâĶĮâĶĢâĶĢâĶĢâĶĲ": 6578,
      "Ġflux": 6579,
      "ĠOpenQASM": 6580,
      "Ġdiamond": 6581,
      "Users": 6582,
      "molecule": 6583,
      "Ġhypoth": 6584,
      "BS": 6585,
      "Be": 6586,
      "RY": 6587,
      "rang": 6588,
      "some": 6589,
      "tem": 6590,
      "Ã¶": 6591,
      "itle": 6592,
      "Ġapart": 6593,
      "Ġboson": 6594,
      "Ġ(`": 6595,
      "Ġ101": 6596,
      "ĠHy": 6597,
      "Ġsoon": 6598,
      "ĠOnce": 6599,
      "\\\\\\": 6600,
      "ĠâĥĹ": 6601,
      "Ġdiscovery": 6602,
      "Ġpurely": 6603,
      "Ġends": 6604,
      "Ġequivalently": 6605,
      "Toffoli": 6606,
      "Ġcrucial": 6607,
      "rug": 6608,
      "Ġwait": 6609,
      "limits": 6610,
      ")])": 6611,
      "cap": 6612,
      "Ġtape": 6613,
      "Ġmere": 6614,
      "anted": 6615,
      "Ġhermitian": 6616,
      "ĠSystem": 6617,
      "istically": 6618,
      "ush": 6619,
      "Ġparams": 6620,
      "Ġmanually": 6621,
      "cop": 6622,
      "Ġexpert": 6623,
      "Ġattach": 6624,
      "Ġpyhd": 6625,
      "Ġvisualize": 6626,
      "Ġguaranteed": 6627,
      "independent": 6628,
      "Python": 6629,
      "Ġqutrit": 6630,
      "Ġdeprecated": 6631,
      "ah": 6632,
      "each": 6633,
      "have": 6634,
      "Ġwalks": 6635,
      "Ġultim": 6636,
      "âĶĢâĶĢâĸł": 6637,
      "Ġdebu": 6638,
      "Ġnoted": 6639,
      "Ġran": 6640,
      "Ġdifï¬ģcult": 6641,
      "ĠUCC": 6642,
      "parallel": 6643,
      "parameter": 6644,
      "Ġtheories": 6645,
      "Ġassumes": 6646,
      "ynamics": 6647,
      "Ġstorage": 6648,
      "Ġmomentum": 6649,
      "ĠVariational": 6650,
      "ID": 6651,
      "\\,\\": 6652,
      "]$.": 6653,
      "crib": 6654,
      "wave": 6655,
      "Ġlatest": 6656,
      "erex": 6657,
      "Ġcandid": 6658,
      "ĠQS": 6659,
      "ecr": 6660,
      "Ġapparent": 6661,
      "ĠFind": 6662,
      "ĠFredkin": 6663,
      "ĠRead": 6664,
      "Ġamounts": 6665,
      "versary": 6666,
      "Ġoptics": 6667,
      "ĠAlthough": 6668,
      "parrow": 6669,
      "Ġlooked": 6670,
      "ĠKronecker": 6671,
      "Ġï¬ģn": 6672,
      "Ġdecompositions": 6673,
      "Ġuniversality": 6674,
      "transform": 6675,
      "Ġpymatching": 6676,
      "Ġclaimed": 6677,
      "Ġdynamical": 6678,
      "Ġcircle": 6679,
      "Ġtutorials": 6680,
      "Ġcontradiction": 6681,
      "ĠBernstein": 6682,
      "/.": 6683,
      "AD": 6684,
      "fil": 6685,
      "iZ": 6686,
      "ky": 6687,
      "ms": 6688,
      "uple": 6689,
      "uparrow": 6690,
      "also": 6691,
      "Ġfabric": 6692,
      "arge": 6693,
      "edge": 6694,
      "Ġstack": 6695,
      "ĠCurrent": 6696,
      "âĶĢâĶĢâķ«": 6697,
      "pto": 6698,
      "Ġapparatus": 6699,
      "Ġchips": 6700,
      "ĠMan": 6701,
      "ĠXX": 6702,
      "jecture": 6703,
      "Ġsolid": 6704,
      ")):": 6705,
      "chanics": 6706,
      "Ġexperimentally": 6707,
      "Ġimproved": 6708,
      "Ġemploy": 6709,
      "Ġpassing": 6710,
      "Ġaxes": 6711,
      "Ġblue": 6712,
      "Ġhappened": 6713,
      "underbrace": 6714,
      "Ġindustry": 6715,
      "computer": 6716,
      "ĠParameterVector": 6717,
      "70710": 6718,
      "Ġenumerate": 6719,
      "Ġisomorphism": 6720,
      "Ġresponse": 6721,
      ")âĶĢâĶĢâĶĢ(": 6722,
      "Sum": 6723,
      "ton": 6724,
      "zing": 6725,
      "Ġrecovery": 6726,
      "Ġexcel": 6727,
      "ĠMet": 6728,
      "Ġeigenbasis": 6729,
      "standard": 6730,
      "Ġnonzero": 6731,
      "Ġrequest": 6732,
      "Ġplaces": 6733,
      "Ġextension": 6734,
      "measurements": 6735,
      "ĠAdd": 6736,
      "ĠImport": 6737,
      "Ġlowest": 6738,
      "Ġlanguages": 6739,
      "ĠNew": 6740,
      "ĠNumber": 6741,
      "downarrow": 6742,
      "Ġvideo": 6743,
      "Turing": 6744,
      "^-\\": 6745,
      "turb": 6746,
      "âĹ": 6747,
      "allow": 6748,
      "Ġflex": 6749,
      "arons": 6750,
      "ders": 6751,
      "urch": 6752,
      "ided": 6753,
      "energies": 6754,
      "Ġshouldn": 6755,
      "Ġrelate": 6756,
      "ĊĠĠĠĠĠĠĠĠĠĠ": 6757,
      "ĠStates": 6758,
      "Ġpurification": 6759,
      "Ġparallelism": 6760,
      "678": 6761,
      "Ġanneal": 6762,
      "erexample": 6763,
      "aronson": 6764,
      "41": 6765,
      "Equ": 6766,
      "mann": 6767,
      "Ġpie": 6768,
      "chain": 6769,
      "agraph": 6770,
      "ĠTL": 6771,
      "ĠRel": 6772,
      "entials": 6773,
      "QuantumRegister": 6774,
      "Ġconditioned": 6775,
      "mbols": 6776,
      "ĠÏķ": 6777,
      "ridge": 6778,
      "Ġdifficulty": 6779,
      "Ġgeometry": 6780,
      "Ġefï¬ģciently": 6781,
      "Ġpopular": 6782,
      "lectronic": 6783,
      "ĠBasicAer": 6784,
      "+(": 6785,
      "82": 6786,
      "IM": 6787,
      "rical": 6788,
      "Ġcert": 6789,
      "isions": 6790,
      "Ġcompiler": 6791,
      "assum": 6792,
      "Ġcloser": 6793,
      "user": 6794,
      "ĠEng": 6795,
      "Ġbitstrings": 6796,
      "ĠĠĠĠĠĠĠĠĠĠĠĠĠĠĠĠĠĠĠ": 6797,
      "Ġintended": 6798,
      "Ġinstalled": 6799,
      "Ġrealization": 6800,
      "ĠKnill": 6801,
      "Ġlinearity": 6802,
      "appa": 6803,
      "Ġobserving": 6804,
      "Ġcorrections": 6805,
      "Ġreferring": 6806,
      "Ġachieves": 6807,
      "decomposition": 6808,
      "Ġrestricted": 6809,
      "Ġframeworks": 6810,
      "periments": 6811,
      "Introduction": 6812,
      "Ġconfiguration": 6813,
      "Ġsurprising": 6814,
      "Ġlandscape": 6815,
      "'])": 6816,
      "Could": 6817,
      "bo": 6818,
      "bloch": 6819,
      "dle": 6820,
      "kappa": 6821,
      "ĠÌ¸": 6822,
      "ategor": 6823,
      "Ġrecur": 6824,
      "amme": 6825,
      "cell": 6826,
      "Ġcompile": 6827,
      "ĠTest": 6828,
      "Ġcontribute": 6829,
      "ĠGPU": 6830,
      "ĠLike": 6831,
      "Ġpresence": 6832,
      "sharp": 6833,
      "ĠÎ²": 6834,
      "Ġoffset": 6835,
      "Ġdetermining": 6836,
      "Ġwavelength": 6837,
      "func": 6838,
      "layer": 6839,
      "Ġreveal": 6840,
      "Ġcoupled": 6841,
      "blue": 6842,
      ">>>": 6843,
      "ĠCorrection": 6844,
      "According": 6845,
      "Knill": 6846,
      "TICK": 6847,
      "Yes": 6848,
      "Ġ;": 6849,
      "ĠĊĠĠĠĠ": 6850,
      "only": 6851,
      "Ġsix": 6852,
      "isher": 6853,
      "Ġbul": 6854,
      "ifi": 6855,
      "ĠWould": 6856,
      "Ġ\"/": 6857,
      "ĠJohn": 6858,
      "000000": 6859,
      "Ġmaximal": 6860,
      "ĠUnit": 6861,
      "Ġelectric": 6862,
      "ĠGood": 6863,
      "Ġpredictions": 6864,
      "Ġexcitation": 6865,
      "ING": 6866,
      "Ġcriteria": 6867,
      "Ġratio": 6868,
      "-@": 6869,
      "cript": 6870,
      "may": 6871,
      "tutorial": 6872,
      "}/": 6873,
      "ÎĶ": 6874,
      "Ġei": 6875,
      "Ġasks": 6876,
      "___": 6877,
      "Ġdifferently": 6878,
      "conda": 6879,
      "Ġpointing": 6880,
      "Ġparametri": 6881,
      "Ġcodespace": 6882,
      "ĠExpl": 6883,
      "Ġseparated": 6884,
      "Ġflipping": 6885,
      "Ġresearchers": 6886,
      "Mathemat": 6887,
      "instein": 6888,
      "Schmidt": 6889,
      "specific": 6890,
      "Each": 6891,
      "OM": 6892,
      "Some": 6893,
      "Ġpast": 6894,
      "Ġbus": 6895,
      "dec": 6896,
      "ĠQPU": 6897,
      "Ġche": 6898,
      "annot": 6899,
      "Ġregime": 6900,
      "Ġformer": 6901,
      "ractable": 6902,
      "(\"+": 6903,
      "sively": 6904,
      "Ġextends": 6905,
      "Ġgrowing": 6906,
      "Ġupdated": 6907,
      "ĠSuperconducting": 6908,
      "Ġrigorous": 6909,
      "Element": 6910,
      "Once": 6911,
      "Rz": 6912,
      "ca": 6913,
      "orbitals": 6914,
      "Ġwin": 6915,
      "omic": 6916,
      "abi": 6917,
      "Ġassemble": 6918,
      "Ġ$\\|\\": 6919,
      "ĠActive": 6920,
      "Ġ23": 6921,
      "Ġclos": 6922,
      "ĠModel": 6923,
      "ĠNMR": 6924,
      "ĠDa": 6925,
      "ĠTry": 6926,
      "ĠEfficient": 6927,
      "Ġabelian": 6928,
      "Ġparagraph": 6929,
      "Ġseconds": 6930,
      "Ġversa": 6931,
      "Ġestimated": 6932,
      "Ġreducing": 6933,
      "Controlled": 6934,
      "Ġsampled": 6935,
      "Ġcontained": 6936,
      "Ġcharacterization": 6937,
      "Ġmessages": 6938,
      "Ġerr": 6939,
      "Ġarchitectures": 6940,
      "ĠCalcul": 6941,
      "Ġwebsite": 6942,
      "gan": 6943,
      "mma": 6944,
      "qobj": 6945,
      "same": 6946,
      "ï£": 6947,
      "Ġdag": 6948,
      "eturn": 6949,
      "Ġquot": 6950,
      "Ġnan": 6951,
      "stabilizers": 6952,
      "Ġhal": 6953,
      "ulates": 6954,
      "ĠThank": 6955,
      "ĠCar": 6956,
      "ĠAnother": 6957,
      "token": 6958,
      "ĠDep": 6959,
      "Ġcontribution": 6960,
      "lide": 6961,
      "ĠOver": 6962,
      "Ġrequiring": 6963,
      "Ġindistinguish": 6964,
      "viously": 6965,
      "ditivity": 6966,
      "Ġdrawn": 6967,
      "Ġbreaking": 6968,
      "Ġperson": 6969,
      "Ġserver": 6970,
      "Ġanalyze": 6971,
      "ĠSpecifically": 6972,
      "Ġeventually": 6973,
      "199": 6974,
      "83": 6975,
      "Grover": 6976,
      "Gamma": 6977,
      "dg": 6978,
      "uzz": 6979,
      "Î»": 6980,
      "Ġserv": 6981,
      "represent": 6982,
      "Ġpennylane": 6983,
      "ulated": 6984,
      "Ġ198": 6985,
      "Ġexcl": 6986,
      "Ġcompet": 6987,
      "ĠWatrous": 6988,
      "ĠBr": 6989,
      "Ġclocks": 6990,
      "}}$$": 6991,
      "ĠLa": 6992,
      "Ġregion": 6993,
      "Ġsuperdense": 6994,
      "Ġcreation": 6995,
      "Ġvariant": 6996,
      "Ġtook": 6997,
      "Ġkinds": 6998,
      "Ġlearned": 6999,
      "Ġbigger": 7000,
      "Ġexception": 7001,
      "Notice": 7002,
      "Ġprevents": 7003,
      "Ġscheduling": 7004,
      "Ġcapture": 7005,
      "Ġwidely": 7006,
      "Ġdictionary": 7007,
      "\\}_": 7008,
      "power": 7009,
      "uly": 7010,
      "icks": 7011,
      "Ġnamed": 7012,
      "Ġoperating": 7013,
      "ĠGraph": 7014,
      "Ġcalling": 7015,
      "Ġrotating": 7016,
      "Ġreads": 7017,
      "Ġtraps": 7018,
      "ĠExample": 7019,
      "Ġcertainty": 7020,
      "leportation": 7021,
      "sibly": 7022,
      "Ġinequalities": 7023,
      "Ġinflu": 7024,
      "Ġsuccessful": 7025,
      "Ġarrays": 7026,
      "Ġclosely": 7027,
      "ademic": 7028,
      "ACE": 7029,
      "Ġoscillator": 7030,
      "Ġscientists": 7031,
      "Ġdegenerate": 7032,
      "uitively": 7033,
      "'}\\": 7034,
      "'))": 7035,
      "59": 7036,
      "Num": 7037,
      "Second": 7038,
      "[(": 7039,
      "\\|^": 7040,
      "oad": 7041,
      "sime": 7042,
      "alysis": 7043,
      "Ġpsi": 7044,
      "eline": 7045,
      "ĠPennyLane": 7046,
      "Ġtrust": 7047,
      "ĠMod": 7048,
      "ĠMax": 7049,
      "except": 7050,
      "ĠQuantumInstance": 7051,
      "Ġfailed": 7052,
      "ĊĠĠĠĠĠĠĠĠĠĠĠĠ": 7053,
      "Ġhighest": 7054,
      "ĠProduct": 7055,
      "Ġspeedups": 7056,
      "Ġelectro": 7057,
      "Ġargue": 7058,
      "Ġdeveloping": 7059,
      "Ġskills": 7060,
      "slant": 7061,
      "Ġutil": 7062,
      "Ġdiscard": 7063,
      "Ġdataset": 7064,
      "Ġvacuum": 7065,
      "simeq": 7066,
      "Because": 7067,
      "Say": 7068,
      "grover": 7069,
      "ipped": 7070,
      "qp": 7071,
      "rc": 7072,
      "ont": 7073,
      "itH": 7074,
      "itten": 7075,
      "Ġstoch": 7076,
      "Ġproving": 7077,
      "Ġdelay": 7078,
      "izable": 7079,
      "adata": 7080,
      "Ġvast": 7081,
      "ids": 7082,
      "Ġtranslate": 7083,
      "Ġdecimal": 7084,
      "())),": 7085,
      "Ġoverview": 7086,
      "atively": 7087,
      "Ġsigns": 7088,
      "ĠProve": 7089,
      "Ġtopology": 7090,
      "ndrome": 7091,
      "Ġcounterexample": 7092,
      "Matching": 7093,
      "âĶĮâĶĢâĶĢâĶĢâĶĲ": 7094,
      "nipp": 7095,
      "Ġtranspilation": 7096,
      "Ġrelaxation": 7097,
      "ei": 7098,
      "ees": 7099,
      "rics": 7100,
      "}\")": 7101,
      "Ġbo": 7102,
      "agic": 7103,
      "ĠWell": 7104,
      "iving": 7105,
      "ĠDensity": 7106,
      "Ġneither": 7107,
      "Ġsyste": 7108,
      "ĠLong": 7109,
      "Ġdespite": 7110,
      "Ġfunctionality": 7111,
      "Ġphysic": 7112,
      "enced": 7113,
      "Ġ:)": 7114,
      "ĠControl": 7115,
      "Ġseparation": 7116,
      "Ġeasiest": 7117,
      "Ġsquares": 7118,
      "Ġincrement": 7119,
      "^*\\": 7120,
      "Ġbring": 7121,
      "ĠInteg": 7122,
      "âĶĮâĶĢâĶ´âĶĢâĶĲ": 7123,
      "Ġbarrier": 7124,
      "ĠMaybe": 7125,
      "ĠRecall": 7126,
      ".$": 7127,
      "ZX": 7128,
      "den": 7129,
      "{|\\": 7130,
      "âĬķ": 7131,
      "rogen": 7132,
      "etical": 7133,
      "Ġnone": 7134,
      "Ġreader": 7135,
      "Ġproves": 7136,
      "sip": 7137,
      "Ġcomposer": 7138,
      "Ġdevi": 7139,
      "Ġvis": 7140,
      "ĠFig": 7141,
      "}},": 7142,
      "}}$,": 7143,
      "Ġparty": 7144,
      "Ġwhenever": 7145,
      "textbook": 7146,
      "ĠValue": 7147,
      "theor": 7148,
      "Ġfactorization": 7149,
      "Ġlisted": 7150,
      "Ġproducing": 7151,
      "ĠĠĠĠĠĠĠĠĠĠĠĠĠĠ": 7152,
      "Ġtheoretically": 7153,
      "Ġmanipulate": 7154,
      "ĠAmplitude": 7155,
      "ercial": 7156,
      "iï¬ģed": 7157,
      "Ġpseudo": 7158,
      "Ġpiece": 7159,
      "Eigensolver": 7160,
      "br": 7161,
      "fact": 7162,
      "Ġcore": 7163,
      "Ġgauge": 7164,
      "ilding": 7165,
      "peration": 7166,
      "Ġalign": 7167,
      "Ġstatements": 7168,
      "ĠAaronson": 7169,
      "ractions": 7170,
      "urations": 7171,
      "lose": 7172,
      "ĠLook": 7173,
      "Ġplate": 7174,
      "they": 7175,
      "ibr": 7176,
      "ĠProcess": 7177,
      "Ġremark": 7178,
      "monic": 7179,
      "Ġintroduces": 7180,
      "Ġmisunder": 7181,
      "minimum": 7182,
      "âĸĪ": 7183,
      "ĠComputers": 7184,
      "ercises": 7185,
      "Ġconjugation": 7186,
      ".]": 7187,
      "Ab": 7188,
      "Furthermore": 7189,
      "foli": 7190,
      "zure": 7191,
      "Ġ\\}$": 7192,
      "Ġrely": 7193,
      "cup": 7194,
      "Ġ&&": 7195,
      "ĠSay": 7196,
      "Ġunable": 7197,
      "preset": 7198,
      "Ġmoves": 7199,
      "pyplot": 7200,
      "Initial": 7201,
      "}(-": 7202,
      "ĠHadamards": 7203,
      "Ġbug": 7204,
      "Ġtravel": 7205,
      "Ġreflection": 7206,
      "Ġcryptographic": 7207,
      "Ġextended": 7208,
      "Ġnearly": 7209,
      "ĠËľ": 7210,
      "ĠUniversity": 7211,
      "âĸĪâĸĪ": 7212,
      "IX": 7213,
      "Output": 7214,
      "YLA": 7215,
      "\\%": 7216,
      "aper": 7217,
      "loss": 7218,
      "service": 7219,
      "reds": 7220,
      "Ġfalse": 7221,
      "Ġgrid": 7222,
      "Ġexternal": 7223,
      "ĠScience": 7224,
      "rap": 7225,
      "adder": 7226,
      "additivity": 7227,
      "ĠFault": 7228,
      "Ġcodewords": 7229,
      "1024": 7230,
      "hips": 7231,
      "conver": 7232,
      "param": 7233,
      "ximate": 7234,
      "125": 7235,
      "aneous": 7236,
      "Ġcommunicate": 7237,
      "\\![": 7238,
      "Ġtempor": 7239,
      "eye": 7240,
      "blad": 7241,
      "Ġviolate": 7242,
      "physical": 7243,
      "ĠOtherwise": 7244,
      "Ġsubroutine": 7245,
      "(âĪĴ": 7246,
      ",'": 7247,
      ",):": 7248,
      "GHZ": 7249,
      "Just": 7250,
      "`)": 7251,
      "hl": 7252,
      "rd": 7253,
      "Ġsmooth": 7254,
      "Ġpackages": 7255,
      "owers": 7256,
      "thur": 7257,
      "Ġconsum": 7258,
      "ĠBal": 7259,
      "Ġlemma": 7260,
      "ensions": 7261,
      "expl": 7262,
      "Ġnearest": 7263,
      "Ġjunction": 7264,
      "loyd": 7265,
      "pied": 7266,
      "Ġcomputationally": 7267,
      "Ġsolves": 7268,
      "ney": 7269,
      "]))": 7270,
      "iffords": 7271,
      "Ġstructures": 7272,
      "middle": 7273,
      "Ġverified": 7274,
      "Ġaxi": 7275,
      "Ġimprovements": 7276,
      "Ġindividually": 7277,
      "Ġsufficiently": 7278,
      "Ġbehave": 7279,
      "Ġopport": 7280,
      "Ġsimultaneous": 7281,
      "Ġvisualization": 7282,
      "Ġredund": 7283,
      "eigenvalue": 7284,
      "Ġmillion": 7285,
      "Ġabsor": 7286,
      "Ġexploit": 7287,
      ".âĢĿ": 7288,
      "Sp": 7289,
      "Ġwid": 7290,
      "Ġbunch": 7291,
      "Ġinit": 7292,
      "Ġinversion": 7293,
      "Ġtoken": 7294,
      "ĠSparsePauliOp": 7295,
      "Ġdealing": 7296,
      "0010": 7297,
      "ivation": 7298,
      "Ġrise": 7299,
      "calcul": 7300,
      "ctory": 7301,
      "Ġcontent": 7302,
      "indblad": 7303,
      "Ġarise": 7304,
      "Ġnonlocal": 7305,
      "Ġcommutation": 7306,
      "learning": 7307,
      "ressed": 7308,
      "Ġintegral": 7309,
      "ĠSchr": 7310,
      "Ġshifts": 7311,
      "Ġbelieved": 7312,
      "Ġuniquely": 7313,
      "probabilities": 7314,
      "Ġcentral": 7315,
      "Ġreached": 7316,
      "ĠDeco": 7317,
      "configuration": 7318,
      "Ġclarify": 7319,
      "'\"": 7320,
      "\\{\\": 7321,
      "half": 7322,
      "session": 7323,
      "tum": 7324,
      "Ġ${": 7325,
      "Ġselection": 7326,
      "Ġtrig": 7327,
      "ĠMo": 7328,
      "ĠDi": 7329,
      "ĠRz": 7330,
      "âŁ©)": 7331,
      "sinter": 7332,
      "Ġzeros": 7333,
      "ĠJordan": 7334,
      "numpy": 7335,
      "posed": 7336,
      "Ġputting": 7337,
      "Ġfundamentally": 7338,
      "Ġmotion": 7339,
      "Ġstuff": 7340,
      "Ġdivide": 7341,
      "Ġinsights": 7342,
      "Ġcryst": 7343,
      "()))},": 7344,
      "({\\": 7345,
      "Line": 7346,
      "Rem": 7347,
      "Vazirani": 7348,
      "Your": 7349,
      "emical": 7350,
      "ĠTheir": 7351,
      "âŁ©+|": 7352,
      "ĠĠĠĠĠĠĠĠĠĠĠĠĠĠĠĠĠ": 7353,
      "Ġ45": 7354,
      "Ġrandomized": 7355,
      "ĠKey": 7356,
      "inalg": 7357,
      "binary": 7358,
      "ABLE": 7359,
      "Ġcombines": 7360,
      "Ġswaps": 7361,
      "nergy": 7362,
      "Program": 7363,
      "Ġpasses": 7364,
      "Ġsimplifies": 7365,
      "mathscr": 7366,
      "Ġdemonstrates": 7367,
      "Ġscenarios": 7368,
      "Ġibmq": 7369,
      "Ġhuge": 7370,
      "copic": 7371,
      "Ġï¬ģnite": 7372,
      "folio": 7373,
      "Kit": 7374,
      "cp": 7375,
      "cy": 7376,
      "machine": 7377,
      "win": 7378,
      "xrightarrow": 7379,
      "into": 7380,
      "Ġcard": 7381,
      "Ġmid": 7382,
      "Ġhom": 7383,
      "Ġexam": 7384,
      "Ġexpres": 7385,
      "Ġconjecture": 7386,
      "Ġdeeper": 7387,
      "Ġqbits": 7388,
      "ften": 7389,
      "ĠRy": 7390,
      "Ġroots": 7391,
      "Ġevidence": 7392,
      "Ġthanks": 7393,
      "ometimes": 7394,
      "Ġstands": 7395,
      "inespring": 7396,
      "ynthesis": 7397,
      "Ġtracing": 7398,
      "INC": 7399,
      "observable": 7400,
      "napshot": 7401,
      "Ġthousands": 7402,
      "(*": 7403,
      "79": 7404,
      "CA": 7405,
      "]).": 7406,
      "dentials": 7407,
      "pid": 7408,
      "tip": 7409,
      "|=": 7410,
      "Ġspher": 7411,
      "Ġfol": 7412,
      "Ġfive": 7413,
      "Ġinjection": 7414,
      "Ġdots": 7415,
      "Ġdtype": 7416,
      "ars": 7417,
      "Ġnav": 7418,
      "Ġcanonical": 7419,
      "ĠCol": 7420,
      "ĠAut": 7421,
      "Ġ|âĪĴ": 7422,
      "ferences": 7423,
      "Ġanywhere": 7424,
      "Ġanymore": 7425,
      "Ġarises": 7426,
      "Ġpartition": 7427,
      "Indeed": 7428,
      "cost": 7429,
      "coherent": 7430,
      "lication": 7431,
      "current": 7432,
      "})$,": 7433,
      "ĠUnfortunately": 7434,
      "Ġsafe": 7435,
      "Ġcourses": 7436,
      "Ġstudies": 7437,
      "ĠMeasuring": 7438,
      "Ġtwir": 7439,
      "Ġpreserved": 7440,
      "good": 7441,
      "Ġpromising": 7442,
      "generate": 7443,
      "Ġmonit": 7444,
      "SPACE": 7445,
      "Ġpropagate": 7446,
      "Ġpreferred": 7447,
      "^^^^^^^^": 7448,
      "Ġstruggling": 7449,
      "Optim": 7450,
      "Hope": 7451,
      "Update": 7452,
      "hspace": 7453,
      "pol": 7454,
      "âĦ": 7455,
      "Ġcycl": 7456,
      "Ġitems": 7457,
      "ĠQIS": 7458,
      "ĠPo": 7459,
      "herently": 7460,
      "evertheless": 7461,
      "peat": 7462,
      "Ġdissip": 7463,
      "compon": 7464,
      "Ġmodified": 7465,
      "Ġago": 7466,
      "monitor": 7467,
      "ĠâĶĤâĶĤ": 7468,
      "Ġcommonly": 7469,
      "vantage": 7470,
      "ructive": 7471,
      "Ġanalogy": 7472,
      "Ġcenters": 7473,
      "Ġbenchmark": 7474,
      "Ġirrelevant": 7475,
      "ĠCharlie": 7476,
      "LUDE": 7477,
      "assuming": 7478,
      "INCLUDE": 7479,
      "AE": 7480,
      "EE": 7481,
      "VABLE": 7482,
      "fra": 7483,
      "path": 7484,
      "ĊĊ": 7485,
      "Ġpip": 7486,
      "Ġdeduce": 7487,
      "Ġ\\[": 7488,
      "Ġgcd": 7489,
      "igetti": 7490,
      "Ġcompact": 7491,
      "ending": 7492,
      "Ġshall": 7493,
      "Ġ-|": 7494,
      "Ġunits": 7495,
      "condition": 7496,
      "Ġmodeling": 7497,
      "Ġfeasible": 7498,
      "Ġï¬ģnal": 7499,
      "Ġprogramm": 7500,
      "Ġbuilds": 7501,
      "-|-|": 7502,
      "Ġsimplified": 7503,
      "Ġtracking": 7504,
      "ERVABLE": 7505,
      "ructure": 7506,
      "optimal": 7507,
      "Ġrapid": 7508,
      "Ġreceived": 7509,
      "computers": 7510,
      "rastructure": 7511,
      "Ġlaws": 7512,
      "nippet": 7513,
      "HA": 7514,
      "Job": 7515,
      "Min": 7516,
      "WP": 7517,
      "linalg": 7518,
      "Ġcatch": 7519,
      "icative": 7520,
      "Ġtold": 7521,
      "Ġ001": 7522,
      "Ġcompression": 7523,
      "unication": 7524,
      "Ġphi": 7525,
      "ĠNext": 7526,
      "Ġ\",": 7527,
      "oseph": 7528,
      "Ġmanif": 7529,
      "cible": 7530,
      "ometers": 7531,
      "ĠContinu": 7532,
      "pression": 7533,
      "Ġexecuting": 7534,
      "Ġoccurring": 7535,
      "Ġinterpreted": 7536,
      "deterministic": 7537,
      "Ġdynamic": 7538,
      "ĠPOVMs": 7539,
      "Ġevolves": 7540,
      "Ġcycles": 7541,
      "ĠPerhaps": 7542,
      "Ġschedule": 7543,
      "Ġmanagement": 7544,
      "ĠBraket": 7545,
      "Ġmerely": 7546,
      "Ġstochastic": 7547,
      "Fe": 7548,
      "Two": 7549,
      "eled": 7550,
      "tableau": 7551,
      "|$$": 7552,
      "ores": 7553,
      "Ġinform": 7554,
      "Ġstay": 7555,
      "Ġitem": 7556,
      "chemistry": 7557,
      "ĠBit": 7558,
      "ĠGu": 7559,
      "Ġperturb": 7560,
      "()),": 7561,
      "ĠIts": 7562,
      "paration": 7563,
      "Ġstronger": 7564,
      "Ġ{}": 7565,
      "pectation": 7566,
      "Ġheur": 7567,
      "Ġcallback": 7568,
      "Ġvertex": 7569,
      "Ġopposed": 7570,
      "Ġdistinction": 7571,
      "Ġrestriction": 7572,
      "Ġresonator": 7573,
      "normalized": 7574,
      "70710678": 7575,
      "72": 7576,
      "OCC": 7577,
      "iver": 7578,
      "pub": 7579,
      "small": 7580,
      "uck": 7581,
      "xed": 7582,
      "|)\\": 7583,
      "Ġbill": 7584,
      "Ġbody": 7585,
      "Ġfall": 7586,
      "Ġmaster": 7587,
      "Ġmarg": 7588,
      "Ġdil": 7589,
      "arb": 7590,
      "arm": 7591,
      "Ġstability": 7592,
      "Ġresist": 7593,
      "integ": 7594,
      "âŁ©âĪĴ": 7595,
      "Ġdecl": 7596,
      "textbf": 7597,
      "âķ©": 7598,
      "akes": 7599,
      "Ġstrange": 7600,
      "coords": 7601,
      "Ġcreg": 7602,
      "Ġcalculus": 7603,
      "...]": 7604,
      "Ġcombining": 7605,
      "256": 7606,
      "Ġreceive": 7607,
      "Ġspecifying": 7608,
      "ĠEnc": 7609,
      "Ġcollapsed": 7610,
      "docs": 7611,
      "Ġtoric": 7612,
      "Ġprivate": 7613,
      "ĠParameterVectorElement": 7614,
      "?\"": 7615,
      "Bell": 7616,
      "Wigner": 7617,
      "diff": 7618,
      "grad": 7619,
      "|-": 7620,
      "Ġ}{": 7621,
      "ana": 7622,
      "Ġwarning": 7623,
      "oun": 7624,
      "ĠCS": 7625,
      "ĠCV": 7626,
      "Ġshap": 7627,
      "Ġresolution": 7628,
      "Ġlever": 7629,
      "artree": 7630,
      "}$)": 7631,
      "Ġalloc": 7632,
      "ĠData": 7633,
      "Ġtransport": 7634,
      "delities": 7635,
      "ĠLow": 7636,
      "verses": 7637,
      "Ġpoly": 7638,
      "Ġsolver": 7639,
      "Ġworry": 7640,
      "shift": 7641,
      "Ġclassification": 7642,
      "Ġelectromagnetic": 7643,
      "Ġguarantees": 7644,
      "ĠUniversal": 7645,
      "Ġunlikely": 7646,
      "ĠComplexity": 7647,
      "ĠÌ¸=": 7648,
      "osephson": 7649,
      ")}{\\": 7650,
      "MPP": 7651,
      "]\\!": 7652,
      "close": 7653,
      "pir": 7654,
      "well": 7655,
      "yi": 7656,
      "yl": 7657,
      "{(\\": 7658,
      "Ġsinter": 7659,
      "lever": 7660,
      "Ġann": 7661,
      "Ġlie": 7662,
      "Ġresol": 7663,
      "Ġsymbols": 7664,
      "1100": 7665,
      "ĠList": 7666,
      "ĠLemma": 7667,
      "ĠOb": 7668,
      "Ġnontrivial": 7669,
      "Ġrelates": 7670,
      "}^*": 7671,
      "measured": 7672,
      "ĠâĶľâĶĢ": 7673,
      "Ġreplacing": 7674,
      "Ġbrute": 7675,
      "computational": 7676,
      "expected": 7677,
      "ĠNumPy": 7678,
      "Ġresonance": 7679,
      "Ġsummary": 7680,
      "Ġreproduce": 7681,
      "Ġhorizontal": 7682,
      "Ġqueue": 7683,
      "ĠHybrid": 7684,
      ")_{\\": 7685,
      "bed": 7686,
      "pal": 7687,
      "rins": 7688,
      "usive": 7689,
      "âİ": 7690,
      "Ġ---": 7691,
      "erning": 7692,
      "onest": 7693,
      "although": 7694,
      "Ġinfer": 7695,
      "icated": 7696,
      "arry": 7697,
      "Ġrele": 7698,
      "Ġforget": 7699,
      "Ġ010": 7700,
      "ĠPractical": 7701,
      "Ġ28": 7702,
      "ĠNAND": 7703,
      "Ġmodern": 7704,
      "Ġdecoupling": 7705,
      "project": 7706,
      "}(|\\": 7707,
      "ĠChurch": 7708,
      "Ġsubscript": 7709,
      "Ġintroducing": 7710,
      "Ġfamous": 7711,
      "operations": 7712,
      "Ġirreversible": 7713,
      "ĠDecomp": 7714,
      "Ġbenefits": 7715,
      "Ġaspects": 7716,
      "Ġfluctuations": 7717,
      "Ã¶dinger": 7718,
      "={": 7719,
      "En": 7720,
      "\\}_{": 7721,
      "ipher": 7722,
      "|=\\": 7723,
      "}:": 7724,
      "erance": 7725,
      "dem": 7726,
      "ĠCPU": 7727,
      "Ġdeploy": 7728,
      "Ġorgan": 7729,
      "atorial": 7730,
      "Ġtruly": 7731,
      "eces": 7732,
      "Ġbasics": 7733,
      "ĠLindblad": 7734,
      "versally": 7735,
      "Ġstabilized": 7736,
      "kets": 7737,
      "Ġconstructions": 7738,
      "ĠJupyter": 7739,
      "ĊĠĠĠĠĠĠĠĠĠĠĠĠĠĠĠĠĠĠĠĠĠĠĠĠĠĠĠĠĠ": 7740,
      "nett": 7741,
      "Ġorigin": 7742,
      "Product": 7743,
      "Ġhadamard": 7744,
      "Ġimplications": 7745,
      "Ġperiodic": 7746,
      "erlin": 7747,
      "Ġdiscovered": 7748,
      "Ġasymptotic": 7749,
      "Estimator": 7750,
      "$\"": 7751,
      "%.": 7752,
      "]$,": 7753,
      "aled": 7754,
      "master": 7755,
      "~\\": 7756,
      "Ġ}\\": 7757,
      "Ġpowers": 7758,
      "Ġbatch": 7759,
      "Ġmoney": 7760,
      "Ġdrug": 7761,
      "section": 7762,
      "ried": 7763,
      "ĠClearly": 7764,
      "Ġqbit": 7765,
      "Ġ40": 7766,
      ",\\,": 7767,
      "compile": 7768,
      "ĠStinespring": 7769,
      "estimator": 7770,
      "incipal": 7771,
      "ĠApplying": 7772,
      "Ġcontextuality": 7773,
      "Ġarticles": 7774,
      "Ġmodulus": 7775,
      "Ġreceives": 7776,
      "Ġmotivation": 7777,
      "HTHT": 7778,
      "ĠMathematica": 7779,
      "Ġconsequence": 7780,
      "ĠPreskill": 7781,
      "LineQubit": 7782,
      "71": 7783,
      "Fn": 7784,
      "Lin": 7785,
      "bell": 7786,
      "does": 7787,
      "}&\\": 7788,
      "¥âĶĺ": 7789,
      "âĥĹ": 7790,
      "Ġscre": 7791,
      "asc": 7792,
      "assi": 7793,
      "Ġstyle": 7794,
      "Ġyear": 7795,
      "ĠSDK": 7796,
      "Ġvqe": 7797,
      "ĠMole": 7798,
      "ĠRequ": 7799,
      "propto": 7800,
      "Ġcontrolling": 7801,
      "âķ¥âĶĺ": 7802,
      "ĠAlgebra": 7803,
      "Ġgenerality": 7804,
      "ales": 7805,
      "ĠStabilizer": 7806,
      "predict": 7807,
      "Ġheating": 7808,
      "Ġdesigns": 7809,
      "Provider": 7810,
      "Ġslower": 7811,
      "Ġwaiting": 7812,
      "ĠPrint": 7813,
      "Manager": 7814,
      "tutorials": 7815,
      "\";": 7816,
      "Go": 7817,
      "Te": 7818,
      "clock": 7819,
      "Ġsci": 7820,
      "Ġscope": 7821,
      "Ġcategor": 7822,
      "rep": 7823,
      "Ġtotally": 7824,
      "Ġgra": 7825,
      "irror": 7826,
      "ĠSecond": 7827,
      "Ġsuits": 7828,
      "hood": 7829,
      "ĠPulse": 7830,
      "ĠFast": 7831,
      "ĠFisher": 7832,
      "ccos": 7833,
      "Ġsolvable": 7834,
      "vals": 7835,
      "undament": 7836,
      "...)": 7837,
      "Prob": 7838,
      "Ġmultiplied": 7839,
      "III": 7840,
      "ĠCombin": 7841,
      "Ġgradients": 7842,
      "Moreover": 7843,
      "Ġanalyt": 7844,
      "Ġlocations": 7845,
      "ĠArthur": 7846,
      "ĠLogical": 7847,
      "Ġvirtual": 7848,
      "`?": 7849,
      "between": 7850,
      "source": 7851,
      "sphere": 7852,
      "Ġfill": 7853,
      "assive": 7854,
      "Ġho": 7855,
      "Ġhim": 7856,
      "these": 7857,
      "ĠWr": 7858,
      "Ġorient": 7859,
      "ournal": 7860,
      "cont": 7861,
      "connect": 7862,
      "Ġmetrics": 7863,
      "rows": 7864,
      "compiler": 7865,
      "ĠCloud": 7866,
      "ĠCliffords": 7867,
      "Ġthroughout": 7868,
      "apped": 7869,
      "Ġstandards": 7870,
      "Ġconverts": 7871,
      "Ġkeeping": 7872,
      "Ġprotection": 7873,
      "eqn": 7874,
      "points": 7875,
      "multipl": 7876,
      "Ġcriterion": 7877,
      "Ġphenomena": 7878,
      "Ġhundreds": 7879,
      ",\\\\": 7880,
      "bus": 7881,
      "melbourne": 7882,
      "supp": 7883,
      "Â»": 7884,
      "Ġtree": 7885,
      "Ġday": 7886,
      "Ġtoward": 7887,
      "thes": 7888,
      "chron": 7889,
      "Ġdevelo": 7890,
      "idney": 7891,
      "pty": 7892,
      "Ġspac": 7893,
      "Ġoutperform": 7894,
      "}}}": 7895,
      "Ġ31": 7896,
      "construct": 7897,
      "Ġvariation": 7898,
      "Ġvariety": 7899,
      "ĠTools": 7900,
      "Ġtraditional": 7901,
      "Ġfoundations": 7902,
      "cord": 7903,
      "Ġtopics": 7904,
      "Ġproduction": 7905,
      "pmod": 7906,
      "Ġconnections": 7907,
      "Ġpresentation": 7908,
      "Ġderivative": 7909,
      "Ġtemperatures": 7910,
      "diagram": 7911,
      "Ġstrongly": 7912,
      "polynomial": 7913,
      "seconds": 7914,
      "Ġillustrated": 7915,
      "Ġmechanisms": 7916,
      "ĠInitialize": 7917,
      "SCF": 7918,
      ".'": 7919,
      "Simul": 7920,
      "coupling": 7921,
      "iX": 7922,
      "iamond": 7923,
      "ker": 7924,
      "land": 7925,
      "Î´": 7926,
      "reps": 7927,
      "Ġ$(|": 7928,
      "Ġdays": 7929,
      "entanglement": 7930,
      "Ġrear": 7931,
      "riend": 7932,
      "abling": 7933,
      "than": 7934,
      "plect": 7935,
      "Ġorbitals": 7936,
      "ogether": 7937,
      "ĠEinstein": 7938,
      "ĠLloyd": 7939,
      "ght": 7940,
      "anning": 7941,
      "Ġgover": 7942,
      "mean": 7943,
      "ĠKitaev": 7944,
      "ĠConsequently": 7945,
      "ĠQuant": 7946,
      "Ġcosts": 7947,
      "Ġcollabor": 7948,
      "tolerance": 7949,
      "Ġinfrastructure": 7950,
      "determ": 7951,
      "Ġdrawing": 7952,
      "Ġsettings": 7953,
      "Ġthermod": 7954,
      "Recall": 7955,
      "including": 7956,
      "flamme": 7957,
      "Ġnaive": 7958,
      "ĠTraceback": 7959,
      "Spec": 7960,
      "zon": 7961,
      "Ġrid": 7962,
      "orry": 7963,
      "Ġbloch": 7964,
      "quet": 7965,
      "Ġdense": 7966,
      "arity": 7967,
      "Ġ110": 7968,
      "Ġweird": 7969,
      "Ġrho": 7970,
      "ĠEar": 7971,
      "trl": 7972,
      "Ġadditive": 7973,
      "Ġcorrectable": 7974,
      "124": 7975,
      "Ġcorrespondence": 7976,
      "ĠJosephson": 7977,
      "Ġtriple": 7978,
      "nov": 7979,
      "correl": 7980,
      "Ġconverting": 7981,
      "192": 7982,
      "Ġmeaningful": 7983,
      "Ġsignificance": 7984,
      "ĠÂ¯": 7985,
      "SAT": 7986,
      "Ġcausing": 7987,
      "ĠStep": 7988,
      "Ġselected": 7989,
      "ĠGeneral": 7990,
      "Ġinvestment": 7991,
      "################": 7992,
      "Ġdemand": 7993,
      "DPC": 7994,
      ")}$.": 7995,
      "/(": 7996,
      "Hamiltonian": 7997,
      "bmod": 7998,
      "cf": 7999,
      "iate": 8000,
      "lVert": 8001,
      "nel": 8002,
      "ubs": 8003,
      "wer": 8004,
      "Ġmedi": 8005,
      "ropping": 8006,
      "Ġhop": 8007,
      "Ġrelease": 8008,
      "ĠCodes": 8009,
      "ĠSimulator": 8010,
      "Ġdeli": 8011,
      "rack": 8012,
      "}\\|": 8013,
      "Ġanyway": 8014,
      "ermions": 8015,
      "Ġfav": 8016,
      "ĠXY": 8017,
      "ï¬ģnd": 8018,
      "coin": 8019,
      "Ġvariance": 8020,
      "Ġdependence": 8021,
      "ĠExt": 8022,
      "without": 8023,
      "Ġnormalisation": 8024,
      "Ġpolynomially": 8025,
      "Ġsensitive": 8026,
      "Ġdetecting": 8027,
      "âĪ¥": 8028,
      "ĠWithout": 8029,
      "Unitary": 8030,
      "Ġpieces": 8031,
      "Ġviolation": 8032,
      "ĠSearch": 8033,
      "Ġflag": 8034,
      "Ġencountered": 8035,
      "Ġeavesdrop": 8036,
      "Ġenhance": 8037,
      "Ġexcellent": 8038,
      "Ġwidth": 8039,
      ")-\\": 8040,
      ".-": 8041,
      "QU": 8042,
      "bool": 8043,
      "gn": 8044,
      "ories": 8045,
      "Ġcave": 8046,
      "arccos": 8047,
      "Ġrever": 8048,
      "Ġcompens": 8049,
      "ĠAzure": 8050,
      "unctions": 8051,
      "00000": 8052,
      "}\\,\\": 8053,
      "Ġ37": 8054,
      "ĠVector": 8055,
      "Ġ{})": 8056,
      "ĠTop": 8057,
      "Ġchooses": 8058,
      "Ġtested": 8059,
      "definite": 8060,
      "Ġheat": 8061,
      "Ġheard": 8062,
      "Ġhandles": 8063,
      "Ġexplaining": 8064,
      "Bigl": 8065,
      "Bigr": 8066,
      "Ġdocument": 8067,
      "ĠImagine": 8068,
      "sequent": 8069,
      "ÏĢi": 8070,
      "Ġtrivially": 8071,
      "going": 8072,
      "Ġunclear": 8073,
      "Ġbias": 8074,
      "ĠMarkov": 8075,
      "CD": 8076,
      "CM": 8077,
      "Flow": 8078,
      "Section": 8079,
      "iA": 8080,
      "vent": 8081,
      "zo": 8082,
      "inition": 8083,
      "Ġsnippet": 8084,
      "Ġmass": 8085,
      "Ġinfo": 8086,
      "Ġquan": 8087,
      "stom": 8088,
      "endix": 8089,
      "Ġunw": 8090,
      "ĠBelow": 8091,
      "acher": 8092,
      "âĶĢâĶĢâĶĢâĶĢâĶĢâĶĢâĶĢ": 8093,
      "Ġdepict": 8094,
      "Ġlocality": 8095,
      "Ġcontinues": 8096,
      "Ġtelling": 8097,
      "Ġelectronics": 8098,
      "âĪĹ": 8099,
      "Ġmotional": 8100,
      "Ġsplitting": 8101,
      "Ġsituations": 8102,
      "Ġmanipulation": 8103,
      "Ġrepeatedly": 8104,
      "********": 8105,
      "ogenic": 8106,
      "Ġcompatible": 8107,
      "itHub": 8108,
      "plectic": 8109,
      ")_": 8110,
      "52": 8111,
      "Linear": 8112,
      "Part": 8113,
      "given": 8114,
      "|^{": 8115,
      "âĮ": 8116,
      "Ġtitle": 8117,
      "alog": 8118,
      "Ġbin": 8119,
      "custom": 8120,
      "ĠAccording": 8121,
      "urable": 8122,
      "Ġvaries": 8123,
      "dules": 8124,
      "ĠTake": 8125,
      "),\\": 8126,
      "Ġenter": 8127,
      "vectors": 8128,
      "aux": 8129,
      "ĠOur": 8130,
      "aken": 8131,
      "ometer": 8132,
      "Ġordered": 8133,
      "ĠCompute": 8134,
      "Ġpatch": 8135,
      "XXX": 8136,
      "=['": 8137,
      "ancial": 8138,
      "Ġ2021": 8139,
      "Ġfidelities": 8140,
      "weights": 8141,
      "ĠReview": 8142,
      "Ġdefects": 8143,
      "arbage": 8144,
      "61": 8145,
      "Att": 8146,
      "Evolution": 8147,
      "bind": 8148,
      "inf": 8149,
      "Ġsqrt": 8150,
      "Ġsizes": 8151,
      "oto": 8152,
      "star": 8153,
      "ĠCU": 8154,
      "ĠST": 8155,
      "plex": 8156,
      "phole": 8157,
      "adget": 8158,
      "Ġsharing": 8159,
      "ĠRigetti": 8160,
      "ĠLimit": 8161,
      "equivalent": 8162,
      "Ġrotates": 8163,
      "})|": 8164,
      "Ġtriangle": 8165,
      "readout": 8166,
      "Ġcoupl": 8167,
      "Ġproviding": 8168,
      "Ġpartially": 8169,
      "Ġguessing": 8170,
      "ĠOptical": 8171,
      "____________": 8172,
      "adratic": 8173,
      "related": 8174,
      "Ġswitching": 8175,
      "Imagine": 8176,
      "Ġcounterpart": 8177,
      "Ġcaptures": 8178,
      "Ġmarket": 8179,
      "Ġsounds": 8180,
      "ĠSchrÃ¶dinger": 8181,
      "Ġ{})],": 8182,
      "Driver": 8183,
      "Even": 8184,
      "IP": 8185,
      "ails": 8186,
      "blob": 8187,
      "fault": 8188,
      "high": 8189,
      "atell": 8190,
      "Ġhistor": 8191,
      "Ġweb": 8192,
      "ĠCOB": 8193,
      "osystem": 8194,
      "Ġoperates": 8195,
      "ĠName": 8196,
      "mazon": 8197,
      "ĠEigen": 8198,
      "1010": 8199,
      "Ġcommercial": 8200,
      "Ġoperational": 8201,
      "Ġsubadditivity": 8202,
      "Ġscr": 8203,
      "braket": 8204,
      "ĠÎ»": 8205,
      "Ġempty": 8206,
      "Ġinterpretations": 8207,
      "Ġscalable": 8208,
      "write": 8209,
      "Ġ2017": 8210,
      "Ġreceiver": 8211,
      "ĠBasically": 8212,
      "Ġradiation": 8213,
      "Ġradius": 8214,
      "Ġabsolutely": 8215,
      "Ġadjacency": 8216,
      "observables": 8217,
      "aoa": 8218,
      "Super": 8219,
      ")],": 8220,
      "TT": 8221,
      "UT": 8222,
      "iP": 8223,
      "will": 8224,
      "Ġwind": 8225,
      "Ġblog": 8226,
      "Ġhistory": 8227,
      "ulating": 8228,
      "Ġorbit": 8229,
      "atory": 8230,
      "ĠPur": 8231,
      "Ġshad": 8232,
      "Ġchains": 8233,
      "}$).": 8234,
      "aren": 8235,
      "Ġenabling": 8236,
      "Ġarrive": 8237,
      "omething": 8238,
      "Ġanswered": 8239,
      "Ġsubsequent": 8240,
      "Ġdecomposing": 8241,
      "corpor": 8242,
      "Ġbooks": 8243,
      "Ġenvironmental": 8244,
      "Math": 8245,
      "Ġstoring": 8246,
      "Ġbehaviour": 8247,
      "Ġloops": 8248,
      "ĠNoiseModel": 8249,
      "ÂłÂłÂłÂłÂłÂłÂłÂłÂłÂłÂłÂłÂłÂłÂłÂł": 8250,
      "TableauSimulator": 8251,
      "ĠCOBYLA": 8252,
      "]$$": 8253,
      "gant": 8254,
      "kit": 8255,
      "Ġclever": 8256,
      "Ġctrl": 8257,
      "reh": 8258,
      "Ġwent": 8259,
      "Ġbeta": 8260,
      "Ġfig": 8261,
      "Ġfractions": 8262,
      "icular": 8263,
      "implement": 8264,
      "ctually": 8265,
      "Ġstatic": 8266,
      "ĠCrypt": 8267,
      "ĠAgain": 8268,
      "Ġunentangled": 8269,
      "orted": 8270,
      "ĠGidney": 8271,
      "Ġ33": 8272,
      "ĠOutput": 8273,
      "hibit": 8274,
      "Ġchose": 8275,
      "Ġscript": 8276,
      "Ġhappy": 8277,
      "Ġelif": 8278,
      "Ġeduc": 8279,
      "Ġstores": 8280,
      "Ġfocused": 8281,
      "include": 8282,
      "Ġcomplementary": 8283,
      "Ġparametrized": 8284,
      "Ġmarginal": 8285,
      "Rx": 8286,
      "Value": 8287,
      "\\}}": 8288,
      "ek": 8289,
      "lceil": 8290,
      "pure": 8291,
      "rceil": 8292,
      "yes": 8293,
      "Î³": 8294,
      "Ġthreat": 8295,
      "rem": 8296,
      "esides": 8297,
      "Ġpages": 8298,
      "angles": 8299,
      "Ġhours": 8300,
      "Ġreps": 8301,
      "Ġstages": 8302,
      "Ġlots": 8303,
      "Ġdeb": 8304,
      "ĠHel": 8305,
      "ĠPennylane": 8306,
      "Ġimages": 8307,
      "Ġanybody": 8308,
      "Ġcodeword": 8309,
      "ĠGround": 8310,
      "Ġmanaged": 8311,
      "ĠĊĊĠ": 8312,
      "})^": 8313,
      "Ġprojections": 8314,
      "ĠAssume": 8315,
      "ÏĪi": 8316,
      "Ġsatisï¬ģ": 8317,
      "Alternatively": 8318,
      "Ġrepeating": 8319,
      "sched": 8320,
      "Ġdemonstrations": 8321,
      "Ġprediction": 8322,
      "Ġdriver": 8323,
      "inputs": 8324,
      "Ġconvenience": 8325,
      "Ġnucle": 8326,
      "variance": 8327,
      "Ġphenomenon": 8328,
      "Decomp": 8329,
      "ĠMinimum": 8330,
      "Ġestablish": 8331,
      "Ġparadig": 8332,
      "ĠDepends": 8333,
      "ĠIdentity": 8334,
      "eqnarray": 8335,
      ".\"\"\"": 8336,
      "List": 8337,
      "Xive": 8338,
      "home": 8339,
      "nder": 8340,
      "oin": 8341,
      "pq": 8342,
      "ream": 8343,
      "Ġpen": 8344,
      "Ġpush": 8345,
      "Ġurl": 8346,
      "matplotlib": 8347,
      "ĠSum": 8348,
      "ĠBox": 8349,
      "essage": 8350,
      "ĠDem": 8351,
      "ĠLat": 8352,
      "ĠĠĠĠĠĠĠĠĠĠĠĠĠĠĠĠĠĠĠĠ": 8353,
      "peed": 8354,
      "Ġ{\"": 8355,
      "plitudes": 8356,
      "Ġ$(-": 8357,
      "Ġclassic": 8358,
      "opflow": 8359,
      "ĠExperiment": 8360,
      "Ġposted": 8361,
      "Ġcommunications": 8362,
      "Ġsympy": 8363,
      "ridQubit": 8364,
      "inguishing": 8365,
      "Ġevaluating": 8366,
      "ĠPySCF": 8367,
      "Ġpolarized": 8368,
      "Ġbeginner": 8369,
      "Applying": 8370,
      "Ġgrowth": 8371,
      "ĠIntroduction": 8372,
      "Ġattempts": 8373,
      "ributeError": 8374,
      "Ġbarriers": 8375,
      "Ġreliably": 8376,
      "floor": 8377,
      "ĠRuntime": 8378,
      "Ġisomorphic": 8379,
      "Ġbeamsplit": 8380,
      "Ġterminology": 8381,
      "riger": 8382,
      "Le": 8383,
      "Ob": 8384,
      "field": 8385,
      "solution": 8386,
      "|}": 8387,
      "Ġ...,": 8388,
      "Ġ$-\\": 8389,
      "Ġface": 8390,
      "Ġfusion": 8391,
      "Ġdrop": 8392,
      "omin": 8393,
      "etilde": 8394,
      "stack": 8395,
      "Ġstable": 8396,
      "ilib": 8397,
      "Ġlose": 8398,
      "Ġ((": 8399,
      "cus": 8400,
      "Ġcompany": 8401,
      "ĠBetter": 8402,
      "ĠBPP": 8403,
      "ĠFramework": 8404,
      "ferm": 8405,
      "mapping": 8406,
      "ĠâĦ": 8407,
      "Ġsuperoperator": 8408,
      "combin": 8409,
      "Ġencrypt": 8410,
      "ĠComposer": 8411,
      "Ġadvances": 8412,
      "Ġsums": 8413,
      "Ġlists": 8414,
      "ernels": 8415,
      "Ġformulas": 8416,
      "Ġweighted": 8417,
      "\\|_\\": 8418,
      "Ġrefriger": 8419,
      "5555": 8420,
      "detect": 8421,
      "functions": 8422,
      "span": 8423,
      "PEN": 8424,
      "Ġinteracting": 8425,
      "widetilde": 8426,
      "Ġstabilisers": 8427,
      "Ġbelongs": 8428,
      "ĠProgramming": 8429,
      "filter": 8430,
      "frak": 8431,
      "DF": 8432,
      "SB": 8433,
      "mp": 8434,
      "eness": 8435,
      "Ġfr": 8436,
      "Ġfermionic": 8437,
      "Ġincorpor": 8438,
      "Ġduration": 8439,
      "Ġhum": 8440,
      "amore": 8441,
      "Ġunity": 8442,
      "andau": 8443,
      "Ġcoins": 8444,
      "mathfrak": 8445,
      "}$:": 8446,
      "ĠTyp": 8447,
      "Ġ`[": 8448,
      "ketch": 8449,
      "cosystem": 8450,
      "ĠAssuming": 8451,
      "ĠÎ´": 8452,
      "Ġmainly": 8453,
      "Ġsuggestions": 8454,
      "Ġcharacterize": 8455,
      "solver": 8456,
      "Ġalgebraic": 8457,
      "rupt": 8458,
      "Ġ$[\\![": 8459,
      "Ġremainder": 8460,
      "ĠNotice": 8461,
      "Ġevolving": 8462,
      "Ġharmonic": 8463,
      "Ġidle": 8464,
      "Ġconcerned": 8465,
      "Ġsubstant": 8466,
      "Ġaccumulate": 8467,
      "Ġfloat": 8468,
      "Define": 8469,
      "Ġvanish": 8470,
      "Ġsystematic": 8471,
      "components": 8472,
      "ï¬ģnding": 8473,
      "PENQASM": 8474,
      ")!": 8475,
      "81": 8476,
      ">,": 8477,
      "fold": 8478,
      "rVert": 8479,
      "ying": 8480,
      "Ġtuple": 8481,
      "itute": 8482,
      "alth": 8483,
      "Ġgadget": 8484,
      "Ġstop": 8485,
      "ĠSV": 8486,
      "ĠSampling": 8487,
      "ĠAqua": 8488,
      "phant": 8489,
      "ĠBoson": 8490,
      "Ġshif": 8491,
      "ĠFactor": 8492,
      "Ġsoph": 8493,
      "ĠRam": 8494,
      "ĠGitHub": 8495,
      "Ġprobe": 8496,
      "Ġcorrects": 8497,
      "primitives": 8498,
      "Ġprincipal": 8499,
      "Ġacademic": 8500,
      "ĠConvert": 8501,
      "Ġremote": 8502,
      "Ġapproximations": 8503,
      "Ġconstants": 8504,
      "Ġspecialized": 8505,
      "ycamore": 8506,
      "Ġanalogue": 8507,
      "Ġbottlen": 8508,
      "ĠPerform": 8509,
      "Ġbroken": 8510,
      "[:,": 8511,
      "Ġdoubt": 8512,
      "Ġsubtle": 8513,
      "Ġfabrication": 8514,
      "ĠDecoherence": 8515,
      "'$.": 8516,
      ">=": 8517,
      "Bbb": 8518,
      "EB": 8519,
      "break": 8520,
      "cale": 8521,
      "fix": 8522,
      "fake": 8523,
      "oke": 8524,
      "ye": 8525,
      "ĠĊĠ": 8526,
      "inv": 8527,
      "Ġaff": 8528,
      "Ġpd": 8529,
      "Ġpay": 8530,
      "Ġtouch": 8531,
      "Ġeight": 8532,
      "Ġlambda": 8533,
      "Ġ011": 8534,
      "ĠWill": 8535,
      "ĠField": 8536,
      "ĠMerlin": 8537,
      "âĶĢâĶĢâĶĢâĶĢâĶĢâĶĢ": 8538,
      "âŁ©âĬĹ": 8539,
      "Ġpositivity": 8540,
      "ributed": 8541,
      "Ġdifferential": 8542,
      "âķ°": 8543,
      "Ġparam": 8544,
      "Ġteam": 8545,
      "Ġlimiting": 8546,
      "noisy": 8547,
      "before": 8548,
      "Ġattention": 8549,
      "Ġachievable": 8550,
      "velopment": 8551,
      "evolution": 8552,
      "Ġsymplectic": 8553,
      "Ġdemonstration": 8554,
      "Ġnormally": 8555,
      "underline": 8556,
      "Ġexplanations": 8557,
      "Ġassignment": 8558,
      "ĠâĪļ": 8559,
      "Ġillustr": 8560,
      "Ġconcerns": 8561,
      "physics": 8562,
      "syndrome": 8563,
      "Ġreversed": 8564,
      "Ġattached": 8565,
      "busy": 8566,
      "ilibri": 8567,
      "-|\\": 8568,
      "664": 8569,
      "QKD": 8570,
      "Right": 8571,
      "Trotter": 8572,
      "Use": 8573,
      "[\"": 8574,
      "_,": 8575,
      "around": 8576,
      "cs": 8577,
      "eig": 8578,
      "ih": 8579,
      "sparse": 8580,
      "{{": 8581,
      "Ġwaves": 8582,
      "Ġband": 8583,
      "Ġfermions": 8584,
      "Ġmult": 8585,
      "utils": 8586,
      "degenerate": 8587,
      "Ġmeet": 8588,
      "Ġcompreh": 8589,
      "_{+": 8590,
      "ĠWigner": 8591,
      "}\\}$": 8592,
      "ogical": 8593,
      "ntax": 8594,
      "Ġalgorithmic": 8595,
      "Ġadmit": 8596,
      "Ġadversary": 8597,
      "Ġrout": 8598,
      "qcM": 8599,
      "Ġregions": 8600,
      "create": 8601,
      "}}\\\\": 8602,
      "-----------": 8603,
      "Ġ:::": 8604,
      "Ġmultiplex": 8605,
      "Qubits": 8606,
      "Ġmultiplicative": 8607,
      "Ġquantify": 8608,
      "ZZX": 8609,
      "Ġevaluations": 8610,
      "Ġindicating": 8611,
      "Ġamplify": 8612,
      "aders": 8613,
      "ĠBennett": 8614,
      "Ġsummarize": 8615,
      "ĠUCCSD": 8616,
      "ilibrium": 8617,
      ",)": 8618,
      ",|\\": 8619,
      "={\\": 8620,
      "HE": 8621,
      "[|": 8622,
      "both": 8623,
      "block": 8624,
      "drive": 8625,
      "ior": 8626,
      "lor": 8627,
      "nots": 8628,
      "uous": 8629,
      "ufact": 8630,
      "atural": 8631,
      "orch": 8632,
      "Ġinefficient": 8633,
      "imate": 8634,
      "umably": 8635,
      "Ġeq": 8636,
      "ilds": 8637,
      "deg": 8638,
      "ĠThink": 8639,
      "ĠCCNOT": 8640,
      "ĠShe": 8641,
      "ĠSym": 8642,
      "Ġ26": 8643,
      "Ġtrun": 8644,
      "Ġphr": 8645,
      "}{|": 8646,
      "ĠReturn": 8647,
      "Ġtransversally": 8648,
      "lihood": 8649,
      "ĠLab": 8650,
      "oost": 8651,
      "consist": 8652,
      "Ġ53": 8653,
      "Ġexplored": 8654,
      "Ġidentities": 8655,
      "Ġacqu": 8656,
      "ĠJob": 8657,
      "0000000": 8658,
      "Ġapproximated": 8659,
      "Ġangular": 8660,
      "Ġoriginally": 8661,
      "ynamic": 8662,
      "Ġfiles": 8663,
      "terms": 8664,
      "Ġaddressing": 8665,
      "ĠSimulating": 8666,
      "offs": 8667,
      "Ġconvergence": 8668,
      "Ġtranslation": 8669,
      "iï¬ģcation": 8670,
      "Measurement": 8671,
      "displaystyle": 8672,
      "constant": 8673,
      "labels": 8674,
      "structured": 8675,
      "ĠDesign": 8676,
      "Ġdebugging": 8677,
      "Ġcandidate": 8678,
      "Ġbusiness": 8679,
      "Ġunwanted": 8680,
      "({": 8681,
      ">$,": 8682,
      "AL": 8683,
      "ji": 8684,
      "nn": 8685,
      "qsharp": 8686,
      "rfloor": 8687,
      "total": 8688,
      "wiki": 8689,
      "Ġmac": 8690,
      "icking": 8691,
      "Ġnet": 8692,
      "status": 8693,
      "Ġste": 8694,
      "ĠIII": 8695,
      "igration": 8696,
      "ullie": 8697,
      "Ġclone": 8698,
      "ftW": 8699,
      "ĠEnergy": 8700,
      "loor": 8701,
      "ĠRot": 8702,
      "ĠRabi": 8703,
      "ĠLOCC": 8704,
      "ĠOper": 8705,
      "Ġimportance": 8706,
      "âķŃ": 8707,
      "sweep": 8708,
      "Ġformally": 8709,
      "123": 8710,
      "Ġ$$|": 8711,
      "Ġ$$|\\": 8712,
      "Ġ64": 8713,
      "ĠExpon": 8714,
      "Assume": 8715,
      "isticated": 8716,
      "ĠâĶľâĶĢâĶĢâĸł": 8717,
      "Ġcontexts": 8718,
      "Ġessence": 8719,
      "âĢ²âĢ²": 8720,
      "Ġcharacteristics": 8721,
      "Ġdescriptions": 8722,
      "solve": 8723,
      "Ġdetects": 8724,
      "ĠOnly": 8725,
      "ĠâĶĶâķ¥âĶĺ": 8726,
      "Ġ2018": 8727,
      "Ġexcitations": 8728,
      "Ġlasers": 8729,
      "Ġbraket": 8730,
      "Ġfinance": 8731,
      "iconductor": 8732,
      "ĠBuild": 8733,
      "Ġmonitoring": 8734,
      "Ġcyclic": 8735,
      "undamental": 8736,
      "Ġeavesdropper": 8737,
      "Hermitian": 8738,
      "KE": 8739,
      "Many": 8740,
      "_+\\": 8741,
      "dri": 8742,
      "ele": 8743,
      "pur": 8744,
      "Ġ\\|\\": 8745,
      "Ġqutip": 8746,
      "ths": 8747,
      "ĠSpace": 8748,
      "ections": 8749,
      "raig": 8750,
      "Ġ29": 8751,
      "Ġ2000": 8752,
      "Ġvar": 8753,
      "Ġchemical": 8754,
      "exact": 8755,
      "Ġsomebody": 8756,
      "ĠLi": 8757,
      "ributes": 8758,
      "lfloor": 8759,
      "Ġteach": 8760,
      "Ġkeeps": 8761,
      "Ġexpectations": 8762,
      "ĠCompare": 8763,
      "Ġhighlight": 8764,
      "typ": 8765,
      "Ġheart": 8766,
      "metry": 8767,
      "Start": 8768,
      "ĠSchro": 8769,
      "Ġdiffers": 8770,
      "Ġpassed": 8771,
      "^*$": 8772,
      "ĠÂ±": 8773,
      "Ġheral": 8774,
      "Ġcaused": 8775,
      "Ġlabeled": 8776,
      "ĠOptimal": 8777,
      "omorphism": 8778,
      "Ġpropagation": 8779,
      "ĠPlan": 8780,
      "Array": 8781,
      "Ġexploration": 8782,
      "cribed": 8783,
      "fermion": 8784,
      "BQC": 8785,
      "Lib": 8786,
      "Multi": 8787,
      "Pl": 8788,
      "bility": 8789,
      "option": 8790,
      "}))": 8791,
      "iny": 8792,
      "items": 8793,
      "Ġserve": 8794,
      "enzo": 8795,
      "ioned": 8796,
      "Ġmentions": 8797,
      "Ġanni": 8798,
      "Ġdark": 8799,
      "otential": 8800,
      "Ġgames": 8801,
      "$$(": 8802,
      "Ġcoeff": 8803,
      "}{(": 8804,
      "ĠTable": 8805,
      "Ġunital": 8806,
      "Ġpreprint": 8807,
      "swer": 8808,
      "ĠVisual": 8809,
      "Ġgeneralizes": 8810,
      "alling": 8811,
      "ception": 8812,
      "learn": 8813,
      "ĊĠĠĠĠĠĠĠĠĠĠĠĠĠĠĠĠĠĠĠĠĠĠĠ": 8814,
      "metadata": 8815,
      "Ġsequential": 8816,
      "Ġnetworking": 8817,
      "Although": 8818,
      "Ġquantization": 8819,
      "Ġinspired": 8820,
      "Ġbreakthrough": 8821,
      "âĢĶâĢĶ": 8822,
      "Ġera": 8823,
      "Ġhopefully": 8824,
      "Ġcopying": 8825,
      "Ġsentence": 8826,
      "Ġduality": 8827,
      "Ġshorter": 8828,
      "ĠQRAM": 8829,
      "Ġunsure": 8830,
      "Ġimplicitly": 8831,
      "Ġflexible": 8832,
      "Number": 8833,
      "rinsic": 8834,
      "'=": 8835,
      "-(": 8836,
      "955": 8837,
      "Density": 8838,
      "MO": 8839,
      "Microsoft": 8840,
      "Set": 8841,
      "nb": 8842,
      "sion": 8843,
      "vised": 8844,
      "xz": 8845,
      "atom": 8846,
      "Ġsake": 8847,
      "Ġpuzz": 8848,
      "Ġmirror": 8849,
      "outh": 8850,
      "ouble": 8851,
      "umacher": 8852,
      "etition": 8853,
      "Ġgrover": 8854,
      "Ġlive": 8855,
      "ĠSupp": 8856,
      "keys": 8857,
      "ĠNevertheless": 8858,
      "ĠEuler": 8859,
      "Ġ\"$": 8860,
      "}}=\\": 8861,
      "Ġfake": 8862,
      "Ġroles": 8863,
      "__(": 8864,
      "Ġelegant": 8865,
      "Ġdisapp": 8866,
      "Ġreturning": 8867,
      "Ġexperi": 8868,
      "Ġtries": 8869,
      "Experiment": 8870,
      "Ġconnecting": 8871,
      "Ġdocs": 8872,
      "Ġcharacterized": 8873,
      "Ġcharacterizes": 8874,
      "Ġcircles": 8875,
      "ĠËĿ": 8876,
      "Ġrepeaters": 8877,
      "approxim": 8878,
      "Ġattempting": 8879,
      "Ġdestructive": 8880,
      "Ġprimary": 8881,
      "lementary": 8882,
      "ĠImplementing": 8883,
      "Parameter": 8884,
      "Ġdiscrimination": 8885,
      "ĠIonQ": 8886,
      "Ġclosest": 8887,
      "ĠBalance": 8888,
      "phantom": 8889,
      "ftWullie": 8890,
      ")`.": 8891,
      "BA": 8892,
      "green": 8893,
      "mult": 8894,
      "oph": 8895,
      "tket": 8896,
      "Â«": 8897,
      "Ġtack": 8898,
      "erver": 8899,
      "Ġahead": 8900,
      "orld": 8901,
      "Ġant": 8902,
      "Ġinherently": 8903,
      "oting": 8904,
      "matically": 8905,
      "ĠScal": 8906,
      "ĠSycamore": 8907,
      "ĠWork": 8908,
      "ades": 8909,
      "artesian": 8910,
      "ĠEk": 8911,
      "ĠRX": 8912,
      "ĠRather": 8913,
      "Ġ[\\": 8914,
      "Ġmoved": 8915,
      "Ġparametric": 8916,
      "Ġorders": 8917,
      "Ġconsiders": 8918,
      "Assuming": 8919,
      "Ġswapped": 8920,
      "Ġteleported": 8921,
      "ĠÏī": 8922,
      "avy": 8923,
      "âĪĪ": 8924,
      "Ġextracts": 8925,
      "google": 8926,
      "Ġavoids": 8927,
      "Ġinduced": 8928,
      "ĠOperators": 8929,
      "ravyi": 8930,
      "Ġsubtract": 8931,
      "Ġbranch": 8932,
      "ifiers": 8933,
      "Mathematical": 8934,
      "WPM": 8935,
      "Ġgovern": 8936,
      "\").": 8937,
      ",$": 8938,
      "/_": 8939,
      "Again": 8940,
      "Cal": 8941,
      "Fock": 8942,
      "Operation": 8943,
      "iy": 8944,
      "sk": 8945,
      "|(": 8946,
      "|âĪĴ": 8947,
      "Ã©": 8948,
      "rounds": 8949,
      "ilers": 8950,
      "Ġcompose": 8951,
      "ĠColl": 8952,
      "unities": 8953,
      "ĠFock": 8954,
      "Ġresp": 8955,
      "ĠEss": 8956,
      "ĠRef": 8957,
      "âŁ©_": 8958,
      "}}|\\": 8959,
      "ĠOP": 8960,
      "()`.": 8961,
      "context": 8962,
      "Ġ59": 8963,
      "Ġrelies": 8964,
      "ractive": 8965,
      "Ġendian": 8966,
      "Ġlimitation": 8967,
      "ĠQuestion": 8968,
      "Ġapproximating": 8969,
      "ĠâĶľâĶĢâĶĢâĶĢâĶĢ": 8970,
      "ijk": 8971,
      "Ġ$\\{|\\": 8972,
      "leqslant": 8973,
      "Ġpolynomials": 8974,
      "optimizers": 8975,
      "ĠShould": 8976,
      "Ġtweez": 8977,
      "generated": 8978,
      "Ġupdates": 8979,
      "Ġremoving": 8980,
      "Ġmajority": 8981,
      "Ġopin": 8982,
      "Ġestablished": 8983,
      "simulate": 8984,
      "ĠMajorana": 8985,
      "Ġhypothesis": 8986,
      "Ġultimately": 8987,
      "Ġapparently": 8988,
      "Ġinfluence": 8989,
      "atellite": 8990,
      "CSS": 8991,
      "Dist": 8992,
      "Eigen": 8993,
      "Factor": 8994,
      "IR": 8995,
      "Ne": 8996,
      "Our": 8997,
      "Vinc": 8998,
      "]}": 8999,
      "pack": 9000,
      "uki": 9001,
      "att": 9002,
      "rence": 9003,
      "Ġpad": 9004,
      "Ġdilation": 9005,
      "icial": 9006,
      "imize": 9007,
      "umin": 9008,
      "omain": 9009,
      "igated": 9010,
      "mentioned": 9011,
      "adjoint": 9012,
      "ĠBl": 9013,
      "ĠBackend": 9014,
      "Ġrang": 9015,
      "ĠFinding": 9016,
      "exist": 9017,
      "Ġcorner": 9018,
      "Ġdistant": 9019,
      "taining": 9020,
      "coder": 9021,
      "Ġoptimizes": 9022,
      "ĠProject": 9023,
      "Ġcurve": 9024,
      "ĠDev": 9025,
      "ĠQuadratic": 9026,
      "Ġpractically": 9027,
      "ĠâĶľâĶĢâĶĢâĶĢâĶ¤": 9028,
      "Ġoccu": 9029,
      "Ġincreased": 9030,
      "ĠâīĪ": 9031,
      "Ġinspect": 9032,
      "Ġdistinguishable": 9033,
      "roscopic": 9034,
      "Ġbipartition": 9035,
      "Ġexpanding": 9036,
      "ĠSuperposition": 9037,
      "Ġmaintains": 9038,
      "Ġtransmitted": 9039,
      "Ġmillions": 9040,
      "Ġillustrate": 9041,
      "ĠDistance": 9042,
      "Basically": 9043,
      "Ġaccomplish": 9044,
      "Ġdeviation": 9045,
      "Ġdilution": 9046,
      "Vincenzo": 9047,
      "CT": 9048,
      "Time": 9049,
      "[{": 9050,
      "ba": 9051,
      "band": 9052,
      "certain": 9053,
      "dest": 9054,
      "}'": 9055,
      "Ġri": 9056,
      "ĠÃĹ": 9057,
      "inger": 9058,
      "Ġfash": 9059,
      "Ġdip": 9060,
      "asp": 9061,
      "ethe": 9062,
      "Ġgarbage": 9063,
      "acke": 9064,
      "semb": 9065,
      "Ġ197": 9066,
      "Ġcompr": 9067,
      "ayer": 9068,
      "Ġsuff": 9069,
      "Ġsucc": 9070,
      "reson": 9071,
      "Ġcopied": 9072,
      "ĠBay": 9073,
      "Ġclause": 9074,
      "Ġresolve": 9075,
      "ĠRed": 9076,
      "ĠYY": 9077,
      "conductor": 9078,
      "true": 9079,
      "Ġbud": 9080,
      "Ġtechnically": 9081,
      "Ġstudents": 9082,
      "Ġdiscussing": 9083,
      "Ġaveraging": 9084,
      "Ġrare": 9085,
      "Ġboxes": 9086,
      "Ġgeomet": 9087,
      "Ġslowly": 9088,
      "ĠTrapped": 9089,
      "Ġmotivated": 9090,
      "Instead": 9091,
      "Ġdoubly": 9092,
      "Ġdecrease": 9093,
      "~~~~": 9094,
      "Entanglement": 9095,
      "universal": 9096,
      "ĠEngine": 9097,
      "Ġbulk": 9098,
      "Ġindistinguishable": 9099,
      "Feature": 9100,
      "Ġsophisticated": 9101,
      ")}_": 9102,
      "51": 9103,
      "TO": 9104,
      "\\}\\": 9105,
      "\\}^{": 9106,
      "hu": 9107,
      "nection": 9108,
      "necess": 9109,
      "ucture": 9110,
      "Ġraw": 9111,
      "Ġcu": 9112,
      "Ġcipher": 9113,
      "ropies": 9114,
      "Ġinnov": 9115,
      "Ġdict": 9116,
      "icting": 9117,
      "umb": 9118,
      "utting": 9119,
      "ster": 9120,
      "olic": 9121,
      "Ġwel": 9122,
      "ĠSE": 9123,
      "ĠSqu": 9124,
      "ĠPri": 9125,
      "experiments": 9126,
      "ĠRo": 9127,
      "âŁ©)/": 9128,
      "ĠObs": 9129,
      "ĠZero": 9130,
      "Ġintensity": 9131,
      "preting": 9132,
      "Regarding": 9133,
      "ĠExact": 9134,
      ")=(": 9135,
      "evolve": 9136,
      "**(": 9137,
      "Ġprocedures": 9138,
      "Ġdemonstrating": 9139,
      "Ġextrapol": 9140,
      "Ġindicated": 9141,
      "Ġbrings": 9142,
      "Ġmerge": 9143,
      ",\\,\\,\\,\\": 9144,
      "Ġheads": 9145,
      "Ġsqueezing": 9146,
      "reduction": 9147,
      "ĠâĶľâĶĢâĸĳ": 9148,
      "Ġfashion": 9149,
      "1001": 9150,
      "=-\\": 9151,
      "AA": 9152,
      "He": 9153,
      "History": 9154,
      "Ver": 9155,
      "Warning": 9156,
      "actions": 9157,
      "iAt": 9158,
      "mul": 9159,
      "uine": 9160,
      "wikipedia": 9161,
      "xchange": 9162,
      "zuki": 9163,
      "ĠâĶĢâĶĢâĶĢ": 9164,
[...]
